00
10
02
13
03
07
02
f2
07
eb
13
00
fc
fb
14
ff
e9
02
e6
fe
0b
0e
00
06
06
de
0c
05
05
f3
02
f0
e9
13
03
01
f7
19
eb
ef
f8
f3
02
0e
19
e7
1e
fc
0f
04
10
0a
f9
05
f4
ea
ef
01
f4
15
f5
fd
00
0e
06
f8
f0
03
1e
02
f1
09
18
f6
fe
0d
10
06
f6
fe
ff
01
10
f4
11
ed
0f
05
ec
e1
f0
f7
f0
01
1a
24
f1
00
08
f1
01
ef
f2
ea
08
19
13
0e
fd
f8
fa
01
fd
12
10
ee
05
f4
f2
1d
f1
0d
eb
13
0c
f7
02
fb
0c
13
09
d8
e1
df
07
fe
04
ed
01
ed
0c
ff
0d
22
0a
fc
09
f9
0f
e6
16
15
05
05
07
06
0f
03
01
ff
0b
e0
ee
f8
e2
13
06
eb
22
fc
18
f3
ef
ff
15
f4
fb
03
17
02
f5
f1
10
fe
0e
0d
05
f3
ed
e9
f4
08
11
07
0b
03
fc
e6
f5
0d
fe
ff
fc
09
f5
09
0d
0c
fd
f4
fe
f9
f3
0c
f4
fa
06
f5
fe
06
ee
f2
fe
f4
0e
ff
ec
f8
0b
fb
19
ef
e5
10
df
1e
dd
f5
e9
02
0e
01
fb
fb
06
05
f5
16
fd
fc
f2
02
ef
02
f8
04
05
ff
e1
15
f8
fa
14
02
19
00
f6
f5
ee
05
01
f1
1a
dc
f6
e6
ed
ee
08
e0
03
da
16
f7
10
fe
fb
06
e7
e1
19
0e
e1
32
fd
07
12
ec
09
06
0e
20
22
02
1e
ff
16
f8
f8
f4
dd
12
fd
00
00
26
01
e7
f8
1a
02
fd
e9
fb
17
03
04
ef
d7
0a
fb
0d
12
03
08
f7
27
12
f6
16
11
1c
17
dd
1c
d7
ed
f3
0b
11
f4
00
eb
f7
13
e4
04
07
0c
eb
14
16
0b
0b
f7
13
05
f7
fa
0c
fb
ee
ee
17
01
12
1c
0a
f4
e0
e9
01
f3
1c
fe
fb
f7
0f
0e
0b
fa
05
f4
fb
fd
11
f1
fa
f7
05
03
11
fd
fd
f5
01
fb
fe
04
02
f8
03
f3
00
01
fa
f1
0b
f5
0b
08
00
ef
0b
ec
04
03
01
05
f9
f6
05
fb
00
03
05
fa
f9
fe
fc
06
f3
0d
fc
ed
03
12
fa
03
0b
f2
fe
ed
07
00
ff
0a
02
fa
06
04
ec
0a
05
f9
16
00
f7
ff
fd
0b
0d
e8
ff
00
fe
fe
fe
0b
0c
04
00
fb
12
14
00
0f
00
fc
03
10
fa
09
ff
03
f7
fb
f4
06
0d
16
fb
06
ec
e7
0b
04
ff
06
09
03
0b
fc
f3
f8
11
f8
08
04
0c
06
07
e6
07
ee
f7
01
02
07
fc
02
04
fe
08
0e
e9
f9
02
fb
ff
f9
f4
fa
01
ec
05
0a
fc
02
0a
0c
08
f2
00
0b
05
0d
14
fc
00
0c
0a
01
f9
fd
00
f7
09
05
e5
04
0d
f5
f2
07
ff
f9
fc
fd
fd
fd
fc
ff
0a
06
02
01
07
14
fd
fb
15
0d
ff
ef
06
16
06
0d
03
fa
f3
08
f9
f9
ff
fc
e7
09
07
04
0c
05
0f
13
06
f5
0c
01
f2
07
0d
f7
04
f3
f4
fe
0a
fe
09
ff
f1
0c
08
05
fb
f2
f9
f0
00
f5
fd
fa
06
fd
fd
02
0e
fe
05
e9
05
f6
fa
f4
03
03
02
f2
fe
fa
f5
03
f4
07
03
01
fa
f5
04
f9
06
ed
0c
04
03
03
01
16
0d
f4
03
0e
03
09
09
fb
02
08
03
03
ff
fb
00
03
f8
06
01
07
09
f6
fd
01
00
f2
03
0b
07
f8
ed
fe
05
ff
05
11
0b
0e
fb
f7
09
fc
0a
f0
04
0a
0d
0f
03
e8
fc
0b
fd
ff
f8
02
ed
03
0a
0b
00
fe
08
11
04
f4
f9
07
f9
fc
fe
09
03
01
e8
08
f2
0a
01
0a
ef
08
fd
05
03
f9
0a
ee
fb
18
f4
15
04
f9
fc
02
fd
04
ef
15
fa
f0
f1
3a
11
fd
00
1c
fe
0c
10
1a
ee
0d
e8
0e
fc
08
f9
02
ec
e9
0a
ef
25
e9
26
fb
00
07
e6
fc
06
14
1c
0f
0a
17
00
11
fd
0d
fd
ef
08
f6
dd
0d
09
12
ec
e4
02
03
fe
05
06
17
0f
10
0a
f4
e4
ef
fd
0e
ed
fa
0e
10
11
13
fd
10
e7
02
05
03
e8
f1
e7
e4
13
f6
fe
f9
f6
0c
fc
fa
14
07
ee
ee
13
05
09
e0
1f
d4
02
0a
f4
02
fe
0b
0e
16
1d
09
0f
f5
0a
fa
e1
fe
11
00
ef
13
0b
fe
10
06
11
0c
0b
e9
06
f8
f9
f5
f7
0b
06
fe
03
06
0e
02
f6
f0
11
fd
03
10
08
fb
00
f8
f8
06
f2
fc
fd
13
01
ea
05
f0
06
f5
17
ef
00
04
f8
fe
fa
ff
00
07
f9
15
fb
ff
04
f4
f0
01
fa
f1
07
10
04
f4
fa
00
f2
02
01
f5
ff
03
fd
03
0f
f6
06
f9
01
0c
05
fa
09
ef
08
12
f4
05
fa
ff
f7
0e
ed
05
08
03
11
04
14
eb
f5
0b
fd
fe
fb
fa
fc
ee
ee
01
0a
06
ff
0b
ef
14
fd
02
f8
fb
ff
05
f9
07
04
07
09
fd
e7
fd
07
f8
ff
fe
ef
f5
fb
ed
06
05
12
f2
07
fe
e6
f2
08
09
18
e9
09
fa
01
02
16
0b
f6
f6
00
fb
f6
01
0f
f8
02
0a
fa
f1
f7
f5
0f
ef
fc
0d
f6
0d
f2
08
ff
15
f0
07
f4
f4
1c
fe
ff
01
02
10
f4
e0
ee
0d
fa
f9
fa
16
02
f1
e1
07
f1
eb
0b
f2
e6
ff
0b
02
0e
f0
0f
09
f7
0c
fc
0e
ef
06
03
05
12
00
0f
1c
03
fd
f3
0e
05
fc
fd
0c
01
fb
f0
f9
00
15
01
01
e7
0c
14
0a
f8
ff
10
1f
f6
11
ee
ee
15
fd
19
f6
f6
09
f4
fc
e7
08
f8
f6
06
ea
f2
f5
f9
f4
11
11
e9
ec
e8
f7
f9
14
03
02
f2
e6
ed
e4
03
f8
11
f9
f9
e4
0b
0a
28
19
0a
fa
13
ff
00
0b
0a
f8
0e
e1
fd
07
f1
0f
08
03
fe
e5
f2
00
01
f2
ed
18
3e
14
10
21
20
fb
01
25
fa
02
0a
f8
fa
0a
db
19
07
0e
0c
ec
f1
10
f7
06
17
f7
01
f5
02
03
fb
f3
fd
f8
11
fb
05
0c
0d
fe
04
00
13
e8
12
14
fa
00
04
06
fb
e5
14
05
fb
ef
f2
08
e9
e5
04
ed
0f
1f
f9
e5
04
ee
09
f4
1f
fc
15
f5
12
f8
09
18
11
f2
03
fc
14
07
22
fb
0d
ef
f0
f5
11
15
f6
fa
11
f2
eb
fc
08
0a
ee
fd
e1
e8
fb
fc
f3
f2
09
05
04
07
ea
0c
fc
15
12
14
f6
e0
02
25
fb
15
23
fd
ff
d2
f2
fb
fe
f9
06
05
fa
f3
f9
20
f3
f9
f7
f5
01
e9
0c
0c
05
05
0d
f2
f9
fe
e8
07
10
19
f6
ef
14
18
04
f8
03
17
f6
0e
f5
14
f2
03
d5
0a
f8
ee
24
0d
02
fb
ec
ea
f9
0a
f1
04
16
f9
16
f5
f3
07
05
18
06
ec
05
ee
14
10
ee
0e
1d
12
fe
e9
14
13
0c
09
07
fd
ff
1c
16
e6
18
06
e4
f0
18
23
1c
ed
04
fe
e3
04
09
fa
09
fc
f5
fd
0a
ef
21
ee
02
0b
05
08
f7
f8
11
f3
f2
06
f9
11
10
03
f4
f2
f3
15
d5
ec
20
fe
03
fe
0f
f5
ed
04
fc
02
f4
f3
f3
27
e7
f5
eb
f7
0f
20
28
00
f8
ef
ff
ef
f7
f5
1b
0e
fe
03
f7
f5
13
16
f0
03
de
fd
1b
08
fa
02
f6
ee
f6
f3
01
f9
ed
ed
08
0c
f9
e7
08
16
15
06
02
02
d8
1c
f9
ff
fe
02
f4
19
e5
11
09
09
10
0e
dd
05
f5
09
28
01
01
0d
f1
19
06
fd
ee
f4
e9
f9
f8
f4
07
09
0e
f5
ee
07
f0
1c
19
12
02
07
fc
0d
ea
06
fd
15
0b
f0
eb
eb
fb
da
16
1a
02
e2
fa
f0
17
0c
0f
1c
0f
1b
02
03
f5
05
fd
fc
fa
ef
fd
05
04
07
ef
01
f5
04
fd
01
ed
f5
f8
0e
09
ff
f8
f9
03
1a
0e
03
f9
e4
fd
05
fa
f4
1b
f9
16
ea
11
0e
01
02
0a
07
0a
0f
04
f8
10
f3
00
01
e8
03
07
04
ed
08
09
fa
23
f8
0d
0e
04
ff
f8
e6
f5
f9
f3
f7
fc
ef
f2
01
05
fd
ed
f5
f5
f5
f7
f6
00
fa
f2
e5
21
f3
ec
13
f0
f7
ff
dd
06
ff
14
0b
09
ee
1d
15
03
f4
02
dd
03
08
06
f3
00
00
ff
00
e1
03
ef
06
0d
fc
f2
04
03
f9
06
0c
26
16
0b
1e
ec
04
0b
0d
ff
f2
12
0c
0f
03
0e
f2
02
12
f1
03
0f
05
07
07
00
00
06
f6
fe
0b
24
12
19
10
f5
05
f7
05
fc
e2
f8
f6
11
ff
0a
e3
eb
f4
01
07
03
ea
f9
02
13
e4
12
f1
09
15
e7
fe
ed
ec
f9
02
12
0e
02
04
02
0a
f1
06
d6
fb
de
08
19
fe
0e
10
00
ef
05
02
08
11
ed
f3
fc
da
20
f3
05
3a
f6
19
e4
e2
ee
1b
fc
fd
03
22
f1
f3
ea
fb
fc
15
00
12
f9
cf
f3
f4
11
0d
06
f3
f3
f2
e4
05
ee
eb
fe
11
fd
fb
04
18
ff
e8
06
ef
fc
eb
ff
e6
fb
0a
f4
d7
ea
08
f3
fe
25
f7
0a
03
0c
19
1d
f2
ea
e7
f6
07
0d
04
0d
fa
09
25
18
06
1c
0d
07
f9
1f
f3
18
eb
ef
09
10
02
25
12
fb
fb
fe
fd
09
fc
f9
06
02
13
f1
10
fb
08
05
fb
f4
fb
f7
fd
03
03
fe
03
f6
03
f6
06
fd
05
f8
06
08
00
fd
fe
04
fe
fc
09
f2
07
05
05
fc
07
0c
04
f8
05
f9
01
fa
f0
00
f8
05
f3
01
15
00
f6
00
ff
fe
fe
fd
0c
07
ff
06
fd
f7
08
fe
fb
06
fd
e8
06
fb
0c
f9
00
03
06
00
1a
01
03
fe
15
06
fd
04
fb
fa
06
f0
f1
fa
f4
01
10
08
05
0d
f8
0e
02
fc
01
16
f4
f4
f7
0b
f3
13
09
08
fb
03
fd
fe
19
05
1c
04
ee
eb
1b
11
06
fc
fb
fa
f8
04
1e
fb
e3
ef
08
fe
cb
ed
ff
12
f1
f7
f8
f2
15
03
e3
f7
fc
fe
f4
fd
0b
dd
f2
16
04
fb
f4
0e
08
18
f5
01
08
0b
06
04
0f
f3
13
ff
02
f0
e3
f0
f7
14
f6
0c
05
10
ea
00
fa
f5
11
f8
e6
06
16
f8
f7
14
06
03
f6
fe
0d
0f
13
f3
06
e8
10
eb
e9
f5
04
1c
0b
1f
e4
f4
f0
0a
01
e1
0a
0b
01
0c
10
f5
f1
01
00
f9
0e
fa
e9
ff
14
e9
18
0b
05
ff
1a
1c
03
eb
17
f5
0c
f1
12
15
f8
0d
f5
e7
06
02
0a
fa
02
04
08
08
f7
10
ff
09
06
07
01
07
09
0e
17
f5
07
f6
f9
f3
ea
00
10
d6
05
ed
d4
13
f3
f6
11
11
07
e2
00
ec
09
0a
05
09
13
e9
fa
01
00
02
1c
05
23
fe
e9
10
0e
02
00
23
00
2a
f0
f7
11
10
e4
f6
f7
04
fa
fd
fa
ed
ed
1e
ff
03
ee
ff
f8
f4
1d
ef
e7
02
fe
ea
0f
f1
fb
fb
0b
f1
17
1c
ea
f5
08
04
08
16
f0
fd
f2
e6
12
f0
08
ef
0e
05
ee
fe
fe
0e
fa
e8
11
eb
03
ef
03
e2
05
fa
f1
1d
07
1c
f1
16
e8
11
ea
02
f9
ec
f2
04
e9
22
f8
03
ea
f7
12
f6
09
f0
f5
fb
ec
f9
f4
25
19
03
13
fd
df
18
e2
f7
dc
04
01
0b
f5
0a
06
24
e8
08
f8
28
09
05
04
d8
04
d8
03
0b
2b
d9
ed
12
e7
14
f4
19
d8
15
08
f8
07
05
09
df
09
fd
ec
27
2b
e9
00
db
f6
fe
f1
06
15
27
0c
f9
f8
ec
15
fb
08
18
fe
10
12
03
17
f5
ec
ed
1b
1a
12
e3
dd
e0
fe
e5
d3
fb
0b
e6
03
fb
0e
0f
06
13
10
06
02
01
0e
fd
f4
0a
ff
10
fb
18
ed
00
08
fa
d8
e4
f7
14
f0
02
fa
f5
fc
08
fa
03
0b
e9
f9
f1
f7
19
02
0a
ed
f5
0f
fa
f7
11
fb
e9
06
ee
ff
07
03
09
f7
06
0f
0c
e7
eb
12
00
07
1f
0e
f8
08
0e
05
fe
fd
05
fc
f9
f1
fc
f7
ec
ec
0a
10
fc
0a
0a
08
07
19
fc
f8
13
ff
03
fc
02
05
fd
05
10
17
00
07
0c
01
e4
03
ec
fe
00
19
f6
0c
08
fe
f5
f1
ed
2d
fa
f6
00
02
f5
fd
0d
ed
f5
09
ff
0d
ea
de
0d
dc
06
f0
e8
eb
08
0f
13
12
1b
10
0d
e9
07
07
e8
f2
f4
f0
00
f6
fb
f2
1b
fb
e7
fb
e1
fc
f7
fa
f9
ee
03
e5
07
e8
07
f0
0f
1e
14
eb
fa
f5
1b
1e
0e
ee
01
06
fc
11
1d
eb
2c
0f
e7
05
08
04
0c
08
ed
ff
f5
ea
15
ed
0f
09
25
fb
06
fb
0b
0d
05
2a
ef
04
14
fc
1d
f9
02
18
08
01
05
f2
ee
15
f1
11
05
0a
f9
12
f6
fb
f8
fe
09
18
0d
18
10
14
f0
10
f2
04
fb
f7
f5
1e
de
f3
11
ea
ee
18
10
fc
fc
eb
ea
f0
e5
f3
f6
f0
f0
05
00
ec
fe
e5
03
f6
13
14
f3
e4
fb
1b
00
f1
18
0a
f7
ce
12
ec
11
03
27
04
e9
00
1b
02
07
f5
0a
fd
ec
f4
10
04
20
09
02
de
f0
ed
f8
e8
f9
fa
e8
13
0f
01
fb
f5
d5
01
e4
08
15
06
ea
f6
16
04
00
00
0a
02
f5
03
0e
0b
f2
04
03
14
ef
ee
ff
12
fc
ff
1d
fd
e7
f9
16
29
f8
13
09
d6
ee
12
fa
e9
0d
09
0b
07
18
16
ef
02
f0
22
ef
1e
0a
da
08
fd
0b
00
0d
0c
f0
1c
f7
13
f3
03
0b
ff
f7
0d
0a
eb
f7
22
f0
12
f0
ef
e5
fa
10
02
dd
f8
f2
0b
d7
0a
f0
e8
02
fc
00
0b
f1
08
f7
e8
04
22
ed
f5
dd
06
10
08
06
f0
f5
fc
ef
14
0d
e3
18
10
ed
fd
ef
04
f3
01
15
ee
fd
f7
fc
f7
fa
04
0f
02
1a
05
fd
f0
fa
08
ea
08
07
10
03
19
fe
0d
01
e8
0c
12
e5
ff
01
fc
fd
13
09
fe
f3
fe
fa
00
0f
05
31
0d
0c
eb
0c
12
fd
12
fb
0d
07
11
0d
f6
f9
f6
12
0e
0e
11
ff
04
0b
ea
01
09
18
00
e9
13
e4
f2
01
fd
fd
00
f0
0f
04
ff
ea
dd
eb
0a
12
08
ef
26
09
0f
ff
11
f0
04
08
00
07
fd
06
09
f8
0d
0e
0e
f8
ff
fe
fa
03
0d
09
0c
f0
05
f3
fd
07
f1
f0
07
f9
02
f1
f6
08
0c
03
fc
e8
24
fb
ef
0c
eb
0b
fa
08
f6
e0
e6
00
fe
e7
f3
0f
0a
eb
02
08
f4
fa
ec
f5
17
e8
14
e0
10
e5
04
f6
ef
fb
f4
0c
07
14
01
15
fa
13
08
20
f1
13
06
f5
fa
05
e7
0d
11
00
03
0f
fd
fc
01
ff
01
15
19
0d
08
1d
fc
ff
f3
01
f1
07
18
fc
15
f6
30
0b
f1
06
f6
01
1e
02
0f
1a
06
ee
ff
10
fc
15
0f
f6
ed
03
f4
0f
ec
17
f3
e1
0c
08
f9
23
f6
e6
2a
ea
eb
0a
ed
0d
05
0b
e9
f2
e7
fe
ee
f2
05
fc
13
f4
ff
f3
e7
f6
e3
13
fd
18
03
06
e4
15
11
e7
f8
07
f2
ef
16
14
fd
e1
f0
ef
fd
fd
f4
f7
0a
fb
fe
00
ff
fd
e9
1f
03
ee
0d
02
ff
19
fc
29
06
16
e7
ee
f1
0f
f6
f1
f9
eb
0f
ea
04
15
fb
f5
f2
26
06
ec
ee
e8
f9
03
16
05
11
04
03
10
ec
15
f3
ff
00
f9
f8
15
f1
01
ed
fe
0d
f8
f4
05
f8
fb
fd
02
ee
02
f1
18
11
04
13
fc
00
ed
03
17
1e
ef
08
ff
ec
05
ea
f6
0a
f9
07
e7
e8
fd
08
08
f1
0c
07
04
fd
fb
11
fa
27
10
24
ea
03
12
0c
fb
03
09
fe
06
e6
ed
f0
04
f2
04
12
09
fb
09
08
04
f4
fb
0f
05
eb
01
ff
fa
0b
03
03
11
05
fb
fd
0e
07
e3
eb
01
27
11
02
f6
23
fc
08
15
04
f7
1a
f8
fb
fe
00
f0
05
07
ee
00
02
ff
05
f1
fb
f2
f6
f7
0b
05
1e
fd
f8
e2
fa
10
f0
04
f7
04
fc
00
db
f1
0e
05
15
0c
fd
fa
fb
13
03
05
fd
01
e9
0d
f9
0a
19
07
f9
08
f4
ff
f9
16
06
03
fa
db
e7
02
fe
f9
fc
f4
12
f2
fe
0b
15
07
0d
13
15
de
f9
0b
07
00
08
14
09
07
ea
f1
11
ea
e5
fe
06
f7
01
fb
01
fe
02
00
ec
16
ec
01
f6
07
0a
04
fd
ff
00
e7
00
03
1a
fb
f4
03
1a
16
11
fd
14
04
0f
0c
0c
e7
14
02
fa
06
ef
1c
ea
f3
fe
01
17
ef
06
f3
0e
ef
f1
10
05
01
09
f6
e7
f8
03
0a
0e
0f
f7
f2
f3
17
dd
ef
0f
08
fd
0c
e3
fa
00
fc
fd
10
11
ef
f2
fe
07
0d
0b
f0
07
e6
0b
fd
05
02
f5
09
03
0a
04
10
00
04
00
fe
04
fd
04
03
ff
03
ec
11
e8
0b
f7
04
06
0e
10
fe
1e
dd
01
df
f5
f1
19
0c
f7
19
01
fc
f9
09
f6
f5
f6
fa
02
f4
14
1b
e7
f7
00
05
13
03
eb
f9
02
fc
09
07
0f
fc
09
fe
f3
01
f5
05
f2
00
08
f6
00
fb
e5
09
f5
fa
ff
ff
13
f2
f9
01
03
00
ff
ee
f0
f4
eb
06
e7
fa
1c
e1
f0
ef
fa
00
d3
e7
06
1f
1f
f6
0b
01
f0
ea
ea
f5
23
ee
f6
0a
13
1d
19
f1
fe
02
18
25
f1
21
14
08
0c
fb
05
06
09
04
0c
e8
0b
06
17
fd
1e
14
fc
f8
fb
ef
f1
09
16
e8
02
15
0d
06
ef
22
20
f6
fb
00
e2
f4
08
20
09
f4
f1
e4
06
22
10
f3
08
0e
f8
fa
17
f2
f6
05
0f
09
05
00
17
00
01
05
0f
eb
06
f2
00
24
fb
16
f8
f6
dd
f3
01
08
fe
ec
e8
15
e8
0b
08
1d
e8
f7
f0
f7
18
13
f3
02
03
0d
06
f9
ec
12
eb
03
fd
01
13
0e
0d
01
f0
17
04
19
fc
04
ee
05
05
0f
f3
f3
03
0a
10
08
09
e9
f8
02
13
f1
13
f4
ed
03
fc
ff
f7
fb
f3
01
dd
f7
fa
1b
0a
ff
08
06
ec
29
f7
02
fa
0e
10
f3
fa
f1
0b
04
e5
00
fc
18
f0
16
0e
f1
ef
f4
f9
fa
da
09
f8
f6
fb
0d
ff
08
fa
13
ef
00
19
ee
00
f6
03
ff
09
1a
ea
04
03
06
0e
e0
0c
ef
f9
04
08
e6
f5
e3
03
ee
0f
e4
09
f6
00
04
13
fd
fc
fe
02
e9
f5
f7
fe
1a
01
13
f7
05
f7
1c
de
fe
fd
03
f8
01
fb
ea
09
04
fd
14
0a
f3
1c
f0
06
f4
f9
e6
f3
17
00
02
05
24
05
fe
fd
0d
f4
05
f6
f2
0a
1c
f6
05
0b
04
16
0d
f0
1e
00
02
10
fd
1d
f6
f2
0e
0c
fa
f0
f7
00
fa
f5
fa
06
09
ea
0d
fb
f4
17
1e
f3
04
fa
f8
ff
01
05
e7
fa
13
f9
f6
10
0a
0e
01
08
0c
07
fc
10
04
10
11
0b
01
0d
03
01
f3
fd
1a
11
0f
07
ef
01
e6
ec
d0
f2
fd
ec
00
f6
f6
e9
f8
d2
fe
d8
06
d6
08
13
d9
f9
10
ec
fd
ef
04
09
fb
05
f3
09
1b
fb
eb
f4
02
f1
05
10
18
0b
09
f5
0a
18
fd
1d
05
14
0d
fe
0c
1a
17
0d
03
1f
e6
f1
e0
02
f4
eb
12
ee
fd
02
04
23
07
f7
0e
f0
fa
fa
ee
0e
01
05
dd
01
ea
e9
d0
cc
f3
fa
f2
18
0d
04
12
09
f2
ff
06
fb
fb
e9
f0
16
f4
07
fc
e4
0e
07
e6
06
05
f6
0c
f9
0e
1e
f6
06
ed
fe
04
26
07
fe
0e
0b
ed
0f
f7
ff
09
0b
f7
0f
0c
00
f8
f7
03
10
0d
17
10
fa
07
0c
ff
fb
09
00
0d
18
03
fa
03
f6
f6
01
01
f0
fb
f7
02
00
f4
f4
f7
fc
07
fa
fd
fe
fd
04
05
e1
12
fc
05
06
f9
fe
f7
03
fa
fe
2e
06
00
08
f6
08
06
d3
00
f7
07
ff
0c
fc
f4
fc
ff
06
fa
05
fd
03
00
fb
09
0f
fe
00
ff
fc
f2
f7
ff
fc
04
fd
01
01
09
f4
04
04
02
01
ff
e6
ff
0c
ff
f6
07
07
13
00
06
06
ff
fb
ff
07
0c
f5
08
05
f3
0b
ef
00
0b
ff
fa
0f
02
f0
f5
06
f7
fe
ea
05
0d
06
06
fc
02
f9
fb
12
08
00
08
01
02
00
0e
fc
00
f9
0f
f8
05
f8
04
08
0e
06
ff
03
f8
02
16
f9
04
00
f1
fd
15
13
0b
01
f7
01
e4
fe
05
f8
f7
03
f6
f1
08
fc
0e
ee
f8
c9
0a
f3
f4
01
02
fb
0d
0f
fd
f8
00
0d
fd
09
fd
fe
f7
f3
f8
f0
fd
fe
fb
f6
fe
00
0c
04
14
f7
f7
f6
01
fc
02
fd
09
ff
0c
00
f9
0e
f5
06
fe
04
fc
ff
f1
12
08
07
0b
fd
05
0b
fa
f5
00
f9
f5
0a
fc
03
f9
fe
f8
05
f0
f7
f0
fc
ff
09
ff
ff
03
f4
fa
f8
14
ee
ec
fe
12
fd
f4
f7
f7
f6
09
ff
f9
00
11
12
f8
fc
ef
04
02
fa
1c
0d
ed
ed
04
fd
fd
18
e7
00
fe
0b
fc
12
06
fd
fc
09
ea
f3
07
fe
fd
f6
00
dc
f7
fe
fd
07
04
0e
03
fb
ff
f4
f1
01
08
05
fb
06
f2
f7
ee
ff
02
fc
01
15
05
01
f2
f9
0d
eb
01
e8
0b
fd
07
06
0d
07
0f
fc
fb
09
f7
03
00
03
01
10
08
0a
0f
0c
02
fd
0b
ff
02
fa
fe
f6
f4
07
f2
fc
0f
fb
06
00
f4
02
fb
02
ff
f3
f9
00
f4
07
1a
13
fb
03
fe
0d
fe
04
02
ff
f5
ff
f2
13
09
f6
f9
ff
f2
f9
fa
06
05
06
eb
07
fa
fe
fc
ff
ec
07
f7
04
fd
ff
11
f9
f2
0b
f4
01
ed
03
05
15
f5
07
fb
34
fe
01
fb
fb
08
04
01
fc
03
0b
f7
fa
04
fd
01
ff
f9
09
07
03
00
14
02
00
fb
fc
08
00
0c
04
f6
fa
0a
fd
00
01
03
0c
fa
fc
f6
f7
04
fe
0d
f5
02
fd
08
00
01
07
f5
00
02
f2
fb
f7
01
00
00
08
0d
02
fa
03
fb
fa
19
fa
01
f9
f7
fc
fd
f8
fe
f5
f9
fb
0a
f9
0f
02
0c
0d
f8
fc
09
fa
0f
08
05
00
f3
05
07
04
01
19
f7
11
dc
0c
fc
fe
f5
f9
06
ca
13
f9
11
f8
18
f5
fe
06
07
03
21
1e
13
09
fa
12
00
19
02
ff
0a
fb
f8
04
fe
10
0e
fd
01
fc
01
00
0b
0d
06
0a
01
07
11
f6
f9
f4
09
03
00
05
04
fe
07
02
f8
0a
00
fa
fd
ec
ce
fa
fb
f2
fb
04
f8
f9
fe
01
f8
fb
f4
f0
06
fc
fc
fd
fd
f5
04
f9
fe
11
ff
03
08
02
0e
04
02
fc
04
f7
17
01
e4
fc
08
00
02
05
04
08
0a
f4
ff
01
09
0a
f9
fb
fe
f0
ff
f5
0b
03
0a
03
f7
fd
09
00
21
0e
00
ea
ec
f5
0b
0e
03
f7
05
13
ed
00
07
fa
0c
f0
f0
e6
ec
ef
fe
f1
08
c9
02
09
f5
15
00
fc
0d
05
f0
f9
ff
08
14
ef
08
01
07
f5
f1
07
f5
10
ff
fc
f9
09
fe
02
17
f6
f9
04
04
f2
f8
f7
fb
09
28
ff
12
01
f9
f8
ff
12
05
fb
00
04
fb
ff
fb
09
02
01
f8
0c
e9
0c
06
fc
0b
02
ff
fc
fd
fb
f8
f5
ed
0e
08
11
f5
02
04
02
04
fe
03
05
f9
f5
03
ff
04
02
f3
04
f9
10
1b
fe
fe
fd
fc
0b
0a
00
01
f8
fc
00
f9
f8
fc
09
f8
12
03
fd
00
0e
0a
ff
08
fa
fa
04
e4
06
f3
07
00
ff
fc
26
f5
fc
f1
f7
10
e4
f8
f8
fd
00
fe
fe
00
f6
0a
f4
09
11
08
f8
fa
05
04
fb
f6
01
0c
fb
0a
08
ff
09
04
05
f3
08
07
0f
04
01
f1
f5
09
f8
fa
02
03
05
00
ff
f6
fa
f3
ff
08
01
ff
ff
f7
ff
02
fb
08
0a
08
03
01
12
19
ff
fc
07
06
fa
fd
fe
f8
f4
02
fc
08
f7
ee
f0
f0
f9
08
f9
02
04
07
fb
f7
00
0d
05
10
05
02
f3
07
05
1a
ee
09
07
fc
f4
01
4e
f2
ff
01
fb
e7
fe
0b
fa
03
fb
c3
f7
fc
f1
08
ef
07
04
07
f8
01
00
05
fe
07
02
f0
ff
0c
08
0c
0d
01
03
05
f4
fa
fb
fc
07
0d
f6
fc
f7
00
04
f5
ff
fe
ff
00
f9
fb
f8
08
13
1e
01
fc
fa
f6
0a
f9
05
fe
f5
01
00
f2
fd
f4
02
fb
fb
fd
fd
0b
06
f5
02
01
f9
0c
01
02
fd
0a
01
05
04
04
03
11
03
03
09
fc
0c
03
ff
06
05
f8
fd
0c
05
f0
0d
08
06
02
02
fe
f5
fa
16
00
fb
04
fb
20
f5
0a
00
f8
04
06
21
0d
ff
fb
f2
ed
fe
f6
04
fa
fa
f9
eb
fd
f4
fc
fa
00
d1
01
08
f5
fd
03
f6
fd
fa
00
fc
04
03
fd
ef
fb
fd
0b
01
0a
00
fe
fc
06
fc
fc
f6
05
fb
f4
08
f6
f6
0b
fd
fa
06
03
08
15
fe
fc
fa
01
f7
0c
00
0b
0d
f6
f6
fb
f8
02
0b
0a
fe
f8
0b
07
02
fd
00
fb
ff
fe
0d
f6
08
f8
01
fc
0b
fc
04
0e
fa
f9
06
18
fc
03
00
fd
0d
f5
01
fe
f9
f0
00
f1
04
0c
fd
ef
f0
ef
05
03
ff
05
00
e5
f2
f7
fa
f8
0d
f7
06
fe
0c
00
f2
10
fe
fb
09
f2
08
e8
07
f9
16
f3
06
fe
3d
f8
f5
f8
fb
03
f5
09
f5
04
ff
f5
ff
00
02
fc
fc
07
14
fa
08
fa
02
f7
f9
07
fa
11
06
fa
09
fb
f4
14
01
01
06
ec
13
f2
fd
04
ff
07
f8
0b
f8
fe
fe
ea
00
f7
f9
e9
f9
10
fe
07
f7
f8
05
02
07
0d
0c
fa
03
fd
04
25
fb
f8
00
00
07
fd
f0
f5
08
0a
fc
f9
07
f8
04
f6
09
f9
fc
f6
ff
f9
02
f4
02
f6
03
f6
04
fe
08
0b
06
f0
fd
0e
00
06
fd
fa
05
f4
04
f8
f3
10
fb
02
0a
04
05
ec
0e
ff
0a
fe
08
f4
40
fd
f3
ff
f4
ef
04
0e
08
09
f3
03
f6
05
16
fe
03
fc
06
fa
06
06
f6
f5
f4
00
04
0c
04
fc
01
01
0b
fe
02
04
f5
ed
1c
fe
ff
0a
fd
ff
17
fb
fe
f3
05
f6
02
fc
fc
f5
fb
11
01
05
f4
0c
01
f7
03
02
fd
fa
fe
fd
02
1a
fc
10
f3
fb
0c
f4
0e
0b
09
02
03
08
fa
ff
07
0c
fc
07
f3
f8
fb
03
0c
fd
f9
fa
07
05
01
fd
ff
02
f8
f1
04
f2
fb
f9
02
03
c7
16
f8
09
0a
07
06
fd
09
fe
02
21
0c
fc
0c
fa
0c
02
e5
fd
ff
05
0a
0b
f5
f8
f9
0e
06
ff
fe
03
ee
16
f8
fa
0e
11
f3
0c
05
02
04
00
0d
02
f9
04
01
fe
f9
0f
10
05
06
06
f5
ee
00
f8
fd
04
f8
04
fd
0a
0f
01
01
fd
0a
12
03
0c
08
02
f5
f1
f8
03
f7
ff
f8
fc
f9
03
00
f6
fe
fd
08
f3
00
f8
ee
fb
f7
e8
fd
0a
05
1c
03
02
fe
00
f0
02
05
02
fc
f2
fd
03
f8
18
00
0f
03
ec
fe
fd
f3
04
0f
04
fb
fc
e2
06
fd
f8
00
f7
ef
16
ef
fe
07
2a
05
04
f4
0e
07
06
c8
0a
f5
fe
fb
ec
f6
04
14
03
e8
fc
0e
fa
01
fe
05
fe
02
04
01
15
eb
07
f8
00
0e
fa
ff
fc
0e
fe
03
00
0e
08
fe
02
f6
f0
13
fc
09
00
12
01
06
fa
06
f7
01
f1
fd
20
0c
f7
0c
f8
05
19
02
f0
fd
ea
04
fc
fc
04
03
dc
f9
0d
fc
fa
ff
09
fa
0d
f7
ef
f5
05
04
13
f8
f2
fd
06
f7
0e
04
ff
f6
00
06
0f
f7
02
02
f8
f6
f0
00
09
f9
08
01
0e
fe
0f
f8
02
01
03
eb
fb
02
10
f4
13
05
12
07
f7
f9
05
f8
fb
ce
08
03
ff
0c
fb
01
02
07
0d
f4
0e
0b
01
04
02
f7
04
ff
f9
01
fc
f5
fe
06
0d
fe
02
0b
fe
04
01
fd
f4
f8
0a
01
f5
e4
01
08
00
07
f7
09
f4
09
01
f6
f9
0a
fb
f8
0e
fc
f7
0a
fa
fe
fd
f7
ff
12
f4
06
04
08
f8
08
e6
00
06
05
07
0d
07
0a
fa
f6
02
13
02
f2
ee
01
0b
fc
0d
fe
04
f7
01
00
ff
f4
0d
11
04
f0
02
04
00
ff
20
00
01
00
10
01
05
0b
03
f2
f6
0b
ea
0d
03
00
eb
fc
f7
f1
0f
f7
0c
f5
04
ce
fc
eb
fb
07
07
08
04
0d
eb
05
fc
0c
03
0a
fa
08
fc
ef
f8
06
fa
ff
fc
02
fc
05
f4
09
16
f3
f6
f2
06
f3
f9
f9
16
00
11
fe
f0
06
ed
fe
02
0f
fa
fd
16
ff
12
0d
08
ff
ff
0c
fd
f1
0a
f4
f8
02
eb
f4
00
fa
07
01
e7
ff
f4
00
ef
fb
05
fb
ff
fb
07
ff
fe
fd
f2
fe
f7
03
fc
09
f3
fb
04
00
01
00
fb
0d
fd
f7
00
02
0a
01
fa
ff
fc
0c
fc
05
fa
1c
ef
03
07
00
06
f5
fd
08
fc
07
db
01
fb
03
f3
ff
03
2c
0a
f8
00
00
fe
fc
0e
f6
fc
0a
03
00
fd
09
fe
08
09
fd
00
fe
fd
04
f7
fa
0b
00
09
f7
f4
0e
fb
09
04
f8
f9
07
f7
15
fe
01
15
f6
f7
05
f9
05
f7
fb
f4
02
ed
fb
f0
f9
ff
03
0b
f6
05
fa
ff
0c
0b
ff
fc
f6
f8
fe
12
fa
ff
fd
ff
f6
07
05
04
0b
fd
eb
ec
04
fe
21
f8
f7
f5
eb
0f
fb
ec
e5
ef
10
06
f4
12
fb
ee
03
00
ff
f0
f6
e9
ed
2c
04
f5
e8
ec
0b
00
fb
20
05
17
04
0b
02
10
04
01
15
fb
0f
fe
0e
00
fa
06
1a
f1
06
04
23
06
e1
08
08
0a
08
00
ed
02
09
e9
f4
06
ed
ea
fc
10
04
f8
05
fe
13
09
f9
ff
f3
0a
f2
f3
fa
f0
08
04
05
07
05
07
fc
fe
fb
eb
1d
03
09
ec
0c
14
fb
03
06
f7
f7
fb
fb
f7
14
f0
08
f0
f0
f3
02
1b
fc
f5
18
eb
0b
0b
1e
04
22
12
f7
0f
f3
f3
0b
05
0f
00
ef
f9
0c
02
fb
fb
ea
ef
16
23
0c
f8
07
e2
f9
01
f9
d8
f5
14
f1
1f
fa
12
11
fd
ea
09
ea
fc
f4
f8
1f
02
03
f8
12
f9
fc
f4
e7
22
fb
f2
f3
e5
e7
13
07
12
06
07
f3
16
ce
0e
1f
01
fe
ff
0d
f2
e8
04
0b
14
de
0f
1d
fc
09
1d
0b
ee
0c
fd
e9
ff
f2
f8
e6
16
17
0b
03
f2
1c
f9
fa
fd
0d
f3
13
17
0b
ef
fb
fb
f9
08
04
0d
14
ea
f1
ff
f9
05
ff
10
13
fc
02
f8
e5
db
03
20
0d
eb
e9
da
ca
fd
ef
0a
ff
f5
f3
13
2f
34
0b
04
0f
1c
11
06
0e
23
10
0d
0c
ef
08
f5
1c
19
1c
24
09
03
f0
00
e1
f4
12
e6
26
de
e9
f3
11
ee
f9
00
04
ee
e4
e1
0d
1f
02
f5
fd
f8
05
11
07
0a
03
27
ea
36
fb
eb
fc
fb
eb
dd
14
f7
d8
16
f0
eb
fc
fa
fb
1a
e3
f2
23
f5
12
03
df
ec
e5
fe
f2
f9
14
f1
06
10
07
03
0d
e0
ec
ee
e9
05
ee
e5
f6
05
1e
06
f4
13
17
ef
22
12
07
f7
15
d4
13
10
e1
de
0c
f6
e6
f8
ed
08
f6
f9
17
0a
09
fe
00
ec
0e
11
0c
f7
fa
ef
0e
01
11
ff
e7
fa
08
fb
03
fc
fc
e9
ef
fd
19
fe
06
fc
0c
fa
01
0e
10
14
04
fb
01
04
01
f5
da
fc
f7
0b
e3
05
ea
fe
fa
03
f2
fd
ef
03
05
f3
e0
f9
06
1b
0b
0b
0e
0c
fb
0d
f5
0f
fb
ff
0f
f9
00
f0
12
0f
13
fc
f2
f8
00
08
fc
1f
e9
e1
ee
09
0e
11
e9
07
02
07
ef
01
db
06
10
17
06
06
f1
14
12
0c
0c
f4
18
09
03
f0
03
08
fa
0b
10
eb
18
f3
20
f9
f5
03
fc
06
26
16
14
e7
ed
06
fd
ec
f5
03
07
0c
f9
fd
00
e9
f7
f7
00
f0
0f
ea
ec
ff
f5
ff
eb
f3
13
e8
e9
01
ef
f3
f8
10
20
0c
ef
12
0e
01
f5
09
ef
16
f3
f2
fa
1b
fa
06
21
01
ed
03
f9
17
04
02
0f
0b
04
01
04
0a
ee
f7
0f
fe
eb
24
06
f6
e8
fa
20
ff
0f
1c
e8
07
17
f5
09
0b
20
f3
07
ed
1c
fa
ed
ef
12
13
fa
01
08
f5
f6
ed
fd
01
ed
05
fd
09
e7
06
fc
08
13
f3
01
16
eb
fb
eb
fc
09
0c
f5
ff
00
0c
f7
f3
e2
ff
16
fe
02
10
eb
ea
fd
1b
ec
0f
1c
ef
d5
16
fe
0b
e7
e7
0d
12
0e
f5
0e
06
0f
dc
15
ee
cc
fb
02
10
09
fc
ea
e5
fa
fc
ec
07
e7
1d
e3
f0
fe
ec
f7
1e
fc
0c
e0
16
25
f3
fd
f8
d1
00
e0
fa
eb
15
10
05
17
f4
de
0f
02
e5
f3
e7
05
fc
f7
0c
00
f2
ed
15
04
00
06
f7
12
0d
06
fe
06
0a
f1
f3
07
05
1b
e9
fc
07
1f
f3
1f
f7
fa
02
08
07
00
fe
fb
fc
ec
f3
0d
0b
08
12
fe
fa
09
0c
01
fc
f2
d7
fe
05
fd
00
10
22
0f
fc
f6
03
ec
1b
11
0b
fb
db
fd
24
02
1b
08
17
f7
05
f2
05
25
09
f1
ff
f3
f4
10
06
10
1e
ff
e2
db
eb
fc
e9
d6
04
ff
f5
19
03
00
f5
13
19
01
de
f6
20
08
ea
09
e6
0c
e2
db
fb
0f
ff
1c
f1
e8
f4
e3
f6
04
fb
e4
08
00
06
e8
fe
f7
18
10
12
08
14
0c
eb
eb
03
07
0c
e7
02
01
fd
0f
f6
e5
ed
f7
f8
08
e3
11
06
18
03
f2
06
0e
f4
06
0b
f5
da
05
0b
28
09
01
fb
04
ed
ec
16
10
0d
f5
06
05
19
e1
13
0f
f6
c2
ec
fb
04
e0
23
15
0a
df
fa
f6
16
1c
30
15
da
f9
37
12
09
13
e8
f4
eb
fa
17
ea
3d
df
06
fb
eb
e5
0e
d1
fb
21
00
07
02
f5
01
0a
f8
10
07
f2
15
1e
fb
f7
0c
fb
fb
fc
10
0c
df
f3
1c
e0
01
f7
00
03
08
0a
fd
1a
00
f9
0c
01
fe
05
1f
11
01
0b
00
0a
f7
27
e7
f3
e9
fd
e5
f1
0d
2f
e7
07
d8
1e
ef
0e
fd
f0
ef
ec
fb
11
de
1e
e1
07
fc
14
dd
2a
e6
fd
eb
25
12
22
0f
ff
ea
ef
fb
f8
01
18
fb
ed
fc
0b
03
f4
1c
04
02
04
08
f1
0b
f9
04
fe
0c
02
fa
f1
1a
13
ff
e5
13
00
f8
f8
09
fe
fa
ea
eb
e5
e9
04
f6
f8
0d
0a
0e
f9
ed
13
11
0f
f1
06
fc
08
fa
0f
eb
fd
0f
eb
1b
ec
12
0a
e4
06
f6
f3
f4
06
ef
11
1d
fe
0b
f3
07
f6
0d
ff
f2
02
0b
f0
e6
e8
ef
0b
04
0c
fe
fb
0b
f4
05
1a
fa
0a
fc
12
fc
eb
01
fc
ec
f2
05
05
f6
f4
0d
01
00
f7
f1
16
ef
f5
03
07
f7
12
0b
03
00
e9
0d
0a
01
03
02
17
fa
f5
e0
00
ef
02
fc
fc
e2
05
f9
07
02
f6
f0
12
c6
19
fb
10
e5
03
08
0b
ee
ee
05
0d
de
0e
02
0b
fe
0f
f6
fe
08
13
28
e4
e9
00
0c
f8
0a
01
1e
e9
fd
15
da
f6
0e
08
e7
fc
ee
0e
f2
fa
ee
0e
10
10
05
f9
22
fc
05
fb
e8
f0
14
0c
f2
fa
0f
24
ee
ea
fd
21
0b
08
2f
e4
fd
10
f1
fb
03
fe
fd
d4
fb
f7
1f
f0
f3
f2
22
03
19
07
fe
fa
f9
ee
24
04
dc
fc
06
05
00
e1
00
10
1c
d2
06
e9
06
16
e6
1c
ef
f8
f9
00
e4
e2
06
10
d8
f6
fb
de
f3
27
02
19
da
1d
14
21
fd
18
0a
f2
b6
25
0d
ee
27
f1
ea
08
f2
00
11
fb
11
37
c9
17
02
0f
27
0b
f6
ff
ed
15
f8
0e
1c
f5
1a
f2
26
13
f7
d6
17
22
ee
fd
18
1e
f4
e9
32
ed
2b
02
01
35
15
18
ea
07
10
2a
ed
fe
e7
f3
1b
d9
14
e7
15
e7
e7
f7
d8
07
d1
f7
d5
ff
00
f4
0d
e3
06
f8
f0
07
0c
13
d5
1b
e6
01
11
fb
16
ea
ea
f0
fa
04
fc
f7
05
fe
15
19
21
fe
f5
f7
f9
03
04
fe
03
0d
f1
00
10
e5
f2
00
0d
f4
04
03
fe
f7
1c
15
fc
0c
00
fb
f4
0d
08
0b
0d
08
f8
f0
fd
e3
1c
fe
f6
fa
ff
f7
f0
09
11
0f
f5
fd
f9
0e
da
f0
ff
01
1b
10
f9
0d
ed
fb
08
ee
f8
0b
f5
14
e8
05
01
fb
f1
0b
f1
e7
15
11
dd
02
ff
04
fc
d6
04
05
03
f8
00
10
07
09
04
ff
19
ef
11
f4
fc
ff
e4
14
0c
00
07
1b
fc
f1
f7
0a
e9
0a
fc
ff
e9
09
24
f7
fc
1d
0c
1a
f7
28
01
04
05
f4
fa
f8
08
12
f9
fe
c6
00
e4
05
33
03
00
e3
e8
21
0f
f7
07
01
f7
09
1b
0c
f4
08
fa
f1
11
e0
e7
f4
04
06
07
06
0d
04
1e
f5
ee
f7
0c
03
0a
02
07
f6
fc
0a
02
f7
e0
07
f7
11
e5
e8
07
e5
13
fa
0b
13
01
00
15
14
09
0e
02
0f
ea
fa
1d
f3
f7
08
fe
16
0a
17
13
f8
09
0c
f3
fc
15
05
da
16
f2
ff
01
f3
f1
15
08
fd
17
e8
11
de
e1
f8
15
fc
0d
13
f3
0a
00
ff
fe
fd
02
00
ff
fd
f6
fa
d8
ee
e3
05
f6
f0
10
03
f4
f9
fe
f6
14
0b
f8
06
ed
fd
0f
fb
24
e4
1f
f6
f1
02
f3
ea
f0
06
25
1e
fa
db
03
f3
16
17
f5
f0
10
db
f0
e8
11
05
05
f9
00
f9
f9
f0
09
fa
36
ef
ff
f2
ec
01
f3
0c
2e
0c
fd
f1
f9
fd
03
1a
0a
f0
29
27
eb
e7
fb
14
e6
f3
07
f7
19
20
f6
12
f0
0b
1d
d6
07
15
11
ed
06
f8
f6
10
08
ed
03
0c
fc
fc
fe
fe
f6
f2
eb
1f
fb
0a
f7
ff
f5
13
e7
f2
19
f9
e8
03
1d
19
14
19
f5
02
e9
fa
2d
00
13
f2
fe
09
e2
0e
ea
22
fa
eb
fa
0f
16
03
f4
fb
ef
f9
f9
09
21
0a
e7
0b
11
ed
f2
19
03
f8
ea
f2
15
e2
23
08
eb
1d
ef
14
fb
00
e5
20
cc
10
ed
17
f4
0d
f4
f9
e4
10
f6
f5
06
f5
06
f8
17
18
0e
ec
01
0d
d0
06
02
1f
d7
f7
1d
00
f7
fb
02
f3
0a
fc
f4
0a
01
19
09
f3
e0
e6
f4
01
05
18
28
f1
f5
04
f6
09
ff
ee
ce
e9
07
10
22
fc
f4
eb
f6
2f
2d
12
08
19
1f
d8
23
01
02
eb
0b
07
f4
08
f3
16
1f
ff
02
20
fc
16
f5
fe
f1
09
ea
01
eb
0a
16
1a
e5
ea
ce
01
04
e8
0c
fd
f4
0a
1e
f2
d8
fc
ec
f7
13
03
1c
07
0d
02
ef
14
f7
f0
0c
ef
f5
0d
e7
05
ed
ed
eb
1f
f8
fd
01
ed
e7
f1
10
31
01
f3
10
fa
00
ee
04
f6
fa
24
f0
04
fe
1b
f5
e1
13
f2
f8
07
09
04
15
f8
20
0b
ef
13
f8
ed
05
01
13
e0
04
02
fa
fa
ff
05
01
01
f5
22
04
fd
1b
fd
fa
01
1f
00
26
07
fe
02
12
e9
0d
05
f4
fc
e9
03
fe
fd
d0
0e
0b
f7
20
f2
fc
13
f1
10
e1
fd
0e
ed
f9
f3
0a
10
f1
ec
e1
10
f2
07
fa
18
ee
f7
1d
13
ef
11
17
fb
ed
f6
11
e0
12
d3
00
03
fe
f4
fd
ff
f5
19
ed
0f
07
06
03
ed
07
f7
ec
0e
e2
16
fc
fe
fd
06
20
09
04
b7
02
1a
00
fb
07
0b
ec
08
11
01
0f
09
f9
1d
f2
0e
0e
fe
09
18
f7
f3
f4
f1
ee
d9
08
15
23
1f
e2
f3
d7
09
f1
ed
f2
09
1a
13
18
01
f7
f3
00
0f
1d
0f
f6
10
16
00
03
01
2a
fc
e3
f9
06
f6
01
fa
f0
05
df
fb
00
10
09
1a
fc
fe
00
f9
fd
ee
f5
07
f6
05
e0
fc
ef
0d
df
04
e6
1c
fb
fa
f6
f0
e1
e4
fd
fe
f4
f3
18
19
09
06
f9
ff
1e
0d
14
f7
0f
23
fd
04
02
ee
06
ee
01
0f
05
04
ff
0c
f3
ec
04
f7
e0
06
f7
0b
f3
1f
0e
fb
0c
0e
01
12
10
07
e8
0c
22
06
ed
0d
ed
09
ea
f5
ec
13
1a
02
0d
13
ec
f7
f8
06
f3
e8
09
06
09
f8
0e
df
0d
00
0e
0b
0e
05
ff
0b
e6
f4
08
02
0d
09
04
f2
11
fd
f6
07
0c
05
f6
0d
07
e7
f2
09
fe
10
02
f1
f9
fd
f9
ff
0f
02
0b
08
f1
fd
09
08
ef
f0
fd
ec
ef
f7
1f
00
07
08
e1
fb
0b
fc
02
16
09
06
f1
f1
fc
0e
f8
fd
02
09
fc
0b
f6
03
0d
00
01
06
0f
11
16
fa
f2
f3
13
09
00
f8
09
12
0e
00
fd
f2
fa
ec
08
02
f5
f0
19
f6
0c
eb
06
06
06
fc
13
1b
01
ec
f7
0b
f9
0f
e1
f4
00
0b
f7
17
10
0e
00
f8
00
01
00
f7
fd
de
fa
04
fe
fb
02
e5
14
08
15
15
f8
f3
0b
f4
f5
fa
ef
01
ff
fc
f4
f7
09
09
02
0b
dc
0f
14
fa
f1
16
03
0e
f9
f3
f9
03
03
fb
f9
0f
f7
07
15
0d
e7
f8
ed
f6
fe
1f
ea
f9
0b
fa
eb
f9
fa
f7
11
0d
fa
0d
01
0c
02
fb
ff
11
16
f7
e3
1a
ee
07
fd
02
06
fb
fc
04
fe
fa
02
09
f7
f4
0c
06
e9
f5
0f
f8
f9
f6
f4
f4
0e
16
fd
03
f9
fe
e6
f7
fa
03
17
f7
06
11
00
08
f4
e8
03
07
01
f4
fa
1e
03
fa
0d
08
eb
fe
f4
01
fa
10
f1
00
11
14
f9
1b
1f
00
0f
00
03
0f
01
f9
0b
01
e7
07
ec
ea
f1
eb
01
06
1e
15
f0
0d
fc
06
0b
08
fa
0f
e3
05
15
fa
08
fa
05
de
05
ee
09
06
05
f8
0d
fb
0f
05
17
0b
f8
09
e1
d9
09
0b
f0
ff
fc
fa
f3
f4
02
14
f7
06
0f
1b
e7
f4
0f
07
fa
fe
f7
fb
0a
ea
df
fd
14
fe
fd
ff
fe
ed
1b
fd
fc
16
04
eb
16
e8
f9
fd
ec
12
f2
0e
17
04
fb
fb
00
0f
f1
fa
f4
1c
05
10
f5
ed
ff
e9
03
f5
ed
17
06
0a
f7
0f
19
02
08
0b
fd
fc
ee
02
08
02
0b
dc
04
fc
17
02
11
fe
fd
f4
f3
0b
ef
0a
fe
f3
ef
1d
14
fb
f5
f9
e0
f5
f2
05
f9
12
ee
fe
fa
01
f2
fc
04
fe
fe
00
0e
e6
1d
f6
00
08
eb
1e
0e
14
f5
0e
f1
0a
f2
04
0a
01
f9
f2
f8
f5
ee
f6
0e
07
04
f5
03
20
01
f3
12
05
f2
17
05
00
eb
05
00
f7
12
ff
07
0c
f8
fa
00
ff
12
0b
f0
fe
f0
ea
f3
f1
19
06
01
02
f6
00
f5
fb
04
fd
ef
f0
08
11
12
f7
01
f9
0e
24
07
1d
e5
1d
f7
fa
11
fc
17
f9
e8
fd
02
08
06
f5
08
f9
18
01
07
f0
ff
00
fe
f0
0a
0d
da
04
00
eb
01
ec
fc
f2
09
db
14
d4
00
01
04
fe
09
fe
01
f7
0b
07
00
ff
f1
f3
02
ef
f4
f8
13
f6
f7
05
f5
f6
fe
04
0e
07
fa
f3
ee
f7
f9
19
08
f4
ee
1f
f3
07
ff
09
16
07
05
02
04
16
06
01
00
08
f4
10
15
fb
fe
f4
07
fd
28
11
f6
fb
fc
f9
e1
0e
09
f8
f0
1c
eb
ed
fe
d6
08
15
02
20
ff
fa
f5
07
e8
11
f6
05
09
07
11
1b
0b
15
f2
1a
f2
15
09
14
07
f3
ed
03
fc
e7
fa
fc
0c
00
f5
07
fb
07
00
fe
ff
02
ef
11
f6
f7
16
f2
0d
04
fa
04
e1
09
f7
06
f6
f9
f0
fa
08
0b
05
05
10
f5
06
00
0b
19
02
19
09
12
f3
0c
ff
f9
0a
03
11
f5
fc
dc
f8
ee
1b
08
0f
fb
0f
00
fe
ff
f8
1b
f2
f4
03
09
f8
f7
0f
04
17
f1
04
28
03
04
02
02
f0
0e
f7
06
f4
fd
13
05
17
00
05
fa
fe
f7
fd
0d
ea
fc
fb
f7
1b
f3
11
ed
0a
fa
fd
f8
05
f7
ff
0a
17
ff
0b
09
03
09
02
f8
fb
08
07
fc
0d
fb
fb
18
01
fc
ed
fb
f9
25
f3
12
ee
06
01
0b
04
ea
e1
e7
0a
e2
08
ef
02
18
fb
e7
01
00
f3
f9
ff
f4
06
e3
1e
0c
e3
08
07
16
fb
07
ee
0e
eb
fc
03
00
f5
1c
f6
f3
fe
e7
f1
e7
0e
00
fe
fb
0d
01
fa
14
e7
0f
e8
ff
01
1a
0d
0e
10
fe
02
f7
f0
f6
11
0b
00
f4
00
f3
f5
0c
e2
ef
09
0f
13
f9
0b
e8
0f
f9
03
01
fa
f4
ed
f6
06
03
1d
fb
09
0c
04
16
15
12
0b
0d
19
f1
1b
13
0c
ef
09
02
08
13
fd
fe
0c
0c
ea
1a
fe
03
09
fc
fe
19
fb
fb
0f
00
f4
14
04
fb
e9
00
05
f0
03
04
00
13
00
08
fb
02
ee
f0
fb
f1
f7
e9
0f
12
e4
08
02
02
0f
fc
0b
fe
02
02
ed
02
fb
0d
f6
02
f2
0a
1b
ee
04
03
fe
e7
04
f9
04
06
00
f6
ed
09
f1
0f
09
06
03
f8
08
07
f8
00
fe
f6
f6
03
fd
fe
f9
d1
fd
0e
ea
fe
0f
05
0f
fa
06
f8
11
fb
0e
f5
02
fe
0a
02
0f
03
f4
08
09
fd
17
0d
09
0c
0c
fb
06
fb
fc
f5
03
01
0e
05
00
01
f5
07
ec
f7
f8
f4
05
04
11
07
f1
0d
0b
df
0a
04
09
04
f9
06
f7
0a
05
f6
11
06
eb
fc
dd
f0
09
08
05
f2
fd
f8
ef
16
f7
0e
f7
06
f1
f8
ff
ef
00
0b
0c
ff
ec
f5
fa
fb
1d
00
12
ec
f9
03
f6
06
06
02
08
0a
04
fe
04
06
fe
05
04
1b
f3
f8
0f
fd
f5
fb
e5
f2
0b
05
02
ff
0f
0b
02
01
ff
11
fd
04
01
ff
08
12
00
ff
04
07
04
fa
fc
09
01
11
ec
0c
f9
f0
15
fb
0d
f6
08
fa
09
0d
f4
00
0e
f4
11
f1
fd
0b
fc
0d
21
0e
15
08
0e
eb
0d
01
d8
00
14
f1
fa
e9
06
ea
f7
f9
fe
d9
f0
05
f9
ff
f2
ec
e2
ec
15
f0
22
e0
f8
f7
0b
fd
0a
f6
02
fb
06
e9
04
fd
02
05
0c
0e
19
06
04
fe
f0
fa
e5
fb
08
f8
05
02
00
da
fc
03
f6
eb
07
ff
06
13
07
0b
f9
16
fb
0b
03
fd
06
0e
ee
15
00
e9
08
e8
f8
19
fa
09
06
f1
fc
f9
08
04
f9
fb
0c
0a
0f
ff
fd
09
03
0f
09
25
0c
ea
0c
09
ea
f3
ff
f3
f1
06
13
fd
f4
f5
0e
f0
05
f5
06
10
01
fe
1b
00
02
ed
02
0e
02
05
ff
1f
e5
fd
10
ff
10
03
f5
0e
03
fe
03
13
ff
05
fc
fa
12
f2
13
12
0a
18
08
e3
ff
f4
dd
00
fb
f9
14
0a
fc
fe
f5
0b
03
07
ec
05
fc
fa
f1
f0
fc
fe
17
fd
f3
06
11
09
fb
03
ff
e1
f5
fd
00
f3
07
f3
08
ff
12
16
06
f0
20
03
f0
00
04
dc
03
08
e8
ef
0d
f2
0f
18
ff
fa
08
f4
0f
15
ff
ed
00
0d
01
02
f3
08
fa
e2
f3
ff
fa
22
03
10
ed
0a
04
00
e5
fd
04
f3
11
08
ec
07
fc
0a
1b
0c
0c
03
02
eb
f6
0a
f5
01
0d
f6
e8
03
0a
05
15
0a
e2
e8
e4
fa
dc
f7
13
fc
ec
d9
f6
ea
ef
18
00
fd
fa
f8
f8
02
16
23
0b
06
fb
1c
fc
16
10
ed
0b
f9
fe
e2
ff
f7
0a
f9
f5
f9
fe
f3
0d
00
08
24
23
17
18
15
17
f9
fb
1c
f4
ee
1d
13
e5
f9
0f
14
ff
ef
15
ef
f8
17
00
f5
1d
10
10
03
0c
16
f8
f8
03
13
1f
f9
10
01
f3
04
0f
ed
00
ed
03
05
ef
e9
fc
ff
f9
f3
01
04
0b
f3
ee
e2
0c
0b
04
0a
03
f5
e6
0a
fc
fa
ec
fb
f2
fe
fa
ff
15
05
07
0a
f5
0c
06
f5
12
0c
09
eb
fc
07
15
13
fa
23
ed
0d
fc
f9
01
04
f9
19
f5
0c
f0
ef
f0
01
08
fb
f7
fb
f9
fa
f5
06
0d
02
05
02
ff
fa
f9
fd
10
04
f7
f5
05
04
ee
08
fa
ed
f6
03
00
ef
fd
fa
02
f2
f5
0b
05
e7
02
fd
f4
20
09
e8
00
f9
f7
0d
fe
f6
fb
00
fe
03
0d
0b
f2
08
fb
05
15
f0
00
f5
09
16
fa
fa
fc
03
f5
06
13
0e
04
03
f7
ff
fd
0d
05
0d
02
f6
ff
f8
f8
1a
07
03
07
f7
f8
f5
1a
eb
19
18
f8
05
07
e3
00
16
04
05
fa
0a
fd
01
14
05
f1
0e
d9
00
e1
0a
0d
17
fb
22
fa
ff
f3
f5
fb
0e
00
07
03
fb
eb
fe
ec
fd
0f
12
25
0d
0c
fe
ec
fa
19
ff
f3
f1
f8
f9
e8
fd
0a
f9
0b
0b
0d
f9
f9
f3
01
0e
ff
0c
04
f7
00
07
11
2c
02
f6
25
04
f4
05
0c
ee
ee
f0
01
0e
f2
06
f7
fd
02
d6
1b
f2
0f
ee
f6
05
08
e2
08
e5
12
f3
19
f2
f7
f3
03
e7
f6
05
0e
e8
f7
04
1b
fa
fd
fc
fb
07
16
f8
ec
f7
06
e6
f0
ee
f9
01
0f
dc
04
03
ed
06
01
02
fc
02
f2
f0
09
06
e6
fa
f5
07
f5
ff
09
fe
f5
0f
f4
0e
16
0b
0b
10
02
f8
04
f2
0c
f7
fd
fa
09
fd
0a
11
09
09
ff
03
12
fd
fd
03
17
e9
0b
e8
09
f7
fb
11
fc
08
04
10
d9
ee
07
0b
1a
fe
ef
14
f8
04
f2
fd
fc
00
02
0c
04
01
f8
0d
fb
06
0d
20
11
ff
06
f3
06
04
ed
f5
06
ec
f9
d5
22
f3
f7
fb
f8
fe
04
dc
09
00
ff
11
eb
21
f4
ef
e8
1d
1a
0c
f7
f6
0c
1a
fa
ec
f2
e1
1a
07
06
fb
fa
ee
f1
e4
fb
07
df
e7
1b
fd
e9
fb
29
ed
f4
27
e1
04
0f
fa
09
fe
07
eb
06
f5
03
e3
14
e3
eb
05
24
04
14
e9
ff
0a
ed
0f
ec
07
fb
df
cf
14
c9
fe
0a
01
07
0b
1b
08
ea
19
d6
05
04
f9
02
04
26
fc
f5
e1
22
fa
18
09
09
fd
f9
ed
11
12
1f
ce
ff
ec
0a
2e
10
15
1e
f2
e0
2e
f1
08
fd
f0
f2
f7
0c
f6
02
f7
ed
23
fd
13
12
21
de
1b
00
fc
eb
00
1e
e9
27
0f
fd
26
0d
f0
e2
db
0b
ff
de
f1
ed
f4
ec
fd
18
19
ce
f4
e6
0e
f1
29
13
0e
ed
d9
08
01
f7
17
fe
fb
f5
d9
f5
e1
41
1d
28
f5
17
0c
04
f1
0c
f0
1a
da
01
ed
ee
f4
10
10
fa
e0
00
00
06
fd
fc
25
2b
f9
fc
0f
24
ec
1d
1f
07
0a
13
fe
05
19
e9
2a
f3
fa
0c
e5
f3
07
d9
f5
22
f6
fe
fd
ff
18
ee
ce
06
fe
1a
fd
f5
ec
f7
00
00
02
fb
f3
04
01
ea
00
0b
0a
03
0e
22
f5
1c
e9
09
11
fe
0a
e9
e2
fe
0b
13
16
f5
0f
ea
f9
fa
04
fe
fe
1d
12
de
05
ff
03
1d
01
f1
02
ed
1f
19
00
f9
00
f5
da
ea
f7
25
0e
13
0d
f7
03
11
f6
21
10
05
15
df
09
f4
ec
0d
2b
02
0f
fa
f0
e5
f5
23
00
df
e9
0b
eb
e9
0c
f7
15
f9
07
12
15
0a
f6
fd
0d
08
fb
0b
0b
06
09
e7
0e
06
10
fe
f3
f6
f1
04
ee
0a
d8
05
09
12
fb
0c
0b
f8
fb
09
04
21
ed
06
07
17
ed
20
ff
04
11
e6
f5
00
ff
03
ef
0f
fa
02
e5
dc
f5
e6
01
eb
0c
08
ee
fa
e6
10
04
ff
05
fd
09
01
f8
0b
06
10
f5
06
1c
17
fe
05
f3
26
0c
16
f4
df
db
1c
1a
11
fd
eb
ee
ef
14
0c
fc
12
09
ef
f1
f4
eb
37
f7
11
12
ca
ff
02
f5
13
02
df
03
e0
e7
f3
01
df
0b
10
0a
dd
00
12
ff
07
12
fd
f9
ee
11
d9
1a
00
eb
d8
e7
fa
fd
04
fc
02
03
12
16
ec
ea
ec
e3
f5
fc
14
fb
04
23
28
e8
1a
04
03
00
e8
1c
02
02
f9
f0
f4
e6
0f
00
ff
1f
ed
04
fd
0b
06
14
f5
f8
10
12
0e
0f
f9
f8
de
f8
07
f8
1a
1c
09
18
29
0b
ec
03
1f
14
09
f7
f2
0f
fb
00
1b
0f
09
f4
f0
ed
13
28
dc
fa
ff
2a
dd
eb
ec
05
10
e2
fb
dd
f3
01
04
e2
fb
e5
0a
23
f9
04
0e
0b
26
0a
0e
26
2d
f8
f9
ed
12
1a
ed
da
21
e8
00
e9
27
f5
e9
f4
f9
0a
e9
fb
0f
1b
0b
f4
08
fa
da
1c
14
ec
f0
dc
f7
ee
07
fd
20
f8
00
ed
f2
14
13
18
dc
ec
f4
fe
ef
0f
fa
dd
ff
ea
05
f9
12
fa
fe
05
e6
13
fb
dd
16
fe
e8
20
fd
f7
e8
f5
05
23
e6
0c
f1
02
0f
fa
f2
0d
f7
06
09
eb
05
f3
f1
10
ec
f9
e3
0b
ef
f5
01
0e
ef
d9
06
14
0b
07
18
f1
04
fe
07
01
12
17
0e
1b
f8
12
ee
f0
fa
0c
ff
d7
f0
ec
02
08
0e
ed
04
ff
15
f1
f4
e8
de
22
08
e8
11
ef
f8
e4
fc
04
eb
fb
eb
1a
2e
0e
fd
1a
03
0f
08
ef
ed
0b
00
15
1d
f3
f4
e4
f2
f0
e1
0d
00
00
f6
02
32
e6
0c
f4
ef
eb
eb
08
18
15
f7
19
32
fb
01
16
10
01
ff
08
fc
18
f6
1e
e4
14
f5
fd
1f
06
0d
fa
0b
e7
fe
11
00
01
f5
06
01
ff
11
0d
09
e8
ee
f3
0e
d4
fd
12
0e
0f
f7
f6
1a
ec
fb
1e
e8
02
06
e9
02
e6
2d
ef
05
e5
0d
f8
fb
ed
11
fc
04
ed
ee
fe
fe
01
ff
fe
01
f9
ec
de
e8
f9
f0
f7
1b
07
06
0b
1f
0a
ea
f9
f6
f9
f0
0b
e8
14
e0
1e
0e
f5
0c
e3
15
23
01
14
13
ef
f5
12
fc
0b
1a
e0
f8
08
29
0c
fa
fc
e7
1f
00
19
19
de
f6
10
f1
fd
de
1c
d8
f1
ff
0b
08
f0
0e
00
09
09
09
f4
e3
ee
fb
01
02
0f
0a
16
f4
e7
25
0c
f8
1d
f9
fc
f9
0a
f7
13
12
f3
01
20
09
03
f7
09
e2
f8
11
09
e6
12
03
0b
f4
18
01
f8
01
fc
f2
0f
f7
08
16
f5
e9
0c
ee
0b
06
fd
1e
e8
1a
0b
e1
e2
05
07
f8
f4
fe
00
f0
e4
eb
ef
0f
ec
09
ef
01
05
db
1b
0a
15
fc
fb
f4
20
ec
0e
05
f0
fc
05
12
f1
03
f3
00
08
09
f1
df
f2
f2
fa
0b
d7
0a
07
f2
fa
fd
0b
0c
f8
04
f0
07
0b
16
ed
e9
f6
0b
f9
02
24
19
fa
f7
07
32
1f
45
eb
02
1e
fb
07
e4
ee
1b
db
f7
de
12
f8
fe
ff
0c
00
e3
09
ff
ec
0d
e4
d1
e0
11
f7
29
eb
ed
13
ed
ee
1a
e1
0c
f6
14
21
f6
de
09
15
e1
01
17
00
f7
fe
ea
ce
00
e4
27
04
11
0d
ff
09
0d
fd
01
0d
13
0e
07
05
ff
05
06
fd
ec
f5
2b
fd
f2
06
fe
1a
fd
11
0f
ea
0e
1b
f7
14
10
1b
f3
fd
03
14
06
f8
df
da
11
15
02
28
dc
1a
ff
03
0e
f0
ec
fc
f9
00
0e
d5
e3
ed
f3
ff
02
0f
ec
09
0a
fc
11
ff
0a
eb
eb
17
18
17
09
08
e6
f8
02
fd
00
f2
f6
f0
d0
00
06
28
ed
12
f1
0b
0e
e5
0e
d9
f2
f5
05
ff
e3
02
10
0d
ef
02
d6
f6
03
10
0b
f9
04
1f
1e
01
00
ff
1b
12
fc
22
11
fe
fe
08
ef
03
07
ed
f1
0e
0c
09
fb
fc
00
07
e7
f2
10
1c
ee
f6
0b
00
03
ee
23
fb
e6
f1
01
12
f0
ef
1b
ea
f7
02
12
01
1c
12
f2
00
08
01
f5
0e
0c
fa
f0
05
fe
f4
09
27
f5
03
ee
dc
ed
07
11
05
02
f2
2b
fb
f8
ee
e0
1d
fa
03
09
fb
ef
00
f5
f1
e5
13
f2
ec
fc
27
fd
0f
f8
e3
07
1f
fe
f0
10
02
08
00
1c
0c
06
0e
ef
00
03
00
0d
fe
07
fe
f2
fe
18
fc
0f
f7
ee
02
05
f8
08
04
ee
0d
e9
09
03
02
f5
f5
f5
0b
f8
07
f9
f8
f9
06
0b
04
12
f9
1d
f7
0c
0f
11
05
d2
03
cd
e6
fd
fa
e8
09
0b
00
f7
09
06
fe
0a
f7
f2
01
17
0c
05
09
0a
de
e1
02
09
11
1f
ff
0f
f5
07
ec
03
e7
09
f3
06
f0
0b
f9
0f
f4
fc
02
0d
06
00
11
f4
0b
ef
13
e5
04
f9
11
f8
ff
0b
12
f5
1a
da
21
11
02
ee
11
fc
14
21
09
eb
04
f0
f7
f8
10
00
01
f7
f1
ea
e4
f0
02
01
10
fe
fd
04
f7
06
1a
12
01
14
00
f0
07
0a
01
14
05
e4
03
13
00
fb
1f
01
d9
02
e9
0c
03
f3
21
25
f2
0b
08
10
e7
f6
18
e9
eb
07
24
fc
03
0a
16
fc
e6
18
05
02
17
fd
fc
05
22
10
04
fd
f4
f8
09
ee
ee
0f
e8
1f
f5
0d
e5
05
dc
0f
eb
fb
05
13
f2
07
f1
ff
02
0b
fa
02
f0
f6
d8
14
dc
f6
f4
f1
13
1c
01
21
f9
31
e9
11
ff
19
08
fb
f9
13
fc
21
27
29
f3
f5
1e
13
ed
0a
fc
f7
0d
e0
fd
18
0d
f7
36
e8
03
0f
e2
f3
f6
f8
0c
22
e4
1f
f6
fc
d5
10
e7
f6
0c
fe
ee
0f
09
f8
01
16
13
e2
bb
04
14
f3
f5
0c
e7
11
e8
1d
fb
cf
08
0d
fb
08
ed
1f
0b
1f
fe
e5
fe
0f
ee
18
1f
22
06
f4
16
e4
27
fa
0b
0a
fb
0a
db
1b
f0
fc
de
ed
fc
0e
f6
cf
08
e4
ff
ea
f8
ef
08
e1
b2
fb
11
20
0d
24
fd
f8
ea
07
0b
07
fb
0f
f1
07
0e
07
f5
17
e2
0c
f1
fd
fa
0b
20
14
05
f1
f8
08
03
02
f8
16
03
f7
14
0e
0a
0a
f2
30
f0
f8
09
13
02
09
e0
e8
fa
0d
e8
fa
f2
f5
0a
11
f6
00
0b
f6
12
f8
0e
e3
14
f5
0d
01
00
29
04
0d
ff
ec
0a
e9
f4
f5
f6
f5
05
07
0e
1c
f3
1a
fb
f6
01
fa
fe
03
ed
08
1d
f7
04
ec
08
f7
29
e4
ee
f7
16
06
ef
f4
ef
f3
0f
fc
f6
e8
0e
f3
05
04
f9
07
f7
09
fe
ff
e6
eb
fe
14
02
12
ef
04
02
09
17
fc
fd
ea
01
fd
03
ef
07
ff
06
0f
19
17
fe
f6
32
15
0b
ef
10
14
10
f5
f4
e7
05
12
1e
f4
07
07
e8
ff
fb
00
f8
0b
1a
f6
17
ea
09
10
fe
11
fb
ed
0d
ff
ec
e2
f3
ff
fc
16
fd
f7
f1
fb
e7
09
0e
f1
ff
f1
ff
ed
11
0b
f2
01
f4
f1
fc
01
07
f5
11
ed
ff
f8
f8
f2
05
19
0c
01
fa
f9
01
f0
07
05
0b
f6
ea
f2
f7
fd
ef
f5
e6
1d
e3
12
e4
04
e7
00
25
01
e6
15
01
10
f3
11
fc
08
f4
fc
06
e9
0f
29
fa
fb
f3
01
fe
ec
01
05
01
0c
f6
05
01
09
f0
02
f3
07
04
fd
f9
07
00
f3
fe
05
f8
fc
01
0d
f8
01
03
e8
f8
fc
fe
05
0c
0a
f1
fe
04
f1
06
08
f3
05
f8
04
08
fd
f3
11
00
09
fd
0d
fd
fd
00
fb
09
06
02
00
09
f8
fc
01
07
fc
f8
fc
ff
0b
0d
ff
00
05
00
00
f9
f9
0b
04
fd
0d
09
0e
06
fe
05
f5
05
ef
07
05
f7
ff
05
03
fe
00
02
fb
01
fb
01
f7
fc
00
09
fd
fc
03
f7
09
f8
09
01
01
fd
ff
f8
fe
04
fc
fe
04
09
fc
fe
0d
0e
ea
09
f2
02
f8
fa
01
0c
09
01
e4
f5
f8
02
03
12
f6
02
e8
07
03
05
f1
00
f1
ee
02
00
fb
f1
1b
01
ef
09
f1
0d
10
0b
04
21
fb
0d
fa
e3
05
02
04
f2
f0
05
e8
0d
12
0c
f7
e9
14
0a
fd
f6
ff
0e
07
05
06
11
00
f9
1c
0a
05
f0
f8
1b
10
03
07
04
fb
fa
0b
fe
d7
f6
f8
f0
16
06
0d
f2
f8
fe
f4
fe
02
f7
ef
ef
13
f9
13
f3
10
f4
00
06
0b
23
fc
fe
0c
03
04
13
0a
e9
04
f7
fa
fd
03
f9
02
ef
fc
02
f6
ff
ff
e3
08
02
0a
07
02
fe
05
fe
0c
11
01
04
f4
f3
19
1b
0c
f9
ed
f5
0a
00
0c
15
05
fc
f7
ff
f5
18
fe
09
0f
07
ee
f7
07
01
fe
f1
08
1a
fe
09
f5
07
07
07
11
fb
fe
f4
0e
0b
ff
01
07
fb
f6
ea
fb
e2
fb
00
07
0c
f6
e2
ec
0f
f6
ec
01
0e
f4
e1
fe
0d
0b
ee
0d
0b
0a
23
fd
f0
fd
04
0e
07
12
09
f0
03
fc
08
f3
e2
fe
0e
f0
0b
0c
01
fd
f8
09
f7
f8
f8
00
e7
f2
0e
08
03
0a
10
08
00
f8
fc
00
f0
f7
fa
05
00
00
f9
fb
ff
02
fa
0a
f5
14
13
fd
00
0a
00
ef
f8
ff
03
04
06
0b
fe
0d
05
f4
f6
04
f7
fd
05
06
f4
01
00
f7
0e
f8
f9
0d
f6
04
11
fa
f3
03
06
05
fe
09
fe
fa
fb
f8
05
04
fe
fb
06
f7
fe
f8
0c
07
fe
f7
0a
02
06
fc
fb
07
fd
fb
f6
fc
0d
04
fc
07
02
0e
06
01
f4
f8
08
f9
04
02
03
f9
03
07
fe
10
ff
ff
0e
fa
f8
fc
f4
f8
04
00
f7
01
fd
f9
ff
06
0b
04
03
fc
f6
f9
fa
ff
fa
0f
06
eb
0a
0c
fb
02
00
f3
f7
fe
05
f5
0a
09
f5
fa
f2
fd
06
07
fe
f7
f8
fe
fb
0e
07
00
06
0a
f8
08
f8
0c
ec
11
f0
02
03
ec
05
04
f1
fe
12
ff
04
00
e8
fe
ef
02
09
ff
07
ea
0f
ff
f5
fa
f7
07
05
ff
f3
04
16
f4
f9
fe
15
ff
e6
08
0a
0f
fe
07
0a
ff
01
f8
00
00
01
fe
f0
ef
f5
fc
ea
05
0d
07
01
02
fc
fa
0b
0f
03
fb
ee
07
08
07
f4
0c
03
f7
0c
f9
15
f3
07
f8
0b
f7
01
0c
f9
fd
01
05
04
0b
fe
fb
f8
03
fa
e9
ff
0a
04
09
fc
0d
02
07
ec
fc
fc
01
15
0a
f9
f6
fb
ff
fd
02
f8
01
fb
0b
f9
0c
0d
f2
05
ff
ff
f9
06
0a
06
fa
fb
f3
fd
00
f9
fe
f4
00
19
f9
f7
08
f4
0a
02
08
f8
ed
f9
01
0a
07
02
f9
06
f4
fa
f6
00
fd
fd
03
04
04
02
f7
fe
00
f7
00
f7
fd
03
f7
fe
06
08
16
05
03
fe
fa
fe
f9
0c
07
fe
08
05
fb
00
08
06
f9
fc
f8
fe
f2
03
f8
05
fa
e6
03
03
02
fd
05
fe
f9
fb
f8
fd
fa
02
fd
02
f3
fe
fe
fe
f7
fe
05
ff
0d
f2
0b
fc
01
f6
fc
fc
08
0c
fb
f4
f5
fe
f4
07
09
08
02
fc
0b
fe
07
05
e7
fd
07
fd
01
04
0f
f3
fc
fe
f2
fb
0c
f2
0a
ff
ff
16
f8
fb
fe
03
00
06
08
03
f8
fa
ff
10
08
fb
01
fd
fa
f0
eb
f9
f7
fc
f8
08
08
07
f6
09
0f
fa
fa
f6
f3
0b
04
0a
08
fa
0b
0d
00
fe
fb
07
02
14
f9
01
05
0d
03
04
06
00
fc
0e
f6
05
00
f4
f3
03
f3
f1
00
05
f5
02
01
fa
01
03
fc
f3
f9
f7
04
0d
f3
04
fe
06
12
0e
f4
19
ec
f5
f0
f6
fc
0e
fe
07
fa
e6
01
f9
10
0c
ea
fc
f0
ff
06
09
03
08
e9
e5
fd
09
f7
0a
19
ee
07
f8
fa
00
18
08
f7
ff
03
19
f0
da
0b
fe
14
f4
eb
f4
f9
0e
0c
09
fd
f9
02
f2
f6
05
f6
19
0d
03
11
02
0b
fa
09
1b
10
eb
05
12
16
0c
ed
12
ef
00
f8
f8
e8
fa
01
01
15
03
f4
f4
05
05
ee
f7
04
f8
0b
f6
1a
ff
0c
09
15
01
05
ff
04
10
eb
f6
0b
03
ff
16
15
ed
10
07
f6
0f
fe
e7
12
fa
12
e8
c5
05
f5
ec
13
03
04
e6
06
e5
0f
fa
06
20
f3
f6
e7
03
17
0e
08
f8
e9
f3
1f
f3
14
18
d4
f6
09
e1
00
27
09
22
f5
05
c6
fb
17
09
f1
00
fe
17
f1
00
f2
15
15
1c
16
f7
f7
f3
fb
0d
1f
18
11
f0
06
f0
e1
f1
e8
f0
e8
13
1c
ff
eb
14
0f
04
f8
db
0d
ed
02
02
15
16
08
fd
08
08
e3
01
fe
1e
f4
fb
fc
16
0a
08
e3
01
02
06
f8
f0
f2
e4
e7
27
fe
f7
0f
03
05
f5
12
fc
f3
f7
ec
f1
01
f0
05
01
f6
03
f8
fe
f9
f9
1a
f8
0f
fa
08
05
0a
f8
f7
fb
06
ff
01
04
02
fa
03
03
0a
01
01
ff
09
f3
11
13
00
fb
fe
fd
f4
fb
07
f3
fd
fe
f2
00
fc
f0
04
00
05
12
fa
fb
fc
06
03
03
0c
fb
f8
fe
08
0d
f4
fa
05
fc
fd
f6
05
fc
00
01
fc
f9
fc
00
fc
07
05
f7
f1
fc
00
06
0c
fc
0c
fa
17
08
06
f4
fc
06
fd
02
04
fd
08
00
01
fc
0b
02
f8
0c
fb
00
fb
02
f9
fd
f8
f6
09
04
f8
fc
01
fe
02
03
fe
01
09
fa
03
f7
fa
f9
00
f6
f4
03
10
0a
0f
f7
04
fd
04
f8
02
f9
0a
07
02
01
06
00
f3
ff
00
f6
ff
00
10
00
10
07
e7
01
fd
f8
fe
03
12
ee
fa
03
fa
09
f8
f9
0f
fe
04
0f
01
f4
01
03
05
fe
14
ff
f4
f5
ff
09
00
05
02
05
f5
fa
f2
fe
01
00
fe
03
02
0f
f3
01
09
fd
f7
e7
fd
02
fa
07
07
02
12
07
04
05
f3
0a
01
0a
fe
fb
02
05
06
09
05
02
f4
0b
01
05
fb
f8
f0
01
f7
ef
06
f9
fb
fe
fe
ff
ff
01
ff
f8
f3
f2
09
00
eb
f7
fb
fe
fe
02
0b
02
0b
ec
07
f8
0a
f7
f3
fd
01
0f
04
fc
fd
ff
e9
03
02
00
fe
f9
0c
fc
ff
f9
f6
f7
f4
09
fb
01
0c
e8
02
fe
fe
0f
00
ec
0b
09
00
08
09
f6
16
f5
fb
f8
0e
03
fd
f9
03
12
fc
fa
f5
16
f5
f6
09
01
07
fc
04
fd
01
0c
f9
fc
0a
f9
03
ff
f1
16
fb
f9
02
fd
13
13
f8
07
fb
06
f0
06
07
03
0c
00
fd
09
06
0b
fd
04
fa
0b
04
02
fd
f3
f9
f7
06
f6
fe
fc
f8
0a
02
05
0c
f4
f8
00
fe
05
02
fd
0b
00
f5
03
05
f3
02
fe
0e
03
05
f1
f2
00
04
05
03
fa
f6
f1
0a
01
13
0b
f3
f8
f8
fc
01
12
1b
0a
02
08
f6
0e
06
07
0f
fa
f5
00
12
f7
f6
ef
ff
1b
f6
0d
ed
fa
14
08
0a
fa
f8
fe
12
0a
f1
fb
01
0d
fa
db
fb
11
fb
ec
fe
12
ed
ef
ef
15
fa
e8
10
f6
10
f5
00
07
07
f4
1d
06
fa
18
ff
ec
06
fc
f9
05
0f
03
f9
09
04
0f
e9
fc
f9
08
ec
1a
02
ed
fa
ed
0e
01
fd
03
fa
ed
e9
07
f2
12
00
0a
fe
f8
f3
00
ff
01
f2
fa
0d
00
0a
f7
03
04
03
f5
fc
f5
08
0c
00
02
09
fc
f3
ff
05
f9
00
01
0c
f7
06
05
f4
fe
f8
04
01
08
05
f4
f5
fd
ff
06
f9
f5
07
fd
03
09
fa
ef
07
04
04
fb
0a
00
f8
01
00
11
f8
f7
fc
0f
f9
fb
fb
ff
01
03
fc
02
02
05
fd
02
fe
f5
f3
f4
f7
04
00
f8
0a
f8
11
06
fc
fc
f7
fe
f7
0d
ff
f7
03
0c
04
03
08
00
fd
09
02
05
01
fe
fc
06
f5
ed
01
fd
00
fb
ff
06
06
09
07
f5
02
01
fb
fe
0a
09
07
08
0c
ff
f9
f5
ff
10
fc
09
fd
11
05
04
fc
f8
fd
01
fe
f8
16
0b
00
ff
fe
00
ef
06
fb
fb
12
0c
03
f9
05
fc
f3
0d
08
ff
07
fb
fb
05
f3
03
fe
f8
05
05
f8
ff
00
01
f1
01
04
ff
fc
f9
fc
00
07
fe
05
fa
07
fd
02
06
05
00
f7
ed
ff
05
00
07
04
0d
10
f3
05
01
f3
f6
fc
fe
f8
00
06
f3
0a
fe
fc
00
fd
f8
02
00
f7
fc
04
fb
fc
fb
02
0a
09
01
07
0a
fc
08
ff
0a
08
fb
fd
01
f8
0a
06
00
03
0f
01
06
ef
08
1c
f8
02
00
06
f7
ed
07
fe
13
fa
f5
fd
e5
0e
0d
10
f1
fa
f9
07
04
16
07
ee
05
05
02
1a
fc
0a
0d
fa
d4
fe
e7
fd
f0
14
fc
e2
f4
0b
f4
ff
fb
0a
0a
0a
f9
fe
ef
e6
ff
fe
03
0f
fe
eb
f1
05
03
fb
04
22
05
fc
0f
05
e8
e8
fe
06
03
f4
02
07
1d
fb
0c
03
ef
e6
f0
06
0a
ff
ef
02
05
08
fb
00
fa
fb
01
fe
f5
1c
06
f6
17
f9
18
06
13
00
e1
01
00
ed
ff
f7
11
f5
fb
04
04
ff
19
f7
0b
06
03
0e
df
04
f8
ed
f1
fc
01
d8
ff
02
12
f5
09
19
05
fb
f8
04
0c
ef
06
06
00
f6
f9
f7
fe
19
1f
fe
06
ee
ec
0c
d7
1c
f3
08
18
0c
1c
01
f8
e9
13
01
07
0f
10
0e
f3
f7
ea
09
fb
02
06
0b
fa
01
fc
11
08
00
ec
11
03
f8
06
fe
f2
f7
02
05
00
09
f7
f7
13
05
04
fd
04
04
12
e6
1b
ef
ee
07
fa
09
ee
f7
01
fc
0a
e8
0f
fd
f7
e2
f5
15
ff
12
f4
f8
00
ff
14
02
18
f0
09
f8
22
17
04
12
05
fc
06
fb
f2
09
ff
08
02
01
fa
08
05
06
01
fb
fc
fd
01
fe
08
05
fe
ef
ea
ff
10
10
13
02
12
ea
04
16
1b
ed
ff
e9
f0
00
fb
fa
fb
12
e4
fa
01
f9
0b
15
ff
0a
06
fd
0b
f5
16
13
00
07
e8
e6
10
f4
f6
fc
07
05
fa
fa
fb
0a
01
f2
06
fb
04
fd
f8
fb
02
04
07
01
ff
01
fb
f4
17
f6
0e
e2
05
02
00
ee
06
fd
11
06
09
00
02
ee
fb
f9
fa
fd
f6
f8
0e
02
ef
18
fd
04
fd
0c
0a
03
f2
fd
04
06
0a
0a
04
15
f5
1f
fb
f3
06
fb
fc
07
f7
f3
0b
f5
14
ed
fb
ff
fb
09
04
fa
00
16
13
f8
0c
fc
1a
13
fe
f9
fb
f6
0c
f9
03
00
00
ff
f1
d7
e7
25
f2
23
0f
fd
13
fd
f2
0e
05
f8
0f
f5
06
fa
1b
0b
20
05
fb
f4
1a
06
03
0b
05
f5
e9
0e
fb
0e
10
19
0e
f3
1f
e5
e1
f7
e6
ff
12
fc
ec
0a
05
0e
ec
13
0c
0f
f7
f4
12
e5
01
f3
11
02
05
f1
f6
f6
fd
f3
23
0c
f6
eb
e7
10
11
14
f6
f5
e0
fd
06
05
15
01
00
10
0d
09
23
03
ec
05
02
ee
d9
f7
01
f9
eb
11
08
18
0e
fa
16
e5
ec
01
0b
ec
0e
ee
f8
f4
e8
f6
ec
08
fa
f5
0b
e0
11
08
0e
f3
e8
f8
e6
0d
ff
03
fc
17
e9
fb
f5
14
06
20
12
09
0d
eb
1a
f4
1c
14
09
15
f1
e5
eb
eb
fb
1e
02
01
f5
02
03
f2
fe
e6
17
08
f4
f3
0f
08
f9
11
0e
10
09
0c
06
0b
0f
ec
26
fe
02
f5
f2
e8
05
f5
00
1b
fd
01
f6
04
02
fd
0a
f5
f4
fc
0a
06
07
0b
f6
16
f6
0b
ff
fd
08
f7
f9
07
ff
0b
01
12
ef
0e
ff
e6
01
02
00
f6
fb
00
0c
0d
08
04
00
f8
f9
09
fb
f0
ef
f6
ff
06
f6
03
f6
fa
ff
eb
fb
ec
06
fd
f7
0f
09
f6
d2
0f
f9
07
08
00
f5
17
e8
02
07
25
0d
11
03
fa
05
02
03
13
0b
0c
fe
f9
e9
e2
fc
06
fc
0c
f8
fb
fa
01
ff
f7
07
05
07
02
0b
11
09
06
08
f4
fc
f9
fb
18
ff
f0
12
01
09
09
dc
fb
02
ff
04
01
fb
fb
0a
07
0a
02
fd
01
0a
07
f6
fd
03
f9
05
fe
12
07
fe
ef
0b
f7
fd
02
f8
f0
01
10
ff
03
08
fe
0c
06
fd
fd
07
ec
12
f9
07
02
f6
ff
02
fc
11
02
e7
02
0a
02
08
08
01
03
ee
0e
06
19
f0
11
f1
fc
1c
fa
1a
03
f7
0b
fc
ef
0d
07
05
fd
07
f0
f0
04
f4
05
e8
ee
e7
e8
07
ee
09
00
fd
14
fc
f2
fa
fb
0a
ff
f5
f7
0e
f8
ec
f5
0f
04
fa
05
03
ee
f4
fe
08
fc
ec
ff
07
f2
f7
14
10
07
fb
16
f7
fa
13
fb
01
02
11
07
f9
13
0f
fd
f6
05
fb
fc
10
fd
03
05
fe
f3
f8
14
00
11
0d
00
e9
f8
e8
02
0d
f0
05
0c
14
f6
0d
f6
f9
d9
03
f5
20
0a
18
f6
02
eb
fb
1a
f4
04
fc
ee
16
f7
e6
f6
11
f5
0c
e6
08
fa
f1
00
f1
e8
f2
f7
02
fc
00
0f
0b
00
0b
ed
0c
01
05
0d
fc
f5
19
f8
0a
fe
fa
03
f3
f3
f1
13
ef
0d
23
f9
dc
00
07
ed
0e
f5
11
07
0e
00
f7
f8
02
07
01
09
f0
06
11
fd
05
f6
17
07
0e
03
10
f6
04
09
00
0e
05
09
ff
04
08
03
fe
ed
fb
fc
05
19
f5
15
04
06
f9
07
05
19
fd
04
f4
09
e4
09
fb
02
f9
0c
e8
f6
05
0c
0c
f5
0c
f8
00
fd
f3
f3
11
01
f8
f9
02
0b
e9
f0
09
02
08
0e
06
df
f1
02
fb
12
01
09
02
f8
02
12
10
15
0b
f8
ff
dc
12
0d
fb
12
05
00
01
0e
f3
06
e8
ee
f8
f8
07
f6
13
fe
e8
fb
ff
00
06
09
01
fe
07
f7
05
02
fc
fc
0a
fd
fd
f6
fc
02
ed
0d
02
f0
07
03
f2
01
f5
1e
03
fb
fc
16
0e
0a
ec
f3
f5
ef
04
06
fe
df
06
e6
03
0c
02
04
f8
e5
f5
f0
0f
05
f8
09
f7
05
08
e4
f6
ed
08
eb
0d
fb
0f
08
f3
f7
0a
13
07
f3
01
ef
07
f7
06
f5
05
fb
fa
fe
06
03
03
fc
0c
f3
02
02
01
13
06
fa
0c
19
03
f5
03
fd
13
ff
fb
0d
03
00
ec
00
0d
03
f9
f6
ff
f4
08
e9
fc
ef
f9
f8
0a
f8
fe
f8
f7
fe
00
f4
0f
05
fb
04
08
02
00
0d
0b
f2
ff
eb
fb
e1
f9
0a
f2
0b
02
06
09
f5
0a
05
f1
f6
f3
fd
14
03
ff
0c
f7
09
0c
0e
0a
f9
fa
fe
ff
f8
f3
f0
06
07
08
0a
f3
04
f9
03
11
04
05
05
07
01
fe
16
f9
fc
03
03
11
f6
fc
fd
f4
01
fa
11
fd
f8
f7
0d
00
06
00
14
fb
fa
f1
02
f6
08
f0
10
04
fc
ff
f9
fa
02
fb
fc
f6
06
f9
06
eb
03
03
06
03
09
04
0b
f1
01
06
04
05
00
06
f9
fd
0a
03
03
05
03
0d
06
0a
fa
ff
05
f1
01
14
f9
ff
ff
f7
06
f4
02
f8
fe
fc
fe
02
08
02
fd
04
f9
03
11
eb
07
03
04
12
0f
ed
f7
fc
0c
09
fb
04
f8
05
fd
01
03
02
0c
0f
ff
01
f7
09
ee
08
f7
07
f2
fa
ed
09
fb
17
f6
09
ee
02
f7
10
07
0f
ff
ee
fc
08
fa
04
fe
02
13
fb
f8
f9
f8
14
01
0b
08
fc
f3
f5
fc
e7
03
05
fe
f5
fe
f5
f6
f2
19
fd
f8
ec
03
fb
07
ea
1f
02
00
ea
11
f4
03
f5
13
04
f9
fd
fb
fe
02
0c
16
11
f7
00
ed
03
f4
03
f8
07
07
00
ea
f7
0d
ff
ff
00
19
10
f4
13
00
e6
f3
f9
05
04
fd
11
07
0b
fd
05
fc
e7
f1
f5
fe
08
1c
fe
05
fe
01
07
f7
f7
00
fc
f1
fa
09
17
fc
f4
f5
0c
03
19
00
f7
f9
fe
f6
fb
00
17
fe
f1
06
06
12
05
09
fa
0a
f8
14
03
f4
ec
dc
10
f4
02
f2
fe
01
fc
0c
e1
0e
10
0e
09
f0
da
d7
10
0e
0d
11
fe
ed
fd
06
0b
f2
0b
e7
0a
fb
f4
0c
0a
f2
0e
e7
0b
f2
e9
04
0a
e7
00
0b
00
fa
fe
f3
0c
0d
12
1a
fb
ea
10
05
fe
15
14
ea
05
07
f2
d3
fa
04
f2
eb
24
0b
f3
0f
07
fc
e6
f9
f5
f5
00
05
10
09
06
f9
ed
09
03
f3
f4
09
06
03
fb
12
00
06
10
f1
ea
fe
01
1a
ee
fa
06
03
02
06
f4
fb
0c
02
e9
0d
f9
ec
f2
f8
fc
0e
0f
ec
fe
09
e7
f6
1c
fb
10
fe
00
f1
fe
08
0d
20
f2
e0
11
00
eb
ed
f3
fd
01
06
20
06
1b
25
01
ec
db
fc
f9
ff
08
06
f0
05
ea
00
0f
11
1b
eb
ec
03
07
f3
01
fd
14
f7
0e
fe
06
f6
01
fb
f1
f8
eb
1c
f3
0a
fb
fb
f9
db
f7
f6
f2
ee
fd
05
f6
0a
ff
0d
11
fe
18
09
11
f2
f4
fd
0e
f0
f0
ff
f4
11
02
ff
fe
16
0d
08
04
00
0a
ef
fb
f3
0a
fe
fa
02
07
1b
fc
0d
0f
00
ea
0d
09
0c
fe
f5
e8
06
f2
fb
05
00
23
13
00
13
00
0b
05
fd
f7
f2
01
f4
07
fa
fe
ff
14
05
f0
08
f2
f3
0b
ff
ff
0b
07
f1
ff
03
fc
fc
f8
00
0c
0c
fa
0b
03
01
dc
01
0c
00
fc
ef
07
eb
06
01
04
06
fe
0e
00
f6
fa
02
fb
03
02
06
07
ff
06
05
07
ff
f0
06
01
04
01
f4
fb
fb
fc
02
fd
03
0b
02
0a
0c
09
ff
fa
f1
f3
f7
0d
02
f4
0e
ff
0b
0a
09
03
f4
05
f3
02
fc
ea
eb
0c
10
09
0a
f1
00
09
f8
02
09
00
f0
0c
06
00
0f
f0
07
fd
fc
07
06
03
08
f5
f3
fa
fe
04
05
03
19
11
10
f0
03
f3
f9
f4
fd
09
fe
00
13
01
10
12
eb
fc
04
12
f2
e9
00
03
02
f2
10
0c
ec
0d
00
18
01
f1
01
01
09
10
0e
fa
f8
05
02
f4
ef
ef
0e
fe
0a
f7
05
fe
0b
f4
f0
08
f9
fb
08
fc
07
fe
04
f8
01
fc
f9
0b
09
0b
ed
03
02
08
0b
f9
0c
0a
0b
16
10
f4
ff
03
fe
08
fc
05
f6
fe
05
05
0f
fd
03
08
0a
fc
04
01
ed
0d
fa
fc
ec
f7
00
09
05
06
f8
f6
ef
ff
ed
05
ff
10
f8
fb
ff
f1
fe
eb
15
07
04
f2
04
f4
13
f9
06
ef
00
03
fe
04
06
04
0b
01
02
fc
06
06
0e
fc
f2
01
fe
0f
0e
02
10
0b
fa
f4
00
19
03
ed
f8
02
0b
ff
03
fb
16
f8
03
e6
e8
fe
fc
f7
0e
0a
00
04
05
f4
f2
07
f6
fb
00
f4
0a
ef
06
f0
04
fa
ff
0c
fd
00
ea
0a
f1
f5
11
fe
03
07
05
0d
06
fd
0e
f8
f3
0e
f9
f8
fb
f7
01
0a
15
fa
21
fa
0c
02
f1
0f
f9
12
f9
ff
f5
f2
fc
fe
f9
07
05
04
ec
06
02
06
ef
fd
0c
0f
fc
07
f8
04
00
03
0f
fd
08
08
01
f9
ff
0a
fd
fa
08
04
04
fd
fc
04
03
19
d2
fd
05
fe
04
09
ff
00
09
d8
fe
f4
00
fa
05
ff
01
d7
ff
00
22
02
01
f6
fe
06
ff
f9
f6
07
f7
fd
0b
03
f1
fa
fe
02
fc
ff
00
fe
06
04
00
0d
11
04
fd
03
04
fe
fb
07
00
fe
08
05
06
fe
fc
19
06
05
f5
06
0a
fb
00
ff
06
f8
fe
04
fd
01
fd
01
05
04
22
04
00
01
01
fb
04
0d
02
ed
03
0d
fc
03
03
05
ee
ff
06
0b
fb
02
01
fd
03
f1
f5
fe
0d
05
0c
03
f3
fb
11
f6
0d
fe
02
fc
fc
fb
fb
03
fe
f3
01
f5
d8
fe
ce
fd
fe
f9
f7
f7
05
c2
f5
09
01
0c
07
05
05
f0
f6
fb
21
08
00
0a
01
20
fd
0c
fe
09
0e
fe
00
01
fd
06
10
08
03
06
03
f8
ff
ff
03
10
f9
08
fe
f8
fb
fd
02
09
f9
f3
f7
ff
fe
ff
06
1b
03
05
03
01
b4
ff
fe
00
02
fd
01
f5
01
02
01
05
02
fb
fd
0f
fd
fd
fe
05
07
05
fa
fc
fd
fa
ff
f6
fc
01
f8
ff
06
f9
03
05
06
ff
fe
01
f3
fc
fe
07
09
0a
04
06
fe
08
04
fa
00
04
04
fe
05
07
fa
05
07
08
e7
f8
f7
03
fe
f9
04
06
f8
c7
06
02
00
ff
f9
ff
f9
ce
00
01
26
10
03
ec
04
04
fb
f2
02
fe
0e
fd
fd
00
ff
04
fd
fd
02
fc
09
fe
fe
07
07
0d
fc
00
06
ff
fd
fa
01
0e
07
fd
0a
01
fa
02
00
1e
f3
ff
07
ee
05
09
f9
02
01
03
f8
08
05
02
00
fd
04
ff
1e
f9
fe
ff
fd
01
fa
f4
0a
10
fa
05
04
04
00
02
f0
ff
fc
03
07
00
f3
fe
fd
10
09
0f
f9
04
07
04
0c
13
f8
f5
05
08
ff
02
f6
f6
f6
03
f2
13
03
08
19
04
19
0a
0e
09
f0
fc
1e
30
05
fa
fa
f6
fd
12
04
02
fd
fa
ea
f4
03
04
f2
e7
02
08
fb
07
ff
0d
fe
0a
fe
ee
f7
08
02
fe
02
fd
01
04
01
00
01
02
f6
f7
07
fb
ff
fa
0d
01
00
01
f1
0a
0a
f4
0c
fd
f7
00
2f
0c
10
fb
f5
fa
07
07
f4
07
f4
03
fd
02
f0
07
06
0e
f2
f7
f6
0b
00
fe
f7
08
f4
ff
f6
fd
ff
fd
05
f9
ff
fa
0a
e9
fb
05
ec
07
f4
08
fe
fc
05
05
05
07
0d
05
fe
fc
f7
fe
10
00
f1
f4
fb
ee
fd
07
09
fa
02
f8
02
fb
f8
0d
fe
f7
fa
08
dc
fc
07
de
fe
f9
00
ef
06
d8
11
fb
ff
ea
09
05
ff
07
f4
02
0f
0c
f7
02
0e
0a
09
0d
fd
0d
fe
00
03
fe
f5
f9
04
fb
fb
02
fe
ff
fa
f4
07
fd
fd
01
ff
fe
09
f4
6f
04
06
01
fb
08
09
05
fb
ff
fc
07
f6
f5
20
0a
05
f2
02
01
f1
fe
fb
05
fd
f5
01
f5
05
f6
f1
f6
f5
fb
0b
06
07
02
fa
03
ee
0b
f6
f8
08
13
ff
ff
f5
fe
08
f6
08
ef
ff
0c
ff
0f
02
ee
ed
fa
1d
08
f1
0e
0b
f7
fb
f3
ff
0d
fd
0a
f7
09
e4
f3
10
fa
05
fa
f1
f0
0e
ee
f7
02
fd
e9
09
06
fa
fb
f9
fe
02
08
f1
03
05
07
08
08
04
01
f7
f8
03
06
f3
f4
03
fa
04
f0
f9
07
10
fa
f7
0d
fd
f4
ff
f5
0c
fa
60
05
06
08
fb
fc
09
06
f1
ed
fe
11
f1
fc
16
09
04
f6
12
10
f7
eb
fe
ff
fe
eb
02
f4
01
f2
ec
f9
fa
f8
f5
fe
fb
0f
ff
05
f3
f8
02
ff
09
f7
05
11
02
fa
fc
03
01
f8
fe
03
fb
f1
02
05
07
f6
e4
fe
fd
04
ff
07
03
fd
06
d0
04
fc
f0
03
f1
09
00
e5
09
06
27
0d
f4
f2
0a
07
05
ef
ff
f9
fd
fc
01
00
09
fb
09
03
fd
03
fc
fb
04
f6
04
0e
05
fb
06
05
06
ff
fd
12
06
03
fb
fd
f3
f5
06
21
05
07
f9
ff
13
02
08
02
fe
06
03
f8
fa
03
f9
01
fb
fa
28
0a
02
02
01
06
f9
08
00
05
04
05
07
fe
02
ff
f5
00
fc
f9
04
ff
08
fd
ff
fa
f7
fd
fd
06
fa
07
ff
ee
fe
08
fd
f7
07
fd
01
ff
05
03
0a
f2
fa
ed
19
05
08
07
f7
ed
02
ff
04
39
08
f8
01
01
ec
f4
0e
0a
00
ff
e3
f2
02
09
0c
fb
06
f7
00
00
ff
fc
04
f2
02
00
fc
03
09
02
06
06
05
02
f5
ff
02
fd
0a
04
02
06
02
fe
07
f7
f7
09
fd
fc
fd
ea
ff
05
06
fb
3f
fd
0a
f9
06
05
02
f4
07
fa
fe
05
f0
04
ef
04
0e
f7
00
f7
fe
08
00
08
f8
ff
fe
f4
fb
fe
ff
f3
fd
f7
0b
05
07
fb
05
fd
0e
06
04
09
fe
fc
02
f9
0c
f5
0c
00
07
fb
fa
09
fc
12
fe
00
02
06
23
fe
ef
16
02
04
ff
ff
00
24
02
0b
f8
07
05
0a
0b
25
04
f5
d5
fb
06
13
e6
fd
0e
06
0e
fd
02
02
fc
fb
04
fd
f8
ff
07
08
07
06
ff
02
01
fd
f7
00
fc
01
06
fd
04
fe
12
05
07
09
f8
09
11
d3
f0
03
f6
05
f0
f5
08
fc
fb
fa
0b
02
f9
f8
f4
03
fb
fa
df
fc
fe
fa
04
ff
01
02
fa
0c
0a
fd
0f
f5
01
fc
0d
ff
f1
f4
fb
fa
fd
ec
0f
06
f9
05
fd
fd
0d
fb
09
fd
06
03
10
01
fc
00
f7
00
05
fb
08
08
06
fc
e0
ff
20
12
ff
01
fd
02
04
03
0b
12
00
0e
e6
fc
fa
d5
00
02
06
05
f3
e3
f5
fc
06
df
00
03
0a
05
01
fb
ff
ec
01
07
02
0b
f7
ef
08
03
0d
07
07
f9
f9
f6
f6
04
f6
ff
08
f8
f9
07
11
09
0a
13
f0
f8
f3
0c
65
f5
01
03
ff
03
05
03
01
0d
00
fd
03
fe
13
06
fc
11
ec
fd
01
09
fc
ec
f4
ff
f4
06
f4
06
ea
02
01
0a
00
0a
fc
f4
f9
0a
15
0a
fa
f3
f7
07
ff
00
09
08
ff
fe
fa
fb
fd
00
fd
00
f4
05
f4
01
1a
04
ec
fb
04
fe
03
f8
0a
18
00
f9
f5
05
0d
08
0a
22
fc
07
e6
ee
00
18
03
fc
f8
1c
02
0b
02
07
fd
07
03
f9
fa
ff
03
fc
03
00
fb
05
fe
fb
01
07
f3
ff
02
f6
ff
fe
02
f6
01
ff
07
fe
05
e4
01
fe
0b
fe
d4
0a
0a
05
f8
05
f5
fe
00
01
f4
02
ff
fe
d9
01
00
fa
f5
f9
fb
fd
09
0b
fb
06
fb
02
f1
01
14
f8
fe
f8
08
fe
0d
f2
f6
ff
12
fa
fc
02
f7
f9
fc
fe
04
03
0a
02
fa
f8
fe
07
03
fe
02
04
03
f6
2f
fe
11
02
ff
00
05
03
f9
34
04
07
f7
08
f9
fe
fb
2d
fd
fd
dd
fd
01
0e
fb
f6
05
08
fd
00
f3
fe
00
03
04
01
fc
fe
fe
02
ff
0e
01
fd
09
05
fc
fe
fb
00
fd
01
fe
f1
05
05
fe
fd
fc
f7
0b
da
09
04
ff
fc
05
fd
fa
00
fe
06
00
03
f4
ff
fc
00
03
03
e3
01
fc
0a
07
01
f1
04
fd
03
10
08
0e
05
04
02
14
00
f7
ff
06
0f
02
f6
f6
01
f2
02
0d
ef
04
01
fe
03
ff
07
0a
fd
fc
0b
f8
03
14
f6
04
0d
ef
fd
e4
f5
03
f8
fb
05
0f
0b
ff
e2
0a
04
fd
ff
0a
fe
0c
ea
09
fd
24
07
fd
f4
00
0b
02
f0
ff
fc
01
fb
03
04
f6
02
06
ff
fd
06
fa
f7
f0
f9
f8
08
00
ff
fb
fe
02
09
fe
0b
04
00
f9
09
fb
06
00
1b
02
fa
f2
04
fc
fd
01
f8
07
f6
05
f7
fd
f9
f7
f7
fe
05
15
f9
05
05
fe
06
f9
12
04
e7
04
06
fb
fc
fe
03
f6
05
ff
fd
03
0d
fb
04
fa
fa
fd
ff
f9
fb
00
fd
f6
fb
11
f7
07
05
06
0b
09
01
03
04
00
02
fc
f5
0e
ff
20
f7
02
01
05
ff
02
3f
e9
06
09
fd
f5
03
00
01
fd
00
ef
f9
fe
fc
ef
ea
fa
f0
01
0a
fc
fb
fe
09
05
0c
fb
05
0c
01
02
ff
f8
0d
0e
f5
fd
03
fd
f9
f9
ea
fb
f5
09
fa
fa
05
01
01
fa
f3
00
04
00
fe
6d
0b
10
fd
ff
ff
fd
fd
05
f9
fc
05
02
ff
02
fb
f6
f5
fe
ff
05
02
ff
0b
fe
fb
f7
05
fe
03
fd
08
0a
02
08
ff
03
fd
f7
04
fe
05
fd
fb
07
07
fc
12
fe
fd
02
00
fd
ff
fd
02
fe
f9
06
fd
05
01
de
ff
e4
0d
02
ff
03
04
07
cb
fc
00
05
fe
11
06
fe
e8
03
fc
13
10
02
09
f4
0c
00
0c
04
fd
fe
00
f3
fd
03
f8
fe
fd
fc
02
07
00
08
03
07
13
05
f6
0b
02
fc
fa
11
0d
07
fd
03
03
09
fe
fa
13
f5
05
04
f2
a1
0f
03
00
fd
02
06
0e
f7
00
fa
fc
fc
05
fb
02
03
ff
f6
f3
f9
fc
f7
f6
f4
04
f5
03
01
fe
ff
fe
05
01
03
0a
00
fb
f9
f6
03
f0
ff
fc
08
ff
02
06
fc
fe
01
00
fd
03
fb
11
0d
fc
05
0a
05
0a
e2
f8
04
0e
01
0d
0b
0d
ff
e4
f5
13
ff
02
fa
05
f2
f6
13
fe
28
01
00
f3
f3
00
03
f8
f5
f7
05
fd
0a
04
01
04
0e
f4
0b
08
fa
f8
ff
fb
09
0b
f8
04
04
0f
05
01
fd
07
09
f8
0d
00
05
f5
04
02
f9
01
f0
f1
ed
f8
fc
00
06
ff
f7
f7
06
00
04
f8
13
07
14
f1
dc
f5
f9
0b
01
08
08
08
03
09
05
00
02
0c
fe
01
02
14
01
09
e2
fe
f8
fa
f6
05
08
e8
15
ff
0d
fd
ef
0a
f7
eb
fd
16
06
ee
04
0d
0a
03
f7
0e
de
fe
13
f5
ff
0e
04
02
f5
ee
17
ff
09
19
db
ef
f7
ec
e9
02
18
01
f4
d2
ee
0b
fd
ea
07
01
fe
f7
02
09
01
03
ea
0d
f8
fb
e8
0d
fa
12
07
12
0f
00
04
03
01
08
f1
09
f0
f7
04
f7
ff
fe
05
21
09
02
0c
04
33
05
fe
f2
05
13
03
10
03
fd
0f
e5
00
01
17
f4
07
fe
f8
0e
07
00
10
fc
fd
f8
03
f4
ed
0e
ff
ed
f4
f8
14
f6
04
f4
08
db
05
f2
04
02
02
12
ea
13
ea
03
fd
f9
f4
05
ec
0e
fa
0c
f3
ed
fb
0c
f7
09
db
0e
07
fc
16
0f
fe
bb
00
19
00
1d
0d
04
f9
05
fb
0e
0e
f9
fd
0e
f3
0d
f3
0b
02
10
02
04
fe
f7
03
e9
0c
03
fd
f2
14
0e
f1
f8
04
1e
ee
fb
f2
11
ff
08
11
f9
fc
19
09
f8
ee
fc
03
12
ff
13
f5
ff
ba
03
fe
07
fe
f2
0d
09
f8
00
01
f7
fb
f9
ef
f3
f5
fb
ff
0e
f4
fb
14
04
08
09
10
f9
fb
00
04
ff
ff
f1
03
0f
08
03
14
04
19
ff
06
0d
04
f4
f7
fc
f4
0b
ff
f9
01
05
fd
fd
0b
fa
fa
fd
00
fd
1c
00
23
04
09
02
fe
05
11
27
f9
f3
00
09
f5
0a
03
09
0c
0c
eb
f8
f7
06
ea
dc
f0
13
02
ff
f4
06
04
f7
07
fe
0f
fe
fe
fc
08
10
00
fb
03
f3
fc
09
ee
04
06
fb
00
f3
01
10
f8
f7
f6
fb
fd
e7
0a
07
fb
f9
48
05
f4
08
fb
04
07
f7
04
01
00
fc
fc
ff
f2
fa
fb
08
eb
03
f7
08
0f
01
f7
04
06
09
ff
f7
ff
ee
00
ff
f2
06
f7
08
0b
05
04
03
08
08
02
f8
ee
00
ff
0e
00
02
0c
08
00
f5
fc
04
09
06
0c
f4
0d
fb
00
01
0a
0e
08
fa
fa
17
02
fd
09
e7
07
ff
f0
06
0d
f3
e3
f7
fc
16
e9
ea
f5
0b
04
06
13
07
fe
f4
f1
fe
f8
f2
f3
02
06
00
07
0b
0d
fa
ff
fb
0e
13
02
ff
0f
f5
fc
1f
fc
f9
ff
f0
f4
e8
00
ff
fb
f9
fe
fa
f5
fb
f8
f4
01
09
17
09
07
fb
fe
fa
ed
ed
03
08
f1
f9
12
ee
fd
00
0a
06
10
f3
fa
ff
00
fd
f7
03
10
00
f6
05
04
00
f1
fe
07
0d
16
03
f0
09
07
04
0f
fb
08
f8
f6
00
09
06
0b
fd
f9
f7
ff
fe
0c
03
03
fe
06
01
0f
08
fc
fb
ff
06
eb
eb
fe
e1
07
ff
f7
f6
fa
e9
07
f4
08
fe
f5
0d
04
02
0d
f4
f2
fa
fe
f2
06
0e
07
03
00
01
04
f4
f4
fd
f9
1a
fa
f2
01
f6
fb
0c
04
02
00
05
f3
07
fa
fe
f6
f3
6f
f7
05
01
08
ed
12
01
0a
0d
00
0a
f4
fd
0e
ef
ee
03
f2
ff
08
fc
ff
04
fb
fc
0b
fc
f2
f5
e6
f5
02
05
04
09
03
04
12
04
16
ff
08
00
f9
08
0b
fe
03
11
fc
00
0b
0b
fa
f6
07
07
fc
00
f9
09
2e
02
11
fc
f9
f7
0e
0c
fb
31
0d
f6
fc
0d
fd
fb
fb
2c
f7
f7
d7
f3
01
0e
06
f6
02
06
fc
fa
f7
06
01
f9
08
fa
08
fa
fd
05
f9
04
ff
f9
f9
e7
fe
03
fc
06
fd
02
f7
e9
fc
09
fd
00
01
02
04
d7
f6
fe
ff
08
14
f6
fe
f5
fe
fc
0c
00
10
07
ff
fa
fe
fd
e1
f9
fb
f9
f6
07
ff
06
fc
0a
0c
06
06
04
f1
ff
0b
ef
fd
ff
01
fe
04
fe
09
04
f4
07
02
f3
0b
00
0f
16
fe
0a
f6
fd
0a
04
06
f7
10
fa
06
10
07
0b
d6
04
05
07
00
0b
f8
ff
f2
d7
10
03
fa
f7
00
06
02
df
00
fc
11
0a
00
ee
10
17
05
fb
00
04
f0
f5
fc
07
00
0d
05
02
fc
fd
f7
01
01
0e
ff
0b
01
00
04
fa
01
e9
fe
07
03
ff
02
06
09
02
00
2e
f8
01
02
04
eb
01
02
fd
02
03
ee
ff
00
02
fb
ff
00
fb
07
f0
00
f5
fe
fa
fb
00
ef
05
f6
00
f9
06
fc
04
04
fd
01
f1
0b
fc
08
f5
fd
03
05
14
fb
f3
07
0c
0b
13
07
04
f0
fa
07
f5
f4
f9
04
f6
07
fd
f5
0a
db
fa
12
fb
f8
f8
fa
f1
05
e0
0d
0a
10
fb
f8
06
07
fd
00
01
11
05
09
f8
11
08
04
f7
fe
fc
f5
e7
04
03
fc
1e
f6
0c
eb
f8
f9
02
fb
0b
02
0b
1f
0f
f5
f3
0b
03
f9
0a
05
fa
0e
0e
0e
f5
10
14
10
f7
11
12
d8
08
f3
fb
05
02
f2
f9
fe
02
f4
f4
00
07
21
fd
0f
04
06
ee
fe
04
06
09
ff
f6
04
07
f7
00
f1
03
f8
fa
00
02
05
fa
fa
fb
02
ff
f6
fc
f9
ff
07
f8
fc
f8
02
05
00
00
fd
ff
05
02
02
06
09
03
2c
00
1d
09
fd
0a
01
f8
fa
38
fd
05
ff
f5
fc
05
f9
20
fe
06
da
ee
01
0b
00
f0
07
f8
fd
ff
f5
02
02
05
fb
f8
f7
00
fe
06
f6
0a
fa
fe
05
f2
07
fc
05
fa
fa
f6
05
ec
08
05
02
fe
03
fe
04
e4
03
fe
fc
06
1e
03
07
fe
fb
fd
fa
03
f1
fa
00
fd
06
fe
e5
fe
f7
01
ff
fe
06
03
fe
fa
07
f1
05
0c
0a
0c
12
fe
ff
05
fe
03
13
f6
f8
05
16
f9
08
03
f7
01
ea
0a
fb
12
fb
f1
05
04
03
04
07
04
fc
00
f7
05
09
ff
f8
fc
03
05
0b
05
00
01
0a
fd
05
05
08
fe
05
16
06
0a
e2
fa
f0
18
05
04
f8
23
f8
12
fe
fd
0b
ee
fe
f1
07
03
fa
f8
13
0c
00
00
03
02
fa
fd
01
09
fb
fb
fd
f4
ed
0a
f9
07
f9
fa
f9
f5
ff
0c
f7
07
bc
fe
f9
fb
fd
fb
03
fc
0d
11
fd
f6
f9
fc
d0
ea
06
03
f8
f9
fb
f1
01
09
07
11
14
02
f4
01
11
fd
ff
05
08
ff
0b
fe
16
ee
17
fc
07
19
09
f5
f3
04
0c
0b
fd
05
05
08
fb
03
02
fd
fa
fc
01
fd
1d
01
f7
05
02
0b
03
05
07
10
02
f9
05
fb
1a
fe
f8
1a
08
04
e4
03
fa
1f
fa
ec
05
07
03
01
00
09
fc
fb
fd
fb
07
fb
fc
04
03
07
fe
f7
01
f6
fd
f9
fb
13
02
04
0c
02
07
1b
f9
f9
0b
ff
00
e4
00
07
f8
02
c6
ef
fa
fd
f7
f8
07
00
04
05
f8
03
f7
f9
dd
f2
f1
fc
fb
f5
07
03
fa
09
06
12
08
10
f9
f6
0e
ed
f9
fa
06
ff
0e
08
04
f9
03
e9
0f
04
1e
f3
0f
e9
eb
fe
f3
ff
f1
13
0a
f1
fe
10
e2
07
25
f7
fb
0e
de
e0
0c
06
08
f3
0d
df
16
e9
28
d8
1e
0b
fd
e9
fd
f6
f0
fb
f0
d6
e7
ed
00
e1
0d
00
fd
0c
fa
0e
e2
01
ee
02
f9
07
d4
09
0d
df
08
f2
20
fa
1b
f1
e5
ff
ff
12
f1
16
fc
1a
0e
05
07
0b
fa
01
f7
01
0b
fb
fe
ef
fa
0f
04
19
f3
07
0e
19
07
03
f6
19
27
29
e0
0c
06
fa
ef
fc
f8
1c
dd
07
09
09
23
e5
03
0b
e7
f2
00
fe
0c
0b
fd
02
02
05
07
01
0e
0a
f7
01
08
00
fc
0c
00
fc
fc
fa
fc
03
03
15
e3
00
f1
04
ff
f1
00
f6
fa
c3
f4
00
fb
0b
00
06
f6
dc
02
fb
2a
0b
02
01
09
1e
fe
fa
fe
f3
fa
f9
05
02
06
0f
09
fb
02
f9
fe
ff
fd
03
02
fc
fe
02
08
fe
02
f4
f9
12
fe
07
11
04
fa
fa
03
18
ff
04
05
08
f2
06
fc
fd
07
01
fc
ed
f5
02
fa
fe
08
05
1a
03
fe
f3
f9
0a
01
02
fe
01
fe
00
f9
0a
fc
05
f4
fd
00
02
00
09
f7
02
f9
f8
0c
fd
03
02
fb
fb
fa
ff
f3
17
01
00
03
f0
fc
06
01
01
f6
fe
fa
fa
25
fe
09
08
05
f7
fb
ef
0f
31
08
09
07
f8
06
f3
07
2c
08
00
e3
ef
fc
12
f7
f7
fe
0e
fe
05
fc
04
04
05
eb
0a
fb
fb
03
00
07
19
04
02
ff
01
fd
03
f6
12
f9
00
05
ed
f5
02
fd
fe
0d
01
f8
df
03
05
f6
f6
0c
0a
05
fd
ff
04
04
03
fa
02
fb
13
02
fb
e3
02
02
06
fc
0d
01
ff
01
08
05
f9
04
fa
02
f7
10
ff
fd
03
ff
09
fd
0a
02
01
07
f2
01
08
f6
03
fa
0d
06
14
ed
ff
01
f1
fa
fb
19
f5
fc
f8
f7
ee
0f
f7
19
05
00
02
0d
0b
04
fc
0c
f5
fd
ef
00
f6
f8
f0
09
03
fc
f9
ed
0c
04
e0
fb
10
07
0b
f8
16
ff
fa
f1
f8
12
f5
04
fc
08
03
10
01
fd
ff
0d
f4
f4
0b
01
07
12
08
ec
10
02
03
0b
0c
ef
03
00
fa
f5
f8
41
fc
fa
f9
fc
f5
fc
fa
04
ff
fd
fc
f6
fb
fb
f8
ff
01
07
f8
f0
f5
ff
f1
0a
0e
0f
0f
09
f6
e8
06
07
0d
05
03
03
12
07
1a
1c
07
11
ef
14
f9
eb
fd
00
17
fb
f1
f1
fd
13
f7
f4
ff
0c
ff
fa
12
14
fb
e6
fb
03
02
f5
01
0f
f0
fd
e7
02
ff
1b
f9
e9
20
ff
fe
09
fe
fb
1d
f4
0b
f9
24
f3
04
ed
ff
05
0b
f4
00
fd
f9
f9
f7
fb
19
0f
00
01
02
07
12
fd
0a
fc
f3
03
04
f5
ee
0b
10
fe
0d
f6
f7
00
f8
0c
fd
94
f6
ff
fc
0a
08
04
fa
f3
f9
05
f4
f6
13
dd
f6
00
03
01
f5
02
ff
09
03
fa
fb
f7
0a
f8
f9
0e
f5
0a
fa
f4
f9
f6
f7
06
0c
fd
f7
ff
02
06
fe
03
f6
f9
f9
01
0c
05
0a
0b
05
0b
00
03
f7
09
04
fd
fe
16
02
02
fc
f4
fc
0b
1c
05
f5
07
ff
ee
01
fb
02
05
04
f9
fd
ff
f5
08
e6
02
fc
f5
03
fb
05
03
0e
04
0c
08
03
01
03
f2
f2
fc
0e
f4
e3
ff
04
02
05
fb
03
fd
f7
03
05
fa
0b
03
00
01
fc
04
fd
07
00
1e
f8
06
ff
f3
f6
01
f9
ff
f5
01
02
02
01
14
f9
f8
ff
fd
fa
09
0b
fd
ff
fa
f1
fa
0f
fc
ff
e1
06
fa
0b
f7
08
fc
fc
f8
fd
fb
f2
0a
f8
00
f9
fd
06
f5
13
0b
05
fa
00
02
fa
fa
fe
f5
f4
08
fe
1f
fa
f4
fd
fa
00
07
04
01
13
f8
f0
04
fe
05
0b
00
1b
03
09
f2
f5
fe
0e
fc
f6
02
09
ff
01
01
03
0b
06
f6
f2
05
07
02
f6
fe
00
ff
fd
07
05
f9
f6
f8
0a
ff
04
ff
fb
f8
03
fa
09
fd
f5
02
ea
02
04
03
00
f6
fd
06
02
f2
fd
fb
ff
01
01
05
fb
f3
00
e4
fd
09
f4
04
f9
fa
ff
ff
08
fe
f0
fd
fc
07
f8
07
0b
05
06
03
fb
0a
fb
fe
15
fb
ff
05
06
0d
f8
eb
fd
fa
0b
ff
f5
f8
ef
00
fa
fb
00
f3
fb
17
fd
02
06
e2
f2
03
06
03
03
05
12
01
f3
14
fb
fc
00
08
0e
0e
f1
f8
ff
01
11
01
fc
f4
0b
fe
04
0a
0a
fd
0d
ff
fb
03
11
fc
f5
01
02
08
fb
05
13
0a
fa
fc
01
fc
fb
03
09
02
ff
02
18
fc
04
04
f4
ff
02
ff
03
f6
05
03
fd
f9
0c
f6
08
f9
fa
f5
fe
f0
ff
f3
04
08
f2
f8
f2
f9
f9
04
01
f9
08
fc
f8
08
f6
00
fc
f6
fd
01
fa
ff
04
02
01
04
07
07
ff
fc
f9
04
0d
12
ff
fb
06
0b
f7
01
f1
09
fc
12
0a
04
06
e4
f9
00
02
05
07
fd
fb
08
f2
01
fb
04
06
00
06
00
e6
f8
ff
0d
08
02
00
01
09
f9
0c
f8
01
00
f7
ff
fa
fe
04
fe
fa
fd
07
fd
02
fa
ff
ff
0e
05
07
02
0d
fe
fa
03
06
03
fc
ff
fc
00
f5
fd
17
0b
07
fd
0c
f2
06
fd
01
0e
fb
ef
fb
00
05
f4
02
0b
fb
08
05
fd
0a
f6
ff
01
02
ef
f5
0d
08
f7
06
06
0e
03
01
02
01
01
01
fc
fd
fb
f8
eb
fa
fa
05
fe
03
0b
03
02
f5
01
03
07
f9
ff
02
08
fe
0c
01
03
f8
ef
fd
16
f9
09
ff
08
05
fe
f4
fe
08
fb
0a
eb
fe
07
df
03
05
1b
fb
f5
e4
01
02
06
fd
03
06
07
fe
fa
f4
05
f9
fd
f7
04
ff
fa
f8
f8
fb
f8
ff
0f
05
00
06
02
02
fa
06
f1
01
00
f4
fe
01
fc
18
fd
02
01
00
28
0b
f9
07
fd
01
fe
0a
0b
fa
09
06
ff
04
2e
0d
fa
06
0b
07
02
06
08
f1
05
f6
11
f9
03
ff
f7
02
ff
06
f2
01
f7
02
07
f6
fe
fd
00
ff
f5
06
f3
f8
02
08
01
02
ff
04
fc
0c
f4
f8
ef
fe
00
01
16
00
f9
ff
f9
06
0e
08
fb
0f
03
f8
04
ee
08
fa
f9
25
fb
03
ec
f9
fd
18
02
f3
07
0d
fb
03
07
fd
03
01
fc
f9
07
05
f4
f4
fd
09
00
fd
01
f9
fb
f5
fb
fe
07
07
0b
fb
05
00
ff
0c
f5
ff
0b
f2
fe
f5
02
00
ed
fa
ef
ff
fa
f9
07
ff
01
fa
f8
f8
07
ff
ec
eb
01
f9
03
fa
05
f6
04
0a
fe
04
04
04
05
00
07
03
04
fe
f9
fe
06
fd
fe
f0
04
03
ff
ff
04
0f
ff
0b
f9
ee
04
f8
07
fb
05
01
f2
08
0a
fa
fa
08
ea
f8
f6
07
0e
fa
f5
fb
fd
ee
fe
0c
fa
0c
00
01
0e
06
fa
02
0a
03
09
07
f2
05
00
08
f9
fe
03
00
f2
04
09
fb
08
fc
f6
fd
04
0b
ed
07
ff
03
f5
fd
07
10
fe
0a
03
01
0d
fe
11
fe
fc
f6
01
12
03
f8
01
07
f0
06
03
ff
01
11
06
01
ef
f4
00
0c
08
09
01
fc
fe
09
fb
07
08
04
fb
04
05
09
ff
02
fa
f7
09
f6
fb
f8
f3
0d
fa
0a
f9
00
05
fa
fc
fc
05
06
f0
02
f7
1d
04
01
fb
03
08
01
f3
03
e8
f5
00
07
11
06
e8
fc
fe
fb
08
05
f7
f4
ed
03
02
fa
17
0d
01
17
fb
0b
f8
ff
05
1e
f5
09
ff
09
fb
05
01
01
f7
05
08
f9
06
07
f3
f3
06
07
01
fa
00
04
fe
01
f9
05
fd
05
1c
04
fa
fc
fe
05
f5
00
fb
eb
ff
03
05
fe
d7
fb
08
0f
03
04
05
03
fb
fc
f9
f8
fb
01
e5
fb
0e
f3
09
f4
00
ef
00
10
fa
03
fe
00
04
00
15
08
07
f9
02
f5
f0
f6
fd
ff
0e
04
f4
02
fd
ff
00
03
fa
09
08
03
01
f6
0d
02
00
00
03
ef
ff
0d
0c
fa
fc
04
ff
01
fd
fd
ff
0f
f9
f4
fe
0d
0a
fa
03
24
ff
fc
ee
fc
02
19
07
fc
f1
f8
00
09
f8
f4
fe
08
08
09
fe
10
fe
f6
03
0e
03
16
00
05
f5
f8
00
fb
fb
07
f5
ef
0a
fd
fd
fe
06
fd
fb
ea
0a
f6
03
ff
e4
0b
00
fa
ff
04
fa
e9
fa
02
04
05
fa
03
eb
fa
04
f7
06
f7
fc
ff
f1
02
01
00
00
00
02
f9
04
04
fa
f8
03
f7
02
fe
fc
05
fb
00
fe
ff
05
02
0b
06
05
ef
f1
fe
fc
fe
fe
f5
01
07
0a
04
02
08
e7
f9
fe
fe
06
04
01
f7
03
ed
ff
f8
fc
06
02
fe
03
ea
f9
f6
10
02
07
01
fe
09
fa
0c
05
fb
07
fc
00
05
fa
fb
03
02
00
07
01
fc
fc
0b
03
03
00
04
0a
14
fe
07
02
09
06
fb
06
02
0b
06
f6
1f
04
00
0d
07
f7
11
03
06
06
f7
fa
01
fc
00
04
f9
02
09
08
0d
fd
06
fd
04
fe
00
fe
f0
06
09
f6
06
06
fe
f9
ff
08
fd
03
fa
05
fd
f5
ff
f2
fc
01
00
08
02
01
ff
01
f7
fb
fa
f6
fe
fe
fe
05
00
08
fa
02
fa
e8
02
fd
01
fa
05
02
0b
02
e5
00
fe
04
02
06
04
01
e8
fc
00
11
07
05
fc
f6
0c
0a
0a
03
f9
05
fd
fc
fe
01
f6
02
f4
02
0a
04
f8
f6
f6
ff
0e
07
fa
f7
05
06
fe
06
04
f6
f5
02
fc
0b
08
fc
11
f0
04
04
06
f5
fa
fa
00
05
f9
08
0c
00
f8
01
02
08
ff
06
08
f8
ff
06
07
fb
01
07
fd
05
fd
02
f6
f7
ff
05
02
07
fa
fd
fb
fb
02
01
02
fa
0d
ff
05
10
00
05
ff
fd
fe
04
07
01
fe
01
01
14
ff
0f
ff
fe
fc
f7
fb
13
01
0c
05
0a
01
ff
0e
08
f2
05
0a
e8
f8
0d
f6
08
fa
0b
fe
f4
e7
09
e9
f8
f8
fd
08
fd
00
0e
fc
fc
0b
01
fe
07
0f
e7
05
f9
0e
07
fa
00
09
fd
06
fd
01
fa
fa
06
06
ff
09
0f
f7
ff
0a
04
fa
fe
ff
25
08
00
07
f8
03
fe
fd
fd
f9
0a
f5
05
05
11
fb
f0
08
ec
09
09
0f
fd
fb
fa
ff
00
01
00
07
dc
ff
f9
09
04
06
f8
0d
04
03
ff
01
f3
f3
f4
f8
02
fe
ee
01
10
03
06
05
ff
fc
05
fc
fd
fe
fa
03
14
02
0c
08
ff
05
06
0f
0f
1a
fe
08
ff
05
f2
fe
ff
fc
01
fe
fb
f6
ff
f0
05
f3
0c
fb
02
fb
02
01
02
08
00
01
09
05
06
00
f9
02
01
fe
0a
f4
fb
fe
f3
fd
ff
06
fc
eb
fd
05
f6
fb
06
ff
fd
f0
fe
02
03
f0
23
ff
00
0d
f8
01
04
fc
03
fd
fa
08
fc
fd
02
fe
01
03
08
01
f5
fb
08
02
f6
fc
04
fe
01
03
fd
05
fd
04
0f
0c
03
fe
00
03
fe
08
fa
0b
12
fc
09
ff
00
0b
0b
fe
05
01
02
02
f4
ff
f9
f0
08
01
26
03
01
00
00
f6
f6
03
04
0c
0a
f6
fe
00
f7
07
f2
0d
fc
02
f0
f8
02
fb
fd
fb
12
fd
04
00
fb
01
fe
f9
00
fc
03
0b
fe
f9
05
f4
05
ff
fe
f3
ff
fb
fd
fd
0c
0b
fc
f4
f1
03
fa
02
f8
02
0b
e6
ff
04
09
f4
15
01
05
fc
04
f4
0a
0a
fd
f2
fb
fd
fb
03
04
02
01
f6
09
fe
f5
fc
08
03
f4
f4
fa
fb
00
f1
fd
02
f9
ff
ff
fe
02
fb
06
02
f7
fb
11
00
0d
ff
e8
05
fb
14
07
03
fc
f3
ff
02
fa
fd
eb
f6
04
00
12
fd
f0
fb
fd
00
fe
fb
10
12
fd
03
07
fc
0b
07
04
18
0b
fc
f3
f7
fe
0c
fb
f0
ff
04
ff
09
0b
05
02
09
f9
f9
06
05
03
f4
fd
f3
03
fb
00
08
04
f2
fc
09
03
f5
08
fa
07
fe
f2
10
fc
01
fd
f3
ff
08
01
02
f5
fd
08
02
fb
02
fe
f6
ff
f6
f6
fc
f8
f8
e9
03
fd
ea
f5
f7
f3
fa
ff
0d
fb
fc
04
06
09
ff
fd
02
fc
02
0e
fb
04
0b
0b
09
fb
01
04
fe
fb
fe
02
fe
02
fb
fe
07
f3
01
fa
fd
fe
00
fb
00
fa
07
f3
00
ef
fc
03
f4
05
fe
fb
e5
f2
02
fa
fe
12
0c
fb
f8
fa
fa
0d
08
0c
03
ff
0e
fc
14
fc
fa
0f
f5
fc
01
ff
f5
f6
fa
05
f7
0c
fe
fb
fe
fd
0c
fb
02
fd
10
fe
fa
0c
04
f6
02
09
fb
03
03
02
08
fb
03
04
09
ea
02
07
0a
0c
fe
06
0a
09
00
fc
f7
01
fa
f2
0a
02
f9
05
f9
fe
fe
08
0a
06
ff
02
03
06
05
08
02
11
03
02
01
f4
0b
fd
f0
f8
ff
ff
04
18
fa
f6
09
03
f0
09
f8
0d
ff
f9
04
00
08
f2
f1
fd
ff
d9
0c
08
0c
15
08
f4
01
05
d0
fb
ff
f4
f7
fe
09
f9
d9
02
05
21
fa
10
da
fd
13
00
ff
07
18
03
ff
ee
0a
f9
08
05
04
12
01
16
05
06
0b
f9
fa
ed
fb
ee
08
02
fd
18
fb
07
05
ff
e4
07
11
e9
22
f0
0e
03
e0
07
0c
00
fa
0c
e9
00
fb
0f
0f
0b
0a
f6
f3
19
00
ec
f6
fe
0c
03
04
09
11
f1
fc
00
07
f7
fd
ef
02
10
e9
02
ef
0f
0e
04
04
f5
0e
f7
0c
12
01
05
11
02
fe
f6
0d
f1
ed
f7
f5
0c
f6
fe
02
0c
ff
df
f9
27
03
04
07
08
04
05
f4
0f
fd
17
e6
e7
f6
f0
d9
f4
f7
10
fe
fc
ef
17
e6
fe
e6
f7
00
f0
0b
0f
08
f3
12
ed
09
ea
04
ee
08
fb
11
06
f6
14
01
03
13
07
fa
fa
15
03
18
0d
ff
13
ee
fb
16
06
f6
f8
04
3b
03
fd
f8
00
fb
ff
ff
fd
f0
00
01
0b
0c
2e
f1
f8
09
f3
02
ff
1b
f6
ef
fe
06
e8
0b
ff
05
e6
00
f0
03
03
fe
02
12
00
fb
0c
09
08
08
04
10
02
00
fb
ff
f8
00
f9
f6
00
fa
07
fd
f0
f7
00
08
f0
f9
e7
fa
05
fc
ff
f5
ee
d7
01
01
06
00
17
0f
05
23
f9
fe
05
0a
09
21
0c
0e
f8
19
fe
00
fe
fc
01
07
05
03
fe
06
f4
f9
fb
0b
f5
0f
f5
f6
05
05
0a
fd
0f
f9
ff
1c
05
0a
09
01
05
f1
15
02
05
f5
01
07
81
04
fa
02
fc
02
fd
ef
fb
ea
f8
ff
02
09
f5
06
19
08
0d
f7
ff
11
f3
05
04
03
f8
07
0a
ff
08
02
f3
f2
07
fa
09
06
06
0a
fe
0c
03
10
f8
0e
0e
f4
f9
ff
f6
f8
f8
f8
fc
ff
08
02
01
03
08
ed
ea
0f
00
f0
ff
05
f9
04
01
ed
14
f6
0d
04
f6
fd
06
ea
fb
ef
17
0a
03
e7
fa
fe
f5
e6
09
0c
02
04
f9
04
02
f9
fa
14
f5
00
fb
f7
06
0b
04
f8
05
08
04
ea
02
08
e3
03
02
fa
02
fe
fd
03
14
09
fe
f3
f8
12
23
f7
fb
f5
f8
0d
06
05
f3
fb
f8
0d
f9
fd
16
13
0c
13
00
f1
f5
01
07
f5
ef
08
f9
fa
fe
ef
eb
fd
04
07
f1
06
f3
f5
fe
f4
cd
06
ff
f3
fa
00
06
f2
08
f7
08
07
fa
01
0d
fd
09
08
0f
06
0c
fa
fd
f8
1e
fa
f5
0d
0e
0c
00
1d
fd
fd
fc
00
e5
08
0c
f2
04
fe
01
05
fd
f3
04
e8
06
cf
02
fa
05
f6
0d
fc
f2
05
fb
fa
f1
06
ea
ea
f6
03
0c
ff
ff
fb
11
f3
07
06
f9
0f
01
fd
00
fb
f1
f6
0d
f9
08
f2
fd
10
69
00
04
01
ef
fe
f1
f8
fe
ec
00
f7
08
03
26
fe
0e
03
08
f2
0a
fb
fd
03
00
f1
fc
fa
14
07
e3
04
03
10
01
03
fb
fe
fd
07
08
05
fb
02
ec
07
08
fa
f6
f3
08
06
ff
04
0b
08
fe
0c
00
03
02
0e
22
09
18
07
0d
fc
fa
fc
14
29
fb
01
0f
f9
13
0e
02
33
08
00
dd
f3
02
13
f7
ef
fa
21
ee
14
f5
02
05
01
f1
fe
fa
05
fe
f5
00
fd
01
0c
fb
fe
02
0a
ec
fd
fe
fa
f8
f4
f4
08
00
f7
07
05
f7
dc
fe
04
02
0d
e3
ff
fa
ff
fd
f0
fb
ff
03
fc
07
02
06
f6
cf
f8
ff
04
fb
f8
00
f7
05
01
09
fc
01
06
00
04
1b
00
0b
f6
fc
01
fd
fb
03
fb
0e
f8
03
04
f2
f9
f6
f7
fb
04
f9
ff
f9
03
fe
ff
f2
04
fc
02
0b
f4
1b
00
f3
fb
fb
0a
f9
0b
03
18
fd
03
fe
f7
1a
01
f9
2d
fd
05
e4
02
00
19
fe
02
0c
2c
01
04
f3
09
01
fd
ff
f3
0b
f8
ef
02
05
fe
06
f6
08
f8
fe
fe
fa
fc
02
11
12
f0
ff
05
fe
fe
f0
02
f6
e7
07
04
fe
08
b2
f6
f9
fc
f7
09
05
ff
02
0d
00
f9
fe
fc
d7
05
fc
01
10
fd
14
00
fa
fe
06
02
0b
fe
ff
fd
18
fa
18
fb
f4
f6
04
ff
ff
f9
0f
01
f6
03
ff
01
fd
f0
02
0a
f7
f9
01
09
fe
04
04
00
ff
f5
f5
fd
27
03
1e
fb
fa
fc
10
03
f4
3b
0b
f7
0c
ff
fd
02
01
19
f2
07
d5
ed
04
0d
ff
fa
04
0c
00
00
fc
06
fd
08
f9
fa
f4
01
06
00
f3
07
00
fe
fd
e8
fb
f8
fe
09
f5
05
06
f5
fc
05
fa
f3
fe
fa
f8
e2
f7
fe
fa
fc
1b
fd
fe
fc
f9
f4
02
f5
05
08
07
06
05
09
da
ff
fa
fe
03
04
08
0d
0a
03
06
0f
fc
fc
fc
00
0a
f3
07
03
04
00
10
09
06
e7
1e
fe
07
01
13
f8
ff
0b
20
ef
f6
0a
05
fc
fd
fb
f7
fd
09
02
0d
12
0a
fa
f7
14
f8
06
03
00
0b
25
06
04
0c
f3
11
0d
f5
12
fd
03
c2
fd
01
1c
08
e9
05
19
f1
f4
12
f7
05
04
fb
fc
f7
f3
ef
05
f0
04
04
fc
00
04
fc
01
06
12
06
00
09
08
1c
07
06
04
fe
f4
07
e1
f3
f6
07
15
c3
05
fd
fd
01
fb
fb
ff
f9
ee
f9
0b
0b
05
e3
ec
f5
08
f1
fd
f7
1a
fc
06
02
05
f4
0d
fb
04
00
02
f3
09
f8
08
ff
f2
02
07
f7
fe
01
f9
fb
fa
fd
05
ff
00
f9
01
02
10
11
05
f3
07
13
fe
ff
09
ed
02
f5
f4
10
00
ff
07
06
bb
fc
f9
08
02
fd
fb
ff
de
00
fa
2a
10
05
fa
fb
07
f2
ed
07
fc
03
01
04
f5
f1
09
03
06
fb
fd
ff
f3
0d
02
0c
05
11
00
11
f3
fe
fb
fe
0d
ef
fe
ff
11
f6
fa
04
17
0c
03
f9
0e
d6
fd
fe
f3
fa
ff
ee
0a
04
fd
ff
06
f8
08
17
07
11
04
fa
00
14
f1
f3
04
fd
f6
09
fe
08
04
ec
fd
01
0c
fb
fc
f6
0e
f8
fc
fb
fe
ff
ff
15
05
03
03
fa
00
01
f7
f9
0b
02
08
0a
06
f7
02
03
fc
d7
06
f9
01
05
f1
03
fd
f8
b5
13
f8
09
fc
09
0a
ff
de
fd
05
28
0c
fc
e8
11
14
03
fe
f8
07
06
06
fe
03
fa
03
fb
fe
f4
00
fd
fa
06
02
fc
0e
ff
01
fd
fd
fe
ff
01
18
fb
f8
04
f8
04
02
f7
2d
f4
fd
00
f3
e8
ff
fd
03
08
03
08
fc
05
0d
05
0b
08
f8
10
fd
07
03
ff
0f
05
03
06
01
03
12
f5
00
fc
ff
f6
f9
09
fd
05
0f
f3
00
02
0b
0e
eb
ee
0b
09
06
0d
02
e9
fc
1b
06
05
f9
f7
05
f4
fe
fa
0e
f8
02
01
f6
34
1a
0b
ea
e9
fa
00
3b
13
00
0d
e1
05
eb
ff
0b
12
08
cc
e7
f6
ea
fb
ea
18
f0
f8
05
fe
0a
f8
07
08
13
e2
ea
02
0c
00
06
08
02
ef
07
15
02
f8
14
0f
f6
fc
14
06
f8
f5
17
12
10
fb
ee
f3
fd
f5
f8
23
f4
0b
ef
0e
f5
33
fe
0e
05
f8
22
e1
f0
ed
07
07
01
fd
27
04
11
02
fa
04
16
03
08
e8
fa
29
e0
f4
08
05
08
e5
01
04
f1
f4
00
02
0d
0f
09
f4
ec
05
04
12
ed
06
0c
f7
f4
0a
09
13
fa
07
0f
de
fc
14
06
e5
01
07
f7
01
f7
ff
19
1c
11
03
05
fa
ea
f3
f3
05
0f
08
fb
03
0c
04
d1
0b
07
05
f6
11
03
04
04
02
fe
06
04
f9
0d
f3
fb
04
ee
22
0a
00
f2
05
f0
f6
05
0a
ff
fc
1b
f9
f4
0e
01
0b
eb
f7
1b
30
f6
fe
f6
f9
05
0c
e2
01
fa
fa
06
0d
09
18
03
f9
07
f2
0b
17
0e
ee
ee
ed
0b
fa
fc
07
01
e4
fd
04
01
f2
f8
03
f7
09
00
f8
f7
00
12
09
03
15
0a
f7
00
fd
07
01
fb
fe
f8
04
f5
e9
06
f9
f5
0e
fd
37
0e
0c
fa
eb
f5
07
3d
fb
09
fa
f3
ef
0a
ff
fe
0a
14
f1
f7
04
ec
0f
f5
08
ff
f5
07
e9
05
f4
fe
fe
f6
07
ed
f6
02
f5
05
fd
03
fc
ea
f9
fd
ec
f4
02
09
fe
f4
01
0f
00
05
f9
fe
f4
04
05
ff
fd
fc
66
03
f8
0a
01
ff
0a
fd
0c
07
02
fc
fc
fb
09
07
0a
04
00
fe
06
09
ff
fb
0a
fd
05
09
f4
04
f4
00
06
f6
fc
fa
04
07
06
07
e8
fb
fa
09
08
08
03
0e
f5
01
05
08
f7
fe
f6
06
f9
fa
06
02
fd
0c
d0
00
e6
0c
fd
fc
00
03
fb
b9
02
0b
04
fb
15
02
01
dd
0b
08
25
08
fe
00
ff
14
0c
0e
fb
08
ff
01
f5
02
fb
00
01
f5
fe
fe
fb
fa
fb
fd
fe
13
0a
fa
fe
07
fd
03
04
0e
ff
0e
01
06
00
05
f5
1d
f7
07
fc
04
c2
fb
03
fd
08
f2
07
fe
03
00
03
fd
fd
ff
0f
03
09
09
03
fc
07
00
04
f1
f7
10
f7
ff
f6
02
f8
ff
08
03
f9
00
f8
fa
09
02
01
05
fb
fa
01
fa
00
05
fb
0d
fe
ed
06
0a
08
02
09
09
0e
11
fd
ff
e8
00
f5
05
09
09
08
00
01
d3
11
08
fe
fc
08
fb
fb
f6
03
f8
25
11
03
f7
0e
07
fb
fc
05
f8
01
ff
08
0b
05
12
f8
01
00
fc
ef
15
f3
f8
09
04
0c
03
0b
02
02
f5
f5
0b
06
08
ff
08
03
00
02
10
01
fb
f3
11
cd
fd
00
f1
06
0f
fd
02
fa
00
fc
fd
00
08
09
f6
f8
05
f4
01
07
03
03
f4
e6
14
f4
04
f0
06
03
f1
f3
fc
ff
07
f6
fe
08
06
01
0d
ed
03
fd
fe
00
0f
04
04
fb
08
fa
fb
fa
f8
fe
fc
06
f2
fd
05
db
fc
fa
10
02
ec
fc
f2
e7
cc
fc
05
ff
0f
f6
0c
fa
e0
f7
04
10
09
09
f6
0e
11
01
05
fb
fd
03
f7
fe
01
0b
fb
03
02
03
f8
01
03
fd
12
0a
04
02
0b
09
03
04
01
fe
0f
03
fd
0b
07
11
00
f7
1d
ff
f6
07
fa
ed
06
06
fb
0f
08
fe
fb
05
03
07
fe
05
05
16
f4
06
f7
01
fd
09
08
f3
02
f1
08
08
01
fc
ff
eb
08
04
f2
14
03
05
ff
fd
0b
f2
ff
09
ff
08
06
f7
06
fc
f7
fb
f4
0b
08
01
02
04
05
08
fb
01
fc
e1
07
04
f9
f0
05
08
09
00
df
ff
ff
ff
0c
f4
f6
fd
de
03
02
1c
0a
ff
e9
07
00
01
f1
04
fb
0b
fd
fc
00
04
0c
02
07
fd
fb
0e
08
04
0b
01
12
0d
fb
03
03
ff
01
01
0b
02
f7
0d
ff
f7
03
f8
2a
fe
f5
02
02
2b
fb
fc
02
03
ff
02
fa
fb
fe
01
0a
f9
f9
18
02
07
06
05
ff
02
03
0f
fa
00
09
04
f7
f8
ff
f1
f0
03
00
fa
f8
fe
fd
fe
f0
ee
e7
17
0c
23
00
fc
05
ff
fe
0d
fb
fc
f0
fe
09
f4
ee
f2
00
06
ff
da
0c
d6
07
14
04
04
0f
02
c4
f6
08
fd
fa
1f
03
fd
d7
14
06
27
fe
fe
e1
02
ff
01
fb
f8
07
0b
0a
01
09
f6
ff
05
ed
02
10
fe
fa
f9
ee
eb
ff
ea
e6
11
07
f0
fa
0c
1a
f4
15
fb
05
02
07
f3
14
f8
13
fd
ee
07
0c
0e
0c
fe
f9
0a
08
01
fb
0b
0a
f5
fa
13
0b
0c
fe
f3
0a
0a
04
fd
07
fb
fe
ec
0f
02
fc
ed
fd
0e
fc
f7
fd
e6
08
07
00
01
06
fb
0c
fe
fd
0d
f9
04
fd
f3
00
ff
f8
03
f9
fe
03
fe
ff
00
ff
e4
03
0b
00
f3
f0
f9
00
f7
e0
08
f2
ff
0b
f4
fe
09
e5
04
17
19
09
fd
eb
0f
21
ff
fa
fa
f7
fc
f9
01
f6
12
fd
fe
0c
fe
f7
0d
ff
0a
fd
f6
02
fb
08
fb
fe
02
10
ef
10
11
ee
08
04
fb
f6
ff
1f
07
08
06
0a
0d
fe
ff
08
0e
06
ee
f8
01
04
00
fd
01
03
23
fe
07
01
09
ff
10
0a
09
00
05
04
01
04
fd
f9
fb
f4
f5
04
f9
0d
fe
fb
f9
fe
17
fe
0c
02
0a
0c
fe
09
01
17
eb
f9
09
f7
01
01
fe
03
03
fa
01
08
10
01
fc
06
fc
0b
f8
09
08
f1
11
fe
01
09
0d
0b
fa
1c
fd
ff
fd
fc
fb
1a
02
ee
f7
15
05
01
e6
02
ff
0d
04
f4
13
0b
f8
ed
05
06
00
f2
fd
03
03
08
ef
0b
01
08
00
04
04
16
0a
fb
03
fd
fb
fb
f7
03
07
fc
c0
fd
f5
f9
fa
f2
03
00
f6
f5
ff
f1
fb
fe
e5
fa
fe
fd
f9
f6
f6
07
fc
12
07
02
f2
01
fd
fe
0b
fd
fd
f7
fc
f8
0c
04
09
ff
e7
fc
f3
02
01
02
02
04
08
00
04
02
02
00
05
06
05
0a
0b
07
06
07
db
02
f8
02
fb
01
02
00
f7
c9
f8
fc
fc
11
f8
07
07
e7
fa
fa
12
0d
03
fa
04
1f
03
f5
06
04
04
0a
02
0a
07
07
00
08
00
f8
ff
ea
06
07
06
0e
05
fa
03
00
04
00
02
1c
fe
f7
07
04
f9
f9
04
26
fa
fb
03
09
e3
0a
07
00
fb
04
f9
01
06
01
00
02
03
0a
19
03
0c
f2
0c
f7
f5
f4
fd
f3
fd
fb
00
fd
08
06
f6
03
f6
fb
08
f8
ff
fd
05
05
0e
09
fb
fb
fa
01
fc
f7
06
1a
ff
0a
03
f6
fd
fe
0c
f4
0d
08
04
02
08
ff
07
03
00
06
f2
02
05
21
02
f7
06
04
0f
05
0a
06
ff
0a
e3
fe
04
0d
03
ec
0a
06
f7
f8
00
14
0b
0c
00
df
fa
02
08
fc
e9
e8
07
f7
00
df
02
fa
fd
02
f2
fd
fa
f5
0b
fb
f0
08
05
f7
f5
de
e9
05
06
f9
25
0a
0f
01
01
01
07
f7
0b
05
fd
05
00
08
f8
f5
ff
0a
01
ed
02
13
fd
03
f6
07
f7
fc
fe
07
f4
f1
02
03
0a
f6
fe
06
02
05
ee
0a
08
f2
00
00
06
06
fd
fe
fb
fd
fd
0f
04
fd
f9
ff
02
02
10
fa
e2
f7
00
03
05
04
03
03
fd
d3
02
f7
05
00
f6
05
f9
db
fd
f6
2b
03
03
f2
0e
0e
00
f2
03
fb
06
fc
0d
0b
04
07
fd
0e
f7
fb
fe
f9
fe
08
0a
06
01
0f
04
fa
ff
02
f9
0c
fe
fc
0d
fb
f9
fb
07
1e
0f
01
07
0b
05
ff
f4
00
fe
03
f4
03
fe
01
02
f6
09
03
1f
01
05
06
03
f9
07
07
fc
fc
f2
08
f9
fc
fe
06
f5
03
09
02
fe
06
ff
fb
f7
03
f8
03
fc
fa
fa
09
ff
01
ff
03
fb
f5
09
07
00
00
f5
fd
12
06
03
00
e0
fd
f1
f3
f6
12
04
05
f0
d6
06
fe
17
01
fe
f4
0f
e9
fc
fd
13
0c
ff
02
0c
12
fe
f0
10
fb
01
fe
01
f8
ff
fd
fd
0c
f8
04
f3
f1
07
fa
11
0e
0f
ff
05
fa
06
00
fc
04
0a
fc
04
0f
f2
fb
00
15
fa
06
fd
05
d6
f0
f7
f4
ff
04
01
18
f2
02
00
f3
fd
0b
10
04
00
fe
0e
f8
06
f4
fa
01
05
fe
03
fd
06
ff
f7
fb
fd
0d
fb
07
f8
ff
01
f1
e7
ff
fb
fe
00
01
f7
00
0a
f5
ee
0b
19
10
16
f4
f6
0e
14
02
03
05
e3
03
03
f1
02
05
f7
ff
01
ed
14
07
06
fc
fd
e8
15
f7
ff
06
04
0f
07
f7
fa
04
00
f8
11
ff
04
f0
fe
ee
fe
08
f6
0a
0e
05
ff
00
01
0b
00
14
18
09
0f
f4
0a
f9
f4
05
08
f1
09
19
f9
09
0d
12
06
fd
0d
18
e5
fe
07
f1
01
fb
f8
0d
02
ff
fa
03
e8
f7
13
03
fb
03
05
fc
0c
01
01
04
fb
f9
0d
01
00
08
f8
f6
f9
fd
f8
01
01
fd
fc
01
04
f6
0c
00
fa
12
e8
ef
ee
02
ff
f1
0f
12
03
1a
04
0c
05
03
fb
ff
1d
0b
f3
f0
0d
12
2c
11
eb
0d
e3
ff
ff
03
1e
f4
0c
18
1d
ff
02
06
fa
09
f3
ea
ed
07
09
06
fe
f5
f6
f8
08
14
18
fe
fc
fa
00
ff
f1
03
fe
fe
f2
03
0c
e9
0c
f5
0f
ee
f6
fd
f6
fc
14
02
f8
ea
02
03
f3
fc
db
f8
fb
06
ef
03
04
f9
08
f9
08
ef
f8
f9
f1
f5
e9
02
f6
f2
20
eb
02
0f
fc
f7
07
fb
f8
00
ff
f7
11
f8
ed
f9
f7
0a
fc
f6
04
f9
f9
0a
02
0c
fc
01
fe
09
09
fd
fc
fe
fe
fc
04
08
07
ff
fe
0c
12
f4
1e
09
00
06
0f
03
f4
1a
09
10
12
09
eb
f2
f9
fa
fd
02
e0
f8
f5
fc
f8
dc
f7
fb
fb
01
f6
0c
fe
fa
02
02
01
fc
03
03
f0
0b
02
04
03
ff
11
f9
f8
fb
0d
f8
fc
fb
00
ff
00
05
05
f5
02
ee
f8
06
f3
03
46
f3
04
f1
ff
00
07
10
f9
04
fe
f3
00
fc
f6
03
f4
f9
fa
00
f9
ff
f7
fb
00
ff
0b
0c
f9
02
04
f1
fb
05
ff
08
00
fe
0a
04
01
ff
fd
0f
ff
f4
04
09
fb
07
f9
08
0a
01
01
06
f2
fd
01
06
20
06
01
ef
09
fe
07
00
f9
00
fc
2e
ff
e4
08
00
f0
11
0a
13
f9
f5
e2
f4
fc
0b
fc
f5
f6
06
03
fc
f1
08
04
10
0a
0f
07
fd
00
ed
0a
f2
f6
f6
0f
f8
0c
10
f5
0a
03
f9
ed
0e
0b
0b
f3
11
04
fd
ef
f0
08
ff
06
fb
20
0e
f7
02
f9
08
03
f7
01
f8
f9
fa
ff
ed
fc
0a
ff
00
e9
fc
03
17
f2
04
09
fe
11
00
13
08
06
03
02
06
0f
fa
01
f2
0a
03
e9
fb
01
f7
05
00
0a
09
02
f8
09
fc
04
fd
f8
01
15
01
05
04
00
fb
e7
04
0c
f6
0b
04
01
fc
0d
03
00
08
03
00
ec
ff
0d
d3
09
f7
15
01
fe
dc
03
f2
03
ec
07
fb
0a
fa
07
01
01
0b
09
04
08
06
fe
f5
f5
02
03
03
f9
ff
03
f1
fb
f5
02
01
f8
04
05
fe
0e
0a
fe
16
01
fc
fc
f6
59
03
fa
08
f9
00
fa
f8
00
02
07
05
fc
fd
1c
02
fb
02
f4
01
fd
01
f7
fc
fc
f3
fc
fb
08
05
e6
0f
02
04
05
03
04
10
fe
02
00
f2
04
f3
00
f9
f9
01
06
fd
0a
f8
f9
04
02
09
05
01
04
fb
fe
0f
f0
fc
dd
05
fa
f9
02
01
02
d8
03
08
00
ff
0f
01
fc
05
07
ff
14
15
fe
0c
f7
15
04
fb
f9
f9
0f
fb
ff
fc
00
00
02
07
fc
03
04
02
fb
fe
fb
0b
0a
f6
05
fb
fb
f9
09
0c
f4
fb
fe
06
08
fc
f8
05
00
03
02
00
9a
07
0a
0f
07
08
fb
f5
fe
00
05
08
fb
03
e9
fd
10
fe
fe
00
01
fa
ff
f8
05
06
06
01
09
02
0a
07
ff
f8
04
02
00
f9
f2
01
05
07
05
08
fe
05
fa
10
00
f5
00
ff
f5
05
fb
ff
fe
fe
f7
00
02
01
e9
01
ea
f4
fc
fd
0b
ff
09
c8
fb
0c
03
f5
0d
03
ff
e8
0a
fc
1c
13
01
02
04
05
00
05
01
03
11
fc
fa
fd
fb
0d
ff
00
09
f9
07
10
00
fa
ff
13
fd
09
06
f8
fd
f3
06
fb
03
03
10
fc
fe
ff
09
18
0d
ff
fd
fb
c5
fa
f6
03
07
00
f7
fe
02
09
f0
09
04
f7
ff
00
ff
0a
f5
00
fb
fa
ff
10
f8
16
fc
fd
fa
07
f3
06
05
07
f4
08
ff
04
fb
08
ff
16
0a
f6
f3
f9
04
02
0c
1f
1c
f5
f3
06
fe
f3
1a
05
fe
fd
fe
15
fe
f3
f4
0d
f5
f2
0f
ef
ff
14
0e
e6
0d
ff
f5
0d
09
e8
0c
f3
10
0c
fd
d5
00
fd
f9
0a
f9
f2
18
f7
05
0e
02
ff
f9
04
e9
00
ef
f9
f0
f5
04
05
f3
13
e2
18
ec
ff
06
06
fe
fa
18
0d
19
ff
f6
e3
ec
f8
13
fe
51
fe
fd
12
f6
fd
fc
02
f9
01
11
ea
18
16
01
db
f9
07
e9
f6
f4
f0
1f
13
fb
ff
f0
fe
fb
ff
07
0c
f3
02
00
1f
d9
02
f3
ff
03
fa
0b
fc
0d
e9
ef
fb
09
02
00
f7
0c
fe
06
05
fe
02
03
11
0f
f6
20
05
1a
f6
01
12
f8
f8
10
4d
f6
fe
fd
03
f6
f8
fd
13
00
fd
dd
01
fc
00
06
fb
fc
ff
fb
f9
f1
fe
09
fd
fe
02
09
fe
00
ff
ef
07
13
f7
0c
fe
00
02
02
03
01
f8
0b
f3
0f
fc
02
01
fe
ef
03
e2
14
00
fe
08
33
fd
fc
02
05
07
ef
00
f9
07
08
fc
00
02
fc
f0
eb
00
02
f2
03
f9
fc
06
07
ef
03
f4
01
09
00
f1
f1
10
ff
f0
0f
f9
fe
03
e9
03
fb
09
0b
fa
0f
fa
fb
f9
05
0d
fe
f8
07
f9
0b
f5
10
07
06
e7
e2
03
18
fe
02
f7
f6
fd
fc
02
ff
f5
fb
03
e8
ff
08
d8
01
03
12
0c
f9
dd
09
fc
ff
da
02
0b
07
01
fe
f7
fe
00
03
ff
03
07
fc
ed
f7
0a
fe
02
07
fe
08
f7
fc
f8
e4
08
ff
ec
08
03
fb
01
08
11
01
fb
00
f2
70
08
06
0b
f9
0c
fc
05
07
05
fd
0f
fe
f7
29
08
13
05
f6
fe
03
fe
fd
f8
e9
fe
ff
ff
00
04
df
04
f8
10
01
0a
f7
f9
f9
01
ef
0a
ee
f8
f8
16
08
0c
0d
f7
fc
00
09
05
f9
fa
06
f4
ef
01
fa
0d
d3
01
08
f5
ef
0b
04
ff
02
de
05
0b
f4
05
e9
f9
09
df
f8
07
1d
02
0d
dc
1c
0d
ff
f0
03
f9
ff
f5
04
04
01
04
fa
05
0d
fc
ff
07
ff
07
fc
fc
0c
01
02
f6
07
09
f5
02
08
ff
fa
fe
fc
ff
07
24
fe
f7
01
08
35
0b
01
ff
0f
09
fc
f7
fb
04
f4
f2
fe
05
2d
01
f5
fa
05
ff
01
fe
fc
ff
f4
02
07
04
07
09
e5
05
07
fc
00
fb
0f
08
0c
02
1f
08
02
05
00
fa
04
04
fe
fd
02
08
07
fc
fe
ee
01
03
f6
fb
fc
00
1f
f8
f4
f0
ff
fa
0e
09
05
36
f8
f3
09
0c
fe
e9
04
0f
ee
ff
d3
fe
00
12
f3
ee
fe
fb
08
f8
f7
0a
00
03
06
fb
02
0c
00
0a
07
fd
06
f8
0b
fa
ff
f7
f3
04
fc
fd
fe
ea
05
fc
01
06
0c
fe
ff
d8
08
05
08
06
0f
f5
00
05
02
fe
02
0c
ff
05
ff
fd
fc
0b
dc
f9
f4
10
fa
f4
fa
01
07
ff
fe
00
f9
04
f7
05
11
fa
fb
08
fe
f5
0b
04
f9
f7
04
03
fd
f9
f3
ff
02
ee
05
f8
01
f6
f7
fd
0b
07
fe
fe
08
fa
00
f7
25
fd
0f
fc
f7
08
02
02
f6
3b
0c
fc
f9
f7
07
12
0f
3c
fc
0e
dc
06
fb
10
10
fa
06
15
f7
f5
00
f8
04
f9
02
f4
f1
ff
ef
04
ee
08
ee
fa
ff
fa
f1
06
02
f7
00
12
fb
f6
11
fd
02
ff
fb
fb
fa
dd
f0
ff
0f
06
eb
09
ff
10
f1
09
03
fe
f5
ff
07
f3
04
02
e5
f1
08
fb
02
f8
0c
02
04
11
04
f8
03
00
ff
01
11
04
f7
01
fc
0a
fe
fc
00
fb
ee
fe
0b
01
15
ff
07
01
fb
f5
ee
fd
00
f7
06
fa
fa
06
fd
fd
0a
00
e4
06
15
00
0a
06
fd
fe
fc
d7
fc
08
fe
07
f0
07
fd
da
fa
03
30
09
02
e2
fd
16
07
e9
07
04
00
09
f9
06
fd
0b
03
01
fd
fe
fb
fc
f9
11
0d
09
fb
04
06
08
06
06
00
06
0d
fe
07
f8
f4
01
ff
25
06
00
fe
fe
16
ff
0c
f6
02
f9
03
f4
01
ff
0c
fc
01
fb
2f
fc
f1
03
fd
03
02
ff
1d
ff
ee
04
01
f9
ef
fd
ec
f8
fd
f8
02
fa
00
f7
00
fa
03
ff
fb
02
f4
fa
04
fb
ff
08
00
fd
05
04
fc
f6
08
04
01
fb
fc
fa
28
f8
25
03
00
fe
f3
fa
fc
48
01
01
02
01
e9
fd
00
12
06
fa
d2
f6
fe
f9
fc
e5
08
f4
fb
04
f6
05
06
fb
fd
09
f9
01
05
08
f1
09
fe
0a
fe
f1
fd
f9
ff
03
01
02
fc
f5
fb
03
fa
f6
06
07
0b
e4
fe
fd
01
02
53
f7
01
f2
ef
0b
05
f8
01
00
02
04
fc
f8
01
0e
f5
01
fc
04
fe
fd
f4
f9
f8
00
01
07
05
fb
07
f6
f5
fe
04
fd
12
03
04
f9
fa
09
fb
fd
f9
00
f5
ee
ff
ff
f3
09
fb
fa
16
fe
00
fe
09
f9
ff
f5
e0
07
02
e8
fe
fe
ff
02
fe
e2
fc
fe
10
f5
0a
ff
09
fc
fc
0c
1f
03
08
ff
0c
ff
ef
fb
fd
01
fc
f2
ff
f8
f4
06
f0
04
07
01
f0
07
f5
15
04
05
02
12
14
ff
06
03
ea
0a
02
f5
00
e4
fc
ff
07
0e
00
fc
0e
fa
c2
03
fd
fd
ef
06
f2
ff
03
fa
f9
09
06
03
16
05
f8
fc
11
f1
01
02
03
03
ef
03
f7
0f
0f
04
05
06
02
06
f0
04
08
f1
f7
02
f9
fd
f9
f8
f6
06
07
ec
ff
f7
0e
0c
f4
03
ef
0e
05
fc
fc
04
ff
01
17
00
29
04
07
09
12
03
06
2f
fb
04
0e
f8
fd
01
f9
f2
02
05
f1
f1
fb
f5
f5
d6
06
ec
ff
00
03
0d
01
06
f8
fd
f0
00
06
02
f6
f1
01
fd
fb
ed
05
fd
f7
00
03
fc
fe
02
05
07
f3
ff
0e
03
fa
ea
fa
fc
f1
fc
53
f5
07
fd
02
ed
fe
10
07
fe
fa
08
10
09
f8
fd
fc
f9
ff
05
00
04
02
fa
09
f7
fe
fc
fd
06
12
02
05
03
fc
09
fe
04
f4
02
e3
01
f6
0a
0f
04
eb
04
0c
fa
10
f2
f1
fd
06
0d
03
0d
1e
f0
02
f9
d6
fb
f0
00
f0
09
08
12
03
c3
f5
f6
0c
fb
00
f5
06
d9
0a
0b
19
14
00
f7
01
02
f2
f5
fc
f5
06
f0
fc
f2
fe
00
09
00
01
02
07
fe
15
f5
00
11
03
fb
07
f5
05
05
03
0b
00
fd
06
0a
03
01
f0
2c
05
02
14
fd
13
05
ed
12
19
fe
01
05
f2
f9
09
06
f7
08
20
f6
05
01
18
ed
03
fa
f6
ee
0d
fe
fb
06
12
fb
e2
03
00
08
e7
f6
f6
04
ff
f0
fb
f3
fa
11
09
04
07
fe
01
f8
f8
2c
03
eb
09
02
03
13
f8
e6
0c
1d
ef
f6
03
fe
f4
f9
01
03
fd
f8
fc
15
ec
04
fd
03
12
19
03
00
01
f6
05
02
10
04
f3
f8
f9
05
f4
ed
00
f9
09
12
0c
fc
0f
f2
fe
10
f9
07
01
f7
fc
0c
fd
00
05
04
f0
e6
15
f5
21
07
0b
0f
0b
ea
fd
03
f1
fc
e8
fa
fa
10
09
fa
f1
e9
eb
f6
f0
26
09
f0
0b
05
d5
ef
ff
07
fd
13
fe
04
f5
02
02
21
04
0c
f7
01
fc
08
dd
14
ff
ff
09
f7
e9
f1
0a
ff
1a
f2
0c
0e
06
fe
05
fa
0d
f0
07
fb
fe
f2
f8
e5
fd
fb
e0
f5
0f
fe
fe
f3
0b
fa
fa
f3
05
09
f8
ff
eb
f5
04
d5
f6
ff
1c
ff
fc
e8
13
0f
10
e3
08
ee
00
e7
0e
f6
02
03
fd
fc
fc
22
f3
1d
fd
fc
16
06
fa
05
09
fa
f7
0c
1e
ff
02
09
ff
f2
0a
f8
f7
1e
fd
08
fd
f9
4b
f6
05
05
fd
fa
fe
f5
08
04
07
fc
fb
fa
23
11
f7
f8
eb
17
0c
21
f5
0c
04
f2
f2
02
10
06
e2
06
04
08
0e
09
fe
12
fb
09
0b
02
01
f5
ee
fd
fb
fb
fd
08
04
f3
f9
f9
01
ff
02
06
03
f1
f6
f7
21
ff
1c
fd
02
fc
01
f9
0a
47
f7
fc
00
f7
ec
f7
ff
24
0a
05
e2
ee
fa
01
f6
ef
fd
0b
ff
fd
09
04
f8
06
fe
fc
f7
03
fb
06
09
1c
08
00
04
f7
ff
08
f1
02
ff
06
05
ed
f7
01
f5
f8
f4
fc
f8
ea
0b
fc
ff
02
2f
02
fe
07
ff
03
06
f6
03
f8
ff
fe
f5
0d
f4
11
fe
0b
03
0b
fd
0c
0c
f5
0e
01
10
ff
0a
fa
0a
11
01
00
01
fd
f9
fa
f9
09
09
f9
fc
0e
f0
fa
f1
ec
fb
12
ff
06
f3
fd
f8
ff
00
ef
f9
f5
f9
ff
1c
f9
07
0a
f9
f7
08
ee
0b
23
f1
02
f7
05
0f
f0
f2
0b
06
07
dc
f5
fc
17
fb
06
08
26
f5
09
0f
0d
03
04
f1
f3
04
f9
08
02
0e
00
fe
f6
f9
f4
09
f7
fc
0c
03
08
19
04
ec
f6
f3
03
ef
f6
fe
db
05
01
fe
03
f4
f0
0f
f9
05
01
0b
f4
17
16
05
f5
07
0d
e3
04
01
03
fc
fb
0e
f7
04
fa
f3
0a
0e
04
fe
f8
03
0a
0e
09
fc
06
f0
fe
03
fe
fd
f6
0d
f0
fe
03
01
12
01
01
01
fe
f7
f1
05
05
f7
f7
f7
ef
10
03
de
f6
ea
03
0c
08
03
ea
fd
c8
ed
09
f9
fd
0c
08
fc
ee
05
04
24
19
ef
f8
05
14
14
fd
00
04
0d
fd
ff
fd
04
09
07
09
f9
0b
f0
13
01
0c
11
15
0c
06
04
09
f8
fa
20
0a
02
f5
00
f7
0b
f7
17
0d
0e
00
f1
02
a6
f6
0c
fb
fa
0d
f1
f8
fa
08
fd
04
fd
09
06
0d
fa
0d
01
ff
fe
fb
f3
f9
01
04
fa
00
0d
11
06
06
e9
fe
13
00
0e
f2
e2
f5
f8
fa
0e
05
fb
07
f5
ec
f7
ff
06
04
05
07
fc
f9
00
02
07
05
fd
f7
12
0a
03
f7
05
04
02
02
f9
13
f0
fe
06
ee
03
fc
08
11
07
f1
00
eb
05
05
fa
f9
f6
18
01
02
01
f0
fa
0a
0a
05
ff
f5
0b
05
09
08
f9
fc
05
01
f8
00
08
fd
fa
03
02
fa
f3
02
f6
06
03
07
fb
f2
fd
f8
fe
fb
04
0b
fd
fc
f1
05
01
07
05
0f
02
f5
0e
00
fc
05
f8
fd
00
fc
0a
ff
f9
0a
fb
fb
07
08
ff
12
fe
03
0d
f9
fa
07
08
09
07
04
fe
fa
f4
00
f9
01
09
0c
fa
01
fc
f6
fb
04
fe
04
fc
07
ff
fa
02
10
e7
02
ef
00
00
00
09
05
fe
ec
ff
fe
00
0d
01
04
f8
fd
fe
03
02
05
fe
02
04
1a
00
fc
f8
fd
00
05
06
fb
08
fa
ff
09
f9
f3
0f
fd
05
06
fc
10
ff
01
04
fe
01
06
01
0b
0c
f8
0d
02
f5
fe
fc
0c
03
04
ff
0a
e2
fd
04
02
0c
02
fe
06
fd
00
fe
fe
fe
06
f6
00
17
05
0e
fe
fe
f5
02
02
fe
02
0b
fb
f9
f9
0c
fc
ff
f9
fd
f2
f7
01
fd
fc
01
00
09
06
02
ff
f9
fd
0a
11
07
06
00
fb
fb
f7
fd
fc
06
07
f3
f0
1d
f9
04
03
fd
00
03
fe
06
18
08
04
f9
f5
fe
0e
02
14
01
f9
ff
03
00
0a
ec
ec
fc
05
fb
fa
04
fc
00
f5
ff
f7
fb
fb
fc
08
f7
fc
fd
ef
09
f6
08
0c
fa
04
06
02
f8
e2
fa
ff
fb
02
01
f6
09
e8
05
f3
05
fc
0d
0d
0b
05
06
00
00
0c
02
fe
03
ef
0a
fa
02
04
f5
f9
e9
05
01
fc
0a
ef
0e
fa
fc
00
ff
0c
04
09
00
fe
fc
05
fb
03
00
02
00
02
02
08
fd
00
f6
fc
f8
ff
06
00
03
02
fb
00
fb
f3
fe
00
0c
f8
0d
01
05
00
09
04
03
05
fb
0d
f1
02
18
f8
0c
f2
08
08
04
fc
fc
e9
fe
fb
f4
f5
fd
05
0b
fd
fd
fd
f8
06
ff
02
fd
f3
05
07
04
fc
f8
00
0c
01
00
fb
03
ef
fa
fc
07
ff
00
08
fb
04
08
01
f6
fa
f9
f9
f1
f6
0d
03
00
f6
ec
0e
01
03
fc
02
fb
05
fe
fe
fb
0b
f3
04
04
05
0a
0f
f5
09
03
ff
0c
04
ff
09
f4
08
07
fe
fc
12
09
0b
0d
01
05
fe
f7
fb
00
00
02
1b
f7
fc
02
f8
f7
f7
00
09
01
fa
f8
fc
00
0b
df
ff
f6
0a
f3
f0
fb
fd
00
ed
02
16
13
0d
09
00
f7
f3
02
06
06
05
fb
05
02
11
0f
f8
f7
00
f7
05
fd
f7
ee
02
02
fd
fa
fe
0f
01
06
fc
f6
0b
f7
fd
05
f5
f5
03
0f
0d
04
0a
0e
fd
01
fd
08
0a
08
00
fe
01
f1
f2
fb
00
10
fb
03
fb
fe
0b
ff
0a
10
0b
ed
fb
12
ff
fb
02
05
00
fe
02
f9
0a
f9
0a
07
f0
fe
fa
04
ff
04
07
fa
fd
fb
01
03
fe
0c
06
fe
05
f6
f0
01
01
fa
0a
00
02
ff
03
05
00
04
08
fc
f5
1a
00
07
f7
08
04
03
f6
01
1d
f5
f4
02
f2
0c
04
f7
11
fc
f8
00
f5
05
09
f7
ea
ff
ff
0b
0b
fe
02
fc
02
02
01
ff
f5
0a
08
fc
f9
01
ff
05
fb
ff
ff
fc
03
02
07
fd
f2
01
ff
f5
fe
07
ff
03
f2
02
fb
f6
f9
0c
09
03
fd
f7
ff
f9
08
09
01
05
f2
08
f9
ff
05
f1
fc
ef
08
01
09
f7
05
0c
0c
fc
05
07
04
fe
04
02
fe
09
ff
04
0f
05
f4
01
fb
18
0d
04
fd
f3
fc
02
03
0e
0e
fe
00
f9
f1
fe
f9
fc
08
02
e9
0c
09
fa
fb
06
ef
04
ff
03
0a
fe
f1
0e
ef
0d
f8
00
08
fd
f8
f1
f1
fd
05
fb
e5
fa
0c
0e
fb
08
06
02
01
04
01
03
f4
06
05
02
01
ff
f5
0a
fe
00
00
00
10
ff
fd
07
02
f7
09
f7
03
05
05
f8
f7
ff
04
fe
ec
08
ff
09
fa
fd
06
17
08
08
0a
f9
ff
03
f6
f8
04
f2
03
f9
09
f1
00
f5
fb
06
0c
08
09
ff
05
ff
f5
08
fb
ff
10
05
01
0e
fa
fc
fc
00
f2
00
06
0a
0f
fd
f4
02
fe
f9
06
ff
03
ff
03
fe
f9
01
04
e6
05
f0
06
f8
ff
00
fd
f6
e9
fb
00
f5
0f
f1
f5
01
ed
fd
03
0c
0d
03
f2
11
12
09
fe
fd
00
11
fe
02
0a
10
07
f9
ff
f2
fb
10
03
fe
0c
01
12
f9
fd
03
fb
01
fb
ff
14
08
f4
13
01
04
05
07
15
00
fe
00
06
f0
fb
fc
f8
04
f9
f8
fc
f7
02
0e
05
fc
01
06
fb
0f
fb
12
02
fa
f5
fc
fe
f8
01
03
03
02
ff
fd
fd
02
f9
ff
f9
06
fc
00
fa
0e
01
06
06
fc
fb
fa
ef
07
12
fb
0a
f5
07
06
06
fa
03
03
09
ee
fe
2e
ff
fe
fe
02
04
0a
fe
03
1b
f7
0a
fe
eb
17
07
f9
21
fe
fb
ec
f5
01
10
f1
f4
f8
15
fa
05
f3
07
fc
07
fe
06
fa
fa
00
01
00
03
fe
ea
09
f4
f7
f9
fa
ff
f7
02
0d
f3
00
10
fb
fe
ff
02
05
e0
f5
02
fb
fe
f2
fc
04
07
ec
fa
06
fe
03
04
01
fe
01
01
e4
00
fa
00
f7
fd
ff
04
00
1e
08
04
08
11
06
fe
11
fc
ff
04
01
03
07
03
00
fd
ff
00
05
05
03
fc
00
f3
fd
06
0d
0e
04
05
fb
01
f8
f5
04
fc
02
f9
12
fc
06
03
05
fd
0d
0e
0a
0f
fa
f7
11
ec
04
f4
03
02
09
f7
fb
f4
f5
03
f6
db
fc
fd
fc
06
fe
fb
fc
fa
f7
02
f8
ff
07
04
fe
f7
05
03
02
fa
ff
fc
01
04
01
04
ff
f5
fc
07
f7
fa
04
02
ff
f0
f8
fb
fb
f9
14
07
01
01
02
00
09
06
06
04
06
01
05
f7
03
04
f3
06
f6
00
01
0a
ff
01
ff
06
04
03
01
03
f8
00
04
fd
fe
12
04
fc
07
f7
fb
fd
14
07
0a
fd
fa
f0
fa
fc
0b
08
fe
05
fc
fe
01
f0
fd
07
fe
fe
0e
08
08
fd
03
01
0b
07
00
12
fb
fc
18
ef
0a
f2
0c
07
fc
fc
f8
e8
00
06
fa
e6
f6
09
05
05
05
00
fa
09
07
03
02
f7
06
02
00
fd
fb
f1
0e
03
fc
fd
fd
00
01
02
03
fb
ff
05
f2
02
09
03
f6
fa
f6
f9
f7
fd
05
00
09
fd
f7
02
02
0c
06
03
fd
f9
0a
fb
fa
07
ed
06
f9
00
00
0c
f7
04
fb
05
ff
08
fc
05
fb
02
0e
ff
03
0f
04
02
07
00
ec
f7
0b
04
06
03
f9
f2
f9
f9
08
0a
fd
04
fd
02
fe
f1
04
12
0d
ec
07
06
fb
f2
11
02
0b
f5
f3
0b
f4
ea
f7
f8
f4
f3
0b
04
06
ef
0e
f4
07
e8
15
e9
f2
0f
0c
ff
04
f7
f6
0b
09
12
fe
f4
0c
04
fe
fb
f7
06
08
08
03
13
02
03
07
f6
04
01
fb
f7
fb
07
02
08
f7
05
fd
fb
f5
fa
11
06
03
fa
ec
06
02
fd
03
04
00
f5
03
f4
11
05
ec
ff
fb
07
03
0e
f7
01
ec
01
0c
f7
fb
0f
e6
05
08
f6
01
09
0d
0e
0c
05
00
03
fb
0d
06
fd
ff
eb
04
0d
05
02
0f
07
fb
f1
03
07
02
05
f2
fb
18
03
07
f8
fa
f9
01
f9
09
16
04
f9
ff
f5
fd
fe
f3
10
fe
f1
fa
fc
ff
fd
f8
e5
01
04
05
0b
fb
07
ff
f7
03
02
02
f8
0d
07
f8
fa
06
f4
01
f1
0f
01
fe
07
14
06
fa
f3
fa
04
f1
f9
fc
02
fd
f1
fe
f6
04
fb
1d
09
02
fa
fc
fa
fe
06
12
fa
01
fd
ff
03
06
ff
f3
f1
ec
05
fe
05
09
02
0b
f9
fd
fa
ff
02
02
f8
06
ff
08
0c
0f
fc
02
00
02
ff
0c
03
04
06
f9
f7
f8
fc
07
06
03
fe
fc
fd
fb
f5
fd
05
ff
f1
11
08
04
04
08
03
06
fd
08
0c
fb
fc
0c
f5
02
ff
03
0c
0a
f6
ff
ee
09
fb
00
ee
fb
06
04
0e
fe
fa
fe
12
fd
fe
02
f5
0e
01
fa
ff
f8
f8
fd
f9
fd
05
fd
ff
03
f4
06
f4
fb
02
fa
00
06
02
fe
f9
f9
f9
f8
f3
0d
fd
f7
f7
fe
04
00
0a
09
0f
fb
00
02
fd
0a
08
e9
00
ff
06
06
10
f5
fe
fe
03
0a
f9
00
0f
ff
09
0a
01
03
0c
04
0a
07
05
0c
09
f4
f5
fc
f7
00
11
08
06
f6
fb
01
f7
fb
04
07
03
00
f9
fe
0d
fc
fb
08
0b
f3
02
f3
fe
08
f6
09
11
fa
09
fb
0b
fb
fa
fb
0f
06
0f
f9
0b
fd
12
0d
f2
03
05
f0
03
03
f5
f5
fa
05
11
04
02
f7
fe
0c
fa
fa
f8
07
fb
f3
f8
05
0b
f5
f7
03
04
01
f3
01
fc
0c
fd
02
0f
01
fb
ff
07
ff
15
10
f7
07
f4
05
fc
06
03
f5
fd
06
fa
0c
f6
f7
fe
f6
f9
07
f8
0e
fb
f6
fb
fb
f4
01
f8
fb
08
06
f5
fc
f8
f6
0d
eb
f9
f0
00
27
ff
0f
10
f1
f9
08
ff
fc
f9
f8
05
0e
ee
03
fe
19
0c
e4
fc
07
02
04
f6
fa
03
fb
f0
0f
0f
02
05
f1
ec
09
c0
0c
f9
1b
0d
ef
dc
07
fc
01
e4
04
02
01
f8
fe
ea
f0
fe
08
fb
fc
05
e8
e9
01
06
ed
f7
0d
f1
03
fe
05
10
01
12
f8
0a
10
f5
01
01
f6
1f
fc
00
fa
fb
19
11
fc
08
2c
ff
07
f7
08
01
0a
0a
fd
00
22
01
fd
08
fe
13
06
0a
fc
f2
ef
f5
e7
f7
ed
03
e4
01
01
10
14
16
ed
0c
fb
02
ff
04
0a
01
04
02
0c
11
05
04
f9
f2
fc
fe
fd
02
06
02
fa
f6
0f
0f
e0
f9
ef
09
04
07
f8
f6
fd
c0
03
01
fa
07
09
0d
f5
db
00
02
13
13
ff
fd
01
15
fc
f4
f9
fe
02
00
00
08
fd
fa
01
02
fb
00
ff
05
01
09
fe
0e
fb
04
f8
0a
05
02
02
08
04
05
12
f8
03
ff
07
1f
fc
00
03
02
d5
06
fa
fd
fc
05
07
fe
fb
fc
03
06
03
07
12
fa
02
02
07
f7
fc
fb
03
f8
02
03
00
fd
05
f8
ff
03
02
04
00
00
07
03
fc
06
f5
00
02
fd
fb
01
fa
02
ff
0a
01
fe
fb
02
03
03
04
04
06
fe
ff
06
da
fa
ff
01
f6
f9
0c
fd
02
e2
04
fb
07
fe
f7
00
fe
e7
fe
fd
1d
11
fc
ef
ff
01
f9
e9
fb
07
0b
00
06
f3
02
04
03
00
04
f6
ff
fb
fb
04
09
0b
0c
fe
07
03
03
f6
03
06
fd
f5
04
07
0b
03
0f
1e
0c
fe
f6
10
13
0a
f8
ff
06
f8
f8
f7
0b
ff
fe
02
fa
03
1b
00
ff
01
fb
06
04
01
00
fd
fe
0c
06
fe
f6
fe
f8
02
f2
01
f3
02
ff
f9
fd
04
f4
fd
fe
ff
09
03
08
0d
06
fe
f6
fb
02
04
08
01
fb
fc
fe
fb
fa
01
e3
00
ef
fa
fd
01
00
fc
f9
c9
09
02
f9
02
fe
ed
06
e6
f7
00
1d
0e
09
f1
06
16
02
f8
fe
ff
0b
f7
03
fe
ff
ff
01
06
fa
04
05
fb
fc
fe
fa
12
f9
fa
0b
f6
fe
14
06
00
fe
00
04
01
f0
fe
02
27
f9
02
04
07
f9
fc
00
fb
00
02
00
ff
fd
05
f8
f3
fc
02
19
fd
05
f8
06
fa
fc
00
0c
00
f9
f7
04
fc
00
ff
f2
02
ff
07
ff
fa
05
0a
0a
02
f5
fc
fe
f5
0b
fa
0a
05
fa
08
04
07
fe
07
03
fa
0a
fa
01
00
06
00
db
fa
0a
03
fd
00
f8
01
03
db
fc
f6
02
06
f0
fb
01
dc
03
f9
1e
05
ff
df
05
00
08
f0
03
01
f7
01
0b
05
f8
01
ff
06
00
ff
ff
f5
01
05
07
07
05
03
0b
04
f6
01
f7
12
04
f8
00
04
00
05
07
19
fd
fb
00
02
34
01
fd
00
ff
00
ff
02
03
00
fe
fd
01
04
1d
00
ff
01
f9
07
03
06
fd
f9
fb
0c
f5
06
05
05
f6
05
0a
05
03
02
f8
fb
fe
06
f2
01
00
0b
13
fe
0b
09
05
f1
09
02
01
0b
fe
03
0b
f8
fe
0b
03
09
e9
02
37
07
05
05
f8
fb
09
1a
00
ff
f1
02
eb
01
f5
e5
08
f4
08
00
fc
dc
f7
f3
08
eb
f9
f9
fa
fa
01
01
02
01
03
ff
ff
07
f9
f1
00
09
f6
ff
08
fd
f8
f7
fe
f1
f2
01
05
ff
0a
00
fc
07
ff
1f
fe
f9
f0
00
6e
fd
ff
f4
fe
08
0c
fd
f7
f5
ff
07
fd
f8
2e
08
0b
02
fe
0d
03
fb
fa
f9
f9
ff
03
f7
f0
01
e6
f9
fc
03
01
03
00
04
fe
03
14
fd
01
fb
f6
03
fc
f6
ff
01
fa
03
06
08
f4
0a
01
fb
02
02
f9
fe
1e
fe
00
05
08
05
00
f4
03
20
03
0b
fe
05
0e
fe
ff
28
ff
ff
e8
f9
04
14
02
fa
04
09
07
03
fb
07
f9
06
f9
fb
02
ff
01
fe
03
05
fc
fc
fc
fe
01
04
03
04
f5
04
05
ed
05
f9
f7
fe
04
06
0b
dd
fa
f6
f6
04
d2
00
04
f3
f8
06
ff
04
01
ff
f7
f9
04
09
e6
ff
fd
fc
0c
05
f9
0b
03
01
fa
00
05
fd
f7
07
0e
ff
00
f4
f8
04
10
f7
03
ff
ec
03
07
01
f9
07
f6
02
f6
fa
06
00
fd
09
fa
0b
0f
03
fe
0d
02
f4
dd
fc
f9
ff
03
07
04
10
f7
df
f3
09
06
03
10
02
02
e4
11
fe
26
08
fc
f2
fe
01
fc
f3
fd
fd
07
fd
f7
02
fb
02
08
f8
05
01
04
fa
01
f7
fd
06
ff
fc
0e
f3
fe
01
0e
fe
f6
01
fe
01
06
0a
fd
1d
f8
fa
f7
01
0a
fd
03
07
03
01
02
01
fd
ff
fe
fb
06
04
1c
fa
02
05
08
f8
04
fe
fc
fb
fa
05
fe
f8
03
07
f0
03
03
fe
f7
fd
f6
0f
02
f8
12
02
fc
fb
04
fb
0f
ea
fe
04
fd
01
04
0a
02
01
02
06
f9
00
04
fe
2d
fa
04
f7
ff
00
fc
fe
02
2d
fa
06
f7
0f
06
fa
ff
22
f9
f6
f0
fb
ff
0d
f9
fc
06
05
fe
fc
fa
0c
04
03
f7
fe
fe
f7
01
03
fc
04
fd
00
fc
f1
fb
fc
f9
fc
06
fe
fe
f9
f8
09
fd
f2
05
06
fb
e8
fa
ff
01
ff
fb
fd
f5
04
f3
04
02
f0
fa
f9
03
00
ff
ff
ed
01
fa
04
04
06
08
00
fe
f8
05
fb
fc
fb
08
f9
0a
ff
07
01
02
f7
ff
0b
05
fb
f9
fc
13
01
0d
01
fc
03
0a
03
ff
09
02
06
09
fc
f9
f9
fb
07
f7
03
de
f7
f6
fe
fd
01
06
08
0c
dd
08
fd
04
f9
16
04
03
0e
08
ff
0e
03
fc
01
06
08
07
09
ff
f5
fd
fe
08
02
f8
fc
09
06
f5
00
fc
f3
f8
ff
fa
00
05
00
03
04
06
0a
00
14
04
0c
01
06
f9
07
fd
12
05
ff
fe
10
ad
fc
fc
00
05
f3
fd
fa
0b
01
fc
00
ff
07
fe
fb
0f
fd
05
fc
05
fe
fd
04
07
0c
fe
fd
fc
09
09
02
09
08
f8
f4
fb
07
ff
fb
01
0f
00
11
07
fa
03
fc
fb
fa
f3
fb
00
f1
fe
fd
f9
0f
f4
00
03
12
15
09
0b
ff
fc
00
fe
fa
0b
15
09
f6
f7
0a
ee
0f
01
f7
f2
fa
f0
ee
07
f1
11
fa
f7
0e
00
06
f5
07
fe
0a
ff
03
fc
00
fc
f7
06
08
0a
0e
fa
f5
03
03
f3
10
11
00
f9
0e
02
10
0f
fb
eb
fe
01
f0
fc
ff
01
fc
3a
09
f3
f9
fd
fb
01
fc
06
ff
fd
06
06
04
09
ff
fe
fd
01
f6
f1
fb
07
07
00
f8
08
f1
0a
f8
fe
fb
0d
f6
f5
f5
08
f1
03
09
01
0a
07
05
f2
fd
07
04
0c
fd
ec
fa
02
12
06
f2
00
05
0b
12
04
02
0a
fe
2b
ff
ef
11
fe
ff
05
3d
1a
03
03
02
f1
fa
fa
0a
05
fb
de
07
fd
fe
fa
ec
f2
f3
f0
f0
fe
ee
0e
f6
f7
f8
f4
01
f4
02
ed
ec
02
ff
fc
f8
12
01
0c
f9
09
12
ea
fb
07
0c
08
08
f5
fa
0f
ef
fe
02
fe
0c
47
ff
e6
fd
04
ff
02
fb
fd
05
f6
ec
0c
07
fb
eb
04
19
f2
f8
07
fc
04
ec
0b
00
fc
04
fe
01
00
09
f1
0f
da
fe
eb
02
04
02
f8
f9
00
09
03
04
f8
00
fc
06
ff
fe
fe
01
03
02
fd
07
fe
05
0b
0b
f3
05
e6
0a
07
f7
00
fd
09
cb
f2
02
ff
01
11
ff
00
02
0d
fc
10
09
08
01
03
0b
f8
0c
fe
08
fd
fc
f6
01
06
03
06
f8
07
f2
0a
fa
07
00
fa
05
04
02
08
f5
00
f4
09
08
00
fb
07
06
04
03
00
11
fe
fc
02
04
b4
fb
fe
01
00
05
08
03
fa
ff
ff
fb
00
f2
01
08
03
fc
f8
08
00
f3
ff
07
f9
05
00
fb
fa
00
01
fe
0d
f9
ff
09
f8
fd
0b
03
01
0b
fc
fe
01
fc
f3
01
f5
01
09
04
f2
10
fd
ef
09
fa
fd
13
01
02
e8
fa
12
ed
f7
00
02
0f
0d
f8
fa
f1
05
fe
0e
0f
fe
03
01
f2
13
09
fe
07
fc
fc
03
05
04
ff
ef
fa
05
01
fd
01
03
fc
04
f9
03
fa
fd
fe
06
15
0d
08
16
04
03
f8
ee
0a
01
f4
0d
f9
f7
01
01
15
01
f1
f8
f5
df
06
fa
f9
02
07
06
fc
00
f3
fc
f5
fc
00
fc
fb
05
17
fd
fb
f7
0b
01
e7
f9
19
fe
fa
05
f5
0a
05
0a
fd
06
01
04
f1
0e
09
fe
0b
02
00
fc
00
01
17
06
fe
fa
08
f0
fa
0c
03
f3
fc
fd
fe
08
14
e8
f1
fe
0d
01
0d
f8
0b
0f
d9
fe
00
09
f6
0c
0f
f8
fc
fe
02
11
06
fb
02
f4
00
fc
0b
fd
fc
06
02
0b
02
ed
ff
f8
00
f5
f3
fc
f6
01
f6
07
05
01
fe
05
15
01
06
fd
13
0a
09
14
ff
f8
f8
05
11
05
02
04
06
b7
00
f3
f8
07
f9
ff
07
00
fa
04
01
07
08
f5
ec
02
fc
ef
02
04
fb
0f
00
04
0e
fc
05
f7
08
fe
04
f4
0f
fe
ff
ee
02
f5
fc
fa
02
00
06
03
03
fc
f7
f4
f8
09
04
04
fa
f7
ff
06
05
f5
f8
f5
f0
09
07
0a
fd
ff
07
0e
fc
fa
24
f0
06
09
fb
00
fd
06
f0
01
04
f5
eb
02
eb
01
ef
fa
03
07
07
02
12
fa
08
00
04
fe
fc
0b
fc
07
06
05
06
f9
ee
f8
f9
f6
0b
04
00
0b
02
02
04
00
f6
03
fe
f0
fd
fb
fe
fd
f7
45
03
07
fe
f5
fa
07
05
0c
00
ff
05
05
fd
06
06
00
fa
05
03
fa
0c
0e
05
fc
00
fd
02
fa
ff
00
fe
10
f3
03
f3
0a
03
04
f8
08
05
f7
03
fa
06
03
fc
f8
02
05
fb
00
f2
f4
00
fd
02
0c
f7
ff
04
17
fb
07
0b
01
fc
00
00
02
24
ff
02
f4
09
fc
fc
01
16
01
02
df
f4
f9
07
fc
ef
05
0d
03
01
0b
0e
f7
02
04
ff
fd
fd
06
fb
0d
0a
05
04
fa
fe
f8
00
fb
03
ff
fc
02
fa
0c
f8
04
fe
f9
00
fe
dd
fb
06
04
f5
14
0a
08
fe
fa
01
03
04
0c
fe
fb
02
f0
ff
ec
f8
05
f8
00
fa
f3
04
06
0a
fa
02
09
03
00
03
09
fb
f8
fb
08
05
fa
f5
00
fb
fe
fe
0f
ef
fd
f9
fc
f5
03
fb
01
01
02
0e
0a
fd
12
04
07
07
05
f8
fe
fd
03
02
fe
1d
f7
f5
10
0d
f1
04
0f
f8
fc
12
03
03
0d
fa
ff
0a
02
fe
01
fe
00
02
ff
0e
fe
f3
10
09
06
05
0e
f9
05
fe
01
fe
f4
fa
ff
02
0b
00
fc
f4
fb
f5
ff
fa
06
fc
fb
04
05
00
f6
03
0f
fc
04
05
fc
fd
fb
08
fc
fd
f6
ff
03
05
04
fb
02
f9
07
fe
fb
06
fc
03
04
ff
f9
f9
ff
fc
f6
ff
0c
06
fc
05
0b
fe
f9
f7
05
09
00
fe
f7
02
fa
04
fc
02
03
01
03
00
ee
03
fa
00
16
fc
fc
fd
fb
0a
ff
fc
02
04
04
e9
f7
07
04
07
fd
05
07
f8
0a
f1
ff
0b
fd
01
f9
05
05
fb
fe
00
06
fd
f7
fe
f7
ff
ff
fa
ff
03
fe
02
fa
fd
f3
f7
f8
ff
fd
fd
00
f8
03
04
06
fe
03
fe
fd
0a
fa
fe
05
f7
f9
f6
f4
06
08
11
08
00
ff
03
fa
11
02
fa
e7
02
fe
07
02
fe
08
06
01
01
fc
fa
06
fa
00
fe
0b
01
01
03
f3
02
fe
04
fe
f9
02
0d
05
fc
02
09
ff
ff
05
00
02
ec
f9
fb
fa
0e
fa
00
07
0e
05
ff
02
fe
03
f1
01
fe
fd
0a
02
fc
fe
05
0a
0e
fb
ff
03
00
f3
01
f2
02
04
05
ff
fb
00
02
07
04
f9
fc
f7
f8
ff
fe
fd
f6
f2
04
f6
07
09
ff
0b
01
08
08
06
fc
fb
04
fb
04
f6
05
14
13
f8
f5
06
fe
10
f5
fe
f9
fb
fc
fa
07
04
09
fb
f1
03
00
0a
fe
f9
07
fa
02
fb
06
f6
f5
fb
fd
02
03
f9
08
f8
f9
f3
08
fe
fe
05
04
f7
09
ff
01
02
fd
07
02
02
06
fd
f5
e9
0d
f5
f5
05
05
ff
f5
05
00
fb
02
08
01
fd
02
ff
fd
f9
fe
f8
0c
05
fd
f5
f3
05
fb
07
ee
06
f6
00
02
01
01
0c
f8
01
00
01
04
05
f5
fe
00
01
01
04
01
f8
ff
fd
fa
f5
fc
02
f7
07
0e
03
fe
f9
08
ff
ff
02
fd
00
06
0b
0c
fb
f0
03
fc
f8
07
ee
06
f9
07
04
f0
fd
00
12
0d
07
00
05
05
f8
0d
04
ff
fe
08
0a
03
fe
08
01
f1
00
04
01
05
fc
03
07
fd
ef
fc
fd
f7
ff
05
0d
00
01
fd
fb
0d
02
fc
06
00
06
fa
fb
03
02
f1
01
02
04
06
01
f9
ee
03
07
f6
04
0c
ee
fe
03
02
06
00
04
07
ff
09
1c
16
ec
f1
ff
fe
04
0b
fa
fc
fd
01
01
04
ef
08
09
00
09
03
ff
04
0a
01
fa
18
