fd
ff
f6
ed
08
f6
1d
dc
0d
11
ef
13
04
f8
ef
ed
03
eb
f7
01
ef
f9
fb
0c
f5
00
ec
14
1e
22
01
12
fc
00
07
e5
07
10
1b
04
14
07
25
0b
06
10
07
e9
15
21
f2
e4
f4
f4
f0
00
f8
fa
e4
02
f3
fd
fc
f8
e7
f3
e2
f4
e0
f4
fe
ed
ed
22
f6
07
fa
f8
05
03
eb
1c
02
26
f5
dd
f4
fe
f9
0c
00
05
03
ff
eb
ef
0f
0e
12
f3
04
ec
0e
11
00
01
fd
08
03
e3
01
0d
0a
ff
0a
e3
02
03
f5
e9
05
10
10
ed
0a
07
de
05
08
16
13
0f
01
d3
1a
0c
29
29
0c
03
00
f2
09
00
13
ff
0f
10
e4
f8
eb
06
e9
f8
0c
cb
ea
0c
fe
e9
ff
ea
17
f7
10
0b
1a
16
13
03
ff
f1
f4
ee
fc
11
10
ec
f3
e1
ec
12
14
01
02
0b
06
1b
06
fb
1c
0f
fd
fc
e1
06
01
f5
fa
f0
f3
ed
1d
22
f4
e1
cb
fc
09
1c
07
2b
fc
d8
f8
1f
fc
05
07
e9
20
1a
fe
07
f9
1e
00
18
d3
21
17
f7
05
ec
cb
ea
db
fa
d5
11
f0
f6
fc
f8
20
17
0f
0e
e8
ce
f3
0d
e8
0a
e1
de
ff
1e
06
0b
12
02
ea
02
0c
06
15
0a
e1
09
17
f8
e9
23
eb
00
e8
05
1a
00
ed
03
e8
04
0b
e5
d6
ff
0d
12
02
f4
07
f3
24
ee
05
fa
0f
f2
01
f8
0a
f8
21
c4
22
e8
d8
eb
e9
0c
1b
f0
f2
f0
05
f2
05
de
10
00
0a
ca
e0
ef
2f
03
26
dd
df
0c
18
0c
21
17
eb
ec
ff
12
f4
0e
06
26
08
14
fd
0d
fe
19
ee
16
db
e5
e8
0d
08
df
ed
f1
22
e6
15
f3
0e
dc
01
0d
fa
fe
f7
e4
0a
06
13
05
0c
07
fb
d5
c8
0c
17
15
10
ee
f3
1f
f9
f1
f6
f6
fe
ee
19
f2
22
02
11
ef
ec
ff
0e
f7
f9
04
23
fd
f2
fc
eb
f6
14
1f
03
ef
ea
f4
f4
0c
db
05
ee
fb
f5
0d
fd
0a
17
ea
f4
1d
ed
0a
fb
0b
f6
e5
00
2b
ec
0b
04
0d
fb
ed
09
fc
10
fc
16
e4
f6
f8
fb
2f
1c
f5
f4
0a
d8
f9
0d
f9
fd
00
0f
04
f4
df
05
ee
04
f7
06
fe
d9
04
f6
f5
00
1d
0a
fc
f9
06
03
e5
1d
2a
1c
06
04
14
f8
fb
04
23
01
e6
29
24
fc
16
02
f8
0c
fa
f6
03
12
e6
0e
08
f6
ff
0a
f6
0b
0a
fe
ff
f2
0a
f3
f7
fc
fb
11
01
f3
ff
e3
10
fe
07
1d
fb
23
f5
eb
f2
13
13
f1
f4
12
e9
0b
0f
1a
11
11
f7
fd
17
08
d8
f5
ff
f8
00
01
fe
1d
15
05
dc
f9
0d
e5
12
12
07
06
11
02
03
25
ff
e8
e4
09
0d
0c
10
0d
21
f1
f0
01
0e
fe
ed
01
ef
13
14
ec
0b
f6
f9
11
ee
de
f4
08
14
eb
1e
00
fd
e6
d4
fa
ff
15
f2
e0
f5
03
f4
02
15
fb
e5
06
0c
f6
e4
f2
13
02
0d
f4
01
20
fb
04
f6
f6
02
d3
f5
ef
06
1a
20
09
12
f9
ec
1d
09
10
ec
ef
28
06
0a
0d
f3
dd
db
ff
07
be
d8
32
f7
f1
02
0d
e9
f5
fa
e6
c4
f9
fb
2a
13
f5
fa
ef
fb
fd
f9
21
13
f1
23
15
fd
e9
1a
f2
22
01
1b
e3
fc
0d
22
e3
04
f3
0d
ed
e7
e1
0f
12
14
25
12
0d
11
f8
f2
e0
e3
19
15
06
e6
d5
e6
0a
06
fa
11
ee
fa
10
eb
f2
e8
0d
fc
06
f4
0b
12
0e
25
fe
e6
06
27
fd
e1
f0
2a
fe
17
d1
32
ff
14
fa
fc
00
0b
fc
09
f3
f2
0f
01
f3
01
20
0e
1c
00
fa
ee
ff
f0
ec
ea
0b
fb
db
24
21
0c
e0
02
0e
e9
1f
f1
06
eb
ec
0e
ef
09
f4
05
f8
0b
1f
0b
19
ed
ff
09
09
ea
f6
f6
f2
f5
07
e9
00
f5
10
f8
06
00
ec
1d
fb
f3
00
e3
f4
08
da
fd
08
01
fe
fe
ce
fd
f7
0d
11
20
01
f3
ee
0c
d4
ee
ec
11
0f
f3
f7
01
00
1b
05
e1
17
f2
e4
06
f9
0b
ff
1c
14
fd
04
ec
e6
0c
f5
0a
03
ef
0e
fe
d9
10
31
e9
25
0f
f5
f3
e4
10
00
e7
00
0a
ed
2c
04
01
1f
36
0c
28
0c
10
e6
d6
f5
00
e0
00
0a
cf
01
d2
07
0b
f2
dd
e5
29
26
e2
0d
1d
fb
00
16
db
ef
22
2b
01
05
e8
e4
ff
e8
15
fa
08
11
00
04
d1
0f
e6
04
f5
2f
21
f5
fd
bc
fa
d4
04
0a
f0
10
ec
f8
0e
33
16
12
31
f9
df
0d
eb
fe
0e
13
15
09
f9
ea
00
18
1f
ee
15
ca
f9
23
d1
e1
e6
e4
04
1f
14
e6
ee
2d
12
2f
10
f6
03
f6
06
04
e8
ef
1c
ea
0d
02
e9
39
0e
0e
f1
2b
06
e4
f0
ed
ea
dc
0a
0c
f8
17
03
07
00
f2
02
01
0a
fc
00
0b
ff
f7
e6
fb
12
f9
f5
1c
14
f0
f3
03
0f
1e
04
0b
e5
0c
ee
f2
19
ff
f4
d6
1f
02
07
fa
e0
09
f2
f4
0b
ef
0e
ff
fe
f5
f2
00
0d
fa
05
f6
fb
17
f3
27
02
1a
f9
07
eb
e0
ee
0b
03
0d
03
12
08
02
23
f5
f3
f5
f0
14
fc
f5
05
14
ea
ee
03
0c
09
f4
02
0c
e3
0e
f7
01
e3
e5
09
fe
f0
f8
0f
11
1c
03
08
0c
07
10
ea
d5
18
ff
f3
13
e6
fb
04
13
0a
04
fb
f6
fd
f7
0b
f9
f3
2a
20
26
d4
18
02
17
f3
00
cf
13
f8
ef
f4
f8
ff
e6
00
15
f8
fd
12
e6
e8
df
fd
07
14
0d
ef
07
fe
08
05
00
14
0a
fc
f9
00
ce
e5
01
ee
23
f8
06
08
26
06
16
17
03
ed
15
ff
ee
0f
e6
dc
0f
21
2d
08
0a
19
de
09
15
07
ff
e6
fc
19
14
d5
ee
04
31
ec
33
ee
f1
0f
01
e7
ec
f9
13
f2
10
1b
e1
e5
01
fd
23
04
f7
d0
ea
e1
da
f1
e4
19
26
0f
10
c9
dc
0e
fb
fa
06
f4
0d
f1
fc
1b
e3
f6
08
18
2f
fb
0a
03
e7
11
fb
09
f5
07
11
ed
f9
fd
1b
ee
f5
f0
05
03
e4
ee
df
0f
f3
f0
f4
0a
16
21
14
e6
08
e9
f8
f6
08
11
e5
ec
0a
04
0f
ed
f0
10
09
d8
f2
e7
e8
04
e7
02
0d
27
1d
ef
2b
f9
da
ea
1d
f6
12
19
26
fd
06
f3
09
06
ea
e6
09
0d
0a
f6
ff
24
0e
26
09
0a
f8
f6
02
f6
fb
f9
0a
03
eb
ee
f2
fc
ef
f9
14
e6
32
0a
07
08
f8
14
17
f6
04
f6
14
df
29
f0
06
f2
07
f9
0d
f4
0d
06
1b
e2
ff
fd
05
f0
26
1d
f8
13
0b
00
00
01
f5
11
ff
01
04
f4
f9
ee
05
03
05
e6
02
e2
13
eb
2b
f4
01
06
fe
00
0e
09
fb
02
e5
f6
0d
e3
1f
fb
02
f7
04
05
f6
05
01
06
f5
07
ff
04
f8
e0
12
f0
02
05
07
fa
f0
09
17
09
e0
01
f7
fe
ef
f4
e9
10
de
e3
e9
ee
f2
0c
08
0f
04
0d
10
1e
08
f2
fc
07
f7
16
08
f3
17
fb
e7
ef
de
0a
0e
e8
eb
08
15
e9
ea
ff
28
0b
1b
23
fb
fa
ff
19
00
de
fa
f9
e0
eb
12
e5
02
1b
13
1b
14
f9
1a
f4
06
f8
e6
fa
c1
fb
0b
fc
f8
1a
e1
f6
dd
05
21
f0
f0
f2
1b
fb
19
ff
0e
10
f8
f6
f4
fc
f5
04
cf
f2
1d
19
13
f3
fb
de
ec
0a
00
2a
14
14
f7
de
1d
02
15
e8
04
1e
f6
10
e0
f7
24
fe
ef
fa
1b
ec
f5
0f
d3
eb
ee
07
28
16
03
ef
ed
04
fe
0b
1b
dd
1a
eb
02
f3
f7
10
1a
f1
fb
f0
1a
fa
0b
0f
01
0c
f9
09
f5
03
10
26
d4
f7
16
04
07
01
f2
18
f6
0b
1f
f5
17
04
1b
14
0a
e0
0a
f1
05
f2
cf
e4
1e
d6
dd
ff
15
08
09
fa
e3
00
0a
f8
f3
d9
e6
00
1e
01
13
e6
eb
f7
f1
ee
f8
ee
de
08
e2
0e
28
dd
fe
fb
18
0d
17
3b
0d
05
e6
f0
e0
1d
0a
e1
e0
dd
16
f9
db
2d
f1
d8
e9
09
18
f0
18
25
15
f0
ee
e8
fe
0c
27
fe
12
23
f2
1b
f3
00
1b
1b
1f
0d
fc
19
20
10
e0
f5
ef
06
13
2e
34
c6
0e
f2
13
cc
23
e8
e6
14
03
dc
f8
f9
06
f2
fa
cb
f2
de
0d
f1
09
dd
25
3c
0c
fb
f5
f1
01
0c
01
0b
07
f5
f6
25
fa
04
f9
07
df
02
12
20
fb
15
09
dc
ef
e6
2b
f9
e5
07
09
f6
e5
e8
f6
10
2c
0d
0f
e2
0c
de
05
1b
31
09
fa
05
0a
12
1f
f9
21
10
ed
e3
06
ec
f3
f9
11
f3
fe
f4
f6
d6
f7
10
e2
f7
06
ee
10
fe
f3
d5
03
2c
f1
fe
02
0e
0c
fe
0e
eb
1f
1a
12
f9
2c
12
ed
21
e7
1d
fe
07
ff
f3
ff
06
06
ee
0c
f6
de
fd
14
17
26
ff
f0
e8
fc
05
f9
03
0f
21
ed
1e
04
f8
ef
ef
f5
ec
f2
f5
f0
08
05
03
05
10
f3
0d
e6
0a
f2
01
d7
f0
00
05
2d
ee
e2
ea
f6
16
d3
e6
e8
09
0a
04
06
d2
0a
13
fd
23
03
cb
f4
ff
e9
09
01
ee
de
19
05
23
f8
04
05
21
15
e7
e3
00
29
fe
1f
1c
ed
df
f0
f1
06
1a
f5
f7
f5
13
f9
e4
0c
15
d4
36
fb
25
f6
e1
18
d2
f8
ed
db
1f
20
ec
ff
1b
fb
1c
03
ec
f4
f7
0a
01
df
2b
0c
ec
e0
fd
11
01
22
32
29
0f
09
d5
02
12
16
d9
f4
0b
f8
fc
0e
0b
1b
07
fb
0b
e8
12
df
18
0c
07
11
25
e2
1f
ea
f0
13
f5
12
e3
f6
0e
cf
20
e9
f4
e2
09
e1
c5
f2
ef
06
02
f5
fc
ef
15
f3
dd
16
f6
e8
1b
e9
27
ee
e8
0a
f5
f3
ee
ef
07
e0
eb
e5
19
14
01
00
fe
14
00
fc
1c
17
02
e4
dd
e4
08
e6
12
da
1d
06
fa
f5
0e
21
12
0f
23
ec
ed
e7
1a
09
0e
d5
24
07
02
ed
12
15
f0
fd
e8
06
0a
fa
14
d9
14
01
f8
d7
ec
1a
ec
1a
18
26
12
f9
0f
ef
f5
ec
f9
27
fe
fc
12
e0
23
16
f6
d7
fb
e4
14
1c
1b
fb
e8
1a
e1
1a
e8
07
f0
32
f0
f9
f0
09
04
0c
fd
17
ef
fc
f9
f1
f7
fa
f5
16
ec
06
17
f7
01
02
f1
02
dd
17
05
0c
e2
0b
fa
0b
08
18
fe
ee
f8
f7
1b
0c
ff
15
ef
0c
00
05
0d
15
ff
fe
0a
0e
f1
f1
13
f4
fc
18
f4
06
fa
06
3d
02
02
ef
e2
05
fb
fc
ff
e3
17
23
f8
fd
f8
01
ed
0c
f7
e2
04
0b
2c
f5
ea
09
e2
1a
03
10
08
ff
f9
00
04
06
f7
0b
21
0c
f9
c9
f2
e5
04
06
08
f4
06
ef
f1
e0
0a
03
0f
11
ff
fe
26
17
00
06
f7
10
f2
02
00
f5
11
05
e1
e2
08
ff
f5
ef
fe
fc
10
f2
f9
1e
0d
1e
0a
02
fe
ee
1d
fe
06
ee
dd
e3
0e
40
df
04
03
f9
10
1f
06
05
f0
e8
d1
f9
0b
1d
09
07
f7
22
fc
fd
30
ef
09
d4
1f
fe
e4
10
05
f2
01
14
18
f0
07
0c
d6
16
11
06
02
fd
fa
e9
02
04
ea
00
e3
fc
05
0b
1c
20
2a
0b
00
f3
0c
01
ea
fa
f6
06
0c
1d
19
e6
f3
0d
e0
02
30
db
05
05
f2
0f
05
f1
25
0f
fb
fc
14
d6
0b
06
de
f4
fd
00
f7
22
fc
31
08
0d
e8
f2
e1
0a
f6
04
fe
e8
e9
e9
f8
20
ef
0d
f7
14
f5
1b
e8
fb
1c
e8
23
f0
da
cd
0f
e8
01
07
c9
e4
03
09
e7
f9
f6
1c
de
d9
e7
e6
28
27
06
02
01
f3
15
f4
f2
00
0c
18
04
f0
10
09
f4
21
1b
17
e2
20
10
31
f8
16
fa
ef
f9
15
e7
e5
13
15
eb
df
07
31
fd
0e
f5
16
d2
ee
24
28
fa
20
0f
f5
24
00
fd
fc
ed
fb
0b
f2
24
f8
f6
d2
fc
f2
f0
ed
e3
0e
ca
fc
00
1d
17
03
f3
15
0c
00
3a
ef
06
ff
cb
02
04
00
f4
07
e7
27
dc
f5
2d
0a
17
1c
f5
f9
11
fb
fe
d1
0b
04
ff
09
da
12
33
f9
f3
e5
01
ff
23
f8
ef
ec
ec
f1
f5
f0
f6
fe
f3
ec
10
00
f8
ee
06
0d
df
1d
0e
e5
f8
fd
fd
1f
19
03
22
fb
0c
ed
1f
f6
f4
1e
0e
f2
00
00
00
15
07
04
f5
1d
10
da
1c
11
19
fd
f9
fd
f8
0e
eb
16
24
08
2c
22
ea
e7
18
00
06
03
ef
fb
0d
e9
f0
1f
f5
15
d0
10
f5
01
cc
ef
12
1f
1a
df
02
07
f4
d7
fe
f8
06
ea
f4
d6
06
f1
04
23
ff
f9
0d
27
04
d8
ea
e1
00
d9
d8
0c
f1
13
06
0f
1f
10
f9
07
13
e1
02
e4
f5
1d
32
ff
08
fe
02
05
e9
fe
01
fc
e9
07
02
e7
1d
ef
20
e4
f2
0f
fa
d7
26
f5
2e
f4
fd
f3
e1
df
ff
ef
e4
e3
2e
06
1f
fa
df
ee
04
ed
00
1e
1c
e0
f4
e8
d5
2a
f7
f2
03
d7
f4
e9
14
27
ff
1c
f4
e5
12
e6
f4
1d
2a
cd
d8
e4
f7
ef
02
0a
0b
19
2a
15
00
fd
1b
29
20
24
11
23
18
15
1a
06
19
0e
25
f3
07
04
e3
e8
f8
e8
1f
05
eb
e2
fc
1b
08
ed
15
f2
12
02
ff
e8
fc
21
01
07
13
28
c6
f1
39
e5
2a
01
ce
03
f5
cd
e4
d2
12
0c
fc
e8
d7
07
23
fd
d2
19
08
df
1e
14
05
0a
fe
11
e9
13
00
00
13
05
ee
0b
d4
fd
f0
12
03
26
fe
15
d2
0b
da
cc
09
0f
03
e4
0e
0e
16
0d
2a
e8
f6
1a
05
0f
01
1b
00
f7
29
15
05
0a
fb
f1
fa
0a
fc
05
d2
ee
e7
ff
e0
d7
03
06
16
36
f5
0b
1d
e4
05
1c
ec
dc
f4
0c
21
05
db
fc
fe
10
fb
f9
2a
e2
d4
02
f9
22
42
0d
ea
13
ef
0d
ee
f5
eb
08
02
f7
0f
03
14
db
0a
fd
15
d3
0e
04
e8
19
fa
21
25
ff
01
23
f7
e1
f2
ef
cf
df
d6
1b
05
eb
d3
03
10
03
fc
12
f5
20
d9
ed
0f
02
f1
09
0c
ff
f6
f4
12
f4
0d
0b
21
13
05
32
0c
03
ef
10
f3
02
e8
22
4a
2b
0b
ec
db
ee
0a
ed
f7
0b
22
fd
f8
fc
03
fc
10
d9
08
f5
0f
08
02
05
e1
0e
f7
3c
04
12
fe
f6
14
11
ea
fe
12
ef
07
ff
ef
0f
21
ff
25
f2
d4
1d
ef
d6
f6
f6
d3
12
f7
15
fc
3b
e2
e5
e7
f4
d5
e8
d8
f3
be
f4
12
32
0a
08
fc
e5
0a
e2
0b
1c
cc
0f
ec
05
ea
0e
00
e8
03
ea
f9
30
df
23
d7
0a
05
e2
ff
00
f7
0e
16
30
e9
0f
e4
ef
db
e0
10
f9
06
0b
d7
f1
ff
f5
2a
2d
0a
e8
00
ef
f8
25
00
f8
cf
1a
00
f4
c2
29
40
13
0c
1e
06
f9
35
0a
20
23
e0
fc
14
e5
f6
f7
e7
1d
20
24
f8
07
34
10
fb
0e
ec
09
0a
fe
e6
2f
ff
1c
0a
f9
e8
e8
ec
e4
fd
e8
0b
d0
08
e5
0a
f0
01
f6
29
1b
19
d9
26
0c
01
16
ed
0e
e8
ea
ee
f6
f0
fa
11
0e
03
1e
ef
11
01
f6
da
e6
18
c0
f2
ff
1c
33
ce
ea
01
07
17
26
da
c6
09
0e
36
e8
10
de
f3
11
07
30
1f
10
d9
f7
0c
22
52
ed
e4
e9
03
eb
1c
dd
01
ea
10
f5
d5
0d
1a
16
f6
eb
fa
f9
19
f3
0e
0c
d5
e5
f7
db
c1
1d
f9
2d
0d
10
e8
11
eb
fa
f2
e6
ec
19
f8
16
1e
0b
1d
dc
11
22
0a
fa
e2
03
19
fd
16
d8
fe
28
0b
e3
0c
0e
fa
15
11
15
e2
0e
06
d4
f5
d4
21
e1
30
ea
0c
0a
09
15
ee
15
23
09
db
e7
00
0c
0e
10
ef
f9
03
12
e5
e0
f1
f3
fc
f4
13
13
ff
f7
0b
fc
ec
0a
09
04
1b
e8
0c
ea
fe
04
08
0c
f8
fb
f1
f5
1f
03
0a
fc
f8
fc
f7
f8
fc
17
01
19
df
06
f5
f3
11
e2
f2
11
0d
0f
e9
de
ee
16
f5
f5
00
ef
16
fa
f8
0e
05
fa
12
35
f2
e6
18
1a
fb
e5
08
00
25
0d
00
ee
f4
00
18
ee
0a
29
09
0e
fe
e7
dd
03
f3
ff
ef
2f
f1
29
e5
f3
0d
06
ee
fc
cc
ff
fe
f4
ee
16
ee
06
25
29
f1
07
de
08
f1
07
fc
04
fc
10
07
e1
fe
06
e4
ec
d4
05
f2
06
0d
f3
f7
10
e5
08
f3
f6
1d
0a
12
ed
13
16
12
e7
1a
ff
06
0c
f4
0b
11
05
13
de
fe
ce
f5
fc
17
e1
f5
12
ff
1e
ef
0b
0a
f8
f8
fb
d9
27
06
e8
f5
ff
e4
0a
f6
f0
0b
f1
18
dd
18
22
14
0d
f1
ef
ef
e2
e1
05
f3
fa
00
e5
16
f0
ea
13
18
20
0f
df
e4
d3
08
e2
fb
24
0c
02
fb
1b
e3
09
fb
0a
f4
e5
ed
17
e3
fa
09
23
35
31
12
05
f1
20
11
ec
f0
e5
0f
02
fa
16
fc
1a
24
d5
42
17
fe
d6
00
17
1d
f1
f9
2c
fc
26
07
1b
ff
eb
ea
20
05
08
1e
ec
ff
fe
f6
e2
04
10
16
2b
ed
02
3b
07
28
e7
1a
ea
05
e6
04
e3
11
fb
1f
19
f9
e7
1c
e9
30
f0
27
e6
e5
0b
fd
13
1e
0b
2d
e0
e8
ea
f6
e8
02
db
da
05
00
00
f8
e8
05
ea
05
ed
0e
e3
0d
fe
e6
e4
fd
ec
f6
2a
f7
d8
26
f8
20
14
e1
ef
11
fb
fb
db
f9
26
11
09
07
03
f7
ea
00
1e
fe
0b
08
01
d7
0a
ca
0b
fc
f6
be
eb
e2
12
f9
ea
ec
00
16
08
f0
27
10
f7
f7
11
06
f6
02
0f
ea
fc
0b
04
15
fe
16
0b
d4
fe
ff
0b
1b
26
11
32
09
31
16
08
03
00
0f
f6
16
03
f6
e8
f4
0c
fa
d9
fe
1f
ec
06
d1
12
fa
16
e0
1b
e6
ed
fe
dc
00
0f
19
e1
ff
00
f7
eb
e1
f1
ef
11
2c
df
f9
43
07
f5
25
fb
06
fb
17
1e
e6
f8
f6
25
17
f2
07
1d
eb
0c
10
06
05
f1
e8
08
ed
ee
2c
ce
0e
e8
e7
e0
e9
17
ee
03
0f
fa
fd
0a
2e
e9
ec
db
0c
18
02
09
28
05
f0
1e
1e
28
15
ea
ec
f5
05
ee
04
ec
20
f3
12
10
00
35
0e
e8
d8
e4
e4
07
02
06
16
14
ec
fb
da
0e
18
1e
d3
24
e8
08
16
0f
f6
05
f9
03
10
fd
10
f6
dc
ed
0e
19
ea
0f
03
1a
da
e8
fa
f0
10
03
0e
06
fd
f2
02
f0
08
0c
15
e7
ec
fd
f8
06
dc
0b
f0
03
ee
00
01
fa
f6
07
fb
0a
16
0d
0f
fa
fe
e3
01
fe
f2
0a
06
18
ec
21
f4
f0
e6
16
f6
04
07
09
00
f2
fa
f0
06
fc
d8
fe
19
07
07
1b
f4
27
09
f3
e7
16
00
fe
ef
26
dd
ec
22
00
df
fd
ed
f6
ff
0b
22
17
0e
0a
ec
f8
19
1f
f7
f4
ef
f7
0e
0f
f3
0c
e8
05
fa
d5
fe
e2
05
01
17
16
23
e9
14
fd
0b
f4
00
fa
28
e3
02
e9
f1
fc
0a
20
00
ea
00
17
04
12
0c
f9
c5
0b
f3
ec
05
f4
18
01
0f
e5
01
fb
02
de
c9
f4
00
17
0b
f1
fe
e6
ef
0a
23
1b
e7
f2
05
fb
14
f7
fd
0e
0f
16
15
e4
1a
e3
03
30
0f
d9
00
fa
17
f4
ff
0c
f2
f1
ea
15
0d
07
f5
17
05
e1
d2
03
06
f9
ef
ff
f5
0c
13
05
f0
ee
0a
0b
ff
12
d9
ee
ed
01
f8
fd
e8
f2
ed
16
28
02
eb
f6
08
1a
0c
b7
01
02
d9
fc
07
f4
0a
f5
1b
08
17
eb
ec
09
08
13
10
12
f3
36
16
1a
fd
03
eb
07
0e
11
e5
0e
fc
f2
19
fa
f1
0a
f9
fe
ff
ec
02
16
13
ff
07
04
f0
f5
e1
17
e9
fa
ed
1d
05
10
18
e7
12
0d
10
ff
09
e6
09
e5
fc
11
0f
f4
12
14
f7
f9
f7
f3
00
e3
1d
08
f2
ee
22
19
0e
fc
0c
f7
ff
19
01
f8
06
0c
04
0b
e8
ff
f7
db
0a
23
04
f3
08
24
fa
0e
f5
f6
f5
03
ec
11
e9
17
11
2c
07
f2
0a
fd
db
fc
01
07
e6
06
29
f1
fa
18
0b
04
19
2b
d6
fa
fe
0f
00
15
ff
f5
ee
ce
e8
d2
22
ee
fc
f9
f6
d0
fa
15
0a
f7
c1
14
da
ee
10
15
09
06
18
f7
0a
01
d5
0c
20
03
f3
2a
1f
f2
d9
e3
f7
03
20
de
06
0c
f7
0a
06
07
15
ef
f0
eb
dc
fd
13
16
10
f0
f4
12
fb
0d
f9
08
24
0e
e2
04
07
16
19
e3
fd
15
f7
04
0e
f8
e0
00
e4
e3
e6
03
f6
e3
ef
f3
f5
05
e7
f6
18
16
f3
24
ec
12
11
e3
25
0d
08
13
ec
09
25
1f
00
27
02
ef
cf
22
1d
e9
0e
13
ec
1f
03
07
fd
f6
1d
ea
fd
06
f0
e0
1c
05
f5
f1
25
f0
06
f4
f0
10
1b
fd
fd
fc
0f
0c
ec
1d
20
eb
07
d6
05
fc
cf
fa
12
fd
e1
fa
da
15
fb
fe
10
11
05
01
1c
f8
f9
18
f7
ff
f3
f0
f3
ed
f4
1c
f4
06
f6
fb
f5
fe
02
ec
0c
fa
03
1b
fd
f2
0a
eb
19
ff
0c
ed
02
d8
f9
18
f4
1d
f5
12
f1
f6
05
ec
0f
1e
1c
29
e4
ec
0d
f0
0c
ec
e5
10
15
22
ff
fe
cf
f2
0d
f2
e4
df
19
17
01
2b
d1
df
fe
05
fb
ec
05
f5
e8
e4
e9
f9
e9
fe
01
f6
01
05
f5
03
f3
49
ff
ef
1a
0a
02
0a
0f
da
ee
18
01
ef
04
14
07
ed
0d
ea
0b
1f
0b
f6
00
05
03
ee
e4
04
35
fc
0c
f0
14
21
1f
ef
26
e7
fd
0d
0b
18
09
19
dc
d1
f7
f3
ec
11
02
19
0a
e6
18
ff
dd
fe
f9
0b
0a
0c
ef
e5
01
fd
12
06
fe
0e
02
ef
04
20
0c
0d
f6
f5
ec
f2
14
0f
ed
f4
13
dd
08
ee
ca
21
eb
05
fc
db
ee
00
f9
f8
ff
21
1a
10
f7
0f
c4
00
d9
1b
ea
03
f1
ff
19
ea
13
e4
1e
0a
04
0b
e4
06
f3
16
e1
1e
1a
fd
04
27
d2
fe
0c
e9
03
11
1d
04
11
e5
21
15
d7
ca
ea
f6
07
13
19
dc
e5
e6
e6
e9
1b
01
2a
e3
0f
f5
06
11
06
f5
09
f0
03
1b
11
05
31
2a
11
e3
fa
ee
09
e9
00
ef
08
09
1a
21
2f
f1
08
03
03
ff
20
e5
fe
0e
16
e1
e1
0d
fb
1d
d5
df
e6
fc
0b
db
f7
1d
f9
f7
1f
fe
fd
11
f1
28
22
1d
06
19
f5
1e
05
16
16
0b
25
f0
e8
ea
15
f5
02
09
e2
f0
23
1e
10
03
01
2e
1a
f9
15
0b
0f
e5
2d
08
1c
d1
23
f1
26
d7
05
c9
09
f3
eb
17
03
e1
16
16
f0
17
ef
05
17
fe
0b
ba
10
f4
0d
f6
d3
db
fc
19
18
fe
e3
09
f5
12
10
f7
04
04
cd
30
ff
15
e6
0c
33
0e
06
fe
01
ee
14
1c
f1
e4
e7
fc
20
06
eb
e7
e1
c6
ea
08
f8
bd
0a
ed
00
f8
1b
f7
f7
f0
fa
f2
07
fe
ee
09
fa
ff
fa
0d
dc
da
09
ef
12
f8
17
ff
f2
07
f1
18
1a
f2
09
fb
ea
06
e9
0a
1c
29
e1
ee
0f
de
12
ec
e6
e8
1b
14
fc
fa
18
17
08
ff
fa
fc
e7
ff
07
22
f3
11
07
d9
fe
d9
2b
04
f4
0a
ff
1e
f6
15
fd
28
0e
17
ea
00
ce
00
03
de
04
f4
e1
f9
1e
34
09
ff
d4
e8
23
0d
f7
e7
16
05
dd
e8
14
e5
0a
ef
02
f8
0a
e1
07
ef
ec
1c
e2
f0
df
fd
15
1f
29
0f
13
f3
19
09
18
07
06
f9
02
05
0f
1f
15
03
2b
0b
04
09
de
0f
d6
de
e7
05
d4
00
ef
12
e4
33
fe
0a
03
12
04
03
12
de
0f
e6
04
15
f5
f1
32
27
26
fe
ec
04
ef
03
dd
e1
0d
fc
d1
0d
f9
00
ef
ff
f7
28
e2
03
f6
12
f0
e5
ec
07
f6
00
15
f2
ff
f8
30
e5
e7
fa
ed
fb
d6
07
17
f9
0f
fd
15
0e
f4
f5
02
0a
ed
ea
da
08
e5
ef
02
0a
31
18
10
fc
2f
37
fb
f0
1f
04
05
ee
fb
f1
ff
04
23
fc
f0
1c
07
e4
10
d8
f0
ef
f2
de
14
e8
00
f6
e1
1a
18
2e
20
1c
ed
fe
15
04
12
04
fe
ee
02
03
0b
22
06
05
ef
21
f1
fe
fc
1f
13
0b
0a
0a
f5
ef
18
18
21
0f
26
d4
f3
06
0c
fb
17
0d
ef
02
1e
0c
30
00
ee
ee
05
0f
12
e9
d9
0e
0f
1e
0c
ff
00
0d
17
ee
0f
e2
04
2d
13
e7
00
16
13
0e
16
f8
00
e8
ef
c2
f4
07
f4
04
01
02
00
da
05
f1
f4
f1
f8
f7
04
11
d6
11
05
03
e5
39
05
02
ef
dd
18
0e
01
fa
14
db
fe
e3
ef
04
ed
f7
05
e6
fa
d9
07
0f
0f
ea
1b
f8
eb
fb
e1
26
10
05
14
f4
c4
fa
07
fe
fb
28
00
f6
02
23
e7
f3
21
0f
ec
e6
15
c7
fe
00
00
27
08
dd
0b
eb
f1
07
08
14
14
fe
00
f7
f8
e6
f2
e5
03
0b
f5
fe
fc
e9
18
07
e7
0b
19
dd
05
e8
1d
d9
f3
28
1f
15
0d
37
03
e4
f3
02
e1
07
00
12
f4
07
04
03
ed
e7
f7
28
fd
0c
e3
dc
f7
ec
eb
15
ee
f7
ee
f8
e8
0d
10
e7
03
03
01
00
16
21
ef
11
e6
19
34
d1
15
03
f3
08
00
ec
11
00
e8
24
27
1a
0c
01
01
07
0f
fb
de
f6
0b
f0
28
0d
29
ec
14
eb
19
d4
f7
ee
ec
04
26
f3
0e
11
20
f6
24
19
fb
00
11
0b
f7
16
0c
0e
0a
0d
e0
0d
f1
00
fc
00
0e
12
ee
02
0f
ed
fa
f1
26
05
dc
fe
19
1b
de
e4
ed
08
ff
1f
0c
22
0e
06
d0
f9
ef
f3
07
1e
f3
f5
f4
17
ff
e2
05
f7
f8
ed
f1
de
e1
ff
f8
0e
1f
f3
0b
00
05
0e
e2
05
da
e2
15
c2
f8
0a
12
14
1f
e4
f1
18
e7
1d
08
09
03
f1
e9
de
18
ff
0b
f8
03
fc
25
0a
0d
f6
ef
f7
d6
f4
d1
db
ea
e7
17
f4
0c
02
09
08
f7
e3
15
13
ee
06
d2
18
f5
eb
ea
f6
f4
e8
fe
20
f7
e5
06
01
00
07
0e
0e
e8
17
e9
00
fc
15
09
09
fe
19
e5
e0
ec
dc
09
09
16
05
f5
fc
1a
ee
0f
1e
fa
fd
0b
d6
1f
fd
31
0e
f3
00
02
e7
fa
10
22
05
ed
1b
fc
f4
0c
09
17
15
0b
fd
f1
21
19
0d
fc
25
06
0e
0b
ee
ea
e2
f9
03
1c
de
f6
05
03
e8
f1
12
fc
04
f0
15
f0
01
ea
15
19
ff
f0
f7
f2
f6
0f
17
25
0e
fb
07
f4
0f
f8
23
1e
ee
f2
e9
11
f6
1d
fd
f8
f3
f4
09
f9
00
09
cf
12
12
06
de
0b
ef
0b
18
ec
d8
f6
08
fb
14
f2
f9
05
0d
1e
11
f9
05
f2
e4
fb
f4
fc
0f
e0
fd
eb
15
16
1c
0e
d6
fd
f2
01
03
f7
f9
ef
03
f5
c6
13
fa
19
17
c5
12
0f
fb
1f
0c
01
0a
d6
1d
d4
28
03
0f
1d
1e
fe
31
01
21
0e
10
f1
21
ce
fa
11
ff
09
0a
13
e4
f5
08
ee
e0
fb
0e
fb
ee
0a
12
01
fd
10
fb
f2
05
04
fe
06
f2
13
e2
0c
ef
fd
e8
e9
06
00
15
ee
e7
fd
f0
06
0f
fa
03
1c
f8
16
02
02
ff
f7
0e
f1
12
1d
fd
18
e5
1a
fa
05
27
e3
e0
fa
18
f9
f7
00
f3
eb
fe
2c
09
f9
04
dd
1d
13
03
e8
f9
f5
ec
f6
01
21
eb
fc
fa
e5
f1
ef
ee
0b
16
2b
e8
06
07
ff
e2
22
14
ea
07
1f
f7
0e
fb
03
0b
e0
05
f6
03
eb
18
e9
fc
f2
1c
04
d1
ef
07
ff
fb
18
15
08
15
15
f9
ce
06
fb
09
18
db
e1
18
19
1a
0b
06
2f
f5
f9
0e
d8
14
d8
0a
f2
f9
0f
ef
f9
11
02
d2
06
df
f8
1d
eb
04
1c
e9
10
18
10
f2
07
0b
e8
15
e9
ee
0a
d0
0c
21
ef
cc
0c
0e
03
f5
de
f5
f9
f2
1c
fe
26
0a
ec
02
06
d9
ef
ea
12
12
08
e0
19
f3
e5
14
fa
0d
09
0a
36
0f
fa
f0
ff
18
22
fc
f8
e8
20
e4
ff
e5
ef
05
fe
dc
20
f3
12
21
f2
15
f5
05
fc
02
0f
2a
dd
02
22
0d
f1
f2
f8
0f
ef
0e
18
f5
07
0a
07
0b
09
19
2d
e0
f2
0a
03
fc
28
0b
e7
e0
18
ff
e7
f5
ec
fe
02
e9
04
e1
cf
0f
f6
11
e9
23
f4
fb
e4
10
02
eb
e9
0c
05
00
f9
09
e9
09
23
f9
e6
1a
01
09
0a
06
f2
fa
13
f4
f8
de
0b
07
09
0e
f6
f2
10
0c
eb
f1
ef
01
1b
0e
02
00
05
0d
fc
de
05
1f
1a
e8
0c
e5
f9
02
07
e4
f0
f5
fa
f2
ec
f6
f1
fb
fb
e6
eb
20
f1
db
04
16
0e
03
02
2d
09
25
1f
08
dc
06
21
12
ef
f4
07
02
f4
14
08
fb
03
13
2c
03
07
e3
00
ef
14
ff
0b
2b
0a
db
08
0e
f7
09
0e
fa
02
ec
2f
0f
0c
f6
ed
ed
12
02
fa
f9
db
da
fc
09
0e
e5
0d
17
0d
e5
11
05
fa
e3
12
fe
09
f1
ee
e8
0c
f6
12
da
2b
de
00
f0
05
3a
20
04
01
15
f7
f8
04
f4
fc
00
18
03
09
eb
fe
ee
fb
00
01
0d
ee
06
0c
01
ff
16
07
20
fc
09
d7
fc
1d
fe
12
30
ff
2a
02
ec
0a
03
12
06
e9
03
f3
fc
ea
f1
f6
ff
d9
10
05
d8
09
04
0f
1e
0f
fe
e0
ce
2a
e7
fa
ef
20
04
27
e9
16
06
cc
d4
f9
14
f3
1d
28
01
0d
02
db
09
f5
0f
fd
d4
c2
06
f9
15
16
c6
fb
fe
03
0a
12
00
f3
f7
09
fa
05
ea
19
27
fd
0e
f2
09
08
fd
07
f5
f1
f3
08
fb
08
fc
0a
08
e6
1d
0b
eb
e3
05
09
05
0e
f9
f9
15
0b
14
14
08
fb
e5
f5
0e
ff
06
f2
e9
fa
ff
f9
f2
02
fb
0c
02
f2
e8
e6
10
14
03
0e
e7
09
02
0b
1e
f7
08
ef
07
f9
18
fa
15
09
f0
0d
f2
fb
f0
f8
00
11
00
0c
fd
ea
08
06
fd
f9
2b
0f
08
04
ea
f4
df
07
f4
15
ff
fb
0f
15
ec
11
09
f7
e7
eb
fa
fd
17
f5
08
e2
f2
fa
04
1f
08
eb
13
0d
09
01
f1
12
11
f3
ee
fb
12
dc
00
eb
0a
eb
00
e5
e3
11
f2
e1
eb
06
08
19
19
e7
1b
f4
f7
1c
01
eb
f4
1b
0a
fd
fd
0b
e5
16
f8
2c
14
f9
f6
f3
ed
f4
11
01
12
0a
fe
19
dd
e7
f6
f9
10
07
fd
01
eb
1a
06
12
1b
eb
f7
fe
fe
fe
0d
13
27
14
15
ed
ef
e5
06
0d
2d
e5
05
0d
0a
e1
f5
e4
f6
00
0c
fe
f5
e5
08
0e
17
1b
fb
f0
10
f3
12
02
1f
04
0c
ef
f4
28
09
0e
d3
f0
0e
11
fb
1d
eb
e2
ed
eb
d2
f4
fe
05
fe
f5
ff
dc
ea
d7
d0
eb
0d
03
fc
18
0b
ec
03
14
15
e0
f3
f2
ef
01
00
18
eb
f0
f0
1e
db
01
13
02
f7
fd
f0
f1
ef
1d
04
e8
07
e8
fd
10
0b
15
1b
e3
ff
07
08
ef
ff
0b
0a
00
d0
0c
f2
fc
17
06
25
14
07
25
03
12
f2
ff
fb
1b
fd
13
06
fe
f9
fc
0e
0d
15
15
01
db
f9
0b
18
fc
fc
ee
ef
09
d7
05
06
02
14
2a
ed
f4
ef
f8
09
fb
e6
e9
0e
f4
10
f4
fa
ef
fa
f8
23
f5
26
0a
ef
fc
00
07
fc
0a
0d
23
0a
ea
e8
0d
de
f2
f4
fa
06
11
f7
06
e5
f0
04
fb
05
10
17
22
12
fc
14
09
df
05
e9
08
ce
f2
d8
15
2d
f4
13
17
13
08
00
0a
15
0b
17
f3
02
08
fc
d9
fc
0f
0c
fe
09
f0
e5
02
00
fa
22
eb
fb
00
ed
01
06
1f
fd
e8
08
05
cf
fd
0b
13
09
12
21
f5
f7
e3
06
0b
07
fc
f6
fe
f2
15
12
12
fa
fd
0a
12
f8
01
f7
ed
ef
f0
f1
f9
d8
e8
0f
09
15
17
e8
05
07
e6
e3
f4
05
fe
16
da
fe
f0
f4
07
06
15
0d
fd
04
e7
09
05
fd
0c
ed
de
ec
f1
09
e9
fa
01
0b
f2
13
f8
0c
f8
f5
e8
0e
1b
e6
f8
ed
fb
ef
06
fe
fe
f9
04
f7
13
2f
e1
e4
fb
13
ec
13
13
0f
0e
03
ce
e5
06
fb
e4
e7
0e
04
21
1a
fb
25
06
e2
df
07
ef
0e
12
14
f7
03
f8
f8
13
07
f9
00
f9
e5
13
0a
0f
39
00
eb
10
e7
fa
fc
f1
03
16
f1
0a
16
0a
e8
06
e8
13
11
ed
22
25
f8
fc
06
07
31
13
1e
f1
16
fe
f9
f3
fb
09
e6
fd
e7
ed
0c
fe
12
03
fa
07
f9
e9
ed
12
04
0a
13
15
fe
d5
13
1f
ed
dd
e6
03
17
2b
1e
ee
ef
f1
fc
10
f6
ff
07
19
27
0a
12
17
ed
0a
09
1d
0a
15
ff
ff
ea
fc
f8
0c
ef
f8
17
06
07
fe
fb
16
07
ed
e6
f1
0a
17
fb
eb
31
f7
e3
dc
09
eb
ed
fe
c9
f8
14
04
1d
21
1e
22
12
16
f4
ff
00
12
1a
e8
0f
ea
01
06
f4
d5
eb
fc
0b
f0
e5
04
f8
0e
f7
e6
cb
f5
17
02
e5
d2
0f
1c
eb
17
f7
f8
07
13
21
dc
26
fd
04
ef
f2
f8
fb
e6
f5
ed
f3
fa
1b
df
2a
00
06
1a
1c
f4
d9
17
01
e5
ff
f2
ec
07
03
13
12
db
19
ec
04
f1
e9
f5
19
11
1f
fc
0a
07
27
13
12
24
00
1a
f3
ea
0b
28
dc
02
16
10
0b
fd
08
11
1b
fc
df
07
e4
09
02
d2
29
17
14
18
fc
15
dd
e6
1b
e5
fd
30
18
f8
14
15
1a
1d
12
f0
f1
f5
f2
2a
d4
f0
db
fa
f6
23
f0
f5
e9
03
da
f3
08
f3
ef
18
ff
d9
f0
05
ea
1e
06
e9
ea
01
df
f5
0c
0a
08
1c
e5
e5
e9
e0
e6
f2
15
1a
17
e7
ed
28
20
fb
02
0b
0b
dd
19
ec
0e
21
25
ef
25
15
30
01
eb
eb
20
0c
ea
f4
0d
f8
00
14
e5
11
f5
08
de
0e
18
00
19
12
fe
f6
fc
00
06
0f
dd
01
00
07
f7
e9
db
09
db
f2
05
ca
03
fb
e8
18
0d
00
17
f2
1c
ea
2f
1b
fd
fa
03
03
0c
16
fa
0b
d9
0b
d0
02
ed
f7
2e
03
ec
e0
cc
09
1b
f8
d0
0f
02
06
f2
05
da
db
dc
f9
ea
e9
f6
02
04
23
1e
05
fe
f7
0d
06
11
f0
06
09
23
fa
f7
f7
f7
0e
ef
0d
13
f5
03
f3
08
fa
fb
40
05
db
05
0f
04
32
18
0e
25
dc
0f
db
0d
05
1e
e0
fe
fb
09
34
0b
e6
0e
b1
00
f3
0e
ef
e8
f5
04
e9
ff
f3
2f
f5
19
00
e7
0e
f5
19
f6
df
cb
f4
f7
eb
f3
1c
ff
07
12
00
f1
fb
08
11
19
e3
26
0e
15
ed
f3
0d
e9
09
1b
fe
11
1c
fd
fc
01
d5
26
fb
f7
f6
13
ea
1a
f3
08
0a
f5
f0
0a
00
f5
f3
ea
f0
20
0a
fb
f9
cc
1d
ff
13
f3
d4
1f
02
08
f9
0f
fd
20
10
13
15
d2
fc
d9
23
09
02
eb
ed
ea
06
ed
1a
00
fd
2a
11
f2
f2
09
f8
fa
00
0d
fd
f1
0d
01
ff
00
02
07
04
1d
f4
fd
0b
dc
11
f5
01
f7
03
fc
f3
e4
01
f9
04
fd
04
e2
14
fc
04
00
04
10
08
ef
f4
ee
f9
18
06
fa
e5
fb
00
f7
f8
01
1c
f2
e4
0a
03
0f
00
0f
04
f7
1c
19
06
fb
ed
0f
f4
12
0b
ea
08
01
02
06
e5
01
0e
f9
0e
ed
0f
0b
f3
f2
fd
f5
01
de
f7
f2
0f
14
08
f9
f1
ea
1c
02
01
05
0a
00
03
1c
f7
0e
fe
1b
eb
f5
01
14
e2
f7
e9
07
14
0e
ec
0a
01
05
fb
fe
fa
f8
06
0d
08
e5
22
f1
35
ff
ff
fd
10
00
02
f5
ea
fc
04
08
01
f0
18
e1
f1
04
fe
0b
f7
0e
ee
1a
01
39
f8
f3
f8
21
0f
f7
fd
17
08
0b
ee
03
28
f4
01
1a
f9
0b
05
f6
05
0f
15
eb
f5
eb
e6
fc
0b
29
e0
07
f9
ea
01
dc
1e
f7
0b
eb
03
07
0c
1a
10
01
ea
01
fe
0b
f2
f3
09
23
1c
00
14
01
e4
fd
de
00
06
26
0f
f4
ee
07
f6
f2
0a
0e
11
f0
12
e2
10
08
f2
eb
25
ea
ee
1c
e2
f3
ef
04
08
f2
e7
07
d8
00
0e
d0
dd
0d
2b
23
d6
0d
e5
1c
02
f0
f7
00
05
02
19
0b
f6
00
f7
f9
11
01
d9
01
16
0b
01
0e
09
01
f3
eb
fc
d6
0c
00
17
ff
fb
01
f6
e9
0b
f8
fd
00
2f
ee
e9
21
11
fe
f8
f5
04
16
fb
02
ea
ef
02
13
f0
d7
fe
ff
0d
03
d9
06
e7
06
d3
dd
00
f4
f7
0d
e5
ff
ff
0b
2a
0c
13
e3
06
fd
f4
f0
09
05
03
01
0a
02
fc
0c
f9
07
f9
38
f5
0d
13
ec
03
e3
f1
0a
f7
28
0a
0d
0e
ee
0e
fc
08
0e
e9
00
19
f9
2c
19
e9
05
25
f5
e3
03
f4
03
fd
ff
07
1d
18
f0
1f
14
1f
0d
04
21
ed
0b
ff
19
25
e5
02
ed
f9
ef
e5
e7
01
1d
05
f2
fb
f4
fe
fc
f7
06
fb
20
26
ec
15
f7
19
04
14
0e
2f
d6
08
1a
e4
e2
1a
f9
06
00
15
ea
25
1b
1e
0b
e2
e2
13
d0
01
e9
18
d6
08
e9
0f
01
ea
e2
08
02
05
0e
07
fc
0e
f1
01
e2
02
f1
eb
12
04
04
ec
1d
0e
0f
40
09
16
f8
2a
ff
0b
16
f9
eb
e9
d2
ea
dc
fe
ec
f8
f5
f5
01
e9
fc
09
17
12
f5
e0
00
f6
f4
e9
e6
f3
f0
ed
0c
16
ee
01
ea
fa
17
03
07
e0
09
f0
1d
22
13
05
f2
f8
10
de
e3
fb
ff
0d
e0
ef
fb
f0
ea
f6
18
23
f0
03
20
0e
ec
0c
f3
f8
e7
19
d6
16
ee
22
fa
0f
17
08
0a
03
03
06
f2
f5
04
fe
ff
01
0e
e8
13
05
fc
0b
07
0f
fc
f2
fb
0e
fe
fa
ff
ed
08
00
ea
f7
d2
f5
f3
ec
15
08
fa
0c
11
08
16
11
1d
d6
fa
fe
12
24
1c
09
06
f7
00
31
f2
1d
1e
e4
ff
06
03
ec
e2
f4
fe
1d
ea
1a
e8
f3
f9
fb
e1
de
19
01
11
04
07
17
07
03
fe
19
f0
1c
0e
f5
eb
ff
f0
f8
15
f2
fb
fd
ff
f6
ff
0e
ff
ed
f0
15
08
fb
ee
15
ed
ec
1b
08
f5
02
f4
fa
0c
07
02
09
f7
00
fe
f7
07
0b
01
0f
fa
f2
21
fe
fd
f8
e5
0c
0f
00
f9
10
da
f3
0a
eb
f1
fd
05
07
01
25
02
ee
e4
fb
f2
06
f5
f6
f6
fa
f7
fb
00
0b
05
f6
14
f8
10
fc
10
08
ff
11
fc
03
e4
ff
ee
09
14
19
fc
f7
0e
0e
0b
f2
02
16
f8
ef
0d
fd
fd
f5
09
f8
03
e7
fd
ef
f4
f2
fd
00
02
04
f7
17
0d
01
fc
ef
00
f6
f2
13
0b
07
14
0a
ee
f8
f5
f8
f7
ed
f6
f4
15
03
00
03
05
09
fc
05
ff
fb
12
06
eb
16
f1
0f
fe
0b
05
02
f2
0c
05
f4
e4
f1
f5
0e
fe
00
03
fe
07
06
fb
f5
02
07
04
f9
0f
f7
00
07
ff
1d
0e
f4
f4
f9
1a
f1
04
13
f1
05
fa
0d
08
fd
fe
ef
12
12
fb
f1
00
fa
09
ff
fc
f4
0c
0b
1d
ed
fd
f6
00
08
f3
0a
f8
f9
fd
17
02
f5
f4
16
0c
f5
fa
0f
f5
09
f6
fa
02
12
00
f2
f1
ee
e7
f0
df
11
06
02
ed
01
0b
04
16
f1
07
fe
06
05
f5
f6
08
fe
1d
eb
fb
ec
12
17
1d
ee
e7
e8
00
04
09
11
f8
08
fb
ee
f6
01
f6
f2
07
fc
0f
fe
19
1c
1b
ec
fc
ff
e7
00
05
ff
fc
05
f0
0a
15
0f
03
fd
1a
f5
03
fc
08
15
f6
ef
f7
15
22
ff
f8
d1
08
13
f4
ed
07
08
ea
03
f8
f6
f2
2b
04
f8
f2
07
fc
fd
03
0c
0b
f1
09
eb
f7
1a
13
08
ef
f0
0c
f5
09
e0
03
fc
0d
fe
f8
03
fe
f1
16
f5
f0
f4
01
09
f0
eb
08
09
f4
00
00
1c
07
f5
05
09
03
fc
f9
14
0b
00
f5
0a
fa
07
03
0e
00
0d
03
00
fe
fa
02
fa
f6
25
09
ff
00
0a
13
0b
1a
e7
ee
08
eb
08
fe
f9
fd
15
fb
15
14
16
ff
02
ff
08
f6
12
f5
07
00
ec
1d
12
fd
f7
fc
f4
02
04
e7
12
0b
fe
20
fc
00
ff
fc
05
f0
ed
f7
05
f8
05
fd
06
f2
e4
f1
f3
f1
f5
fa
1f
09
f9
01
fe
fe
03
ef
06
05
f1
04
12
f8
fb
f3
0c
00
0f
0b
0a
f8
fc
04
fb
f6
f4
fb
05
e5
04
f4
1a
0c
08
f6
ef
02
fa
1d
ee
f0
f7
ea
ec
f1
f5
1b
fe
fb
05
db
fb
e6
02
f5
f4
f4
02
04
f8
ef
19
f4
08
06
f9
fc
00
0a
f6
09
fb
0d
02
0c
16
0a
f9
f2
ec
00
17
ff
1a
fa
f7
01
f3
04
f0
0d
f9
03
0e
f2
f2
1b
e5
0d
df
06
01
03
16
fe
ee
0c
fb
19
17
07
1a
03
fe
f2
06
fd
20
0c
12
fd
09
f5
fb
f9
01
fd
ed
05
fc
00
0f
06
0f
fc
fb
0b
01
f8
13
f1
ee
f4
0a
16
03
01
f8
1b
09
16
0a
f7
ee
00
e7
03
18
eb
0a
1b
01
f7
06
e1
01
f2
e9
06
10
12
f2
fa
ec
f5
ef
06
ed
ed
0a
15
f8
14
05
00
fd
f3
00
0c
02
02
f3
09
00
0e
0a
06
07
14
e5
0b
0b
12
05
00
f9
0a
17
0e
fb
10
f3
f8
09
0e
fc
ec
1a
f2
f2
fc
fe
0a
03
ec
f6
e8
0e
ff
fe
06
e1
03
fa
00
02
07
fc
f9
03
f3
0c
ee
00
06
06
f0
09
05
ee
f7
10
0a
05
f7
0f
0f
0d
fa
00
f2
f4
19
05
07
0b
f8
07
09
fd
f8
f4
0c
03
10
db
09
01
fc
16
ec
f9
e4
f9
f9
06
09
f4
ec
f1
fc
f2
e7
1a
1d
fd
f3
e8
0e
fc
0b
ed
f1
e7
0e
0e
ec
12
df
07
09
09
f8
12
19
d9
0b
ee
0d
ee
fa
1c
12
24
fe
f3
fd
15
00
ec
ee
0c
e6
fe
05
0b
fc
fe
f6
f7
09
fd
e5
0e
fa
11
e0
08
08
fd
ff
0f
e1
ef
fc
19
f0
f2
f7
06
fb
f9
db
f6
fd
fd
f8
f2
e6
03
01
fe
f0
19
fe
f2
12
eb
fe
26
16
fe
17
27
06
0d
04
02
f3
e4
0b
12
1b
fa
07
fd
01
ff
07
12
17
fb
11
0a
ec
fe
07
13
05
04
fb
00
01
01
f8
06
f1
f3
07
0c
01
08
18
13
f4
03
fb
07
ee
f8
04
09
11
ee
0e
f4
f5
04
f9
05
05
04
ec
f5
dd
f8
14
03
0b
17
fd
fa
13
08
fa
f8
f1
f9
0d
0a
03
01
02
f2
ff
0a
02
e8
03
04
02
f0
fd
02
08
f3
0f
04
0a
00
f8
07
fe
ff
02
ee
0b
f4
06
f5
01
0a
01
dc
0d
01
f0
02
ee
06
12
05
0b
f2
f5
16
01
03
fd
f4
e9
e5
f4
18
00
06
14
09
0a
05
0d
ef
18
02
0b
f8
10
15
f7
f9
12
04
f1
13
16
f8
0b
ef
ef
f0
11
fa
e3
03
05
03
f7
18
f7
e5
d9
08
fa
fa
f3
ff
0d
dc
fb
ef
04
f3
ff
17
dc
04
24
ff
09
f2
0e
f8
03
fb
1b
fd
06
fb
01
e9
e8
f8
f1
f9
04
09
00
05
f5
06
fe
04
04
15
00
16
08
f9
fc
0b
12
01
f4
e3
f9
ec
10
e6
f9
05
f6
09
0d
05
0b
f0
08
00
f2
e4
f8
0e
0a
dc
f6
1f
07
0f
38
1a
e6
01
ec
f2
01
03
04
f1
f0
12
fe
e9
03
02
16
f2
19
0a
00
f1
37
12
f1
01
fd
05
f3
0c
0e
f9
fe
25
f0
11
f7
f4
03
10
f8
f4
f3
1b
ea
e5
14
f7
e9
f4
ff
0e
fe
04
f9
03
0f
0d
fa
fa
f5
10
10
06
f0
fa
f4
f6
fd
fd
fd
01
f7
ff
09
fd
ff
14
0b
15
ef
fe
f7
0d
09
06
fb
15
fa
0e
f6
fb
f6
eb
06
05
2d
ed
ff
ff
21
10
f7
fd
e3
ff
f0
f3
02
20
02
0a
f4
05
f6
fb
f6
fc
fd
ea
fc
16
06
10
f8
10
05
fc
17
ee
01
06
09
e8
01
00
fe
00
01
08
fb
f1
1d
f1
f8
e7
fd
fb
00
fe
14
ff
f5
fe
0e
fc
06
f8
f6
fb
04
07
04
05
0f
fd
08
14
01
ea
ff
06
ff
00
03
14
02
06
e3
0d
0d
f3
f7
fa
14
01
0d
0b
0d
04
08
fd
14
e8
05
06
e8
20
fe
10
fa
f7
0f
06
01
fc
f0
05
fc
0e
13
0e
04
f3
0a
12
fb
05
0f
fc
fe
0d
fd
f9
f5
fd
00
0b
01
ed
fd
01
1f
fe
fb
fa
06
f8
00
03
00
f3
01
13
03
09
04
02
e0
f9
11
f8
f0
fe
fb
f6
f4
f2
0f
ff
ff
03
05
fd
ff
09
06
ed
e8
eb
ed
0e
fd
f7
00
f0
fe
ee
e6
e5
02
02
fa
0f
1a
fb
0a
f6
25
f6
da
02
f3
fe
f3
00
05
f7
04
08
0f
09
09
14
eb
05
09
f3
00
03
03
f8
ed
0c
00
06
07
f7
09
02
ef
0d
fb
f4
08
22
04
fd
00
ed
f8
0a
0e
05
04
01
0c
09
f8
17
f3
02
f3
fb
f6
09
ee
ea
17
22
02
ed
12
fd
0d
05
f8
f4
f3
f5
0e
16
0d
11
06
d0
f3
ff
0a
07
fd
ec
f7
0b
ed
f1
eb
01
06
fe
1d
f4
e7
07
1c
07
07
f8
ec
05
0d
00
ef
05
f0
25
0c
03
00
ff
08
fa
05
fe
12
fc
07
f8
ff
f9
01
f7
08
e6
01
05
fe
ea
f4
e0
f4
04
f8
17
d2
da
16
ec
f4
e0
ec
e7
fa
23
0d
ff
fe
f1
22
12
e8
ee
13
fe
0a
03
03
f0
12
10
02
0c
1a
fe
f8
13
fd
e4
eb
21
fd
09
f9
0b
06
03
fa
1d
f9
00
f2
e8
0a
0b
ff
01
19
f7
0a
ee
f1
03
fd
00
04
0a
f6
05
03
f3
e8
f3
0a
08
09
fe
06
04
f5
f2
02
df
fa
0d
03
f7
fc
0c
16
f1
e0
0c
f5
f9
f6
06
e5
1d
f3
09
fb
fd
10
f2
de
f9
f9
12
04
f8
fb
e9
02
0a
fd
1e
23
fd
fb
fd
e0
f3
1e
1b
ee
f7
11
f0
21
12
fc
d4
0a
01
fd
f9
f7
ee
fd
09
f5
ee
f9
f4
19
f4
08
ee
12
f9
f7
fd
f9
fa
05
05
06
f2
ee
0d
0f
f4
f0
03
fc
f7
12
f4
fa
fd
06
01
f8
f8
ff
f8
f9
13
06
eb
0f
ef
08
00
01
06
0f
f8
26
03
ed
f1
f8
f7
05
fa
ff
04
fd
f4
fe
f9
f0
0f
f7
f3
02
f8
01
e9
0c
06
11
02
fd
ec
f2
1d
06
f5
20
09
09
ff
05
dc
df
ff
0d
0a
ff
f0
07
09
fe
e3
05
0f
ed
06
fb
fd
0a
0b
0f
18
f1
1c
01
00
fe
02
0f
f5
06
fb
fc
ee
e4
f7
00
04
ff
ff
0d
01
f3
fe
fc
eb
f9
f6
fc
f2
ee
ea
04
0f
f6
db
05
0c
0b
f7
13
f8
04
ef
01
ee
f1
0c
fd
1b
f6
16
05
0a
fc
19
ee
f9
05
e4
01
fc
07
f0
02
02
04
f9
f6
e4
fb
09
10
17
03
fc
00
04
f1
01
23
ed
f9
f9
1d
0b
0e
06
21
15
18
08
00
0d
11
11
01
0e
f1
0e
ea
16
f5
fd
f2
f5
0c
06
12
05
f4
07
0c
fb
f3
f8
0d
f5
e8
cd
f7
e8
07
06
f8
0d
fd
03
03
fa
08
fd
18
05
ff
f5
fa
f2
fa
17
ff
1e
e6
f3
03
10
11
10
10
f1
0e
06
0b
e9
15
fd
f6
fc
0c
12
00
e7
f8
1c
f6
04
13
11
f6
08
09
ff
f3
09
06
1a
f9
ff
f5
fb
f1
0f
04
0c
1b
f9
06
ef
05
07
0b
ec
0e
e1
04
ee
fb
fe
06
f7
08
f1
fd
fb
fe
ff
00
eb
17
f0
f4
f0
fb
ef
eb
09
03
0a
13
04
fa
09
fe
0b
07
f5
03
12
04
fb
f7
04
0c
ed
05
06
ff
f4
fe
04
09
ff
e6
f7
00
02
ee
fe
fd
fc
01
01
01
ec
f8
fd
03
fb
f8
0d
01
09
12
fb
03
e9
fe
f9
fd
f4
fa
0a
07
f7
01
12
06
f5
ed
fe
23
fe
0f
0e
f4
f9
09
05
ff
00
f9
f9
f5
11
22
0b
f9
0c
f7
f6
f4
ec
fb
f1
00
fa
ea
17
ec
03
07
01
02
0e
f6
02
06
f6
f5
fb
01
1c
09
0d
0d
ff
f0
20
fb
f8
fa
13
0e
fb
0d
f3
08
fd
f1
f9
07
18
07
ed
ed
f9
f5
1e
f4
04
ff
ee
08
fa
f6
15
f7
f3
ed
fa
f5
09
ef
f5
24
1c
0d
f0
07
fe
2a
0c
04
fd
1b
08
f3
09
ff
fe
0f
03
f4
d9
f1
f1
df
f8
f0
db
f2
19
0f
0f
20
ec
09
f7
fa
00
e6
13
1c
04
06
ee
f3
ea
e2
0a
23
01
03
01
eb
0b
fe
dc
0a
3b
fb
e5
00
ee
0e
11
f2
26
01
23
f8
fe
e6
08
07
14
16
07
14
f7
0c
23
14
13
f9
e8
f6
da
08
e0
f7
06
e8
06
01
1a
b4
01
f3
04
e2
10
16
09
13
25
19
16
16
05
0c
fc
11
20
e9
d7
ef
d9
f5
eb
20
db
09
e1
eb
0f
fc
f4
f5
1f
e5
d1
de
19
fc
29
1c
f4
d6
04
d5
ee
1c
e2
1a
00
f0
06
f5
0c
08
fa
0f
eb
1c
d4
df
33
07
1e
21
12
08
bb
11
0e
f0
17
07
04
ff
2d
ed
16
f3
fd
00
0d
07
0b
f6
d7
d0
f6
e3
06
f5
19
df
04
ec
0d
0e
ec
17
03
e2
00
01
2e
06
f3
f4
f1
db
0b
e4
2c
03
03
f8
30
16
ea
ed
dc
0f
46
10
09
17
f7
ef
e3
fe
14
0d
e5
fa
d5
f6
2c
24
f5
f1
07
01
c8
ff
04
ec
03
32
2e
2e
eb
d8
fb
17
0c
dd
e4
e7
25
d7
e1
c9
15
fe
22
f7
f6
2e
06
f0
e8
13
03
e8
11
f8
18
0b
01
0e
04
fd
04
f7
d3
fd
02
06
08
26
f0
ff
fa
0e
bf
0b
06
f8
2a
23
12
03
2d
02
01
0b
0f
02
05
00
f3
0b
19
19
05
e3
0c
02
f0
f1
12
ff
17
1d
ce
0c
03
1a
2a
e5
fb
d9
0f
0a
19
d9
f1
e5
06
fb
0c
e7
30
40
fd
d6
ff
03
38
ea
14
0b
0a
03
05
ea
05
d3
16
14
ff
f9
16
17
1a
d0
d3
03
24
f0
fb
ef
09
c1
03
09
dc
fc
ea
09
0e
37
09
f2
02
d6
dc
ff
e2
03
f1
f9
f6
f3
0a
dc
fd
1b
04
1a
fe
de
23
1a
e3
1d
0d
de
08
fd
2c
0c
1b
08
07
e2
02
c4
24
f9
ff
e3
ec
dc
08
fc
ca
fd
0d
1b
ed
07
d3
39
cc
e1
14
05
12
f2
df
0b
fa
fe
c5
ea
f8
ff
e5
fa
22
07
05
e8
0c
d5
0c
39
df
f0
09
26
08
ff
12
13
02
19
02
f4
04
f2
07
1a
ea
f6
08
03
fb
0e
14
f8
02
06
f0
1d
04
0a
fe
27
0b
f4
ff
f5
05
e5
e6
fe
0b
ed
0e
05
24
f1
fc
17
06
0c
06
f4
f8
fb
eb
04
f9
18
eb
f6
0d
fd
fe
d4
fc
e9
0b
e4
e9
f6
f9
0a
0c
fc
0c
f0
e9
2d
e9
f7
16
17
f0
0b
01
f3
f7
07
fb
f7
0b
f2
f7
0e
0e
ed
13
1a
1a
09
f9
fb
fb
0c
df
08
fe
07
da
23
e0
0b
dd
ef
dd
06
fe
1d
12
15
f9
f2
10
20
0f
35
e8
ee
32
18
f9
f0
d9
01
04
04
03
e8
0c
09
fb
16
fd
fd
f6
19
18
20
f5
1a
0b
0b
fc
ec
14
e4
f1
d0
ff
09
18
fd
09
22
0a
08
f3
12
cd
f6
0b
c7
26
0a
06
03
e3
ec
0f
dd
24
02
1d
e2
fe
0f
10
e9
f4
df
fd
ee
0f
e0
e7
ed
fd
35
00
db
00
f9
06
0e
00
f6
fd
fb
0f
e8
1c
06
f3
ec
fb
ec
02
05
06
07
fc
17
fe
e5
03
f7
09
1a
fe
0f
08
c9
09
fc
0b
20
ff
f0
e5
f8
03
05
0e
ea
07
e0
c5
1b
1b
17
d8
0c
ef
ff
ec
ef
19
f9
17
ed
e3
f6
e4
ec
1e
10
ec
e7
04
15
03
1c
f5
12
e7
23
d2
15
1a
04
0c
fb
1f
02
f1
1f
e6
e7
ed
e6
f6
06
02
0f
2c
0c
fa
fb
e2
f1
f3
06
26
1c
ef
05
22
1f
e4
f4
0e
f4
eb
08
f3
10
f1
db
02
f5
f3
f1
02
23
07
d9
2b
fb
07
ec
de
14
ef
e8
f4
e6
12
04
12
1c
fc
23
0d
0b
07
fc
f3
e5
e9
fa
dc
31
0c
df
f0
f7
de
06
f5
07
10
ee
0b
e2
1f
1c
e5
00
ff
fc
13
0a
f5
0b
05
0f
da
f8
0e
ef
03
d9
0e
08
d3
04
da
18
d3
09
30
fc
e7
2a
f6
3b
16
14
01
0c
14
1a
25
f4
08
ed
26
e0
01
f3
0c
0b
34
14
dc
f4
27
18
e2
05
25
0b
0c
fb
0f
f2
09
fe
17
03
f9
09
dc
e9
16
fb
d7
21
0c
2b
03
ea
01
05
0b
1c
09
f2
f7
f8
18
e9
ef
f8
f7
ec
2e
bb
ff
01
fa
f9
e7
10
2a
fb
e5
0a
ed
22
05
e3
f9
15
f4
e6
ec
df
eb
e2
e5
ea
0f
08
ff
e9
05
e3
d3
e8
f8
01
f4
e7
14
1a
16
d8
e3
1c
0a
ea
19
e0
18
2b
06
06
fe
d5
df
0e
e3
17
f8
21
0e
ec
00
f4
06
10
f5
04
e1
31
fd
ea
ea
0c
0d
0b
08
fc
ef
f4
f6
fc
f8
d0
dd
17
13
03
06
2e
22
e4
0e
25
fc
f4
e8
35
fe
eb
f9
13
e4
1f
fe
f4
04
fc
fd
00
1d
0d
01
ea
f9
00
12
ed
fc
09
0e
d8
01
fa
f2
fd
10
18
fc
cb
eb
2a
27
ec
e0
23
f5
f4
f3
06
08
1c
0a
1f
0a
05
11
f3
fc
f1
25
fa
08
1d
0b
fd
f0
1a
fa
f4
ec
08
f9
15
de
11
d5
04
04
cc
e1
ed
f0
21
e8
f5
f5
f1
02
e1
e7
00
31
e6
f1
09
1a
e2
17
fa
e6
ee
00
e5
12
02
02
0c
1e
01
fa
ef
0e
10
ec
05
f7
14
13
e8
f1
1c
09
fd
d6
00
01
03
26
fb
df
1f
fb
ff
e7
00
ff
1b
28
e6
00
f2
0a
df
2c
0e
f8
fd
08
f7
00
f7
0c
f8
05
17
00
dd
14
f3
15
06
eb
11
e6
f9
ec
05
2d
09
f1
ed
f2
f2
0c
fe
23
fd
fb
2c
12
f8
15
ed
fa
05
17
f9
19
1b
10
fa
ef
00
ca
ff
fa
15
f5
0e
ec
22
26
1f
02
03
ef
e0
e2
eb
09
de
f0
15
ef
08
03
fb
13
ee
0c
0d
15
ef
f9
f1
fb
fa
04
f8
fe
25
08
e0
13
05
f9
fb
ee
d9
20
f5
fc
ee
e3
2a
3a
1e
08
f2
fe
f0
16
17
0e
05
14
ef
2c
07
f4
24
04
f5
eb
bf
df
09
0f
1c
01
fa
05
fb
07
f3
f2
f5
e5
eb
0c
f6
05
d8
e3
da
07
00
11
ea
f5
ed
f4
e8
0c
08
17
22
1a
f4
e7
f8
2f
28
02
0c
11
e4
0f
00
ea
04
09
1b
02
39
fe
01
19
f7
00
f1
f1
16
d1
1e
0a
ed
f7
ef
07
e4
03
05
f1
05
2f
11
db
ff
03
de
01
ef
e9
f4
e6
fb
15
ea
da
fd
1e
f6
f2
eb
e2
de
e8
f1
12
1b
ed
fa
e1
f5
00
fc
00
09
18
05
09
fe
f8
f9
14
f0
f5
e9
06
1a
13
05
00
07
e5
fd
e4
0d
1b
25
ef
10
02
06
21
fb
05
1a
01
ee
fe
fc
f2
12
e8
10
f4
e7
17
c3
3c
09
1c
2c
fe
e0
37
03
cf
e3
d9
27
10
12
1d
11
2a
fa
fb
02
17
09
14
fb
14
11
28
19
fd
00
e6
f0
fb
0a
fa
f5
f3
0d
2b
11
07
ef
c7
d6
f0
20
29
0d
e0
1b
e1
0e
22
e6
18
1a
ff
ed
11
0f
e9
0b
f9
d4
ec
e4
08
e8
1d
e5
18
25
12
12
0a
f7
0d
21
fd
27
03
f4
e4
0f
12
ea
18
d8
f7
f6
ee
e4
0d
05
cb
ec
24
fd
12
d9
0d
cf
23
22
24
f1
fc
13
f3
07
f7
2f
02
ed
f6
09
1d
0b
f8
f7
02
ed
fd
d7
f5
f0
07
f8
0b
25
19
f2
22
07
1e
18
f0
02
f8
ee
0b
f6
eb
21
22
29
f5
ec
df
29
fc
fd
d4
03
d3
d6
eb
ff
f2
2b
ce
ef
05
1a
f4
0c
09
05
1e
fb
2c
0b
ee
e2
f4
01
08
00
f8
13
ca
01
e8
13
fe
04
14
ed
e6
de
f1
09
fc
05
e7
d6
09
18
18
f5
17
fe
ef
d2
2e
ec
15
f5
f5
ea
08
0c
ef
f3
ef
f2
19
20
f5
1e
03
11
0a
bd
fa
db
0e
25
14
07
f5
10
f9
eb
ff
1b
f9
09
e9
e9
e6
08
f9
05
24
e6
17
00
22
24
ff
09
e2
ff
ed
03
1b
10
1d
0e
01
f0
2a
12
f5
e8
f8
fb
24
e9
16
fe
e9
e1
ef
e5
23
fd
fc
ef
0c
ec
08
0b
05
0f
37
ef
fa
d9
00
0c
d4
0c
ec
e9
1e
08
23
eb
26
ef
01
31
fe
ed
1f
12
28
1d
f1
3e
0b
0e
e2
01
1c
bb
e0
1e
0a
d8
fd
03
da
ed
03
0d
b1
06
17
ff
0d
d0
08
01
1c
18
03
10
d5
e2
02
0b
04
11
31
1c
1a
49
e2
1b
f4
e4
00
ff
ef
0a
06
0e
0a
03
02
f2
fa
f4
f1
0e
0e
ec
0e
c8
06
d6
16
f6
3b
aa
23
f0
0f
02
02
fe
f9
0f
24
f8
06
0b
1f
3d
30
03
20
13
f3
13
17
ec
04
05
ff
f0
1c
ea
e7
e1
0f
d7
f4
10
f1
0a
dd
df
c3
08
ca
15
02
ce
f1
cc
ea
f7
fb
19
1b
c0
dc
0e
2b
fd
0d
00
e6
ff
33
06
e7
12
ed
0b
f3
1c
fa
11
13
11
0c
e9
fd
f2
f6
fa
fe
f9
0e
17
1f
fd
20
0a
ed
d7
fc
0b
fd
e0
26
0b
1c
01
06
d9
02
e3
02
fd
fc
1b
d1
f9
d6
24
06
21
fe
e7
0c
fc
09
0e
04
11
de
27
fe
18
df
10
2c
18
fa
f1
1f
21
ef
07
01
10
00
01
f3
b1
07
08
f3
e9
f8
1f
21
23
06
fe
d7
18
0f
b2
14
ea
f2
01
02
17
1d
10
0b
26
02
1b
d8
fc
db
00
ea
17
0a
07
09
19
09
0d
fa
16
eb
f9
11
f9
f5
08
15
0e
ff
ea
09
fd
e9
f8
0b
17
0c
1a
0c
1f
c7
e6
00
e1
0e
0c
0c
e3
f6
00
d7
f6
ea
30
2c
f8
07
18
f6
fd
e9
0b
e7
2f
db
cc
07
f3
cd
14
24
10
ec
02
fb
0c
f3
21
f3
f0
da
17
fd
f8
05
0d
0c
b7
05
f9
ff
f8
07
0c
ef
f4
38
21
d2
d9
f5
0a
cf
0d
ec
fd
fb
f8
e3
22
0d
26
00
11
f3
0f
05
ee
0e
fa
de
11
1b
fb
03
07
f1
0c
19
00
f2
ff
23
ec
39
12
1e
ef
e4
0a
f4
03
f1
ff
08
fa
00
07
15
f1
ee
16
02
02
08
ff
f7
09
09
05
04
fa
ed
f9
fd
00
fa
fc
00
0c
0a
ec
f0
ff
09
02
f7
f1
fa
fb
f4
f2
0c
0e
f0
fa
0d
08
f1
fc
f9
12
ed
12
01
fb
0f
05
03
10
00
03
e0
f2
04
10
12
15
07
0c
06
fc
f6
0e
f0
04
f1
f6
0e
05
f6
f4
06
14
eb
fe
0d
23
05
09
e8
ed
f2
10
fe
f8
0e
02
f4
04
f9
07
1a
f8
05
0f
fe
0a
04
f5
1d
fb
09
ec
03
f2
f5
fd
fc
fb
f2
f3
fd
07
f3
08
f4
fa
e9
ed
f9
fb
f7
fc
12
06
00
e7
f7
06
f2
fe
ff
13
f7
03
01
fb
e2
0b
0f
eb
f5
ea
fd
04
00
11
03
fc
0a
03
fc
0b
f0
08
0c
06
0a
ea
07
01
15
e0
09
fe
f9
e9
f7
e5
14
fa
01
00
fa
15
f8
fb
fd
01
06
fa
ea
08
08
ff
f0
fe
0e
f3
01
06
ff
15
0e
f9
18
e4
fa
fe
fd
ff
02
dd
0f
fe
fa
05
e6
0e
13
08
ed
06
25
02
10
03
1c
1a
1b
00
fa
04
ff
ee
15
07
eb
f8
fe
e9
06
0d
04
16
05
fc
e8
05
f5
f0
04
ef
03
f0
07
0f
04
f7
f1
18
19
ea
08
fd
06
0d
12
1f
0c
fa
fe
13
f6
23
fb
f9
fd
ef
0b
f4
02
10
0b
09
10
f7
f4
06
f5
f7
f8
08
11
13
f7
fa
0a
fd
f8
f0
0a
f9
fc
f8
fd
ef
01
f4
fc
f8
07
20
fb
fd
06
fb
04
f8
ec
f1
f7
f3
f1
f8
17
e7
07
fc
f2
11
f6
eb
fe
11
fb
fe
08
06
ec
f4
f0
0b
ff
0c
df
f7
fe
0e
fe
ef
0b
fe
fb
f6
fa
0f
f8
f1
00
f2
ef
00
0c
17
00
08
0d
08
0d
fc
ff
08
02
00
ff
f9
f5
00
fa
00
f5
f6
fe
ed
07
02
07
04
00
f2
05
e4
11
f9
fa
f4
14
fc
07
ec
06
0b
05
ff
0c
06
04
22
0a
f7
f8
0f
10
fe
f8
10
fc
0c
11
ea
07
0a
ee
03
06
f9
e9
19
e9
02
f5
06
02
02
0f
09
fe
fe
f6
fe
1f
f6
f8
0d
08
05
ed
ff
fe
06
0c
f1
04
fc
ee
0d
06
f2
03
00
f7
0f
fa
fe
17
13
07
0e
02
fa
fc
f4
fc
ff
ff
e7
fd
04
ee
02
e0
06
02
ff
f5
f3
07
14
fd
0e
02
0c
1f
0c
fa
10
fd
1f
fb
02
fb
ea
f6
00
04
f5
06
20
0e
00
01
f9
eb
0f
f8
fe
10
03
fb
f1
fb
ed
fd
00
f0
f5
10
f6
09
f0
13
17
01
f8
08
fd
fb
04
0a
fd
0d
04
03
12
01
fe
05
10
f6
f8
f9
06
fb
01
0f
04
fb
ff
0f
f9
08
07
07
06
ff
01
ef
00
f7
eb
04
15
fc
eb
f6
e3
fe
01
02
e1
f9
f7
01
ff
ec
f5
f6
11
0e
01
02
ff
01
ef
fc
16
09
ec
ff
0b
0a
0a
06
ed
ff
f6
0e
eb
15
05
02
fd
0a
0e
19
0f
f2
02
fd
fc
fc
fd
f8
05
f2
ff
fb
02
f8
fc
0e
0e
f9
1a
03
fa
27
07
0c
03
05
f9
fd
0c
f6
f9
12
ea
f1
e8
0f
08
f8
fa
f3
1c
08
06
02
e9
07
06
ff
05
f9
ff
fa
ef
ff
05
10
15
f3
fb
f2
08
16
f2
0b
f1
07
02
fc
ef
12
f9
f8
f2
09
f4
06
f2
fc
f9
04
00
fb
17
0e
00
10
05
e4
ea
fb
fa
f5
12
f5
fe
13
f9
fc
f2
01
09
0d
fd
07
ff
fb
0b
02
e3
09
0a
06
fd
08
18
03
07
e8
ff
f5
0e
fd
19
fd
0b
08
fe
19
01
ec
f1
05
fd
f2
0a
05
09
00
fc
09
f0
f7
ea
f0
fd
f4
09
ef
03
ed
0f
02
fc
f7
05
f9
08
f9
02
f8
f7
10
e9
0a
fb
f1
fa
12
03
f6
fa
fa
13
ff
07
09
04
01
ef
0d
ff
1c
06
fd
00
f8
0d
ff
fb
f7
04
eb
ed
fb
02
1d
fb
f1
02
19
0f
f9
01
f6
11
f9
fa
04
01
fa
ff
07
e1
fb
0c
05
01
0f
ff
05
06
0f
f4
fb
05
fa
ff
fd
01
e9
e9
07
fc
06
04
06
02
12
fa
00
21
ff
0c
04
04
13
07
f3
fa
ff
0f
14
f6
06
fb
0b
f4
03
f7
f4
06
f9
f8
01
1c
fc
15
fa
f7
e5
09
05
01
08
f0
0d
fc
00
ff
fa
ff
f9
fe
09
ec
0b
01
f6
12
0c
ed
09
fa
f3
f3
03
02
02
f8
f3
fc
fb
0c
f5
14
fe
ff
04
00
ee
09
09
fd
f7
09
0d
ff
0a
00
03
fb
02
01
05
08
02
f2
0d
fd
03
0d
07
1f
fa
07
fb
f9
fc
f7
05
02
f6
f6
0a
02
f8
fd
10
fb
02
09
02
f5
04
f2
06
0b
e9
ee
01
05
d2
0f
fa
fc
0e
e9
ff
06
15
f7
f8
fb
05
1c
0b
f2
06
12
ff
e8
f0
17
06
fe
0f
0c
f5
08
0a
0d
ea
09
f1
ff
ff
07
ff
f4
25
03
00
0b
fe
04
04
08
f3
05
05
fe
f4
0d
03
fb
f7
14
ff
0c
0d
04
fa
08
e7
0d
08
01
17
fe
fc
0f
f7
f4
0f
01
0c
e7
e5
f2
f0
eb
ff
fc
02
f3
fb
09
05
fc
0a
05
02
04
10
0b
ff
ff
fe
f0
11
06
f5
14
0c
fd
02
0d
f4
09
0f
f4
f9
0c
fb
ff
03
fe
03
ee
05
fa
fb
00
f8
dc
fd
f7
05
18
04
f8
ef
f8
01
11
02
19
fb
e2
ff
0a
eb
13
fc
02
04
dd
f7
10
05
06
02
03
07
ea
12
fe
f5
01
03
dd
f7
f6
1c
ef
f1
fd
04
00
f6
08
f1
02
e3
0c
f4
f4
01
fb
f6
fd
0d
08
10
f4
f2
f4
06
ff
04
00
e7
13
fc
06
f1
0a
f5
fb
06
fb
f1
1b
17
03
ff
08
ec
0a
ec
08
eb
09
f6
17
01
ff
fa
10
ff
e7
11
08
05
04
ea
ee
04
f8
fb
f0
13
0c
04
f6
f0
eb
07
09
fe
0a
f9
05
f1
0e
20
f4
10
0d
01
00
09
f1
0a
eb
e6
f8
fc
16
f8
fc
0a
16
02
15
f0
00
00
09
ff
e6
00
03
1a
e3
17
fe
19
fb
01
f2
fd
03
07
e5
f0
0b
22
de
0b
00
04
ec
1a
0b
05
fe
09
ea
09
f1
e6
ff
18
0a
04
fc
ee
08
fb
1d
03
ff
fc
fd
13
0e
fb
ed
ff
0a
07
ea
09
02
17
ed
f4
f4
fb
0e
02
e9
09
00
fe
fe
05
f0
f9
f0
09
f8
00
f4
07
07
fa
e5
00
0a
fd
f1
02
f8
06
e2
01
01
fe
ff
f6
0c
05
15
fe
0a
f4
02
ec
0a
fe
08
ff
0c
f8
f0
f6
11
e7
fd
03
fa
ff
ff
07
07
f5
04
03
06
fe
0f
00
06
f7
03
fb
ec
fe
08
01
04
ec
00
f7
0b
fe
fc
f0
f7
ff
fe
f9
f3
04
01
14
e9
0c
0f
13
f8
ee
07
f8
f6
06
f5
00
11
03
0c
15
04
fe
fa
f5
f1
fa
04
f9
f5
e3
0f
10
0c
05
07
f8
09
16
f3
09
0b
f1
e1
20
ff
03
02
ec
00
0a
fa
13
fb
0b
e2
02
f7
f9
fa
00
fd
f9
00
10
f9
03
07
fc
05
0a
fd
fd
0b
ff
f5
06
1c
fe
09
f4
06
ed
0a
04
17
03
10
fb
12
f1
05
f6
01
f2
09
08
04
fb
07
e7
ff
fb
ff
fe
13
f8
02
fa
02
f2
15
08
02
fb
06
f4
f5
f1
f9
0d
0a
ff
12
0d
ed
00
fe
ed
0c
0a
fd
fc
ec
fe
05
00
fa
ef
fc
f9
07
05
1a
f7
07
ec
04
0c
07
03
0c
f3
0a
08
15
0b
fb
fc
f2
00
f8
0a
ef
00
12
fe
13
ed
08
1a
07
08
05
03
f6
0e
fc
03
f5
fb
00
0b
fa
ea
fc
f1
f1
0c
fb
18
fb
01
f6
1b
f7
0e
0e
ff
01
fd
f8
02
f8
04
00
03
ea
0c
04
0c
04
f7
fd
fd
ec
0f
01
f6
f6
ff
05
f5
11
f1
f5
f3
fe
08
06
02
06
08
e8
02
01
f9
1c
fb
f8
20
04
e7
06
fa
fd
f8
eb
01
16
f3
f3
02
22
f0
fd
f6
13
fa
19
0c
fc
f3
e9
fe
09
18
08
14
ea
fb
ef
fd
08
0a
00
04
fd
f1
fe
09
07
09
04
ea
f8
0a
04
13
f2
de
00
fd
f7
02
f4
06
14
f5
17
fa
14
fe
f1
fa
fe
0b
03
08
f7
ea
02
f0
f2
0f
01
f5
fe
00
0b
0b
0f
01
02
08
08
fb
ef
02
f3
06
ef
f8
19
07
04
f0
11
04
02
f1
fb
20
09
fa
02
01
fa
f3
15
ed
02
11
e5
f0
01
13
f4
f8
f7
0c
0e
fe
fa
07
0c
03
14
f1
01
05
f2
fa
13
f6
06
04
08
0c
06
ff
f0
fb
f7
fb
05
07
e4
f7
02
fb
16
ed
fb
f2
fc
07
10
ea
fc
13
09
08
eb
10
f2
00
fe
ed
eb
05
ff
0b
f6
f9
03
01
0b
fc
00
f6
fc
0a
f6
0d
14
ec
02
04
02
03
03
f7
e3
0d
0b
0e
f8
fa
f9
03
f7
10
0b
1f
19
f3
fc
f8
09
f2
04
f5
f3
fe
f2
01
00
0a
02
0b
01
e7
f4
f9
fa
f5
10
fc
0a
f3
20
08
f8
fd
0f
18
0e
15
03
f7
10
fd
f6
0d
07
05
05
e6
05
f0
f9
fd
fd
04
05
00
fb
02
1e
e6
01
fb
06
0b
ea
f0
fe
05
f7
03
03
06
e7
fa
fa
1e
07
fe
04
fc
02
f8
02
ef
ec
15
fe
f7
fd
fb
ff
fc
f8
04
02
07
07
08
08
1b
fa
f5
06
fb
f0
03
02
0e
07
13
05
19
f3
03
0d
04
00
f9
fa
02
f8
0a
05
04
09
0d
08
f8
03
f1
11
07
0a
eb
12
f3
04
f9
00
fb
12
ff
07
fc
03
f0
f9
0c
fd
03
05
f7
08
08
0a
fc
03
0f
03
f2
06
02
f2
f7
f3
f7
14
fc
fb
12
f8
e9
fd
fb
19
0a
f8
fb
f8
14
f9
fb
ea
02
f9
fe
f5
16
09
08
f2
03
f8
f2
19
fd
12
01
03
fb
05
ef
0e
f6
09
f4
f5
ff
f8
0a
fe
fc
18
f5
f7
1f
22
14
10
f8
01
fd
0b
fc
fa
f5
29
ed
f5
08
29
02
24
1a
f3
f1
fc
21
f6
ef
18
f8
25
11
f4
1d
f3
f8
df
2c
1f
2b
e5
fd
e0
ed
1c
30
0a
11
f7
fd
f9
0c
01
f7
04
ff
15
20
f6
14
ff
0d
d3
07
17
f2
f9
1f
05
f1
01
e0
f1
f8
f1
e6
02
f3
07
02
e9
df
fe
14
1f
07
10
f4
e4
18
ff
e5
ea
ee
21
cd
f2
19
ec
02
dc
05
f7
01
22
e8
02
f1
03
f0
fc
13
fc
01
eb
0c
ea
11
e2
12
0f
0c
22
06
0f
05
e3
0a
ff
f1
f2
d5
f1
00
fa
ea
ee
00
0a
f9
01
17
04
e0
f9
fc
19
1c
0c
fe
16
e9
06
ff
02
18
f0
17
ed
fb
26
0d
01
f3
0e
d4
09
0e
fa
02
03
0c
f6
f7
fc
f0
0e
03
07
2c
f9
04
0a
f1
f3
ff
07
f6
23
0d
0d
02
e3
10
0d
f1
0a
03
ef
e4
ff
ff
07
05
f4
06
ee
f9
f1
05
1b
0d
ff
21
1a
fb
f1
f7
02
f2
0c
05
f3
2a
f1
ec
07
ea
ce
dc
f3
0e
06
ef
20
e3
fe
fd
d7
fd
f2
fd
0c
d4
fa
1f
f7
01
ea
0e
ed
0d
0a
fa
f5
13
ea
12
fd
17
ee
19
da
ff
10
08
13
04
01
eb
07
ec
f7
10
f8
f7
fd
fe
0e
06
f5
fc
f0
01
11
07
23
00
fb
f6
f4
07
13
03
07
02
08
e9
fd
02
fa
f0
0d
da
06
f9
f7
e7
ff
ff
20
ff
ed
fc
03
fd
0b
f8
04
f7
ff
f0
f3
05
f0
0e
e9
01
01
f4
f5
f1
13
0d
13
1c
11
eb
ec
10
fc
f9
ef
f0
11
13
15
02
13
f7
04
f6
f0
0a
04
08
02
0b
f8
f7
07
ea
04
01
fa
18
02
f8
fe
f6
ee
12
f5
03
fa
1f
f7
ff
22
09
e8
ed
fa
fd
f9
ed
19
f1
0a
ed
ec
05
1a
0c
13
01
07
f2
f8
0a
f9
ec
ef
14
02
05
f7
06
13
22
e5
03
02
1b
f4
f6
f2
f8
23
03
fe
07
12
08
fa
fe
f9
06
0e
16
f4
1a
fe
02
03
09
12
f5
f5
00
e2
18
05
f9
2a
f3
01
01
1a
1a
e7
08
ec
f2
06
f6
ee
0c
f7
20
fd
18
e0
f4
05
eb
f6
de
fd
1a
10
f1
fd
1c
ec
04
ed
0a
f8
05
ea
f8
0a
eb
de
2e
fb
f7
13
13
19
15
ef
04
01
0a
18
ec
eb
ec
cc
ed
0d
e7
f0
ff
ff
e8
ff
fe
06
f3
fc
f2
d1
0b
09
0e
29
18
0b
e6
fe
21
e2
07
f7
ed
0f
16
0c
f7
e0
15
03
f5
df
e9
de
11
ef
f8
ec
13
f8
c5
dc
f2
fc
0f
14
14
0e
0e
fe
f6
d7
29
f5
f6
0d
ee
fe
e8
0d
d8
19
fb
15
cf
0c
ec
02
e2
19
20
fe
f1
02
ec
00
17
0e
e5
fe
0d
f3
de
09
ee
f9
f6
0d
09
28
f1
e7
12
06
2f
ec
02
e8
01
f0
ec
19
00
03
27
25
20
10
ff
08
0b
1a
00
df
0c
e9
ff
f7
fb
1b
fd
0c
16
12
04
0c
06
0b
02
21
e5
0e
e2
08
d6
0a
08
ed
11
14
11
f4
10
13
1c
03
0e
12
ef
03
48
28
eb
fd
f6
08
0b
ee
ef
02
0d
03
18
0b
00
21
2e
fa
2d
fe
02
ca
ff
02
fa
01
25
f3
dd
04
fc
07
2e
23
09
f4
f1
ef
28
f5
fc
14
1a
1b
f6
0c
f4
f7
34
d7
f0
f9
0b
07
19
f2
fe
07
0f
13
24
13
f3
f6
f2
df
d3
10
d3
0e
20
07
e3
f9
ec
0c
03
e4
de
ed
03
ff
d2
e6
fc
e8
1a
07
f8
09
e6
d3
01
21
25
db
ea
fe
f4
ed
08
1d
f0
14
10
e8
12
fc
20
ff
00
e6
12
fd
e6
da
de
20
0e
ef
07
f5
08
0f
12
16
24
ee
04
f6
e7
d0
01
03
0f
fb
09
fd
ec
1a
09
f4
33
05
0e
fc
ee
de
e3
14
02
0d
f2
2b
ec
22
16
14
13
eb
1a
e7
21
0e
fa
ff
e9
e9
1f
11
03
dd
e3
13
f5
1c
e8
08
fe
0a
12
06
f3
f0
1a
13
e8
dd
e7
09
14
0a
fd
13
f8
e5
f0
16
0b
d8
fa
15
15
01
16
ec
19
ec
ee
01
0c
1b
e4
eb
11
1e
03
d9
1e
11
15
fa
0b
c4
e2
0d
19
02
fd
ed
19
e8
ef
ec
1c
01
eb
f5
bb
fa
00
eb
f0
e1
01
02
08
2a
0b
fa
e5
03
f5
02
0f
0a
f7
08
17
fc
f0
f1
29
1f
00
ed
09
00
1e
ee
1c
01
04
fe
e0
ef
18
08
f7
f7
f7
11
f7
00
18
ec
e1
ff
08
06
08
01
00
fe
e7
00
0d
ce
e8
fb
04
fd
10
04
ea
ff
11
03
e2
01
12
f9
05
02
fa
05
0b
ed
d8
f4
0f
04
19
ed
f1
fc
e8
ff
16
01
02
fc
fe
21
fa
01
09
f0
fc
1a
02
09
01
17
fb
fd
06
08
eb
0c
f5
14
f9
00
06
03
fe
f9
e2
f6
04
e2
1f
13
0e
f7
0e
f3
02
f2
ff
d6
0a
ef
00
07
01
0a
c0
fd
f6
f7
05
f7
f7
07
02
03
f9
1e
19
1f
f5
27
21
ec
f2
0e
f7
01
05
e4
18
e1
fb
22
08
00
d2
f7
12
f9
08
0d
15
e4
e6
03
ff
ff
04
f4
f6
02
f6
10
16
19
ea
fc
1d
f9
0b
09
f0
01
12
19
ee
0b
f7
f6
de
13
e6
fa
f6
fa
10
f9
07
14
f4
0e
15
ed
00
f2
fe
e2
16
1e
06
01
03
09
e9
f5
18
f8
14
f0
f0
fe
07
f3
fb
0a
f5
07
f7
f3
05
e2
fa
0c
14
f1
01
09
f5
03
07
24
0e
0b
ef
04
0e
e9
dc
13
ea
02
dc
0e
f9
fb
12
fb
0c
e7
e5
17
10
0f
fd
14
fe
14
19
04
04
08
e8
de
fc
12
e3
f9
05
22
e0
fa
ea
1c
00
e6
0b
f7
ff
21
f7
e3
05
0d
12
14
05
f9
ea
fb
ff
02
01
ed
10
1a
13
24
fd
17
d6
00
ce
0b
f2
14
0b
27
0a
f6
e8
ee
01
ea
06
f3
f7
ef
f0
ed
15
1f
2b
f7
03
ff
fe
f2
fb
f3
09
09
ee
f5
02
f9
21
fb
05
03
04
0d
00
f1
ef
f1
05
00
0f
f6
ec
eb
0d
25
06
0c
0a
06
f8
05
fc
08
02
0e
07
eb
f6
1f
05
0f
11
fa
04
fa
11
06
ec
04
f7
10
f7
ef
05
06
10
f1
f6
0c
04
fe
fb
e4
19
f7
09
01
0b
06
19
1f
00
ec
fe
fe
e4
f6
fb
0b
f8
fc
ea
07
e6
01
fd
f6
09
ff
f7
11
ff
0a
02
fd
f2
ea
07
e3
f2
fb
08
f0
ff
12
ff
f4
04
fd
0e
16
0e
fe
fc
f8
0a
f4
08
e4
08
f7
f6
ef
00
0a
05
0c
1a
10
07
06
fa
cf
e6
fc
0d
e5
fb
02
02
f7
ec
fe
13
ff
0a
07
0e
09
f5
0b
fc
02
e0
f7
03
1d
04
db
08
fa
f7
0b
06
ef
06
f2
fd
d7
e4
0c
10
12
d5
e7
e2
0a
19
e6
d5
25
03
fe
fe
04
f7
12
f0
f5
33
01
fa
1f
10
d4
e1
f3
f9
1a
16
f5
f2
02
fe
eb
1c
06
ed
08
f2
f7
1f
23
e8
22
da
1d
fe
25
29
eb
f5
08
e6
0b
f7
ec
04
f8
06
0b
09
1e
07
db
f1
1a
25
07
eb
06
0f
fa
e6
e9
d2
f7
10
fa
f5
f9
0e
35
e3
e8
07
03
f6
e1
f5
db
12
08
26
e3
05
e7
02
0a
e2
fe
ef
0a
14
09
ee
1c
12
e6
16
04
1b
20
e7
14
fa
03
ff
f9
03
f9
e5
06
37
28
f8
f2
0e
ec
f3
12
ff
f7
13
eb
07
ef
ff
f0
f1
1e
0a
0d
10
07
f2
1c
14
ec
e8
fd
06
ff
14
fb
09
f6
1a
07
e2
fb
0c
05
f7
fd
f4
11
06
fd
08
ef
f4
07
fc
18
12
15
fc
f6
0a
05
c3
ef
08
03
07
eb
fd
1b
08
e3
1b
11
ed
18
fd
eb
0c
ea
2a
02
0c
19
ee
03
e2
fc
08
06
0a
02
ff
18
f6
d6
04
d9
0a
08
f2
c8
f2
09
fe
f6
f6
02
f8
fe
f5
1f
1b
e6
17
f5
0f
f3
0c
17
dc
f3
02
e3
11
f8
16
1c
fc
e3
09
10
f5
1b
2c
0b
fa
0e
02
e4
ed
1a
0f
0e
07
0a
cc
fa
16
02
ef
e2
e2
fa
19
fc
0e
03
fe
fc
f6
f7
f2
fc
ec
0a
11
36
fa
02
08
fc
e7
18
00
f9
e8
ea
0b
20
fe
0b
f1
1a
e8
05
16
15
f8
0d
1d
01
14
04
e6
ff
f5
f3
05
22
02
12
e6
08
fe
02
ea
02
f6
02
e8
20
e9
0c
1c
f7
ef
0a
0a
0e
ec
12
fb
17
14
f8
1d
f9
1b
e4
f5
f2
eb
03
e8
ee
df
cd
18
f1
0b
f6
fb
f2
03
d1
fe
05
d6
f5
f0
1a
1f
fe
ed
06
fe
0e
12
06
ee
08
f9
0f
f0
fc
04
16
de
21
fa
1d
f1
05
18
20
04
e3
f3
d8
0e
0e
06
09
15
f7
0d
ea
f0
ff
ea
dc
14
f8
05
0b
13
0a
f8
10
e9
fd
06
fd
f8
e2
11
06
08
ef
00
01
22
19
0a
07
fc
fc
11
18
0a
02
0e
f4
fd
ef
04
04
10
0b
e4
ee
0e
fe
00
f1
28
18
10
0e
17
fb
f1
1b
09
e4
0c
f2
e4
d9
08
ec
fe
19
f1
fa
03
f7
da
fe
eb
25
09
fc
f0
e2
f6
f6
fa
01
e1
20
04
08
f4
e1
f9
fa
16
f8
ec
d8
16
21
fc
37
e7
03
02
e8
00
fb
09
fe
f2
0d
f0
ef
07
15
11
06
fc
fd
02
1a
f3
fa
f2
00
fa
0a
f7
05
19
ec
ed
f2
f2
1a
0d
fc
fb
0e
e2
24
0c
14
fb
37
03
04
fd
fc
15
13
f6
06
18
f5
ee
13
0a
0b
17
05
fa
05
12
fd
05
fc
ea
f9
e2
0c
09
f6
f3
03
ee
e2
dd
e3
07
df
04
10
03
dd
1e
f5
30
ff
d3
ef
1b
0b
1a
e8
cf
f9
fe
29
04
f3
1b
04
fe
ea
db
17
27
d7
fc
fa
de
f9
f9
0e
0f
22
16
0b
12
fc
ef
f0
d3
11
07
fa
fd
28
48
e4
e4
00
f9
fa
f4
f8
00
0e
ea
f3
25
05
04
e4
0c
0a
f3
fb
15
01
f3
04
00
e5
14
f8
0e
12
df
ec
fb
12
1d
30
04
1c
f7
00
fd
13
04
0b
ef
ef
0a
0e
07
fa
f1
10
01
f7
f3
07
fa
ff
11
09
ec
06
0d
fa
01
fc
07
09
f3
0a
11
03
ee
ff
f7
ed
12
0c
14
02
04
f2
0d
f8
f8
07
ed
0f
f8
dd
0a
2c
23
13
f2
fe
09
ff
fa
0e
e1
f7
f0
03
14
19
06
03
13
f0
1a
11
01
ea
14
fe
fa
ee
f0
db
06
ea
ec
0a
05
04
ed
06
f3
fb
fb
f7
06
06
fe
0c
f8
fe
06
1a
ff
08
f5
0e
13
fc
00
1f
01
fa
09
fd
fc
05
03
f8
fd
e3
fa
f0
00
09
ea
24
eb
fc
f1
fa
00
fa
03
f6
f9
06
f6
0f
00
01
f5
0d
05
14
05
00
fa
e9
04
01
0e
03
17
09
f2
fd
05
0d
f5
fe
06
ee
f9
03
fd
f3
05
11
13
e5
f0
f8
0a
f8
f7
ff
f2
ec
f4
0a
09
1a
0c
f9
f3
12
f0
03
f4
fb
04
03
06
e8
0d
0a
12
f8
fe
e9
10
fc
1b
fd
ed
0e
12
e9
0d
08
1b
07
03
14
ff
f0
ea
fd
0e
f7
ed
03
00
f1
f7
0e
f8
f5
f2
f6
eb
fb
0d
03
0b
0e
f3
f9
fe
06
0f
06
fa
00
0a
00
f7
f9
e9
07
f7
f6
01
ce
17
e9
03
04
f7
f2
0d
fb
18
0d
0b
10
00
0a
e5
fa
01
2b
0b
ed
01
f7
01
ff
f7
fa
0d
06
08
f3
eb
0f
01
f7
f3
03
f3
f4
f9
17
02
f3
09
0c
06
0a
ed
f9
03
f4
fc
07
f7
0c
0d
f8
d6
fa
15
0a
00
f6
04
14
f6
09
15
11
fa
fd
03
03
25
ee
fd
00
0f
03
13
03
fd
00
fd
ef
04
f2
da
ff
12
fe
f4
05
fc
fa
11
f6
fd
ea
f8
06
1a
ff
0a
ed
f1
11
e6
0c
fd
00
0e
04
08
fe
f9
03
0f
f6
fe
dd
fd
08
f6
05
1b
e5
dc
e4
f3
00
f9
f9
28
fc
fc
0b
fc
08
24
f8
06
e3
22
fb
ff
e3
0c
e9
04
e8
06
0d
1c
fa
0a
ef
06
07
0c
13
f7
fb
ec
f8
fb
eb
1b
f5
0c
02
0c
e7
1c
1a
fa
1a
fe
17
ec
00
13
0b
fc
e4
f5
13
20
1c
09
e8
e6
0a
f5
05
00
0c
e6
ea
e7
32
13
04
0c
09
e3
fa
e7
01
05
e3
03
02
1f
ee
0d
0b
f0
06
1b
fe
0d
e6
0f
16
f4
e2
f0
05
d8
03
eb
f8
fe
09
11
e5
02
16
f2
f1
03
08
17
11
11
1e
e6
09
fe
fa
f4
fa
1a
1b
fc
e6
e4
08
f4
fb
1d
00
fb
11
15
e9
0c
21
e2
f8
08
ed
0b
d0
fe
0a
12
00
ff
e0
07
e5
01
eb
05
0b
0e
e1
00
ee
07
02
11
ee
fb
fb
01
04
07
0c
e2
ea
0e
e2
e8
f6
f8
0b
ed
05
0c
ea
fa
f2
e2
0e
0a
29
f6
f6
16
f4
00
fb
0b
02
25
ea
16
05
0a
fe
ff
dc
e9
0f
18
03
13
fb
f6
0b
02
05
ff
f4
eb
22
0a
f8
16
09
06
fa
05
00
f8
fe
06
0a
0c
fa
f4
0f
ea
ff
03
f7
f3
07
ee
08
08
fe
fb
f9
09
f5
f4
ec
0c
00
04
27
02
f7
ff
fd
f3
f8
07
f4
f6
04
de
0a
fb
f7
fe
18
07
15
f5
f2
ec
fc
12
0b
0c
fc
e3
01
0a
09
0a
fb
12
0a
0a
0b
fd
f6
f8
00
13
04
ef
ff
0b
fe
09
fa
01
02
fe
fd
fc
f9
01
fc
07
0c
0e
03
fc
f3
fb
18
f2
10
eb
f8
fa
05
0a
0b
fa
02
0b
fe
fd
f8
f7
17
23
ee
03
15
04
f4
1e
f5
13
0a
16
0f
f5
0f
fb
ed
1a
e7
f9
07
19
00
11
e9
01
12
11
12
0c
fb
f0
f7
05
ed
0a
17
fe
04
01
e9
14
15
f2
f6
0a
09
e7
0b
06
0b
f0
02
02
13
f6
fb
1a
f2
fe
f1
f4
f9
fc
f1
08
25
03
0c
ea
f3
f9
07
16
18
f7
fd
ef
10
f0
e9
06
01
05
02
fb
fe
e3
11
fd
06
28
09
07
d7
10
f4
f2
ea
0a
f7
fe
e7
19
1b
0c
f8
fc
1a
0e
ff
08
0b
f0
ec
03
f5
09
fc
fd
fd
08
f0
12
03
08
2e
fc
0d
21
fe
f3
1a
dc
13
f1
f2
f8
0b
f9
22
ea
dc
fa
fa
0d
0d
0c
02
12
05
13
fb
0b
02
fa
fc
00
02
ff
03
f6
fc
0e
fb
f3
fc
06
01
e8
01
f7
ff
06
05
f3
c9
0a
08
f8
fd
f3
e7
16
f6
08
ef
18
fa
fb
05
02
0c
16
e4
14
04
fa
fe
f7
00
06
01
fb
08
fb
fc
02
fa
0a
00
eb
07
06
e8
f5
fb
08
04
03
fe
fc
f6
05
00
07
09
19
f3
f5
02
05
f3
f3
ff
f8
fb
0b
0b
04
02
fd
15
ef
0c
00
12
21
07
00
07
01
f7
fc
06
fd
f8
ef
08
09
10
02
fd
ea
fd
ef
01
fb
fb
07
fa
ef
fa
ee
ec
f8
06
2c
04
f4
08
01
02
14
09
06
ec
05
fc
18
22
0b
0b
16
14
17
06
09
ee
ee
05
eb
00
ef
35
08
dd
e4
0c
e6
07
fc
e4
18
03
f0
10
f3
ed
00
ec
fb
ee
10
13
f6
fd
fc
e4
0c
1d
25
0b
de
0a
eb
f5
e8
eb
23
0b
fc
f2
04
0a
fa
fb
f4
11
22
03
16
25
da
25
f8
fa
1f
ef
03
04
16
dd
fe
f6
e2
06
0f
e6
ef
0e
ed
1f
f5
e9
00
f5
16
fe
ff
fd
07
ec
ce
f2
0c
2d
07
f7
19
06
e9
e6
c2
f2
23
08
ff
01
0c
fd
0e
27
f3
05
02
03
f9
fc
e7
ff
0b
07
05
f9
ff
05
00
f9
f7
0f
04
f4
f7
fc
f6
19
07
ef
05
05
f6
cf
f1
0d
0f
e6
fc
14
fb
0e
fb
0a
00
03
17
0a
03
fe
f0
10
08
00
ed
12
f1
01
e8
00
0a
ea
ee
f7
f0
09
0b
ff
09
ef
0d
16
f3
ec
16
fa
fa
07
ee
15
ff
15
06
fb
08
01
07
f3
f2
e8
fd
08
fd
f9
f5
fe
eb
fe
f7
f4
f3
04
03
f2
01
01
12
fd
17
f5
e4
f1
ff
15
eb
0a
05
0a
08
0b
fb
f1
00
fd
05
1a
07
00
07
00
1b
04
15
24
20
ef
fa
04
f2
10
12
f8
03
0f
09
08
22
f8
fd
e3
06
00
15
0a
f8
05
fc
e6
eb
0a
02
1d
04
19
eb
07
00
e7
fc
f1
07
fe
b5
f1
ee
fd
0a
03
f9
31
fd
fd
03
fd
ec
0c
08
00
fd
e4
f1
1b
0d
f3
14
01
05
e5
f1
ea
f3
0a
08
f5
ef
0e
15
24
23
f4
0f
12
f7
e8
f0
06
ed
ec
f4
e8
fc
fc
1e
ff
02
0b
0f
f5
07
07
fd
05
ea
01
10
14
f4
24
f2
f4
fb
f6
fc
0c
fe
11
fd
14
ff
ec
e4
0b
fe
ff
19
00
1d
f8
12
02
01
f6
08
09
fe
f1
15
f6
d8
ee
ea
f2
1d
14
16
19
e5
0e
f8
ee
e8
05
e6
ec
f1
0a
13
1e
f1
ed
fb
f3
1d
fd
16
f2
10
0f
00
f2
df
02
f0
fd
f5
0b
00
2f
fb
14
02
09
12
f7
fb
e4
f3
15
fc
05
04
ed
fb
13
fb
0a
f7
d2
08
0c
f6
22
f0
f5
00
fb
0f
da
06
06
01
11
18
06
0c
e4
01
18
f3
f7
fc
07
f9
f2
f8
e2
18
05
0f
f6
d9
e0
13
08
17
f5
e3
09
f8
00
13
14
06
f7
14
f3
29
0a
f2
01
0f
0a
0e
0e
e2
07
f1
04
0a
ec
01
02
ff
08
01
00
03
ff
f7
04
00
ef
f0
dd
10
fd
fe
ec
fb
e6
ff
07
14
f7
f4
03
0f
0a
fc
23
ed
f6
1e
f1
fe
fc
f0
e4
e5
08
f9
f2
fa
02
02
25
0c
08
f8
0d
ef
e4
ff
09
15
03
22
fc
0b
02
09
fc
29
14
10
03
0d
02
eb
f8
08
ff
0e
00
d7
fe
fa
f7
fa
09
16
11
18
1d
ef
04
fe
09
14
12
ef
f9
fc
f7
ed
ff
05
03
fc
fa
ee
ff
00
01
06
0c
f7
f1
f0
0a
f7
00
06
ea
00
0c
eb
14
05
04
fb
05
fa
04
f8
ee
fb
0e
05
08
f5
fc
17
0c
19
f3
03
ff
00
fa
06
0c
ff
09
03
04
18
09
f3
1a
03
eb
fd
ff
10
ba
07
07
fa
0a
02
0f
ee
01
f9
f7
14
fd
fe
08
f1
02
07
fe
f8
05
fc
05
ff
f5
0b
02
0d
06
f4
f5
0a
f7
f6
05
10
fa
07
07
04
fa
f6
f5
f5
f4
fd
03
f0
0e
17
0f
f8
f6
fd
fa
f3
ea
e4
fa
f3
ff
f0
fb
08
00
02
05
05
03
06
03
fb
fe
e4
02
07
0a
06
f8
f3
17
0a
fd
f8
0d
03
02
16
f7
fc
fc
17
fb
e6
f4
00
06
19
fc
05
1d
f2
09
02
fb
09
03
04
fb
00
08
f3
fd
01
09
f3
f9
0e
13
0a
0b
d7
fc
01
0a
15
11
07
10
f1
fb
ea
0b
06
ea
04
00
05
fb
02
13
fb
0b
f9
fd
16
33
e9
f9
0b
f7
07
01
0e
fd
03
f0
ff
11
02
f7
f9
dd
06
07
01
0c
f6
ee
00
00
14
f1
ee
ef
00
10
e5
02
fa
f9
fe
f8
f1
28
fe
f6
0a
e7
ff
0d
12
fa
f9
fa
f4
f3
0a
f7
fe
13
04
0d
e5
f3
ec
eb
f5
f3
06
06
19
03
e9
ff
23
07
f9
fe
f1
ec
14
10
06
f5
ee
00
f1
fe
f2
03
fd
f5
0e
0e
f3
ff
13
ff
fe
f5
f0
08
f2
f5
03
f7
05
06
00
fa
04
1d
fc
eb
f0
18
fa
0a
fc
f9
eb
12
f6
05
08
f4
ed
04
fa
f8
f7
f3
03
31
10
0d
0f
f2
0c
fc
10
f9
ef
09
04
f0
02
fc
12
17
de
fe
0d
f8
0e
11
04
03
02
04
08
01
0a
09
f3
11
0c
03
f0
f9
0f
1f
f6
03
fc
f6
02
06
07
f1
0f
1a
fd
08
eb
0f
07
f7
e9
fd
0c
ff
06
05
fb
fd
00
f6
f2
f6
0b
0f
0f
0a
00
e0
04
f2
03
fa
fb
03
03
e8
0d
16
fc
f3
01
05
05
0c
0d
0c
f4
00
f8
e7
ee
f6
f9
fd
06
ed
07
0c
f8
f1
00
e4
fc
0b
0d
00
f9
03
f7
f4
fe
0c
fd
f1
ef
fa
ef
00
fa
08
10
df
09
3b
f9
02
f2
ff
07
ed
11
fb
14
ea
fb
0d
0a
fc
1f
01
1b
fa
08
f8
f3
02
05
f9
f5
11
15
02
16
dc
02
06
f3
fe
f2
0e
ed
15
ed
f0
f4
ed
06
00
03
01
0d
ec
f5
f4
12
fb
f7
09
08
fb
11
0f
10
04
f9
04
fd
0d
ea
06
04
ff
16
08
05
fb
01
fc
00
10
ea
08
fc
fc
f1
ff
e3
07
23
fd
0b
ed
20
f6
09
fa
fa
1f
09
eb
ee
0f
ee
e4
0c
d6
1c
24
f5
04
05
09
e5
f6
ff
19
cb
04
11
14
e8
14
0c
fc
2d
12
1e
1a
01
0e
f8
20
e5
02
18
ef
02
ff
25
07
23
cb
e3
f9
04
13
fd
ee
05
eb
e9
fe
f3
e6
17
0d
2a
f1
f1
08
e6
fb
f3
08
f5
03
00
1a
f8
07
f4
0d
fa
16
05
e1
d3
0b
13
fc
0f
dd
1c
01
e6
02
ee
ea
f5
0d
ff
0b
f9
16
0e
03
06
18
f0
0b
0a
16
d2
fe
01
01
e0
fa
ef
03
0d
ee
0f
f4
f7
f5
18
f2
0a
fa
ee
ef
ee
f3
01
09
fb
fa
0a
0f
e0
f1
14
f1
fc
f7
03
04
e8
18
ec
28
f3
0b
09
1d
f4
0e
11
f2
08
e5
f9
eb
fe
15
08
f7
04
f2
07
00
f3
f9
14
f1
fc
0f
12
fa
f2
0f
f7
02
ed
ed
08
fc
dc
ed
fc
0f
f9
17
05
0c
05
ef
1d
0e
ff
0c
12
e2
00
0f
e8
fd
14
e8
ce
07
1d
f7
11
02
0d
00
13
ee
00
13
df
f7
f2
fe
08
fb
0b
f7
e9
e3
0a
ff
06
f2
03
10
f2
ea
15
1f
04
20
ef
f9
f8
e7
eb
fb
10
14
16
ff
f6
04
f9
05
fe
f4
05
04
06
00
11
f7
1c
02
00
f3
0c
f3
24
1a
14
0d
ea
fb
0e
d5
16
07
04
06
06
f5
0e
eb
0f
17
0d
f2
fc
e3
f4
f5
f1
02
25
05
00
24
ff
f5
eb
0c
05
01
f0
01
0b
fd
25
09
f3
fa
04
f6
fa
f7
03
04
10
f7
1a
f7
0f
f3
ff
0a
13
0b
fe
01
ff
db
f6
f4
f4
f8
fd
f3
f7
fc
fd
09
0f
0c
09
e9
f7
0a
13
fc
f4
03
04
e8
14
fa
e5
1d
0b
fa
14
fb
e6
f9
fd
02
f7
fb
02
f2
ee
e7
f7
f9
f1
17
f8
fa
f0
1d
f0
f8
f8
12
00
ec
fa
02
fb
06
0a
fd
0b
f9
f5
04
0f
f3
18
f6
fc
f3
04
34
f0
e9
03
df
f9
00
f7
f9
1b
02
c7
fa
08
de
06
01
f6
09
08
06
f7
07
02
00
1a
fa
ea
17
f8
f1
ff
11
19
02
f8
0e
14
f2
f5
08
f6
f8
f5
17
14
f3
17
16
f4
07
17
fb
00
08
f5
11
1d
05
03
10
03
14
f5
0b
11
f7
02
0e
f2
f0
fa
f2
f1
0e
fc
e7
ea
15
ec
14
f4
09
0f
fc
fc
03
07
f9
ec
16
02
08
07
02
fa
0c
fe
04
0b
f4
03
f5
fe
00
fd
0a
f9
02
fa
fb
03
ef
0e
f1
fe
f7
05
05
fe
f6
1b
03
f6
f6
e5
f3
03
33
12
fb
0f
f3
02
ec
03
ff
ed
ec
ec
f5
ec
07
20
07
fd
f1
f0
fb
fd
0e
04
0e
fa
fe
f9
f4
06
13
f2
04
03
f8
f4
fe
f6
f8
f9
01
f4
00
06
0b
f7
ed
0a
f5
f6
fb
f1
fe
ea
00
12
04
1c
00
00
04
fe
fe
fb
00
04
0f
08
f6
15
05
07
12
fb
fa
f8
0b
21
00
fe
05
1a
f5
12
03
0b
01
03
03
e6
06
0f
f9
fc
08
02
03
e8
fa
f8
02
f8
f3
0c
09
fb
05
0d
0a
0c
07
05
04
0f
ea
f3
fd
ff
ff
f8
08
07
08
f7
ed
f3
03
03
bd
03
fb
03
f6
06
10
f4
13
17
fd
1c
02
f9
0f
16
03
0a
dd
fc
19
f4
01
08
03
f0
fc
f2
fa
f5
0c
fd
04
fa
00
03
fd
01
f8
0a
13
f7
fe
eb
11
08
06
01
f5
13
07
08
07
08
02
f9
d5
ed
f8
02
fd
12
08
fc
06
0f
ec
09
10
f6
04
ff
f4
10
01
0b
03
06
04
f6
f7
00
f7
04
fd
f8
00
e0
06
02
01
0c
05
0b
f4
09
10
00
fd
fe
04
0f
04
f9
07
ec
fe
fe
f6
01
ed
00
0d
e9
11
02
04
01
02
f7
f8
09
ed
fd
0c
fd
17
f2
42
e8
f2
f8
f9
0c
fa
fc
f6
f1
0a
dd
ff
04
ec
1d
01
fb
ed
04
fc
f9
0d
0c
09
fe
05
ff
01
f4
17
f8
fb
04
f6
0e
f6
f7
04
02
05
0a
f1
e5
ed
16
23
02
ff
11
f7
08
00
0a
fe
fb
06
21
fc
02
fa
02
08
f6
f4
fb
ed
fd
fc
05
fb
25
ee
17
fe
00
18
00
0b
09
ee
ff
f5
f6
f6
0a
fb
ef
15
ea
f8
fd
01
fc
14
09
fd
f6
f7
f9
03
cd
f8
e4
eb
fb
21
ee
fe
01
05
00
0b
0a
09
fc
fd
02
f4
f1
ee
f5
fc
03
15
fa
00
03
13
ef
f9
0e
11
1b
01
ef
13
08
fe
e9
00
f5
00
0a
f2
02
3b
f5
06
fa
09
14
01
06
ea
04
07
ec
0c
e2
0a
f4
13
fb
f5
fe
02
0c
04
fc
fa
ff
01
15
fd
0e
f6
04
f6
0b
03
fa
fb
09
1a
f3
06
fd
0f
09
fa
f9
fd
01
08
1c
fd
01
f5
ff
f1
10
0d
fb
f8
0e
e2
f5
f6
1d
eb
0e
e5
0d
f9
11
f9
08
fa
0b
ee
f9
f3
ff
fd
f7
08
f5
fa
f7
f9
ef
fc
09
09
0e
08
01
09
f2
fb
fd
10
0c
fe
06
04
01
fd
fb
ef
fd
ff
05
ee
01
f7
fc
01
f9
1a
f9
0d
f0
12
f1
f6
31
ee
0c
e7
06
f0
f4
b8
10
0e
11
ef
f4
f5
17
02
11
02
f6
f5
f5
05
f6
0c
01
ee
06
02
ff
f5
11
fe
08
0e
fb
fd
11
f9
00
fb
01
0b
ff
fe
10
f9
07
0a
f1
14
f4
07
fe
fb
05
0d
f9
fc
07
19
0f
f5
0b
ff
02
fd
12
f8
16
15
f8
12
f9
fb
f9
04
df
f8
07
e9
f8
ed
01
eb
ed
07
0d
fa
fa
02
1c
1f
ea
ef
12
02
08
f4
f5
24
00
0b
14
da
ea
f9
fa
ea
0a
0e
10
00
f3
0e
ff
f2
0f
1d
0b
fb
f9
f3
0e
13
e1
fd
08
13
ea
e4
08
35
e8
f8
0c
f2
04
02
fd
05
e7
12
f1
0b
10
f8
0b
05
15
00
02
f9
ef
fb
fa
f3
f5
0a
2b
0e
00
28
f3
03
f2
e1
07
04
f8
f1
09
fe
04
0e
d6
0b
1b
fb
1d
10
0e
0a
f6
06
f8
0a
fe
08
08
f5
f8
03
01
13
f8
12
05
f2
f0
0a
ea
15
f5
eb
cd
09
f1
05
f4
f1
01
dd
f9
e5
03
f3
e4
02
ff
fa
d3
ec
0b
f3
0c
04
01
03
1f
0a
03
07
e6
f3
0f
e8
f5
03
0b
26
07
f4
f7
06
fa
e7
ff
07
04
e3
1e
1c
fc
02
fa
f8
04
ee
19
fa
12
03
06
e0
0c
f3
ef
09
fb
fe
06
06
15
0b
02
07
f5
0c
ed
0b
f0
0e
f6
f8
0d
06
ff
0f
fe
f8
03
04
07
03
ee
1b
fc
f7
fa
f8
f6
ef
fa
fd
1b
00
f8
11
0f
07
f0
f5
06
09
f3
d7
0c
04
f3
ff
04
12
03
00
0f
12
01
1d
09
01
f8
fd
0a
f3
0c
ed
fc
15
f1
0f
10
04
ed
ed
fd
f5
f0
05
08
02
14
09
f5
01
fb
02
07
02
00
f5
0a
08
fb
f6
f8
05
2e
0a
00
08
10
fd
0a
28
fe
04
f6
f6
0a
0f
fa
fb
06
0a
15
17
f7
0b
04
f2
14
b7
ea
02
f5
09
0c
fb
08
ee
12
f3
fa
0a
10
f9
f8
0d
12
12
04
0a
00
e5
01
06
08
fd
09
f0
02
ef
fa
ff
fe
01
00
f5
e6
17
20
fc
01
fd
fd
ec
f2
07
00
fd
f4
f6
04
ee
0a
17
f8
0c
ef
fb
f8
f0
d9
f3
fe
f1
f8
fc
05
f3
15
0b
fe
0a
fa
fd
ec
fc
fe
ee
ee
f7
0f
fb
e5
0d
fe
ec
fc
01
e2
f6
14
07
f4
f8
f3
fc
df
eb
0b
f5
f4
e2
06
f8
ff
fb
16
1e
fe
2e
0c
10
f3
1c
fc
0f
01
0e
0b
17
e2
fd
0f
01
1a
f2
f8
01
06
f8
0c
fe
e7
ff
f6
07
e6
f8
ee
f6
0c
03
06
05
f0
f4
fb
07
0a
05
05
06
0d
fe
11
02
13
fc
f3
03
ea
1e
fc
0a
05
18
28
00
e8
f4
01
f0
00
0a
08
f1
fb
f6
ee
03
f8
f6
13
f2
07
05
f8
f8
23
06
12
ff
0b
0b
f9
fd
15
f4
0c
f3
fc
ff
11
1e
f8
ff
19
26
00
ff
0a
09
fc
18
fd
f6
01
0f
19
03
0f
09
f6
ec
03
f3
df
fd
13
01
08
10
f3
fc
de
eb
15
29
09
18
f9
ed
fe
fd
f4
19
f8
f1
e0
f5
e5
05
d9
f5
0f
22
04
1b
e4
11
e8
02
e1
00
30
f1
e6
32
f5
ed
fd
29
20
07
e7
19
05
1a
02
10
11
23
f0
1c
f9
1a
fe
14
04
0e
f8
e2
df
00
fc
e7
0a
e2
df
fc
fe
14
0b
e7
00
f0
0a
20
f8
f9
1a
fd
e3
fe
fc
f1
0c
f7
df
15
09
f9
e1
21
ff
03
f2
d5
c8
f1
13
1e
19
fd
fd
18
f3
1c
05
f4
fc
e8
0b
14
d6
0c
31
0a
10
d9
f5
0a
f5
13
06
0e
1d
03
ef
f6
03
0a
f6
f5
08
f4
fb
00
12
ed
00
fc
ff
f9
e4
fa
0e
fe
06
fc
17
10
07
16
2e
0d
fd
f6
0a
0a
19
05
08
ec
f4
0a
00
0b
17
f5
f0
f1
fd
08
00
f7
f5
f8
ff
ee
fb
fe
0d
0f
17
1e
08
ee
04
e0
e1
f4
fa
f9
03
f7
e9
fd
0a
f0
f1
f0
ef
10
d7
fd
01
2c
f9
09
fe
f6
05
11
f0
00
e3
fe
1e
13
0a
f5
eb
05
ff
12
0e
f3
fa
d7
0b
fc
04
f9
0d
05
fd
ff
ed
0d
fa
20
09
0d
f1
fd
21
ec
f5
f0
f7
fe
0e
20
03
0e
04
09
ec
ea
08
17
ff
ac
f9
02
07
f9
1e
f8
f0
ee
ef
07
42
22
f9
fa
22
ee
08
d7
07
04
fd
0e
03
05
06
01
ff
1a
01
0e
f7
11
06
1a
f0
05
10
15
02
fe
d8
e6
03
ee
24
08
0f
04
f2
f8
00
15
fc
f6
f9
e0
e5
fe
0b
f7
ee
f8
0f
f0
fe
f0
02
ec
fe
ea
e3
04
f4
13
0e
07
13
03
07
18
d9
dd
04
02
0a
f5
0d
03
0f
07
20
0f
f6
f0
f6
03
00
fe
0f
ff
0a
0a
fd
e6
00
f3
fe
ef
17
0c
f9
1b
fd
04
fc
00
fc
f3
05
02
f8
0d
fa
18
09
f1
f5
bb
01
04
f5
08
06
13
07
0f
ff
fa
39
fe
0a
17
f6
0a
f8
de
1a
07
ff
fe
fe
ef
05
ef
ec
fa
fe
f5
fc
0a
e9
ff
ff
eb
f2
06
18
fa
f2
1e
01
e5
09
03
e9
13
f3
f4
04
06
10
04
f1
ee
fa
0f
16
ef
0d
f3
fa
0c
f9
06
fb
08
0b
f8
f2
0e
04
fd
0c
ec
08
0e
00
e9
01
ff
fe
0c
f3
f8
ed
01
02
0a
f3
01
0b
f0
0f
ef
f7
f7
00
07
da
0a
ee
f9
f9
f9
07
fe
0a
f4
ed
ec
08
18
ff
fd
08
e5
02
f7
f7
0b
19
08
1d
f0
fd
02
d0
0b
07
07
0b
06
02
1d
fc
f5
30
10
09
00
f3
ef
08
3f
eb
0b
11
f6
00
0c
19
eb
1e
00
ec
f9
08
02
07
08
f8
0a
0b
14
09
fe
08
05
04
dd
05
09
da
fb
05
e8
ee
fa
13
01
06
14
f1
13
fa
0a
ed
e8
f3
fd
16
0c
f8
fa
00
e9
18
0e
f8
04
f3
08
02
fb
ed
06
0d
03
fb
f8
0f
ef
47
11
fc
e5
05
f3
e8
15
f6
07
f2
f5
fa
07
f9
fc
fa
04
0e
ea
13
fa
01
fa
14
1d
e8
ff
ee
00
f8
04
f9
fb
f4
07
f8
f5
fa
09
ec
3b
fd
0f
ff
02
1a
12
ec
0a
04
ed
d9
03
f9
07
f6
00
ed
50
f0
f2
01
02
09
05
03
0e
fa
05
05
f3
07
0b
fa
ff
04
f3
f6
05
0e
f7
0e
05
f7
f3
fa
ff
08
fd
f7
f9
f1
09
04
18
05
3d
ef
09
17
f6
03
f8
f6
f7
f5
fb
0d
e8
08
ee
e1
00
f3
e3
07
0c
13
13
ff
08
14
04
fe
08
f7
00
18
fe
fa
fe
0d
fe
f6
f7
fb
0d
09
0c
fb
1c
0a
fd
12
fe
04
f3
16
ea
fd
12
16
f5
01
0d
09
15
1a
ef
fd
01
ed
06
09
0b
ef
22
e9
d4
eb
18
f9
fa
12
12
fc
fd
00
0f
06
0b
fa
e8
0d
11
ea
fc
10
eb
e8
01
08
fb
0e
06
f9
fb
e8
f2
fb
0a
00
05
fe
e9
f9
08
ee
ee
fb
01
ef
04
ff
09
0c
19
f6
e5
11
fa
ff
13
0d
eb
1a
fc
eb
07
fb
06
ed
ed
f9
02
0c
02
eb
f8
20
04
04
fe
f3
f4
07
01
07
04
e4
13
1d
04
f4
0a
f5
0c
e4
f6
02
1a
fe
fb
00
01
fa
fb
06
07
f5
03
fb
06
f9
01
e3
01
0e
f8
02
f7
f5
01
01
0e
fd
fd
fe
07
fa
03
06
12
17
fb
0a
5b
f3
ef
f4
fd
fb
11
0a
02
f3
f0
e6
fa
00
07
0e
fe
03
ed
0b
05
05
fb
06
fc
0a
f1
fb
02
f9
01
05
03
f9
0c
06
0c
0c
09
0e
fa
f8
fb
12
00
02
f3
0a
08
ea
f3
04
03
fa
e3
03
23
18
02
05
fb
f6
fd
04
fa
fb
f7
f3
ef
07
05
0c
10
ed
fd
f1
f1
f6
f5
00
00
11
f4
f0
01
f3
f8
1e
f7
00
f3
fb
fc
02
07
f3
17
e9
fb
fb
fb
fe
ef
ee
21
f9
01
05
01
02
ed
10
f7
0b
fd
10
27
05
f7
05
ef
08
16
fa
f2
0e
f3
fc
c6
04
f2
fb
0e
f2
f6
01
fe
fe
08
40
07
08
0a
07
f7
f8
d2
04
d6
f0
f6
0b
09
15
07
14
ee
09
12
0b
03
0d
eb
05
0a
f1
07
14
f8
1f
13
06
14
fb
f8
fa
fd
09
04
e3
00
fd
16
0c
e6
e7
03
07
0a
08
0d
f3
f8
ec
05
01
f6
f5
e5
0c
08
fd
f8
0e
fe
fe
e8
0d
f8
0d
08
fb
10
1a
f6
fd
f8
fa
04
0b
fc
e5
f8
05
f6
20
ff
09
02
19
18
02
04
fd
0f
10
f8
0d
04
03
f5
fc
01
fb
08
f6
0c
12
08
e7
18
f7
00
f6
f1
02
bd
07
f7
e4
f2
e4
05
f6
fc
ee
ed
09
03
05
09
e8
0a
02
42
0a
f1
ff
fb
09
0c
19
fa
10
03
13
f7
fe
00
fb
fc
f4
f6
09
04
07
09
f1
f5
0a
fd
02
09
f4
0c
07
13
1b
eb
02
fc
0d
02
ce
f8
02
06
ff
04
18
fb
fb
00
05
07
e7
0b
01
0f
e6
f8
fb
fe
ec
08
02
02
eb
fe
04
fd
f9
fd
fd
0a
f5
05
04
f4
12
f3
fa
f8
ed
eb
ed
eb
07
04
0d
fb
23
f7
11
fc
ff
02
08
05
f6
27
fd
fd
0a
1c
f3
0d
1b
0c
f9
f2
09
05
f5
fa
10
f5
f3
0b
09
12
e5
06
f2
f6
29
f9
03
f3
0f
ff
fa
81
ef
f9
12
f2
0e
0a
16
f6
0c
fd
09
f9
07
ff
db
fb
fc
06
05
04
04
e5
06
ff
05
e0
fe
eb
0c
fd
19
08
12
04
fc
fc
13
0e
3c
0b
ef
04
01
fd
07
f2
f9
04
0e
f9
f1
fd
0b
11
f3
f9
04
0f
0a
08
ea
1c
18
04
fc
e6
fa
e2
fb
0c
fd
02
0a
f9
f7
fb
fa
03
0c
1e
f0
07
e6
fa
05
e7
0f
ef
14
08
ef
0a
02
0f
0b
0f
ed
ff
04
f8
f8
0f
f7
29
0c
f6
ff
f7
fc
b7
02
08
fd
ff
0e
ee
04
17
29
f6
1a
fe
03
02
07
11
02
f3
05
ff
00
cf
f1
fd
13
fb
f4
08
03
ef
17
fc
f3
09
f1
06
0f
01
0d
0c
02
01
0a
0a
ea
ef
f3
01
01
04
f6
12
fc
ff
eb
f6
e1
09
f9
ea
f8
15
07
1e
fe
03
f2
03
03
07
18
fa
ec
ef
15
e8
f6
fa
04
18
03
f4
11
13
f5
04
16
fd
f8
f2
11
00
0e
ee
0b
07
1d
09
fc
e2
0e
ee
0a
f4
16
07
f7
0b
f3
e1
02
f9
f8
14
17
ef
f4
0c
f0
fb
07
06
e9
f5
0c
04
ff
24
01
fc
e8
05
07
06
f8
0d
17
12
fc
05
f7
17
14
03
14
20
dc
ff
f1
fd
fb
fc
0e
f8
ec
fb
f0
fe
dc
f6
fa
da
f6
18
f7
0a
00
f8
fa
f3
04
e9
f2
16
eb
11
f4
06
0c
0d
12
1b
fe
05
10
f7
13
fc
ed
17
f6
fa
ff
f5
f2
ff
0d
e0
23
09
0a
f0
fe
f8
fd
04
f6
ef
1a
e3
fe
f6
09
0a
11
f6
05
1a
ed
0b
0a
03
15
00
00
ea
e2
0b
ee
0d
0a
ed
19
f5
0b
fc
fb
2c
01
ff
ff
0a
04
f9
1d
e0
ee
08
db
cf
f5
0a
35
19
31
c0
f3
fc
04
ff
1b
fa
f4
04
e0
19
f6
16
02
03
f9
07
06
23
e4
f0
fe
11
f9
06
fc
ec
f4
f8
06
e6
ec
0d
0e
16
17
06
1d
01
06
f7
e8
f8
f0
fa
fa
f2
f1
f2
07
07
e2
16
e2
f7
03
fc
00
fd
21
01
00
f4
04
e8
f8
f1
01
fb
09
0b
01
fc
f4
22
fd
03
e6
ed
fa
f0
12
06
f4
e9
09
ee
22
0b
0f
f8
06
e8
ff
1b
14
06
11
fa
1b
fb
12
f7
07
0b
03
e0
0e
12
06
f4
0b
00
04
f3
13
04
f4
00
f0
08
f0
00
02
0f
0f
07
1c
c7
0c
ff
12
16
fa
0a
04
04
0c
fa
33
fb
f5
ff
e1
0f
05
e7
04
11
ff
00
ff
fa
eb
04
07
0a
0b
f2
01
f7
17
07
00
0d
08
03
f1
fe
fd
d9
e0
10
01
02
fb
01
e9
f9
f5
15
10
0f
10
04
e7
f7
08
0a
fc
d9
f6
f4
11
1d
e1
13
09
0e
18
01
e2
ec
00
00
06
11
03
0a
fe
ff
f0
11
e7
ff
e6
ed
18
f0
0d
04
fb
f9
fd
06
0a
08
fa
ff
04
35
f5
f8
05
ef
1f
eb
f3
0f
f5
02
01
f2
0f
00
f3
e1
0a
f9
34
0a
02
f2
e9
e9
07
26
db
22
fd
ec
f8
26
f4
15
04
e4
16
01
0f
0d
f7
04
1b
b2
e7
06
fc
15
ee
18
05
0e
0f
0b
f9
f7
0a
fb
fe
03
fb
f7
13
fa
10
15
fa
0d
fc
07
f0
03
f0
ec
ee
eb
f3
0b
2f
03
06
01
06
f3
0e
0d
e6
08
f9
09
14
f9
e2
f2
13
07
3f
fa
f5
f7
fd
1b
f9
ef
02
e0
da
fe
02
13
00
09
df
12
f2
ed
0f
02
0b
09
05
de
17
02
f7
fc
28
ec
ff
f6
0e
01
2b
f8
fa
05
09
f3
ff
dc
18
f7
03
fb
f1
05
03
08
fd
07
0f
fe
03
ef
fb
07
fe
01
04
f2
1e
10
ed
f3
1f
f2
fe
f5
fa
04
fc
dd
0a
0f
0e
05
f8
09
e6
0b
f8
10
01
e5
ef
10
0b
02
1e
07
0f
06
05
08
02
05
fe
08
0b
fb
fa
03
0a
1e
ff
f0
fb
fc
ff
e2
07
f4
08
fb
f7
0d
0a
f2
f5
09
fc
00
fa
11
0a
02
e2
ef
ed
0b
01
17
0a
ee
e8
04
05
fc
0d
0e
07
f1
f1
fd
f8
ed
f9
f7
f1
ff
da
ef
02
de
fc
fe
e4
10
fe
f4
f5
06
13
f4
fb
08
09
0f
04
ef
f9
ee
ec
f4
fb
e5
00
1d
09
f3
0a
49
ea
fb
05
fb
f7
ea
f2
0a
0c
f2
eb
15
05
e2
21
08
e1
ec
21
ec
e6
06
f6
13
16
00
f3
30
20
e9
fc
05
fb
0b
c2
e9
ed
0c
0d
00
f4
eb
d1
07
13
10
ff
03
f0
0f
e3
f6
0f
19
fa
0b
16
0d
0c
24
25
e6
0c
0b
18
18
fa
2b
e7
19
05
05
e3
09
e3
f7
00
1c
11
ff
0b
ff
16
f0
0d
f1
00
10
fc
14
14
ec
0a
ee
0d
0c
ff
03
ff
0c
0f
f7
f4
04
f7
f2
12
00
fb
03
fe
06
0a
ea
0b
18
13
e6
0b
fa
02
1b
fa
f8
0b
0f
17
d8
ee
16
e6
00
04
0e
04
fb
11
02
18
04
ec
f9
0b
09
f9
db
13
fb
fe
0f
f5
12
fe
08
f2
ee
02
fc
ed
0f
0d
09
0f
fd
03
ff
0d
f0
06
f6
f9
06
15
ff
02
05
fc
00
02
09
fc
00
fd
f3
e8
07
01
0c
f3
15
fc
15
06
01
f2
0b
02
f8
05
e9
f1
f9
f5
00
fe
0d
0c
08
e8
09
02
07
f6
ee
f3
04
f5
ef
fb
0a
fe
f7
e8
09
df
fe
17
fc
0b
e4
fa
0e
e9
ed
fc
0d
13
06
10
fb
e2
01
12
fb
f6
ee
ec
ff
e5
f2
0b
0c
f1
06
fe
01
f1
0b
07
f3
0c
10
f8
e6
0a
f5
f0
f7
00
dc
0f
f8
fd
f4
2b
18
1a
0e
23
02
fe
03
f3
19
14
d9
fd
1c
1a
fe
fa
04
0c
16
fb
fe
f3
fe
dc
17
fe
2c
14
09
e1
ef
09
f3
18
0c
f3
f7
cd
f2
05
00
06
fc
09
06
0d
f0
fb
fc
0f
0b
15
fe
bd
1b
03
ea
03
25
15
da
d2
ee
0e
f6
0b
15
f0
26
ff
00
fa
e8
fc
d3
25
10
ff
06
ff
fb
0a
fe
12
fc
0f
08
05
0d
04
fe
00
f7
04
e9
f6
01
0f
fc
07
fa
08
f1
0a
06
fe
fb
07
b5
13
fd
0a
fb
17
ef
0c
04
f8
0a
41
ff
fb
f1
fb
02
01
e4
16
f5
ed
ec
0a
fd
09
12
1a
f5
f0
05
07
f3
fa
f6
0d
f9
0c
0a
f5
0c
f8
0a
fd
02
fc
fe
f9
13
ff
fd
0d
fb
19
fa
f6
db
ee
06
e3
06
fe
03
f4
e4
fc
ee
f1
f7
10
fa
14
10
09
ea
0b
ef
0b
09
e7
10
03
00
1d
03
01
17
f9
0e
fc
09
f9
06
01
ec
f9
ec
e7
ef
06
0a
fb
ee
f7
f4
1d
fc
2d
dd
0c
03
f5
0f
13
07
18
f8
02
f5
fd
12
fa
0b
0d
18
03
0a
fc
d0
f9
fe
03
07
16
03
f5
13
f5
01
05
16
0a
f9
fd
05
fd
ee
f8
12
0e
0b
f0
ef
f7
07
04
06
f7
f6
05
f9
ff
10
f7
ff
1c
fd
06
f0
fc
f9
f6
08
fd
0d
f1
ff
fe
05
e9
07
ff
ec
f7
f2
f6
00
f4
fb
00
f9
fd
fa
05
02
03
01
15
00
15
eb
ff
09
ef
ff
ef
01
0c
f6
06
0e
22
fe
1c
05
03
08
fb
f3
06
03
fd
f9
08
1a
ee
e9
fe
0d
fc
00
fe
fa
11
f0
15
ff
06
ef
07
07
00
fc
07
fb
04
f6
fe
fa
ed
e7
f8
fe
fe
0b
18
0e
07
fe
ed
15
f4
10
f9
1a
02
ff
f5
12
dd
0e
01
05
fe
26
df
08
11
1b
0b
fa
0c
eb
fa
f5
f0
f3
f9
03
eb
fa
1a
f2
0e
02
f2
fa
f3
13
f8
ee
f6
04
0a
fc
08
fb
fe
23
ee
07
f9
19
04
f8
12
25
ff
f8
ed
f2
f2
0e
00
ee
08
e9
ff
03
fe
01
0b
ee
08
f6
fc
f8
01
f0
f8
09
02
fe
0c
fe
0e
10
06
0b
12
f3
04
02
0f
f8
f2
02
f8
f5
f2
0a
fa
10
ff
0c
02
f3
fb
ed
08
ed
00
f0
07
f2
fa
fe
fa
f8
04
04
fa
05
0b
34
f5
fd
f2
fb
f4
f4
01
00
f7
fd
d5
10
ff
f1
f8
f7
07
5d
07
fc
f5
0b
03
fe
11
ff
0c
f7
02
0a
ff
ff
1e
0e
0b
f4
12
f8
f8
08
09
f3
01
0e
10
10
fc
03
f3
03
fe
f7
00
fd
08
12
fd
fb
fe
f5
ed
0e
0e
f5
ff
fe
fe
f8
fa
08
00
fa
e7
00
ff
f4
03
0b
f5
0d
03
05
1e
16
0b
12
1f
08
ed
ff
0a
00
08
04
f9
ff
14
ef
06
fb
1a
ff
05
13
03
18
27
0a
fe
0a
f1
0a
f4
fc
0f
f8
e9
e6
fa
e2
11
12
e0
19
ff
fd
fc
0e
fd
fb
09
05
f4
01
f8
15
11
0b
1b
f4
ef
15
ce
ec
05
d1
f5
07
f9
09
f7
e7
0d
0a
09
f1
16
03
05
fe
f9
f6
0c
fe
0f
f7
15
17
07
f7
14
fd
04
f6
f7
f9
08
0e
03
14
16
f2
d2
e5
f2
f1
f0
f9
0a
fb
01
fb
fd
f2
0a
fd
f5
fd
ec
fc
ea
0c
f9
16
f1
0f
03
f7
02
1b
0d
19
fe
f2
f2
17
e4
09
04
02
f2
19
ef
fa
f1
f3
f3
db
f0
fe
f0
f5
07
fe
0f
01
04
02
10
fa
ea
11
05
fd
0b
f7
0c
f3
f2
0c
f4
fa
18
f9
ff
e1
f6
02
f3
f8
0e
1e
f4
12
0f
0e
22
03
0f
fa
fd
f3
fb
dc
0c
f5
05
e1
0c
f7
23
08
09
f6
f8
f8
08
01
fb
f7
05
01
05
fc
1c
fb
08
0a
fc
fe
e5
04
0a
03
e9
07
f4
08
0a
00
ef
00
f6
03
06
f8
fd
f7
01
12
02
06
00
f5
ef
fe
12
01
ef
03
04
0c
fb
fa
03
0b
fa
13
f9
0b
fd
05
1a
03
03
e9
ff
f4
e2
05
05
fc
03
f3
06
f5
08
0f
e8
14
06
ff
27
ff
fb
f5
f0
f3
ef
07
03
00
09
f4
0b
0c
09
19
08
f6
ec
03
ff
e0
0d
00
fc
fe
01
0b
f4
fc
06
fb
18
ed
07
12
1b
fe
fe
06
13
fe
fb
18
e8
03
fa
fe
f4
f7
ff
fa
f9
fb
f4
ee
0e
ec
fd
f5
ec
0f
11
0a
01
0c
13
05
e1
08
06
fa
07
05
f1
09
0a
e3
d3
0a
04
11
09
fd
12
07
02
00
07
01
fd
08
e2
f9
03
fe
17
0b
14
fd
07
00
f1
1a
0a
fa
f9
0c
ff
f5
01
07
0c
f8
ea
f6
0a
fb
fd
f9
e6
f1
f7
fb
fd
fa
08
fc
fc
05
10
f4
f7
fe
08
fa
e8
f1
ff
0b
e2
06
f6
ea
fc
fa
f5
ef
f0
b8
fd
01
f5
01
01
fa
06
f9
0c
ec
28
13
fa
f0
ed
01
02
0a
16
00
fa
2a
06
1c
ff
f5
0a
01
06
0a
10
00
fb
18
ec
1c
fb
e8
f4
f6
05
0f
fc
01
0f
f9
01
fa
16
11
0c
d6
df
ed
ea
ee
17
11
11
01
13
20
0f
11
29
14
09
ff
df
fc
f4
19
01
06
fa
15
16
10
ef
02
ed
03
ff
f9
1c
f3
03
06
ee
0a
17
ff
fc
df
fb
2f
12
fa
0b
f8
15
0e
e9
15
0a
0e
22
da
17
1b
d8
d8
fc
fd
25
f9
21
ff
24
03
11
f6
07
e7
d7
f1
14
2c
00
e9
09
ff
03
e5
f1
f4
eb
f7
e3
09
f4
f0
1a
e6
f1
b8
03
0e
eb
15
fe
fc
1a
12
00
f5
fc
12
f3
f9
0a
d7
05
15
14
02
f0
04
01
f0
fb
0d
03
0e
08
14
f7
0a
27
ff
f8
ec
d9
07
18
c8
ff
f7
e5
16
23
02
e5
01
e5
0b
0d
0b
f0
34
08
05
dd
1c
00
e1
f4
ec
f8
1c
15
0d
e5
0b
ea
f2
fd
30
e6
05
1a
f7
0b
f1
fa
f4
ed
f2
11
fd
19
04
0d
ed
00
00
da
ee
12
14
ed
f7
07
f8
fb
0a
f8
08
1a
f4
f8
16
f7
03
ff
24
0b
0f
e0
19
ec
0e
0a
f2
18
02
fc
e8
05
f4
12
f0
00
d1
f1
06
05
f7
04
f1
f8
ff
f6
0e
f3
07
f5
dd
fb
13
14
f3
fc
e7
f7
f0
06
10
eb
06
06
ff
2e
01
e5
0c
0e
f1
f4
fb
18
fe
27
0d
fb
fe
0b
0d
ef
ee
fb
0b
ff
ed
1b
0c
24
da
0a
07
fa
eb
0d
07
fa
07
f9
04
03
f5
01
22
ec
14
0c
05
01
09
02
0c
ed
04
f5
ef
04
f6
0c
ec
fb
0a
ee
11
ed
14
04
06
11
f4
12
f9
18
f1
fd
f0
fd
fe
09
f9
06
df
04
ff
fb
f5
07
f2
0d
fe
de
fa
fb
08
f0
09
13
f3
f9
fb
f7
0c
ff
d6
17
05
fa
0c
f2
fe
ec
12
0b
03
0c
02
07
13
0c
fe
ed
f6
03
f1
08
1c
0c
e4
0e
0b
e8
0d
07
f0
1e
ff
e5
09
0a
07
0f
d9
08
00
f9
ff
0f
fc
fe
ed
0a
17
12
1c
db
0d
06
f4
0b
fd
13
0b
09
ff
05
fe
00
01
08
f8
13
f7
d6
e3
f5
ec
0f
0e
f8
ef
08
fa
ed
fa
fd
fd
e8
00
ef
02
08
f7
f6
00
ff
e9
fd
01
1d
f8
fa
0d
fd
fb
ef
ff
15
ec
04
02
02
0b
ff
4c
ff
f8
04
fb
fe
02
0a
0d
f9
ed
eb
11
00
f2
19
0d
fe
e0
14
07
00
12
05
09
01
fa
04
f6
fa
00
09
00
ed
02
09
02
f8
0d
f2
f1
fa
1c
03
0b
0e
f0
f8
06
fa
f5
f3
03
0c
05
ff
10
39
06
f4
13
f4
00
03
06
04
f3
f4
f2
fb
0c
0c
09
f1
f9
0b
f7
07
ff
fe
f7
13
ff
15
08
07
f7
0e
e7
f2
02
06
03
04
fa
01
08
fb
05
01
ee
fd
05
f2
09
ef
15
f4
09
1a
f3
f4
e7
f9
11
ff
f4
07
16
e5
05
21
0e
04
0a
fc
fb
06
30
ea
f0
03
f3
0a
07
fa
f5
e1
02
21
02
07
f5
24
fa
13
d7
e0
f3
00
0a
f7
0c
02
e3
f9
03
fe
04
04
15
09
0a
f7
ee
0d
04
f9
04
07
ed
00
f3
1c
00
e7
f5
0c
f9
06
0c
ea
03
1b
06
11
fd
09
14
ef
fc
14
ff
ff
08
f9
00
f2
ed
07
16
e8
00
09
ee
16
02
fa
17
f7
df
f0
08
0b
fa
04
1c
03
07
0b
f4
fc
fd
09
e9
ea
23
18
e6
28
f1
ef
e2
0f
e3
0a
f9
2a
f6
0c
f0
ef
f5
24
12
fb
13
ff
07
23
ed
f6
15
d5
f9
ea
12
16
1b
1d
e1
e4
1f
23
fe
e0
08
f6
e1
16
00
06
f3
fe
1d
1b
e3
02
fa
1a
13
ed
2b
05
0b
f9
01
04
1d
fd
17
fe
07
e1
03
14
ee
f8
18
fc
f5
0b
fc
e1
04
14
f2
fd
0c
15
04
ef
1e
fd
f0
0f
08
f4
ed
e2
f1
f4
04
00
18
fa
f8
02
e5
fc
e6
08
21
14
05
fd
ec
e1
1d
f3
0a
0b
fa
f8
09
ed
e8
18
e6
05
f3
fc
f7
ea
f3
09
f8
f3
01
ff
0f
0b
fd
f1
07
f5
f4
18
03
13
f1
f6
fd
07
06
16
03
f7
ee
f7
fb
0a
07
fa
59
f4
00
f9
f9
14
07
07
01
07
09
f8
0b
fa
f8
05
f0
fa
df
e0
ea
f7
09
04
f1
fd
e1
01
ec
f9
f1
fd
f3
ed
e9
0b
06
fc
fd
20
f5
0b
0a
0b
f6
f1
f5
11
0c
f8
ea
00
fa
f7
0a
0f
21
18
10
1f
02
f5
fb
0d
05
27
fe
f9
fa
09
0c
18
08
02
01
ef
04
00
04
fc
04
fe
ec
0a
01
0e
04
1f
07
fd
fb
fe
eb
f6
f7
ec
0f
01
f3
05
08
f5
f2
ef
fd
14
13
1e
04
f9
05
09
fd
fb
fc
0c
fd
0d
f7
ee
06
e2
0c
fb
ff
19
12
f1
e8
09
0c
f3
10
1c
09
0e
0c
fa
06
ea
0c
fe
f9
fe
f4
07
31
fd
fa
05
ed
f3
ff
fe
f7
f8
f3
04
15
07
06
f9
df
14
f9
09
01
0c
14
fc
08
00
05
fe
08
eb
fa
0d
fc
ef
fc
f7
17
0c
0d
f5
f6
fd
e9
fe
ed
f8
f8
11
e5
04
15
ef
fa
02
0b
08
02
fd
07
fb
fa
f4
04
12
03
e8
fe
fe
02
0c
ec
fc
e8
ee
06
11
27
f6
0c
e2
16
0d
06
cf
0d
f4
ef
f3
ff
f2
15
fb
01
09
fa
10
ff
f4
f0
06
1b
f1
fc
fa
03
01
f4
15
0c
12
ec
ea
f9
04
21
07
16
f3
0c
fc
fc
1b
14
07
05
0e
04
01
e7
06
f9
f4
04
fa
03
00
e6
fc
14
10
dd
03
0d
ea
12
f1
fa
02
03
f7
f9
f3
ff
f7
fb
da
15
01
14
f8
e1
ff
ef
10
02
ff
18
08
11
02
f8
08
00
05
fe
fa
f7
ee
ed
07
0a
06
12
f0
11
18
ff
12
1b
e6
22
03
fa
ee
02
fa
eb
06
fb
f1
e4
fb
f9
00
fd
1f
ec
19
0d
10
15
f5
02
05
02
f9
f4
fb
fb
f1
fb
02
06
fe
e7
0a
00
0b
0e
10
f4
f2
15
02
01
e2
f4
01
f3
e5
09
f1
11
ef
1f
f3
0c
f4
f9
ff
14
ec
12
f4
f0
02
1a
07
ee
02
f6
15
f6
13
f5
05
1e
06
05
fc
f7
0e
f5
05
0b
f4
f6
03
ea
f9
ff
f3
fa
0e
01
fe
f1
e6
f5
0d
f8
1a
ef
0d
ec
ec
f9
fb
01
0c
04
03
06
03
f8
ea
e5
26
01
fd
1f
f6
17
06
0b
f3
f8
0d
04
04
13
13
fd
fc
f9
f9
15
e4
16
19
f0
20
f8
fb
04
04
0d
fe
fb
f5
fa
f3
07
00
0e
f6
0b
e8
eb
15
ff
e8
14
13
f7
00
00
06
0e
fc
01
0a
03
fb
fa
fa
36
08
fb
ff
15
ea
1d
18
fb
01
ff
eb
ec
0f
04
0b
17
f6
d8
fe
1e
12
08
01
f1
f0
f7
f1
01
e7
0c
01
00
0e
fe
05
0a
f7
f9
14
0a
07
f4
03
e0
f9
08
14
1b
ee
f1
18
00
fe
00
fd
12
0e
f5
f4
ef
f8
f5
f4
ed
fa
0d
f1
00
f9
02
13
f0
01
0b
fd
fa
13
0c
0e
15
0e
01
06
fd
f7
0b
eb
e8
ea
e8
08
f6
f2
f7
fc
00
f2
00
08
01
07
05
05
f7
fd
1a
fa
fd
fc
fa
db
fa
0c
13
11
0a
fc
05
f4
02
01
11
0e
f6
f7
f7
01
2c
fd
ef
fa
fe
e8
ed
0c
f8
f4
00
c3
04
f7
f3
05
00
fe
25
fb
11
f1
14
fd
ff
fd
10
f4
fd
13
f4
fc
12
11
0a
f9
f2
08
0d
d9
fe
09
03
fa
0e
fc
1a
05
f4
05
fe
fc
ed
03
f4
fc
1e
18
ef
12
07
00
fd
f4
0d
f5
04
f9
fd
fd
00
eb
fc
fe
f3
08
08
05
11
fe
1d
04
0a
e9
16
f7
0b
06
fe
00
02
fe
01
00
ff
0e
fb
fb
f0
f7
ee
0a
f4
f3
f2
19
fe
ff
f1
0d
ea
f1
f5
fb
00
0f
15
15
fa
e6
02
10
18
fa
0d
0f
0b
f1
ed
f2
f0
04
14
07
15
f2
05
f8
09
16
0d
fd
e8
19
fc
fc
da
00
fb
00
01
17
fe
0e
08
f3
04
06
19
05
10
f6
fd
0d
fe
10
06
fd
e9
e0
f9
eb
0a
15
e1
09
f7
18
10
08
05
fb
ef
0b
d8
21
f6
15
09
0c
f4
f0
f3
ff
05
fb
06
01
fe
04
14
08
04
09
f6
06
e5
09
f9
f9
0e
ee
ed
f9
09
df
0c
16
fb
fd
12
05
fd
eb
f7
fe
03
ea
fa
fd
04
f4
f6
f1
f6
e9
02
0d
ef
01
01
ff
09
f3
00
07
01
05
fb
f9
08
00
09
04
fb
02
2d
f9
04
fd
01
f6
0e
f2
07
02
04
e3
0c
0d
09
f8
07
f5
26
fb
02
01
0e
13
f7
0a
f0
f9
f8
f5
0a
05
0e
fc
10
f5
ee
05
04
ff
06
fc
f7
07
f0
0d
04
16
09
f4
03
03
0b
05
f6
f7
1c
16
0d
0e
fa
f9
f1
fd
f4
fa
13
fd
fb
fa
fa
de
fc
0f
00
ff
fb
f8
f3
00
fe
00
f5
03
03
05
f1
0f
01
08
0a
03
fd
f8
e1
09
de
fe
0a
12
e5
fc
03
08
01
07
f7
fd
16
fd
17
09
f6
07
fd
f7
fb
05
0a
04
ee
23
f1
fa
04
eb
f3
00
3a
fd
0b
fb
f0
f8
f5
04
f1
f7
fc
d5
f4
03
f7
fd
ff
05
16
04
04
fa
0c
07
10
ee
0a
0f
02
f6
02
09
07
04
26
ec
f8
00
17
e1
0a
f6
fb
f5
01
13
f5
19
f3
02
f9
fc
fd
00
03
02
14
14
0a
12
11
fc
eb
ee
05
15
02
f8
1e
08
fb
fd
f6
fa
e1
09
04
fe
fe
ed
07
ff
ed
0c
04
0c
f6
fa
21
1d
ff
f1
00
0a
f7
f8
f0
f4
ec
0e
04
06
02
ff
00
ea
0f
07
02
06
06
eb
0c
f6
00
1a
09
f9
ef
f8
fd
0b
fa
0e
06
f0
f7
f4
ed
ff
12
0a
f6
0c
fc
05
09
16
14
18
0f
f7
f8
12
03
0f
df
11
00
0b
17
f1
e9
13
e7
ea
f4
07
05
12
01
ec
01
01
0b
f7
fa
0e
0b
00
07
06
f4
1b
fd
00
01
03
07
fa
fd
ff
fd
dc
dc
f4
ef
de
f3
00
fa
02
fe
21
16
09
08
f6
03
fc
0c
f4
f8
ff
0a
03
11
02
0c
f1
12
01
fe
f7
f8
e8
f3
f5
02
f9
0f
09
25
04
f1
e8
f5
fb
08
f9
f8
02
0d
f0
e2
f3
1b
0a
01
04
01
f7
02
0f
16
fb
18
ed
fc
20
05
f7
ea
f6
f8
03
21
02
05
01
0b
f1
10
ff
14
fb
03
dd
fb
10
f0
0a
fe
e8
fe
0f
f0
e4
03
fe
04
00
0b
f1
12
0a
0a
00
13
f5
08
04
fb
fe
fa
14
fd
fa
01
f5
12
f7
08
05
fc
03
1e
f3
01
03
f6
01
f6
1e
fb
ff
09
f7
09
0c
07
fe
f7
f9
10
f3
fa
f2
fc
01
f8
f4
0b
0a
00
00
fb
ff
04
fa
f3
fb
fc
02
f9
fa
12
f9
05
12
21
12
09
03
f3
06
0b
08
00
05
fe
06
f3
26
fb
f8
f3
f8
fe
fe
ed
01
03
0a
01
ff
0c
08
05
0b
02
1b
fd
ff
d3
00
01
02
0c
14
f7
fc
12
f0
fc
24
02
0b
f2
ff
ff
02
f9
f9
14
06
f1
ef
fe
f6
0e
0d
07
f2
07
05
02
fe
05
17
05
07
ff
fa
ee
f2
f3
18
03
f1
05
d6
02
fd
15
f5
f8
fe
f8
05
ea
0b
fa
11
24
05
f7
f4
fa
02
f2
f5
fd
fa
f6
08
08
04
01
fe
05
f4
06
fb
10
11
f2
f9
0d
0e
17
02
fa
0f
00
00
01
ff
13
16
0d
fa
16
f5
03
ff
26
12
0e
fc
f0
ea
fe
07
ee
0b
07
fe
08
f9
ff
15
0c
17
06
f2
e8
02
fb
ff
f6
f8
12
18
03
01
f3
f3
0b
2c
e4
0e
0f
1b
11
0e
df
17
f4
fe
f9
02
f9
fd
18
1e
00
fa
15
04
f2
fb
ef
f9
f5
06
fc
f5
12
02
0f
09
f7
e8
e4
ec
cc
1b
fd
0e
0e
03
ff
22
f9
f4
f5
02
fe
e3
0d
1c
ef
fd
f0
00
fc
03
0d
e3
05
f6
08
15
0c
11
fa
03
ef
1a
fb
ee
fc
04
ee
fc
05
17
ef
ff
ec
0b
02
06
fe
ec
ed
e6
02
01
f3
1e
07
0e
01
f8
09
07
0a
00
05
fd
03
1e
10
07
ec
f5
02
04
09
00
02
dd
f2
0f
01
06
fe
ef
fd
02
0e
ff
0c
de
f1
1d
f9
08
0a
13
08
f7
05
ee
01
05
f3
18
03
06
f0
f9
f6
e3
f1
e5
ed
ea
04
f1
f9
ff
e0
06
00
01
10
06
1b
f9
f2
00
0d
08
ef
07
19
ff
e3
05
fb
f8
12
ec
f9
ed
ff
07
fe
fa
03
ee
f8
fe
0c
03
fe
fe
10
0e
fa
01
11
00
fb
04
22
f2
15
f4
eb
0a
f3
17
22
f0
08
fd
0e
03
f0
1d
e3
fc
eb
fc
0d
f2
28
dc
08
13
0b
0b
f9
df
00
0b
0c
fb
f9
de
08
fe
01
1a
eb
fd
07
e9
f6
21
f1
08
f5
ff
03
ff
f6
02
03
07
f4
f7
f6
08
1d
fc
29
0d
fe
fe
06
f4
1b
08
f8
f7
fe
11
fd
f1
e3
ea
20
07
f3
fe
ed
11
06
01
23
fc
fd
f5
e7
e0
ed
01
04
ff
ea
04
0f
fb
04
0c
0b
ee
e3
f1
e3
f0
e3
23
fd
06
fe
f2
18
03
f1
13
ec
f5
08
09
e0
f6
01
fb
eb
f4
01
fa
0f
dd
02
3b
f9
00
20
0f
09
0a
ec
ff
12
04
29
0a
06
fa
04
05
f2
0e
04
17
ec
0a
07
01
f0
fa
2b
f4
fe
0d
f4
12
f4
0e
06
ed
fd
0a
11
09
fc
fb
11
03
e5
07
17
ea
ed
ff
fe
fb
03
e8
04
0d
04
fd
06
fd
e9
f7
e3
03
00
fc
f0
f2
16
f9
07
11
08
09
06
0c
f7
03
f5
ee
f2
03
04
d2
05
02
1c
01
27
04
0d
13
de
f7
05
e3
05
0b
f9
ff
05
16
ea
f0
03
03
01
fc
19
f3
dc
f6
07
fb
f9
06
ee
1a
06
0b
11
e5
ef
e0
f3
ee
06
18
0d
0d
fa
f1
fa
fa
0f
ea
13
11
fe
14
f7
f7
ec
ee
f5
fd
05
fc
f9
03
02
22
07
06
fa
e9
11
fc
f8
f8
f7
fb
fd
f2
01
f9
1e
0a
08
11
00
09
c8
f8
0b
f4
ff
08
02
f7
18
fb
01
38
05
04
05
f0
07
04
d1
f3
0a
f8
f0
f8
00
11
eb
fd
12
03
05
07
07
e8
fe
fd
f5
0a
08
0e
f7
f4
09
fc
f8
f8
03
e3
fa
0c
f7
f6
18
0b
fd
05
f3
fa
14
0b
0a
f5
f3
fa
05
fa
fe
ec
fd
f2
ea
04
0d
f0
f9
02
0a
f4
0b
f7
f8
0b
f0
f5
0b
ff
fc
00
0e
0d
06
fc
ff
f1
0c
0a
0a
0f
08
0a
f7
36
05
17
23
e1
ef
07
f3
fe
0c
ed
f9
04
e8
0b
0a
f1
fe
03
f3
0f
0c
0a
eb
e6
ed
00
e7
18
0f
09
f1
e9
ed
0d
00
06
f0
12
f3
01
0d
fa
fd
f2
ec
0c
21
df
18
f6
1a
fa
0c
0e
f9
09
08
f3
fb
10
eb
00
0e
f8
fc
f9
0f
f8
02
0c
16
fb
12
04
ed
0b
fd
fe
ea
f8
ff
11
e2
ef
f7
fb
09
f6
0a
fe
19
05
0f
ec
00
f9
fb
01
01
04
f3
fa
13
f3
07
00
e5
ec
fd
0c
06
04
01
d7
05
06
07
f8
fb
05
0f
f4
0c
f0
25
f7
ff
04
07
04
14
0b
02
e1
fb
05
03
02
01
f9
fe
00
0a
fb
08
f5
fc
1a
0b
05
12
15
fb
ff
e9
fe
f3
15
f4
09
05
07
f8
fd
ff
46
01
08
10
10
0b
08
b5
0a
f6
f9
fc
01
0c
fc
08
03
fc
fe
fc
fc
04
f4
ff
f9
fb
fe
14
08
f6
f7
fd
03
fa
fd
05
05
03
f6
fa
f4
ec
0a
fc
fb
f3
0b
0e
02
f2
01
f4
ee
02
f9
f7
e9
09
fc
f7
1b
04
fe
f8
fc
02
12
06
13
fe
fa
ee
00
f0
fa
03
01
ee
ff
ef
0a
ff
12
f4
fa
12
fd
fc
e4
04
e4
06
f0
0f
0d
08
08
f4
fa
fb
17
ec
15
0a
19
04
fe
d0
20
f1
fa
18
e9
01
e9
16
19
e8
fb
10
f3
07
e6
25
e8
10
fe
fd
11
ee
0d
f5
08
f1
f5
f9
1b
f0
19
ff
d6
e9
05
11
2d
fa
d5
07
0f
f9
13
fc
0c
e8
f0
eb
09
12
2e
23
0a
f1
ee
08
fc
0c
ec
01
f9
1e
ff
e6
ff
10
fc
fd
bf
e9
0f
0f
f7
0f
fa
0f
19
08
15
00
08
fa
02
ee
13
0c
fd
d3
02
fc
fd
23
10
07
16
10
e7
f6
f3
ef
ff
ef
f6
ea
ef
0b
1f
05
f1
f4
01
12
04
02
ed
de
f8
fa
09
f3
f4
02
ed
fa
f3
ff
f0
04
13
00
fc
06
04
0c
fd
ec
ea
ce
f8
eb
02
07
0c
fe
0c
02
fb
11
1a
fd
07
21
f4
12
f8
36
10
f3
dc
e9
ff
01
12
0f
1b
dc
10
05
08
08
f1
08
07
f7
fe
05
e6
f6
f2
03
0f
de
f6
f2
e4
0d
f8
f2
01
de
16
0f
0e
12
f9
13
09
08
fe
00
03
e4
e6
09
ff
fb
f2
19
09
13
1f
02
ec
f9
f1
0d
0c
04
f7
07
ce
09
00
f9
f1
fc
17
0c
0e
e7
1e
0d
06
ec
07
fc
11
09
1e
fa
07
06
0a
f8
14
10
04
ea
ff
f5
fe
ef
22
05
05
ef
eb
0e
0a
03
f2
16
03
f5
fe
ba
ef
f3
05
f0
e8
f2
ff
f1
06
fb
26
0b
ff
06
fe
01
10
f5
0e
11
05
02
14
fc
02
fc
07
fe
f2
f8
0d
fe
02
02
03
05
0c
e9
e9
fb
fd
f4
02
04
11
0a
ec
08
f0
0f
0b
05
12
ee
e7
ec
d4
0a
ff
08
05
ee
fd
f3
17
0a
00
fb
0c
03
ff
13
07
12
ec
f4
08
04
f8
fd
f6
10
09
e1
11
0b
f5
00
e9
02
00
05
09
e8
ff
ff
ef
ea
02
ff
f5
14
0b
fd
fd
fc
fd
15
ec
f8
f8
0f
0d
1d
fb
0e
1a
f7
f3
f7
23
ff
03
f9
12
fc
de
29
ec
f4
05
21
16
13
0b
00
06
00
06
16
fc
0a
f1
ed
ee
e6
ec
12
02
0f
ed
ed
01
08
0f
f6
e9
04
0d
02
f3
f5
19
05
f2
05
ec
ec
10
17
17
03
fc
f7
f4
f7
f5
fe
f3
00
fc
fd
0a
04
09
f7
fa
fc
fe
fb
fa
19
18
09
05
01
2a
05
0a
0c
0b
1a
fd
f6
0c
fd
fe
0d
f2
fe
05
08
00
fb
e7
10
12
f7
e7
03
dc
1e
ea
0e
ef
12
09
0a
00
08
0e
0b
03
fa
01
0d
02
ff
09
1b
e6
fc
05
07
05
f7
f8
f2
fb
06
0c
0c
fd
f9
00
f0
03
12
fc
04
10
fa
f0
07
16
01
0d
f7
01
11
f2
0e
03
1f
fc
00
fe
f8
f4
f5
fb
f9
db
0a
ee
f3
fa
07
00
fe
0a
f3
fc
08
f7
05
fa
fb
e7
10
fe
2c
fb
fd
f2
fe
f4
04
08
27
17
ea
d3
12
f1
eb
05
ff
ec
f7
05
00
f3
13
0f
f9
09
f8
ff
00
02
f1
f1
12
13
01
ed
fe
f5
10
ee
12
e1
f8
f2
ef
f8
06
03
e6
fe
02
0e
10
03
f2
1a
0a
ee
00
07
f9
0e
11
20
f0
06
05
e8
0d
f5
1e
04
10
12
0e
e4
14
f9
0c
ec
ff
f6
da
15
10
05
ff
fb
00
0b
fc
dc
f0
06
0d
18
04
03
07
ea
1e
fd
fc
09
fb
fb
23
fc
25
0f
04
f6
08
1c
0e
0d
f3
00
06
e8
03
f2
f4
01
f6
26
db
f8
11
02
f3
f6
11
03
17
e8
ec
f2
f6
e5
fc
1b
18
e3
e6
f0
17
f2
fc
fc
f9
04
e5
fd
f5
f7
ef
f4
08
17
07
07
fd
f0
f8
02
09
00
fc
0b
f5
f8
03
f7
ff
04
f9
ff
0b
fa
ff
ed
0f
e5
fc
ec
e5
f9
0b
27
0e
19
0e
0b
ee
f0
e6
fb
01
e9
ef
f5
0b
21
f1
fd
fb
e5
f7
16
06
f8
04
ff
de
02
0e
e3
05
fb
0f
16
e9
0b
16
06
e4
f4
df
15
07
ec
f9
f9
1f
10
13
0a
ea
06
11
06
fb
f7
0b
05
01
f7
11
fb
f6
1d
0a
e3
00
10
16
f4
f1
19
f2
ed
14
0b
fd
e7
01
02
f9
09
12
0c
1d
e4
f8
1f
f7
f3
f4
ec
07
fe
15
0b
18
f2
12
02
fc
0b
ff
e0
0c
f6
08
f9
09
cd
07
11
e8
17
ec
13
e2
02
08
f3
07
02
02
fb
f5
f9
ee
f6
14
f7
04
15
1b
0d
fe
1a
06
f4
fe
09
ff
01
fd
ee
fc
08
ff
0b
07
05
a4
17
fb
fc
ff
1d
f5
0f
08
f6
0c
29
14
f8
fe
0b
07
fa
11
18
ff
fc
10
f4
01
e2
f3
f5
e8
fc
11
f5
f9
10
f7
f0
14
fe
13
16
06
fa
11
05
0c
f4
fa
e5
03
fe
ff
f9
03
f2
04
f4
d7
d5
f2
14
ef
05
03
05
17
f7
09
fe
00
f3
02
f0
0b
fc
fc
11
f3
06
02
0c
0c
e9
09
0d
0b
ff
f8
08
fd
fc
10
0d
f5
01
03
07
03
00
ee
f8
f0
0c
09
f7
00
ea
f8
05
0a
02
fc
f2
fd
0c
f5
0c
fd
03
f1
f0
0d
04
05
18
fd
0c
11
0a
1a
08
0a
04
fe
07
0d
08
fb
02
12
f2
ec
fd
ff
03
00
00
cf
19
03
ed
0b
dc
f0
de
f9
f6
0e
fb
0c
0c
f2
fb
0a
08
f8
15
07
eb
02
fd
00
02
12
f1
fc
f0
1a
08
1c
04
01
12
f7
00
c7
12
f8
09
0f
ff
eb
fa
0d
f7
f9
eb
08
fd
1b
05
f7
f4
fe
07
04
f6
08
ff
fa
fc
1a
e7
0a
f6
05
d8
e3
de
23
f8
fc
18
fc
11
0a
ec
01
11
f6
23
e7
11
ec
06
04
12
14
ec
f6
08
04
f9
01
f7
f5
0a
0f
0e
00
ef
e6
f6
05
f3
12
f0
d2
10
09
f5
18
01
fd
10
fc
ed
08
1d
01
fa
ea
1e
fd
00
b5
fe
d9
06
e3
0c
f6
f1
0f
05
f6
0c
09
0d
09
10
ec
02
11
f0
fc
06
00
02
06
07
f4
05
f5
18
eb
fd
f2
0f
06
f2
19
0c
00
02
fd
04
13
05
07
0a
f5
e8
fb
07
fc
e3
02
20
f0
03
04
0b
ee
00
1a
0b
14
01
04
ea
09
f3
f9
e2
f2
f5
01
0a
05
ee
e7
fb
f7
f7
0a
08
f3
10
f7
06
f8
0e
fc
e7
f9
ff
fc
0d
04
ef
05
06
f3
f3
fd
fe
04
22
fa
f2
0d
f9
f7
02
42
fe
03
08
f8
f1
f5
15
f9
fd
fd
ea
f4
07
11
f5
00
07
0f
00
f0
fa
00
0b
fa
03
f7
fe
fe
fc
06
06
f6
f8
ef
01
12
fb
04
fe
f3
00
0d
0d
01
ff
02
fa
00
f1
fa
04
fb
fc
fe
fc
15
12
06
05
0a
00
07
0b
0d
fa
fc
f8
e0
f3
f8
f8
22
04
09
f9
fe
08
17
f4
13
02
f9
01
00
fc
f9
13
f6
fc
15
00
fd
01
fd
f9
16
12
f8
07
e8
f0
f3
fc
13
fd
fb
ee
06
1a
05
fc
08
f2
02
ff
0d
00
02
04
ef
fe
fe
f6
ff
00
f6
06
2d
f5
f0
ef
fa
ff
fa
fe
12
06
f2
f8
00
f6
e1
2a
16
0b
d7
19
0e
f7
03
08
f6
1c
fc
ff
eb
fb
07
fb
ff
f6
10
ec
0c
f6
ff
f3
05
f5
f2
fd
f8
fe
09
0e
ef
ec
fb
09
0e
fc
07
01
fe
1e
12
ea
fd
f1
10
fe
da
f6
23
f4
f5
0c
fd
1b
0a
04
e7
f6
e2
fd
ec
ec
f8
13
f6
0b
0f
1e
05
1a
0c
00
10
06
0f
fb
19
00
ea
f6
05
ff
f2
06
0b
f3
f3
17
f1
03
e3
0a
f2
1a
0b
fc
14
16
02
09
17
12
0d
18
05
f7
09
e4
e7
ec
d9
1a
fc
f9
18
00
f7
f7
fd
fe
01
0a
ff
0f
fa
00
10
ea
bd
f5
0a
21
fe
11
14
f7
05
df
10
fe
f8
fa
0e
f2
ff
f8
f2
f5
e4
0b
f9
fc
05
f2
f4
05
e9
05
18
f9
03
0c
04
05
07
0c
fa
23
fb
fb
fa
08
01
0f
f4
ff
0c
24
13
06
0b
ee
fa
12
02
f2
0d
0b
fa
13
fc
e5
06
fe
f5
fb
f1
dc
10
0b
03
fb
fe
ff
ee
0e
12
00
f3
f7
f7
0e
ff
0c
f8
fa
08
06
eb
f6
0a
f4
00
ff
fd
0a
09
fa
fb
fd
f2
04
09
f1
fb
10
00
14
f9
00
06
fb
ec
0a
17
0c
02
e0
ff
12
06
f6
10
ef
03
ff
cf
f1
f0
ee
f7
01
ea
fc
06
0f
0d
e8
f0
f3
01
08
fb
0e
13
0f
f6
01
07
fe
13
fb
11
0e
e8
00
f3
f7
08
12
12
09
12
f5
ee
03
fe
0e
03
f9
06
09
f4
f7
06
0b
05
1b
e8
fa
0a
12
0e
08
f4
f6
07
0d
fc
f8
01
fc
fd
f4
02
00
18
11
fa
01
fb
f6
eb
0c
06
fd
05
0a
fa
f1
ee
04
00
03
04
e1
db
f4
fe
00
f3
fa
fd
1c
fe
fd
0d
fc
08
18
1b
01
06
fd
01
0d
29
0d
fd
ff
02
00
0d
0c
01
ff
fd
fa
ff
11
fe
e7
03
05
f7
ee
31
14
07
ee
f7
f9
d8
f6
0f
fa
0e
03
08
0c
05
ee
08
00
fd
fd
08
01
0b
ff
17
09
fb
15
fe
fc
03
0e
04
0e
05
06
0d
09
fe
e3
eb
fa
e8
ff
15
04
0e
f8
0d
fe
0b
f7
fa
0b
10
f6
fd
eb
fc
0b
f8
0c
e6
f1
0b
f3
f6
f8
fc
ef
15
07
05
17
fc
f9
08
f6
25
12
13
02
0b
04
05
e4
fe
d2
fa
0e
00
07
ec
01
06
10
00
08
17
fd
f7
09
36
f0
f8
e2
f9
0b
17
01
f5
13
f1
f1
0b
0a
f6
09
06
05
02
13
19
fe
00
fc
06
00
f5
e9
f0
06
04
0d
10
fc
0a
fc
08
f6
fc
07
01
f4
fe
04
08
0f
01
03
08
e4
11
0a
e7
10
18
02
18
14
1b
fd
f2
02
05
05
ff
f5
09
f4
fc
03
ff
ea
07
f6
00
ec
0d
03
08
f9
06
0b
e9
11
f7
10
fe
f6
c9
ff
fc
02
fe
f9
06
e8
09
fa
03
1d
e4
f5
f7
ed
f6
ef
f7
f0
11
00
eb
04
11
33
f1
f9
fb
0b
f8
0a
f9
09
04
f4
f8
ec
0f
fb
03
10
f5
1c
06
01
e8
fc
f1
fb
fa
0c
01
f0
02
27
fd
0d
09
07
f9
ff
08
05
04
1c
0d
fe
01
f3
14
02
2b
14
fb
06
e6
f1
07
07
09
f0
f7
f3
f7
0d
f5
0f
03
04
0b
0c
f8
f9
05
fc
fc
fa
fc
04
f9
fc
f8
fa
0b
fd
fe
fd
05
fe
f2
ff
fb
f4
ff
f1
fe
24
09
fb
e4
11
00
fb
13
11
07
da
07
02
f3
01
07
fd
fc
19
f4
07
fe
e5
fd
fc
f1
f7
fe
fa
00
01
06
02
fd
fd
ee
e9
0f
14
ed
10
19
04
14
f1
f2
e6
0a
16
07
16
06
00
f0
ef
01
ec
2e
ef
fd
11
eb
fe
f5
04
0c
06
ed
e1
df
1b
f7
f0
fe
df
f4
0a
f4
16
05
05
e9
11
f0
01
ef
04
10
04
0e
10
09
e8
ee
f7
e3
f2
14
27
09
fd
0e
00
0f
08
01
fb
12
12
f9
00
13
f3
f8
13
09
f1
02
03
f4
0a
08
fe
ed
fe
03
10
fc
f9
f5
21
f0
0b
0b
f9
12
01
09
18
00
10
f3
fe
f8
02
ec
05
02
f9
ec
fd
f8
ec
fe
f6
02
f2
fd
17
f8
0c
1a
f2
08
d8
04
09
e3
f5
f6
e8
00
01
f2
fe
0b
f3
fe
09
21
f4
fb
f1
f4
14
1e
fa
01
01
07
05
08
f5
00
fb
06
fc
10
06
1a
15
00
fd
fb
f5
04
f7
0d
06
fd
0d
f9
fd
fc
f8
fd
06
00
fb
0e
12
ff
05
08
ea
03
fe
fc
ee
04
0b
f4
07
f3
17
f8
03
1e
ed
f3
0e
ff
16
f4
f9
14
04
f2
09
06
fc
0b
fe
10
fe
00
fe
0a
05
f8
f9
fa
fc
e6
11
e9
07
04
ee
07
03
ee
f2
ff
f9
02
07
f1
f5
0d
0c
01
e6
f5
f9
07
09
0d
f2
07
dc
fa
e5
20
11
f8
0f
06
f1
fd
f1
0a
fa
01
06
16
e1
e5
14
fe
04
ff
1c
03
0b
f3
24
f5
13
f8
f7
e6
fe
fa
ee
0f
eb
e1
ea
f0
ea
0b
fd
f2
11
0f
fd
fe
f4
fb
0b
e5
f2
01
02
11
08
05
00
0e
f5
11
09
3b
02
f3
1f
18
fc
03
08
fa
e1
1e
f3
00
f4
fa
e5
f3
ef
f4
0d
16
f6
f0
11
19
0d
f2
f6
17
fc
f9
09
05
02
f1
f3
02
f5
fe
14
f5
fd
0e
11
00
f6
10
2d
f0
f5
0d
cd
07
0f
21
11
fe
02
d8
06
13
fb
f9
ff
10
ec
fc
ff
21
03
0e
ea
01
03
e5
ed
ea
0f
03
0e
f9
19
04
06
10
ee
fa
0e
02
02
0e
04
f5
0b
ee
0a
01
00
0d
10
e8
f0
09
0c
ef
1c
fd
fb
11
0e
fd
f9
0a
fb
fe
ef
eb
e9
fa
17
f2
f5
01
e8
f7
ee
fe
07
0c
fc
f2
f6
fc
ec
fe
02
00
fd
fc
01
04
02
1a
e9
ec
eb
07
12
1f
14
02
fd
fb
0e
04
f4
f1
0a
f5
0c
02
f3
e7
12
0d
fb
13
f4
f8
f2
11
1d
0a
ff
04
ec
01
fc
11
fe
10
07
fc
1a
0e
0d
f0
06
f3
18
fb
f5
01
02
f5
ee
ec
08
f0
d6
f3
f4
03
ea
06
0c
04
08
fd
f9
01
fb
06
f4
f2
02
ea
fa
20
12
04
f5
02
04
0e
f4
fb
14
02
0b
f9
08
fe
03
e2
f5
12
fc
fa
14
0b
01
f2
04
19
fa
1b
04
02
f8
fc
f1
f0
0c
f9
e8
f0
ef
09
ea
00
14
0c
24
fd
03
02
0a
12
04
f4
0c
00
ec
f2
05
fc
08
15
08
fa
ff
fd
fb
09
ee
f1
f9
07
0c
0d
fe
fa
0f
ec
10
f9
03
ec
0d
0a
f1
f7
09
ff
df
f8
14
04
12
ee
19
0a
f6
05
0a
0c
f6
fe
fe
01
fe
06
ef
f6
02
f5
03
f1
00
fc
06
03
fa
03
0d
00
f6
05
fa
08
ef
09
0b
0d
03
f1
0c
f8
02
0b
04
04
fd
02
fb
1b
f9
0f
f5
09
f1
0a
f6
19
07
08
04
f7
ff
ea
ee
11
f9
15
02
08
05
fd
f9
f9
05
08
fc
01
f2
04
07
05
08
10
04
fc
f9
04
1a
08
0c
02
02
f9
f4
f3
06
f6
fc
ea
f8
fe
f1
0f
fd
f5
08
f4
e9
fc
08
0a
f4
f0
ff
06
fc
14
00
06
fc
0e
f1
f9
1e
0b
01
0a
fe
09
10
e9
06
05
06
14
f3
f0
0e
eb
11
20
06
f6
c9
10
0c
09
0b
f8
f3
18
09
f5
fc
f3
ec
f4
eb
17
e3
f9
05
fc
f9
06
19
01
f5
0a
ef
02
03
03
fb
0a
0e
06
08
0a
11
1d
0e
f3
f1
e6
ff
ff
00
ea
01
f5
f5
fd
f8
fc
0c
fc
f3
17
0a
0a
07
09
f1
f6
09
06
df
0d
f9
f4
11
f9
08
12
14
05
fa
f7
10
08
03
01
f1
fe
10
eb
f7
fd
fc
e9
07
12
08
0c
fb
fa
fa
09
05
f7
fb
df
15
fb
01
f0
05
0a
22
ff
14
f1
e6
f6
0e
f4
04
e1
00
0d
19
ff
e7
f9
e6
f1
fe
06
0c
ee
fc
14
f3
ff
f8
05
dd
13
f9
00
03
ef
0b
f9
e7
0d
f9
0c
08
ef
0e
f4
eb
22
d7
1a
f7
09
0b
01
02
02
21
02
fe
13
0e
05
12
eb
ea
f3
ec
d6
10
f4
05
0a
fc
14
fe
0f
f7
f6
e5
04
13
0c
18
0b
ff
03
08
fd
fe
fe
f1
08
0a
f3
f4
e0
f2
1e
0b
09
07
0e
fb
fa
14
0b
0d
16
f3
fa
0e
fe
0d
09
fc
07
04
1a
f1
f1
f7
e8
fe
e9
0f
ed
f8
ec
f5
10
07
06
22
07
fb
de
0a
02
f4
14
ed
0a
ed
fd
09
fd
1f
0b
f6
0f
f8
e6
ef
20
f4
03
0a
07
ff
f9
f7
0c
f3
08
fb
0e
11
e9
06
00
f6
15
fe
15
06
fe
0a
02
ef
f2
f6
f2
05
fe
04
f4
f1
e5
29
f8
f5
df
0b
e9
ed
0b
f9
06
fc
03
e7
ea
05
01
0d
fb
f3
fa
01
fb
05
0c
01
09
fd
f9
11
01
0e
06
f4
05
eb
0f
08
f6
ef
fb
e7
f1
17
fd
10
10
06
0e
f9
08
03
f8
f9
ff
09
04
0a
f0
df
ec
03
01
1b
0a
02
17
ef
0a
04
fa
fd
04
25
fb
fe
f1
d9
11
07
07
0e
06
f2
f5
f0
14
15
f2
08
1a
e6
ff
00
f1
0d
ef
fe
09
fb
04
f7
f5
f3
01
ff
f9
f6
13
f0
de
04
06
fd
f1
14
07
ec
f9
fb
0b
08
08
d8
01
fd
fb
f3
0a
03
fe
f7
fd
f3
04
e6
ff
f8
f7
12
da
ff
0c
f8
fb
06
0d
03
16
0b
10
1a
f0
ef
19
e7
0c
08
fb
00
f5
10
f2
07
f5
1b
01
04
09
fa
0c
f8
11
f7
06
04
fc
14
02
ff
0e
16
09
f9
f1
f0
06
fd
0e
0b
07
fb
f4
0c
e7
01
03
ee
11
f9
f2
fc
f6
fc
f6
0c
ec
ec
f5
23
0e
f4
0f
01
ec
e7
fb
00
06
0c
06
11
f6
01
fd
10
fd
fd
01
1f
02
05
f9
ef
04
f3
f4
09
0a
02
02
f7
cc
fb
ee
f9
0f
05
18
02
f8
02
03
34
0d
04
fc
07
0f
01
e5
fb
07
0d
05
f6
ff
f8
04
08
18
fa
04
fc
06
f5
02
09
0d
09
07
19
ed
f0
fb
fd
fd
fd
fc
08
f7
12
01
eb
ff
07
ff
06
f9
fd
fc
ec
fb
ff
f8
f9
f6
03
10
fa
07
f3
09
18
05
00
09
fd
06
f4
00
f2
ed
f9
0d
fc
fe
fd
0c
d9
00
fd
fa
0b
00
ee
07
ec
e1
ef
ea
0f
f2
e8
09
0f
f2
0e
fa
1d
0c
06
fe
06
20
10
fa
fa
fd
ec
f6
04
f3
02
ef
f8
f7
0d
00
f9
ef
08
fe
0a
f6
f8
05
18
08
16
07
1d
06
f7
fe
f9
f6
e8
dc
0f
fe
06
f9
07
04
fc
12
17
e9
10
02
fe
f1
f4
00
f2
12
f8
f4
05
fd
0a
0e
09
f9
f2
04
e4
12
03
fd
fa
f4
fc
ff
fd
ef
04
fd
fd
0f
03
06
fa
f9
09
08
09
f6
02
01
18
03
0c
ff
f5
02
12
0a
13
11
03
13
0c
fc
0c
fc
f9
05
09
08
fe
0a
ed
f5
fc
f1
01
fe
0d
04
e9
00
fa
fa
10
f5
01
fd
0d
0d
0c
fd
fa
ff
07
f4
03
f0
f2
02
08
12
05
01
05
01
fe
db
08
f5
06
06
13
01
07
0f
09
00
47
0c
09
0c
e8
06
09
c2
02
04
f8
f9
f6
f6
03
ed
ee
17
09
0e
f4
09
fc
0a
ee
ff
fb
09
0f
ef
12
fe
0a
13
fb
e7
f8
03
f8
fe
f7
f7
00
fb
10
eb
0c
fe
0f
01
fa
06
0a
f1
fe
0f
06
f7
1b
0b
04
02
fd
0c
fc
f0
01
06
04
fb
f6
f4
0f
00
09
01
01
02
f7
0d
fb
f3
0a
e6
01
05
f0
05
f4
fb
e3
0f
08
05
05
f8
e8
f1
04
f8
fc
fd
10
0c
eb
ff
f6
00
fc
0b
e8
04
fc
08
08
f2
f8
0a
04
f4
05
1b
ec
ed
06
09
ec
06
f8
10
fc
f8
ea
0e
01
49
e6
07
0b
ef
21
04
1b
f6
fb
09
f9
09
20
ea
ec
09
fb
f5
f5
05
0e
f8
0d
19
01
03
02
0c
fe
03
fe
e8
12
0d
19
fa
f7
3a
eb
12
f3
fc
f5
f1
07
fa
f5
06
03
f3
f8
fb
ff
0c
ff
fd
13
06
02
fb
fc
0e
18
0c
04
e8
04
00
13
06
0b
fe
06
dd
f6
fb
fc
13
18
0d
11
10
00
f7
1a
0c
f4
ff
1c
09
02
0c
ef
f2
f6
e1
10
09
06
fd
0c
f9
dd
f4
05
f9
e0
ef
15
ab
ff
04
10
10
ff
06
04
03
08
fa
07
0c
fd
10
d9
02
fe
4a
15
05
f7
ff
fd
f2
f9
f3
05
00
02
f9
e7
0c
1d
fb
0f
0b
13
f9
f6
06
08
e9
e9
13
f3
f8
fa
19
f3
ff
f5
ff
f8
01
f5
f4
c0
de
fe
13
f7
14
fd
f7
03
19
03
f7
09
0b
f8
f1
08
0a
0c
f1
fb
10
08
08
ec
f9
ea
07
09
0e
02
f7
ec
05
ef
fd
07
f9
10
0c
00
0c
e7
de
02
ff
09
08
18
f6
09
fb
f3
ff
fb
ff
fd
fa
12
fb
04
11
f1
fc
1a
00
fc
06
03
02
fc
48
0a
10
f0
06
ed
11
15
0d
f0
03
e4
fc
00
08
f8
ff
eb
de
e8
08
f8
fd
e6
fd
fa
f4
f3
0f
10
fe
f8
00
f0
ec
13
f0
e5
fd
01
0c
0a
00
f5
1c
04
02
fb
09
df
f3
f0
07
07
11
01
f9
0b
02
f3
0e
fd
ea
fd
03
03
04
f9
fa
f7
fa
13
fb
fc
f8
fa
04
12
ff
05
0f
0c
ff
10
ed
fa
1b
fc
f9
fd
06
08
f8
07
20
04
f2
07
07
15
fd
13
f9
02
07
ec
00
f0
f7
01
0b
07
f7
04
f4
0d
f4
f3
f3
06
02
0d
07
fe
0b
f0
17
f1
d1
1b
03
07
f2
e7
e6
0e
f3
04
fc
0e
e1
fa
09
ff
14
f7
08
0c
fc
fc
02
04
06
e3
22
e9
0d
02
07
fe
fe
13
04
f7
fd
02
00
fb
22
0e
fb
f5
04
fc
10
03
f0
16
fc
04
02
19
0d
12
e1
e7
f9
fd
f2
0a
fe
0e
fe
03
f5
fd
0c
ff
0c
f2
ed
0d
f5
f8
fe
06
fc
0f
f6
e8
0e
09
08
f8
00
ce
f5
f8
00
f9
03
01
f4
06
0d
04
f6
fa
f4
0a
08
03
01
0c
08
0a
ee
00
fc
f6
f5
0a
f9
09
0c
ff
01
f9
0a
01
03
f1
06
10
03
03
d2
f7
fd
11
14
0a
04
0b
01
f3
fd
32
fe
03
02
0e
fe
ff
9f
08
06
0a
03
10
05
03
fc
f8
fe
00
f9
0e
07
fe
00
0b
01
06
fe
fc
f7
06
01
f4
fb
fa
ff
fa
05
04
08
fc
11
01
02
02
f2
12
04
fc
02
ff
06
f7
09
fd
01
f6
f2
04
0b
08
fb
f6
f8
03
04
05
f6
0b
04
f6
07
e8
02
f7
ef
e6
0c
07
02
ff
01
f5
0a
0d
02
0a
09
f6
ff
fe
0b
0e
fb
fe
ef
eb
09
fd
0a
03
fd
f9
fd
fd
04
09
f9
fd
0b
f9
e7
06
0c
f5
0e
f9
4b
fd
06
fb
1b
f9
f8
ff
08
eb
06
e1
f9
05
f7
0e
03
fd
07
fc
f6
f9
f8
fb
f9
fd
f8
fc
ff
f0
04
ff
f7
07
f9
fd
f3
03
04
e9
03
1c
04
05
19
01
fe
12
0e
f8
fd
fc
05
07
05
07
0c
1b
f9
f9
00
0a
0e
00
00
f9
ff
f5
fa
05
05
02
07
0f
03
f7
01
fb
03
02
fc
f5
fb
f8
07
fa
fb
0c
ff
f7
fb
fd
04
fe
0a
01
0a
06
10
03
fb
fc
f0
0d
0b
08
eb
d3
11
11
fd
ed
ff
04
09
f8
00
fe
f0
12
0f
10
ee
fc
ee
f8
ec
04
07
1d
06
ff
ea
e6
e0
f6
00
10
06
d0
f1
fa
fb
21
ff
dd
3d
0b
0e
10
03
eb
0a
0a
ee
fc
f6
12
ed
07
f8
f3
08
f0
db
fd
11
ed
09
06
10
f4
01
ff
1c
f5
fc
f3
f8
fd
03
f4
eb
08
05
f0
09
0d
00
09
07
08
22
0c
00
0d
fe
fd
02
ed
28
f7
ed
04
08
0b
f3
15
16
0c
f0
0f
0d
f8
ed
f4
03
f9
02
d7
05
0d
02
0a
f7
03
02
ee
0b
e6
f9
ef
e5
0a
02
ed
01
0a
14
16
fc
f4
09
fe
09
00
01
ee
ff
f3
f8
e9
11
29
21
ee
dd
e9
f8
fd
f0
12
04
fd
0d
ff
00
0a
0c
02
0c
1b
03
fb
44
f2
f5
f8
ef
fd
f6
0e
0b
f8
fc
fe
fb
03
1e
f5
f4
0a
fc
15
17
10
06
0e
fd
fe
f6
f2
fe
ed
05
f4
f9
e4
04
ff
18
0b
05
e3
11
0a
ff
fe
f2
13
02
02
e1
09
f5
06
f6
ec
09
03
fa
e9
fa
f7
f4
0a
02
12
fc
06
fb
ff
e2
32
fb
f5
f8
0a
02
fd
0c
16
f8
fc
10
0c
f3
00
ee
fd
0b
15
02
03
05
02
ed
0c
09
fe
02
03
1b
f1
0c
ff
e6
09
f7
0c
f8
fb
fd
fd
35
f7
ff
f3
f3
0e
ff
e4
e4
fb
f8
07
09
01
fb
f5
32
ef
00
07
f4
00
f6
fe
02
0d
05
0b
fd
05
0f
11
ff
07
f5
f2
12
ee
ef
04
02
19
23
f3
ef
f0
0c
f8
0e
da
f9
f2
03
16
0b
01
25
15
ff
04
0d
01
ed
fa
f0
00
f4
05
02
13
ec
1d
0a
fc
fc
f6
0b
0b
04
07
f5
0f
f4
0f
04
ec
f0
ee
f9
eb
ee
ff
ee
fd
fd
0a
00
3e
f9
03
ee
f4
0b
f7
fa
17
05
21
e0
0b
ff
f4
ff
12
05
f7
f3
16
fa
02
06
cc
21
08
10
0e
02
16
23
fb
14
12
f8
17
0c
0d
fe
06
f8
c6
fb
10
22
d7
08
ff
5b
f0
fd
0b
0c
05
05
f7
e7
ed
fc
22
f8
f3
0b
20
12
fd
fb
f0
f6
fa
f7
f4
f4
fb
f6
f8
f9
e1
fe
10
0d
fd
0b
f1
00
0d
18
ed
fe
1b
df
ee
03
e8
05
f4
ef
eb
fc
0d
f2
e3
f3
e4
f1
05
ff
fe
f5
08
03
f7
0b
e4
1a
e7
04
16
12
1e
fa
12
f9
f3
0f
fa
fd
0a
f7
fd
16
16
0e
03
ff
01
0a
12
17
02
02
fd
f7
f2
e8
f7
08
fd
fd
08
00
f4
1e
00
fa
07
0c
fa
c3
01
0a
e2
06
0e
fe
f5
fd
ea
0c
26
05
f8
0e
db
05
07
0f
0b
f3
f6
05
f1
0b
0a
e9
f9
f9
fc
03
02
f8
02
05
08
f9
f6
fc
fa
03
f7
ff
0c
0a
20
0e
f6
fb
fb
00
e4
07
01
fc
f1
d5
e2
ff
03
0f
03
fc
f5
fe
f4
fe
fc
09
06
fc
ff
eb
f4
ff
fb
fa
fd
0a
04
fb
f4
00
f6
05
f9
17
f6
16
fd
08
06
04
07
1d
03
02
0f
07
fe
01
06
f7
25
f7
08
e8
29
fb
fd
f9
12
10
0b
04
f6
fa
0d
fe
fc
05
04
fd
00
12
ee
15
f6
b0
eb
00
ee
06
e3
0f
e9
fc
0b
05
23
0b
fd
04
0a
f1
f2
e7
00
ee
fb
0f
0b
f9
07
f7
1e
fe
f7
0a
f4
f0
e9
05
01
f4
01
09
f1
f5
02
15
f4
fb
08
fb
f7
f2
09
01
12
f2
f3
0c
16
ef
e7
fa
f8
0b
fb
06
f4
f6
08
03
fe
03
01
fb
17
23
0c
05
f2
0a
fc
03
fc
03
04
1a
02
05
11
ef
ff
06
f7
fa
0d
0f
e8
ff
e4
f8
07
f6
01
04
0a
0c
ff
01
0c
06
1d
f0
ea
f1
06
09
fd
ff
01
f3
ec
fd
f7
00
ea
07
04
fb
0f
10
f5
c3
fd
01
ff
14
0f
f5
10
00
f1
ff
2b
0d
04
08
ea
fe
fd
1a
fc
fe
00
fc
01
fa
f1
fc
09
0e
f9
f3
05
fd
10
f6
06
ff
f5
f6
f6
06
08
fe
0b
fe
ed
01
ef
09
fd
18
08
f7
f8
15
10
f2
e9
0c
08
f7
13
fb
00
01
07
13
0b
f3
07
14
0d
f1
f9
07
fb
fc
02
00
fb
f8
e3
02
12
01
f7
05
fd
02
08
04
f8
f9
0f
00
02
e9
11
f3
00
17
1c
f1
03
f8
17
fa
f8
fc
03
fd
08
fd
fa
f5
f9
ef
f3
00
ff
0c
0c
0e
fa
ff
04
fc
ef
22
0a
dd
07
f6
ec
ed
0a
ee
f0
04
c0
13
06
04
fc
0c
f2
01
09
0e
fc
19
19
f3
f7
f5
01
16
fe
f7
e9
05
0b
03
00
fa
fc
fc
f6
ee
e1
0f
f9
f1
0e
f1
10
04
0e
e5
17
f3
ef
f9
f1
f7
09
0c
f2
13
f7
03
10
f0
ff
0c
18
08
18
24
e5
ec
fb
0f
fe
09
01
09
16
e3
f2
20
0f
f3
ef
03
ec
ff
fe
0a
fe
f1
0e
f9
0d
0c
f3
ff
f2
f4
f1
fe
02
08
02
02
f3
00
fe
0a
05
ed
fb
19
09
0c
f4
e5
0e
ec
0a
fb
e0
f6
f8
16
f0
37
eb
f6
fa
f8
ff
01
f9
e9
fa
ee
ef
f7
f1
09
f0
f1
0d
14
fb
06
f6
18
09
fc
0e
0e
05
f7
fe
12
06
08
f1
fe
1c
08
f8
f9
02
0e
0f
04
e9
03
f2
10
ff
fb
08
fd
e6
e8
01
05
05
11
1c
0a
04
02
13
06
06
09
03
f2
06
f8
0c
07
00
fd
03
08
ef
00
02
f0
ff
ee
01
06
fb
fb
0e
fd
ff
0d
fd
1b
0e
03
ee
05
fb
ec
08
ff
f4
0d
06
ff
fe
02
0a
fd
f4
fe
01
f8
02
f8
f9
0a
f9
04
00
f9
fb
06
01
fd
fc
ec
02
0a
f2
02
02
f9
fd
fa
f7
f6
03
fd
0f
02
00
02
01
0b
f8
fa
0b
fd
fa
fb
fd
f9
04
fa
0b
fb
fa
f0
ff
ed
01
fb
09
0e
f9
f9
07
f8
12
fb
f3
00
06
13
f9
06
04
f7
0b
05
02
02
05
00
01
0c
01
03
f0
0a
01
fc
fc
fa
0d
0f
07
01
05
f7
08
04
fe
f7
0d
02
f7
fe
f3
0c
03
05
0a
f8
0a
f4
f7
fc
06
0c
f7
06
fe
0d
02
0a
fe
f1
0a
fe
f4
fd
03
fe
0d
17
0a
f1
02
01
0e
04
02
01
fa
f5
f7
fa
0d
f4
0b
09
ef
01
0a
07
fd
03
ff
f9
0d
f6
fd
fe
ff
09
05
f2
08
f4
13
01
fe
f1
13
00
fe
f0
f9
09
1a
07
f5
05
00
0b
ff
fa
0c
ff
10
f1
f8
fe
02
00
f5
f9
fd
04
02
01
ff
07
fe
04
fe
06
0a
f8
f9
f9
01
05
ff
03
0a
01
09
03
f2
05
fa
fe
02
ee
02
fd
01
09
0c
02
0e
fe
f5
fb
02
e7
f2
f8
f8
04
f6
fc
07
f9
05
05
fc
f5
04
fb
fd
fb
02
fb
ef
fd
ff
f8
f9
f8
06
07
07
ff
fd
07
00
06
09
ff
03
fb
fd
08
07
f6
02
ff
09
02
1c
04
01
04
02
f6
0e
05
01
fc
fd
07
00
f4
06
02
0f
fe
04
01
0c
00
08
fa
fd
00
fc
0c
0e
00
f1
01
fc
08
f6
fd
06
f5
ff
f8
0e
07
f9
ff
f8
fa
fb
fd
f7
f7
04
0b
07
09
f7
01
04
01
0c
01
ff
ff
f9
fc
fe
15
ff
f2
07
0c
fc
f9
e4
fe
fb
f5
05
0a
03
fa
03
09
f9
08
02
07
0f
f3
f8
0a
fb
f6
01
05
fd
04
fb
08
09
06
fc
08
12
06
01
0b
06
fa
06
f6
03
eb
02
0b
09
f4
01
06
0a
09
03
08
fc
ff
03
05
00
05
fd
02
ef
ff
09
f2
fe
f9
0d
0b
0d
01
01
08
f7
fa
06
06
fd
04
02
f9
00
03
05
f0
0a
e4
fc
07
f6
fe
03
03
17
00
f9
fe
f0
0c
00
f3
0b
01
fc
0a
f3
03
f8
02
ff
08
05
05
02
fc
00
0d
0f
fe
00
f6
ff
f5
08
f6
f6
f2
fe
09
fc
f7
03
fc
f5
f7
08
13
f6
ee
03
f0
03
fa
0a
03
f7
02
04
09
0e
fa
02
fc
07
fc
07
0b
01
fc
fc
08
fb
f4
fe
ea
0a
11
08
01
fd
fd
f5
09
08
04
04
f8
09
f6
0d
e9
0b
f9
01
ff
f8
ff
06
fe
03
f9
02
05
ff
01
0c
fd
fd
04
02
0a
02
f7
f7
08
fe
01
03
05
f0
ed
