f9
0b
cf
eb
01
e5
ca
1b
dc
f8
f7
f4
09
fa
1f
f7
e9
f6
1a
0f
eb
ff
e7
ef
e1
19
0e
39
e2
f3
c4
11
0f
fa
0a
f5
21
1c
17
0b
12
f4
0a
e2
f9
03
fc
12
12
d7
ec
12
fd
12
e2
01
ee
fa
17
ff
d6
d1
f8
c5
14
f0
03
fc
00
16
d7
ed
01
f5
15
0d
05
ff
e7
ee
12
19
14
ef
ff
12
10
da
0c
f6
26
08
f5
18
09
19
1f
de
d4
fa
1a
1c
04
12
df
e5
02
e8
e5
bf
e4
1b
05
ee
e8
ee
f1
fe
f9
0c
ea
1f
1e
13
0f
fd
e5
36
fe
db
1d
08
f5
1f
02
17
3a
16
01
12
29
0f
f9
dc
f1
2d
f8
f0
1d
2f
03
17
e5
1b
1a
08
26
01
fb
05
db
f8
ec
0b
eb
cc
ea
dc
fe
03
e3
db
1f
f0
14
1a
0b
f0
ea
05
ea
ee
1f
e0
03
dc
f6
16
07
0a
fe
cc
e7
2c
f8
fd
fa
0d
05
fe
24
ff
00
f9
c5
16
f1
0c
06
e9
12
0d
f3
ff
f9
20
f5
2a
1b
f0
ed
f3
0f
36
0c
05
ec
09
0c
f0
0b
15
f4
0c
d9
10
1b
13
01
f3
dc
d6
16
20
ee
26
10
02
00
21
dd
01
01
ec
11
02
fd
fa
14
08
f8
de
0a
1b
01
0c
12
f5
11
18
f4
07
20
fb
da
09
28
15
ea
0f
25
08
1b
25
e9
fb
20
00
fd
13
c2
31
07
11
fe
1d
1e
03
01
fe
07
12
e8
f5
f7
14
04
1a
fa
15
f6
17
19
41
0f
ed
f9
14
f4
3c
09
dc
11
06
07
f7
fd
0a
01
05
18
2c
fb
11
f9
ec
dd
1f
f4
e3
08
f7
f8
05
e0
21
01
e7
07
0b
e8
01
fe
30
25
04
ff
fb
1a
fc
01
0a
e5
03
eb
0d
1c
24
e5
f9
41
0f
0e
f0
29
e9
03
13
29
0e
f3
0c
f7
e6
05
00
ec
0c
13
e4
01
02
ef
eb
16
f3
02
e0
0e
fd
ed
ef
18
fa
f7
ff
0b
26
15
12
08
f6
ca
ec
ee
27
14
25
13
ef
e9
e9
bc
09
e2
ed
07
25
e9
00
bc
f5
e4
e1
e4
f9
eb
28
ea
ed
12
e9
f7
00
e4
0c
01
08
f8
d1
ff
ff
f6
e6
09
e6
e4
f2
0b
f5
38
ea
fa
03
f5
fd
f1
e8
f6
f0
02
14
f6
24
f8
1c
ec
db
f3
04
05
05
35
f3
08
f3
01
f4
07
24
fb
19
0b
e2
eb
da
e8
fd
11
0d
11
e2
f9
f0
05
e4
f3
cb
f9
f0
2f
13
37
19
16
18
fc
12
fd
08
13
fd
18
0f
0c
07
eb
fe
00
08
df
dd
ee
0d
05
0e
0f
d1
ec
d8
45
1e
fb
ee
f1
ec
07
02
ea
f8
e5
0b
19
dc
ff
f7
17
f6
03
e3
35
fb
f0
ea
07
1c
e5
db
0e
fd
ff
14
06
07
dc
ee
ee
df
f8
e4
0d
32
e8
0e
f8
18
16
02
26
f4
f8
21
e2
1a
f4
0b
06
25
15
fe
13
eb
19
cf
df
da
f8
08
da
e5
ec
1a
08
f6
0a
d0
e2
0b
f3
10
fc
ee
15
fb
0e
25
12
fd
0b
ec
e7
ec
eb
f3
0a
ec
ea
03
1a
eb
f6
cf
f2
15
1d
03
fe
1e
03
03
0f
ce
0d
f5
02
fb
1e
22
ee
06
09
f5
f6
27
1c
00
15
0f
fc
1f
fa
08
fc
f0
f7
e3
29
fe
17
19
df
0a
e9
fd
e4
cc
06
0a
0d
03
1f
ca
fa
ed
0e
f2
fc
f9
11
01
e6
f8
10
fd
dc
2d
2c
e7
f1
2c
1b
e6
fe
05
15
e5
e8
16
1a
1c
e5
42
07
e1
00
25
de
f6
01
0b
08
eb
f2
12
1e
f2
db
f2
f7
f3
ff
1a
15
f9
eb
d6
2f
fb
01
e2
0e
e2
08
10
08
e2
fa
e6
f1
f9
f0
da
e8
09
20
f3
20
16
f2
e8
f4
e9
f8
ee
49
c7
03
18
ea
0d
07
ec
f5
ef
14
e2
05
e9
2a
0c
09
f6
05
d4
28
d8
d5
17
fc
03
01
fd
e0
01
04
13
20
06
f3
06
0b
00
ee
ed
fa
ed
ff
11
0f
08
23
f1
d5
1a
18
02
17
14
f6
1d
ec
20
ff
16
ee
e4
fb
d8
bb
05
fe
0d
06
02
0c
eb
ee
1d
0a
f5
09
02
fb
e1
db
fc
07
f0
0a
f8
cb
e8
01
dc
23
3e
18
06
21
1b
0d
10
12
e9
fb
01
00
10
0d
07
13
fc
14
f0
01
0e
0a
ef
e7
18
00
fd
1d
2b
33
1a
f5
10
d2
1e
f9
d5
1f
f3
e9
06
fb
10
e5
01
0f
f6
3a
01
fb
0d
fb
f6
f2
f1
15
e7
03
e5
e7
f0
2b
e1
dc
e3
06
04
f5
e6
02
05
00
31
fe
01
e0
12
29
e0
d8
e1
1f
1c
3a
01
01
04
06
1b
f7
1e
fa
fa
e8
0d
05
29
f8
1f
f6
10
e2
d7
f0
09
1f
01
0a
1d
f4
0f
2d
0d
d8
e6
f4
f3
24
06
09
05
02
e2
12
08
0d
d1
fe
09
fa
08
1b
d7
ef
1b
ff
0e
0c
e5
11
f9
1a
01
0f
07
e4
fa
00
10
15
f3
ed
28
1c
0d
f3
fd
15
fe
ff
1a
d9
15
e3
e9
00
07
0e
f5
ef
fe
24
0b
18
0c
14
f9
c6
de
ee
10
04
14
ef
07
0f
14
ea
01
fc
fc
0f
02
f8
e1
f3
0a
0f
ff
06
0f
f6
06
09
09
07
10
14
dc
0e
fc
10
0f
2b
f7
10
08
ea
e9
2a
0e
fe
04
ef
13
0d
1a
0c
0d
02
ef
fb
f5
14
00
08
0f
1a
2a
2a
ed
0e
2d
e5
da
ea
00
fc
22
1d
fa
30
2c
2e
33
1c
ee
13
0b
07
f5
e6
0d
d6
ea
f0
fa
02
06
1b
02
18
01
09
e9
03
f2
0d
14
40
26
e8
ff
ed
29
fb
33
0b
06
ef
11
f2
05
0d
d9
20
f6
eb
ff
02
c4
d0
23
fa
e5
07
1f
fd
2b
fb
12
0e
02
1e
e6
e3
07
f2
fa
da
f6
2c
f8
df
e4
e9
0a
12
cc
e5
13
ef
17
cf
d3
18
07
2a
f6
e4
dd
01
1f
e0
1b
22
f4
07
04
f3
f3
07
e7
08
0d
09
10
15
da
08
03
09
01
ee
04
10
29
11
da
08
e8
35
f2
28
ef
fb
10
f6
0b
1f
f9
32
07
01
ee
e5
ee
dc
0c
19
e7
0a
f4
18
15
ee
02
04
ee
f7
09
f6
ee
07
26
34
10
0a
05
cc
f1
15
fa
f1
d9
ed
d9
1c
fe
de
f5
16
bf
f9
df
f1
e8
26
eb
cc
ce
d4
0d
e8
e6
ea
f0
f4
22
07
07
eb
0d
de
39
f4
3c
e8
05
03
15
ff
33
f4
12
bf
e5
d3
fb
d4
0f
e5
e7
fe
fb
1a
28
03
ef
04
09
2e
dd
0f
e4
18
1e
13
f9
1c
19
01
19
0e
e7
15
ee
05
f6
16
1c
06
d8
fd
ea
f0
0e
e9
33
1c
04
06
e3
fa
fa
f2
f6
e5
f8
ef
f7
fb
30
da
1e
d3
07
11
1a
28
d8
1d
10
07
33
e9
ee
11
f8
f6
11
14
d7
1d
fc
13
fa
dc
1c
08
17
12
02
0f
fa
f0
f6
f2
10
fc
fa
13
07
12
f9
12
ee
f5
fd
11
0a
28
30
de
e9
0d
fa
0e
01
0a
09
ff
2b
fb
de
02
09
f1
0e
ef
fe
fb
ee
0f
f9
08
f9
e2
27
df
fc
06
01
0c
ce
dd
ef
35
fe
21
f2
f3
e7
02
04
eb
f3
32
bb
0f
f0
13
eb
df
f7
fb
18
fc
0a
13
11
fb
d4
fe
f5
dd
e3
20
09
03
11
05
f5
f3
e7
18
01
1c
f2
0c
f2
f9
dd
f8
17
f8
f3
05
fc
f9
ed
23
fc
c4
0d
1f
0b
03
fa
fb
2f
d7
0c
e3
e3
2b
ff
d1
1b
16
e0
03
f2
eb
f7
1a
f0
f7
cb
ee
fa
17
da
0e
d8
d0
ef
0a
38
ee
fc
e2
0a
ea
fb
ec
04
fa
07
11
fb
c6
15
09
01
f3
03
f9
fc
1e
33
f2
eb
02
22
04
0d
02
1e
fd
fa
12
f9
0a
15
f2
f4
0a
e4
18
08
f6
07
19
02
08
27
f2
17
17
e3
22
1a
29
e2
d2
25
07
ff
27
14
fd
2d
f7
fc
18
ce
f9
ef
e9
09
13
15
df
09
ee
e9
11
1b
1c
dc
eb
11
01
f8
11
ff
0b
21
14
f4
f4
ec
04
ff
ec
f9
f7
f2
0b
06
06
0b
f8
fa
02
08
e5
ef
1e
e4
f7
17
e9
e4
dc
db
00
07
06
07
fa
de
f1
2e
0c
ec
f0
04
e4
36
17
e8
10
2f
fc
eb
00
16
de
2e
04
12
d7
16
df
1d
ea
20
0e
18
38
1b
18
f1
de
e9
02
fb
03
f6
1a
01
fb
fa
f2
02
e3
01
e5
f8
c2
07
fd
e7
d6
ec
2b
f6
04
0e
f3
db
d3
fd
e0
e4
f3
03
f6
e0
08
2c
fc
17
03
e9
fe
17
f1
0e
f4
f8
f1
fa
ea
ef
e2
06
0a
1a
10
08
e3
0b
1d
15
f8
eb
16
ff
ee
e8
12
f9
1a
1c
0f
f7
00
fe
fd
f6
e7
f3
ed
df
e6
03
15
1f
e3
16
33
fc
11
12
00
07
f9
07
2d
06
d5
0a
00
e7
da
12
1b
e7
de
25
00
f7
e2
39
c3
1a
d6
f0
05
e6
fc
0a
ff
1a
33
ef
2b
ec
d2
ff
dd
12
12
f7
dc
20
fa
f2
07
ff
f8
01
02
ff
19
18
ec
12
f3
ea
e4
f9
0c
11
14
13
e3
22
e7
e5
f9
0e
e6
31
0c
16
20
13
e5
1a
28
e8
06
25
f5
ea
12
0f
19
04
fa
f0
f3
25
1f
fa
05
d9
2b
f8
f0
fb
d5
f7
23
03
c8
13
e2
f4
1b
0a
1f
22
e0
fe
03
f0
fb
0b
10
e7
00
02
00
dd
14
d5
32
ed
ce
fd
ff
f8
26
eb
e8
f6
16
1c
fc
05
ec
f9
24
13
fb
06
f3
22
fe
f3
ee
03
18
1f
01
01
fd
05
e6
ed
f7
ea
f3
18
00
d6
10
f9
12
11
02
34
f9
0f
09
15
13
0d
32
09
f5
03
da
ee
17
f3
e8
e8
ed
12
1d
10
ff
1e
fe
ee
0c
f9
e0
f1
09
18
e4
ec
0c
20
f6
06
36
06
f9
e0
02
00
0f
0d
f4
ea
0b
ed
fd
fc
f6
f4
e9
f1
dc
ef
1c
0d
ff
1c
1a
ee
fb
e8
02
01
0d
17
06
fa
19
f8
e4
d3
f8
0f
ee
e7
03
16
0c
fb
0c
f7
d8
f7
15
19
0a
e9
cb
05
0f
15
22
08
f9
e5
21
fe
fa
22
1c
12
1c
2c
e7
f6
f0
02
f6
0c
0f
01
e8
08
07
0c
16
0a
0b
13
ed
ff
e4
02
fc
db
ec
1c
cc
00
e6
10
f0
0f
fa
f1
21
20
09
e4
00
21
fe
e6
10
51
32
15
e3
18
ea
16
0b
09
ef
ec
10
ea
db
f7
dd
14
fe
24
f7
ff
23
07
17
1c
27
f1
e0
1c
f5
df
0f
e6
0c
1c
20
fd
0a
da
f2
11
f3
f9
cd
e4
c9
04
39
fa
ea
fa
f0
fb
e6
dc
27
fc
01
16
10
0c
11
31
0b
1e
07
db
14
06
f2
14
e1
fe
fa
e0
03
f2
ec
f7
e7
3f
1a
c0
e2
02
fa
e8
18
f1
0a
f5
f1
f1
16
04
0f
fa
ed
28
34
fe
ea
d8
03
16
dc
22
f1
27
f6
fc
01
09
05
09
1a
f0
04
1d
dc
0c
f1
f1
1a
fb
1b
1a
1b
0d
e4
00
fc
35
dc
fa
e0
0b
fc
01
1a
38
fc
01
ff
e3
cd
fa
f0
19
f8
f9
df
eb
0f
f9
01
1d
1e
df
06
1f
18
15
f9
fe
09
02
fb
0c
2b
02
dd
03
dc
1b
e4
11
04
c1
04
06
1b
10
05
00
10
fa
ea
24
22
fa
01
35
ec
f3
24
ff
dc
0b
e7
20
18
f2
fe
f4
fb
ee
ea
fe
f6
05
ef
e6
02
02
05
11
29
dd
0e
dd
05
02
0a
0c
f5
0c
05
30
26
fb
17
eb
1c
e5
e1
0d
ff
0f
12
0b
e7
05
db
ef
05
03
07
f5
13
d3
e2
0c
fc
24
dc
01
39
03
d4
e5
04
f0
d4
01
01
fe
04
1b
f9
f7
08
0a
08
11
06
01
04
da
3b
ef
13
fa
17
df
da
db
08
f3
c4
0c
34
fa
eb
e4
26
e9
1c
de
f1
ea
f8
03
0d
fd
ce
03
f2
22
14
d3
1c
e8
ff
d9
2f
0b
17
09
e1
00
01
01
fe
e8
f0
ed
f4
05
fe
c7
de
fc
2b
04
ee
d7
f6
52
1e
e5
10
f0
1f
f6
f9
f2
e6
cf
34
e8
ec
02
04
3b
1e
f0
05
f7
14
f4
fc
5a
2b
29
fa
e3
f2
12
21
12
0f
ec
0c
0b
fe
05
e6
f0
df
04
fc
1b
fd
ed
ff
00
06
04
e8
01
d4
f0
ee
ec
1d
fa
b5
0a
05
05
01
e4
0a
1c
f3
1a
e7
1d
1c
05
ee
e4
03
e1
e7
e5
01
20
f1
11
e5
36
1f
03
26
13
dc
14
09
f8
d8
25
06
fe
33
1b
07
0d
1b
df
f3
f0
15
09
32
03
12
05
07
14
dc
0e
f0
07
12
10
e4
03
12
07
02
ed
17
19
fb
10
0a
1d
2e
04
1d
09
0b
08
0b
f8
00
dd
d8
ec
ed
f2
23
f2
f5
f8
f5
ee
13
05
ff
f3
f8
fa
eb
e7
e8
00
0f
07
ee
e4
23
e3
04
f8
f3
0d
1f
ea
07
f2
15
0d
0c
05
e4
05
ed
10
01
06
01
be
ff
f1
19
05
eb
dc
13
f5
06
ec
12
22
cb
d1
1f
fe
ec
f2
e4
f2
d5
fd
ec
f3
02
02
f7
fb
09
1f
05
3a
fa
f1
f9
13
18
0f
02
00
04
0e
04
ea
ed
0c
0d
06
f6
33
fe
14
fc
fd
00
ff
17
0b
e0
06
f3
ff
fc
01
11
fa
0e
cb
01
04
f9
05
f4
01
2b
05
eb
02
f8
f4
f5
18
1f
05
23
0a
ec
f6
f3
19
ed
fb
f1
1f
f8
22
00
04
16
f4
e0
fd
ed
02
ff
07
dc
02
27
ed
1a
f5
12
fd
ee
17
0d
17
c5
f1
ee
ed
fb
cb
22
da
20
f7
0a
08
fb
d7
f8
f9
ef
e6
f6
f8
fd
f0
00
07
1f
0a
cc
13
f4
0a
1a
02
f8
25
05
de
cf
f5
04
d0
01
ce
e4
0f
14
f4
d8
1b
09
f1
1b
be
0a
fc
13
e8
e7
f3
04
0f
fb
21
08
20
13
30
ef
10
20
09
0e
f3
f5
0b
f8
0a
df
0a
eb
37
e8
e5
23
02
f4
f1
e2
e9
f8
1e
04
fd
17
0f
03
e6
e9
e9
1b
fd
f7
f9
08
f0
08
1c
fc
f9
fc
04
26
18
06
09
0e
ed
e0
f5
f1
23
03
ea
0c
e2
09
f5
09
f8
14
0c
07
f4
e0
fb
e0
f8
11
f6
e4
e6
0c
20
d9
19
02
10
e0
f6
04
db
f4
24
fb
dd
18
fe
fb
e0
02
f6
00
15
08
09
f7
f8
ef
01
1c
26
fe
fd
07
19
e1
f0
02
0a
de
1b
eb
04
06
11
06
04
0c
0b
0b
0c
1b
1c
1f
21
03
e9
fe
16
f5
e3
15
02
00
11
eb
16
f0
1b
0c
f4
02
df
ef
e0
ed
eb
19
ef
21
f9
2b
f0
e2
f9
19
0a
fc
07
03
e7
ef
e7
fe
18
1a
06
ec
fb
f0
f9
ff
00
df
e9
31
11
f9
fe
02
22
03
f3
24
03
1b
0b
0e
27
1f
c4
fe
fd
13
0a
ea
19
f8
f2
09
19
20
01
21
24
fb
d2
fc
e9
e1
f0
00
2b
23
c5
e3
fc
fd
f3
e2
e9
05
0b
0a
0c
ef
f9
00
16
ee
f3
0d
fa
0a
e9
19
fc
34
fd
d3
e0
01
ef
f2
17
d7
0d
3f
31
07
dd
cd
f7
02
e6
14
ca
02
38
f2
ec
00
23
cd
40
ef
ee
ff
fc
f2
06
21
f4
df
0a
fe
31
02
1f
13
f0
fe
05
dd
da
22
22
23
0f
29
e7
c3
fd
15
14
1b
25
fb
04
bf
09
ff
dd
e0
1b
0d
e5
d8
e8
f6
f5
02
12
e7
fc
1a
3f
20
d4
be
f1
0b
10
c1
02
05
2b
05
e3
fe
12
eb
17
f8
d2
de
13
de
08
f6
22
0d
1a
f5
11
03
14
26
e1
eb
f6
3e
f4
eb
d7
e4
07
d4
f3
21
cc
fe
11
e9
e4
17
ea
de
f6
21
15
cb
0c
04
f3
d1
f7
06
f6
32
c9
d4
2d
f1
26
e2
04
23
24
f6
f0
08
20
fa
da
d5
ff
f8
da
36
f2
f5
f8
f9
1a
fb
ed
d9
0d
29
f0
1e
05
25
d6
f6
0e
f5
db
24
f3
07
e9
03
15
20
04
fd
df
f2
0d
f4
20
f6
fd
4a
41
09
e8
21
c8
ec
fd
e2
23
0d
0f
ee
e7
e1
df
fd
01
19
39
0c
eb
d9
fb
17
f0
e4
0a
e9
ff
de
10
f4
0d
fc
f0
0c
0d
fa
15
08
10
f0
18
bf
fa
ff
c8
ce
22
ea
fa
f6
d3
08
05
e5
12
e5
0a
fb
0d
fd
d9
25
ef
07
f9
f3
13
fc
ef
fe
fb
d3
ec
db
1d
e7
2d
e5
eb
fb
19
09
2f
de
08
28
f1
f5
f5
1c
07
31
f5
f9
09
3c
0a
29
29
f0
03
e4
1d
1b
18
fa
00
fa
07
2a
fe
3a
03
df
22
27
fa
07
d9
de
df
14
eb
d0
05
09
fc
2d
12
de
13
1e
15
0c
01
11
fe
fa
24
19
cb
1a
c8
d2
e3
ef
29
1c
00
0a
00
02
d2
07
18
03
3d
22
04
e6
25
04
1e
db
e8
20
1a
0c
f0
fa
32
ea
19
0b
db
14
eb
00
0d
0c
e6
e8
20
11
09
e2
40
de
14
de
dd
e5
3f
19
2d
fd
47
41
d9
e6
e0
18
28
08
06
02
f8
f0
05
e0
3d
d7
0e
cd
0d
17
f4
fa
15
06
ee
00
40
0d
e9
19
f1
14
f6
f2
14
12
09
04
fb
ea
fb
f9
ea
42
f7
0f
1c
0c
11
e1
fc
23
0a
21
0e
fb
28
bc
05
3e
16
04
1f
0f
01
0d
05
de
09
eb
ea
da
ee
09
13
ed
d8
f6
17
f4
0c
25
f6
f6
eb
f0
fc
10
f1
e2
1d
da
04
02
0b
f5
df
0a
e6
d7
0d
06
01
d9
0c
33
ed
1d
e6
10
c4
fc
10
be
ff
2b
df
14
f5
ff
13
27
1c
01
e1
20
14
ed
f6
f8
08
10
4c
1c
fe
dc
0f
1b
eb
2f
08
f7
01
eb
03
1d
e7
12
08
e8
0e
fc
e6
e9
e7
ea
08
15
ff
0e
01
eb
cf
24
ea
eb
14
02
0d
11
1b
00
2b
ec
f4
d8
07
ee
eb
fd
10
00
f7
22
f5
fb
e4
d9
0c
10
25
0c
fb
ec
f0
f2
11
09
e0
01
ea
e6
d4
07
f5
09
13
38
03
23
09
2b
ef
e9
ed
05
39
00
08
02
0d
f2
f4
e9
e9
e8
ea
02
fd
0b
00
cc
37
f4
1f
fb
09
f4
27
e2
e7
f1
2d
32
03
0a
4c
fc
1a
f0
25
01
0c
ed
ee
fb
00
0f
f4
11
f7
1f
07
43
15
12
0a
f4
06
0a
27
ed
27
29
fe
e3
05
0b
22
e8
fb
ec
e9
08
12
ea
ed
00
ed
fa
d4
e4
f8
fb
41
19
f8
dd
f5
db
fa
f3
1a
d0
dc
0e
01
f9
e9
dc
ff
1e
15
e4
e9
06
1c
18
05
0d
ec
29
01
12
05
1b
2c
d9
fd
f1
03
f1
f6
16
f2
dd
f1
1d
12
0b
f7
0b
cb
eb
f9
13
23
ed
08
08
0b
f5
ed
0f
02
e6
f7
1b
0a
fa
0a
19
fb
13
fa
38
2d
0f
01
1d
24
e4
cc
ca
01
f7
1e
12
f3
ec
ea
02
ff
cf
ef
ff
3c
27
f1
02
12
fa
0d
05
00
25
04
01
f6
0e
e4
f0
0f
05
06
16
ea
e7
1c
ed
01
fd
08
f4
de
e8
18
04
46
fe
16
f0
0b
13
f3
fc
17
04
f1
0c
f2
e4
de
0a
e7
b8
06
19
06
ef
f4
1d
f0
ec
f0
d9
ea
eb
f7
f2
f1
de
12
e9
18
45
f3
0d
d7
0f
35
ef
e8
dd
07
f7
bd
02
09
14
f0
f7
f7
12
ff
05
ea
e3
f3
29
dd
0b
e3
0b
db
1c
c8
19
fd
1d
07
e0
11
f0
fa
f8
f9
46
29
13
f7
26
f4
13
f3
07
01
ea
ed
e0
23
fa
27
13
ce
e3
ee
18
fa
23
0e
1a
fb
0e
fe
30
1e
ee
05
19
ea
f7
24
2f
ec
d4
fb
27
15
20
0d
0c
16
29
20
e3
d7
c8
d0
05
2b
14
0a
0c
f0
ea
c8
20
cc
f5
ef
09
f8
d7
e5
19
20
e8
08
00
08
e5
e0
00
f7
f3
0e
16
e9
dd
04
14
1e
19
0f
eb
18
38
ef
04
0a
fd
1e
f9
08
dc
e8
17
f5
f6
1f
0a
09
d4
02
fa
fb
e9
ec
ff
fc
07
04
db
d6
fd
0e
d9
0c
21
07
f7
22
f2
0e
f4
0d
f9
f6
37
eb
28
f3
1e
db
fb
1a
da
ed
11
21
0a
0e
f2
f8
f5
1c
eb
01
07
f9
ec
ed
1d
e8
1b
16
ec
f6
eb
d3
09
15
f6
07
0f
f6
15
ff
e1
c7
0a
fc
11
0c
1c
f6
11
ed
09
fe
f9
ff
fb
04
f8
f0
f4
f5
e9
1d
eb
d0
1a
13
0b
14
f1
cd
f8
df
f8
14
f8
d3
13
16
da
ec
20
f1
ff
20
15
e8
18
d9
e3
f1
ed
20
f0
43
f5
13
23
0e
ec
f7
d8
13
f0
01
ef
08
08
12
e4
01
02
f8
10
05
f1
02
1d
00
0f
31
07
f3
cf
0c
2c
0f
e3
1d
19
e8
f0
36
20
18
0d
18
ea
f5
ea
d3
dd
02
f7
fe
0a
db
e8
18
1a
f4
32
fc
fc
f4
0d
fd
f5
3f
0f
e5
1a
ed
ef
fc
1b
24
02
ea
04
0e
0b
db
10
f8
e7
fd
f1
06
0d
da
f9
d7
07
0c
e9
c9
f4
27
da
ea
18
05
f7
02
ff
f4
1d
fe
0e
21
e9
04
f7
d3
22
26
2c
fa
30
02
14
eb
19
0d
f9
e0
d2
f5
e5
fb
03
11
0c
0b
10
14
d7
fd
e8
e4
f4
f6
fc
0f
d6
0f
20
e9
ed
e9
04
00
ef
06
02
f3
00
f9
16
f2
b4
16
02
18
08
eb
fd
e9
1e
17
08
13
f1
0b
0a
04
0c
e4
f7
e5
f7
43
f8
f9
1d
1e
fc
0c
1b
04
12
01
07
00
fe
10
2a
04
19
f1
0a
e1
12
f0
f5
ec
16
ff
ce
f0
01
e6
19
f8
01
eb
ec
e2
16
25
eb
29
ee
fe
2c
08
04
13
eb
21
02
f7
fe
fc
f5
45
dd
0a
db
01
1e
e7
19
e4
21
0b
f4
db
e6
f2
fb
08
f9
e8
20
f0
e7
f2
f1
0f
0b
05
20
10
f3
fe
0a
ee
e1
16
16
e6
ec
ff
0f
f3
d6
02
03
fd
0e
15
fa
3b
fd
da
ef
df
ed
d4
f7
e7
2d
27
fc
21
2a
e8
b3
21
f4
fd
f7
05
3e
1b
fb
e1
01
f0
f2
fa
1c
f2
15
05
f9
fa
01
fd
16
13
2a
0c
16
fa
d7
27
01
09
1e
f2
1c
12
41
03
25
ec
f0
22
f7
0a
31
ea
25
ff
1f
35
e5
fe
2e
24
12
22
d6
ec
1a
0b
03
11
f2
01
df
d9
fc
df
06
02
04
ff
d2
01
02
03
e4
f6
de
fb
22
f5
d9
ea
ce
09
f8
20
ef
28
da
f1
e1
18
09
02
27
f5
11
10
fd
1d
fd
25
27
ea
08
eb
d3
ec
09
24
00
27
f2
ed
0c
da
f1
be
22
0f
ef
ff
f8
28
18
0e
fb
fe
fa
e8
dc
15
f3
f4
fb
f7
0e
f1
39
2c
11
0d
ec
d3
01
01
e1
1f
03
10
17
25
f8
f0
10
ff
f4
c8
e5
1f
03
01
1f
2e
1c
e7
21
e2
05
17
17
f0
f7
e4
34
3f
e7
0c
fc
f5
17
12
08
1c
fe
e5
18
2f
00
c4
0a
0c
fd
f2
e0
fd
1f
f6
d2
fd
f1
3b
f6
01
fb
27
0d
ed
0a
06
0a
0c
37
f6
f1
1d
21
ff
fc
18
01
e4
11
f1
f7
2b
01
38
ed
09
09
03
17
1d
0d
0b
2b
07
2c
f6
fc
f6
d8
f5
12
d4
0c
09
e3
18
05
ee
eb
03
f3
16
f0
d8
f5
17
1b
05
03
e9
10
ca
f4
45
35
08
0e
f6
06
10
fa
ed
37
17
2c
2c
0c
db
03
08
3e
f2
1a
e5
df
2a
e4
fe
e7
ef
02
0f
23
f4
09
e6
f7
02
ff
14
eb
f3
05
ce
0c
e5
ea
e2
ef
24
e9
f4
f5
fd
05
e3
c7
02
fd
ed
27
fc
f0
e0
0a
06
02
0f
eb
23
e7
fd
10
ec
cd
02
19
28
f8
24
f2
fc
f3
fb
fd
32
e8
18
fc
11
2a
e7
07
00
df
f8
fd
1e
0a
d8
ef
27
12
0b
02
0f
f5
e9
05
ff
f7
09
f7
e6
f4
f9
d3
d2
21
e6
e2
1c
0f
14
f3
d3
e1
05
bf
f0
35
18
fa
f2
de
ea
13
e4
07
fe
b6
d7
21
00
e2
ed
f2
06
f0
16
03
f4
00
ed
f6
0d
00
e8
ee
2d
f5
1d
e5
ce
dc
35
04
e7
2d
e6
1c
f7
0a
f6
ec
28
2a
ee
40
05
0f
fb
f8
d2
0a
fb
11
e2
fc
1d
ec
f6
06
f6
15
1f
02
e0
f0
0c
1a
31
0e
e1
32
19
cf
24
fe
24
e4
41
e9
08
af
00
17
f1
e9
e3
ea
ed
e4
ea
1c
23
f3
07
12
fc
0a
0e
12
ed
0c
21
ec
f4
06
e7
1c
fb
f5
1d
e2
f0
0a
f1
1f
08
18
bc
1a
fa
00
0b
09
1b
f3
13
ff
1e
12
ed
e8
00
1b
d7
17
de
e1
f0
03
11
04
df
e9
26
fe
fd
05
24
e8
11
18
08
01
f6
e7
c9
ec
c6
f0
20
37
01
08
15
f2
e5
fb
0b
01
f4
20
03
f2
e2
03
f3
0a
15
cc
f1
fb
f3
2e
fc
15
fa
11
14
fa
f8
0d
fe
0b
05
e2
00
31
18
fc
e5
29
f7
d9
13
ee
f8
04
e0
d9
09
21
16
17
fe
e6
c7
0e
fa
f3
18
03
ff
00
1b
0d
d1
ef
e9
01
1e
ec
07
f9
fe
2e
ef
df
11
f0
0f
1d
fb
cd
ea
0a
e2
0c
02
e8
2a
05
17
22
ee
18
19
fd
df
0d
e8
2c
f4
11
f8
ef
24
14
f0
d7
4a
e4
0b
e8
15
f9
1d
e7
f5
d8
de
24
1c
00
00
0e
05
0c
fe
17
27
0b
24
0c
fc
1b
f9
22
12
dd
e9
2f
f5
db
e6
f8
df
00
ea
29
04
e3
ee
03
13
25
d1
db
ea
00
22
ef
f4
0c
dc
ef
2e
f5
01
09
16
05
01
db
03
e6
fe
d7
ee
f6
04
1d
10
07
f8
05
1f
e2
2b
08
07
19
f3
07
1e
33
04
e5
39
d8
f0
13
cd
01
16
ff
eb
e1
ed
fb
23
fa
08
ce
11
fa
f7
dd
10
07
32
f7
fc
dd
25
fd
da
ed
f0
fd
2f
11
e7
18
fc
e1
f9
dd
17
e6
02
eb
05
18
fb
0e
13
c4
c4
fb
02
f6
0a
10
04
00
3d
d6
eb
da
23
1b
eb
11
23
18
10
fa
ea
25
e1
06
f6
23
f8
01
40
0a
fc
eb
19
e8
fe
25
d9
29
fb
fd
0f
ef
ec
fa
31
f3
0d
08
e5
d4
18
10
f7
ec
e7
14
0e
25
ff
d7
0b
0b
fb
02
12
40
0b
04
f0
1e
da
eb
fb
fe
e8
ff
30
f4
f3
1d
11
0c
fd
29
e4
0d
07
2e
f0
00
e9
fb
2f
00
ff
0c
f3
24
32
e8
0c
ff
f6
0d
2a
b8
0f
fd
18
06
01
f2
15
f7
f3
f4
04
f3
cc
d3
11
dc
ce
3f
22
05
0b
12
12
dc
f4
f3
15
25
10
ef
ff
06
1b
21
28
14
26
06
17
2d
30
e8
09
f0
1d
ed
0f
e8
14
0b
de
e8
01
f2
f1
18
13
f2
f3
30
13
00
eb
0e
05
0b
f6
08
fa
21
cd
0e
13
dc
f8
0e
1d
ca
00
0c
14
07
ee
00
d4
e9
f5
07
fb
2a
da
11
1b
f8
04
0d
f7
e2
f4
01
01
17
01
0a
eb
ec
d0
e8
ed
12
00
e6
1d
d7
ea
0e
f3
1c
00
e2
37
19
e8
f2
02
23
02
d3
22
19
f5
08
f1
0c
1f
f1
19
f7
17
0a
ed
c7
11
0d
ff
fa
ff
09
35
0c
ed
08
ef
ee
db
18
1a
28
00
e1
ff
2d
10
01
f5
0c
ff
05
00
c1
19
fb
d0
eb
09
02
27
b3
ef
00
09
04
30
29
ef
f0
d4
f0
18
fd
cf
e6
eb
0e
f1
e0
11
05
35
ec
26
d6
d1
ee
e1
e7
0b
11
f2
f6
f0
1d
ed
e0
f7
e0
19
fe
f4
fc
f1
f5
da
de
09
0a
ec
0c
19
12
37
05
ed
f6
f6
01
f7
0e
01
01
fa
d2
da
14
e4
1d
10
01
fd
1f
1f
ff
0a
0d
fa
10
ec
e6
0e
fa
10
10
f6
03
eb
e6
01
cf
fb
0f
e6
11
1a
03
05
f7
02
f3
ed
0c
2f
f0
f7
01
dd
d5
02
06
fa
ec
ef
09
05
e4
fd
0e
20
0b
08
f9
1f
12
f5
e4
ea
18
01
f0
12
12
f2
f2
f6
03
c6
06
fa
c9
e9
0b
e8
e8
01
fd
ec
f9
19
0a
f1
1b
e9
07
00
00
0e
10
fc
f2
04
04
e5
07
fb
05
0e
f9
08
ea
fb
f3
d6
e7
12
01
08
f8
09
ef
05
1d
05
13
ea
0a
f8
e4
f9
00
f9
e7
07
0f
f6
05
0d
08
12
00
f8
03
09
f5
0c
d9
03
0d
2e
15
02
0c
02
24
f8
1e
05
06
f7
08
14
08
fb
3e
08
f3
03
f1
0a
03
1a
f7
ff
ea
f9
f0
f7
24
e2
f3
e5
f8
06
07
fa
f0
f7
f3
ea
0c
f4
f8
e9
ff
ea
f7
01
03
01
2c
f5
f3
e4
ea
fb
fe
00
ff
df
0c
df
06
08
fe
00
ff
2d
f0
e6
0f
0e
ee
e7
09
1c
07
10
0b
fd
25
04
15
f8
f4
0e
15
19
00
f8
06
fe
11
fc
07
ec
de
fb
f9
18
08
07
24
06
fe
11
09
fb
09
06
fd
e4
1e
2d
12
0a
0b
fb
e4
df
fe
0d
21
06
14
09
f9
01
ff
0c
08
dd
27
1e
ea
0d
e5
06
f8
0b
f8
fb
07
fb
e1
0e
15
18
f9
2c
f3
ea
18
0a
f6
00
1f
f0
ff
f2
ef
0f
f9
fe
eb
0a
04
f9
11
eb
36
1e
1c
09
e8
0d
eb
f9
fc
e3
ea
f4
ed
e0
11
28
e1
24
e8
1a
17
e6
22
19
ff
f1
f0
eb
1c
07
0c
01
07
f8
07
e9
09
dc
fe
fe
00
15
01
14
20
01
14
e7
e2
f0
e9
de
08
1f
fe
dc
09
f1
eb
e7
ff
d3
f4
20
fd
f0
f9
1c
0c
df
06
fa
dd
ea
06
0b
1f
fd
0c
ea
e9
f9
00
e4
fc
1f
16
e1
fa
09
01
f1
fc
f3
0d
0a
fc
0e
f1
ea
f2
f1
02
1e
03
22
f5
eb
fb
05
dd
10
0e
f0
0f
02
1f
f6
0d
f9
f8
32
f5
10
ee
f0
f4
0e
f7
1f
f0
01
2c
22
f9
e3
e9
d5
14
f7
0e
ea
f2
05
0e
20
0f
f2
1a
11
f6
07
f2
0a
03
ff
00
0a
f5
f2
f1
f7
14
f8
01
0f
13
09
fe
11
f8
fa
15
ed
0f
01
10
fa
fd
f1
31
13
02
11
f6
08
0d
ed
07
00
f2
13
ec
12
fe
11
ec
0b
ea
db
27
0d
f9
d6
e9
16
fe
21
f4
fc
09
d0
2b
e1
34
18
ea
2c
1a
18
3f
19
06
ef
14
09
04
d3
e9
e0
f5
e2
27
f2
e4
e7
df
15
0e
1a
ea
0a
df
f6
19
f0
00
f2
fd
e1
dc
21
ec
eb
24
28
14
3a
e5
0a
f6
0e
11
ce
f7
1d
28
0f
14
e6
0d
19
05
ea
d3
0c
ef
d1
33
21
f9
ea
24
fa
0f
fa
e3
d0
4d
e9
e7
2f
f5
17
14
18
19
fe
07
ee
11
e1
0a
26
10
14
10
0c
08
f7
f8
f6
fa
11
10
f3
1f
fc
de
e7
10
e2
09
eb
00
2e
e8
f5
09
e7
e2
23
f1
0b
f5
19
12
07
fc
f5
fc
fa
f8
01
e1
f6
18
07
13
fd
12
ed
d0
df
05
f5
df
e8
df
2c
31
df
09
03
e8
fa
ec
0b
11
f6
e8
fd
0f
07
ec
17
fa
f9
fe
f6
f3
1e
1c
d1
e1
00
0c
d1
e0
eb
2f
16
e8
19
fa
ef
06
00
1f
f9
f6
0b
da
fa
12
fa
16
e0
1d
fb
09
03
14
ff
14
09
f5
21
29
10
ef
ef
14
fd
15
fb
f4
f5
3c
e1
f5
fd
38
14
2d
e7
03
05
19
10
15
28
f4
fe
de
f4
2b
10
3e
46
f6
16
03
07
e5
0b
13
2d
14
1a
18
0a
f3
0c
33
0d
f4
10
f3
ea
1e
f8
f5
f7
03
11
0c
c4
0d
eb
f8
f5
f0
05
e8
05
09
ed
f0
c9
00
de
0f
0e
ea
13
f6
ff
23
19
e8
09
f8
e2
f2
01
0c
c2
f6
25
f3
f3
ff
03
16
f9
0a
12
01
f7
15
13
04
e7
f5
08
1d
da
fc
e7
04
ca
ee
24
f5
0c
fe
d7
1c
05
1e
f2
ed
ec
07
e1
f0
2f
fa
ef
0d
ec
18
0a
06
d7
0a
d9
0f
12
f3
cd
09
04
12
3a
f7
d1
06
19
07
e8
11
ff
06
e9
0b
27
21
f3
f8
f8
dc
20
2d
f6
0b
d9
08
eb
01
30
ed
0f
f5
0f
09
fa
07
f7
0c
0e
f9
35
0d
15
1c
f3
0e
16
f9
ec
1d
e0
e8
19
ff
ec
06
0a
ff
1c
c9
cf
e6
f9
fc
01
ed
1a
eb
eb
17
06
cc
f7
fc
0d
ea
f6
2a
04
1f
06
fe
09
c2
f8
e6
fa
02
11
ed
fa
05
0d
2a
c8
24
17
fd
d7
0c
e1
07
fa
16
d7
05
13
f3
04
f2
04
ef
04
cf
fd
f8
fd
1e
31
02
f1
14
f9
13
1a
fa
15
0f
18
ea
03
0c
01
c8
ec
09
04
0e
18
0e
e8
e0
f3
ec
06
16
dd
e1
0b
e4
03
0f
27
f1
10
f2
e7
fc
e8
19
00
e4
f9
e3
02
1b
d6
f9
ee
c3
eb
0a
10
df
d1
05
24
f2
1a
e2
ef
00
01
e6
23
f9
1f
02
2f
1e
48
04
1b
0e
18
09
03
e9
f3
08
eb
1b
13
f1
d1
df
d6
0f
1e
1b
15
e7
ed
eb
ed
01
1d
01
04
d6
fb
cc
dd
ff
24
03
fc
27
33
ee
00
fc
0f
f5
21
12
2b
e9
13
06
e4
28
0b
0b
06
0e
e9
00
f0
00
0e
22
cf
e8
ee
e0
08
22
0d
ec
ea
e4
e7
c1
27
03
f8
e2
10
0d
e4
f8
db
fa
1d
0f
e2
2c
2c
25
1a
00
ff
ef
e7
d4
ef
0f
fe
03
f0
07
fb
09
f9
f0
f8
f6
1b
1d
fb
25
ef
fe
01
09
29
f7
14
e5
0d
22
e7
1d
c8
2f
fe
0f
14
1f
d7
f8
00
0a
01
0a
fd
13
08
0f
c3
0e
e6
09
06
fb
de
30
03
fd
01
33
ef
fa
1c
0b
f4
0c
fe
c9
08
1c
15
eb
f7
f2
25
e2
12
0f
12
0f
00
20
ea
0d
05
e1
33
fc
08
0e
17
0a
de
f6
fb
1d
fd
28
1f
31
f5
ed
df
e5
1f
4b
f3
03
03
03
15
24
0d
f5
2d
fd
eb
ec
0c
11
15
01
11
e3
20
29
08
0e
03
12
fb
f4
f5
12
10
0b
0b
07
f7
40
e9
07
fc
0b
0f
19
eb
ee
18
12
da
f8
27
19
ea
13
0e
e8
0d
f3
00
ec
20
f5
f7
1c
e3
de
fc
04
ec
14
ed
e7
31
e0
fb
0f
fe
f0
0f
02
0c
1c
04
14
04
cf
fa
e3
f8
37
c8
e9
fa
e8
e5
13
d6
1f
fd
f8
19
ce
08
15
13
37
e7
04
f4
eb
e8
28
ea
eb
0b
08
18
16
11
e8
f3
f5
33
19
f3
f2
f5
02
00
f9
f2
28
e7
17
f1
d4
d6
fd
1b
f1
d7
f7
01
02
e9
d8
14
01
09
df
e9
f7
38
f2
e8
0e
07
14
27
fc
e3
08
18
05
da
0b
e8
19
10
00
ee
01
00
e6
e2
de
27
06
07
f0
03
1d
f6
20
25
e7
df
e7
13
fe
0c
e0
00
f6
19
23
f9
f5
13
0b
f9
1e
0e
de
22
f4
ff
f8
0a
df
0e
08
b7
07
fb
2e
13
f0
0c
0e
0e
11
0a
04
18
f8
04
04
09
10
0b
cc
1b
e7
1a
0a
1f
0b
0e
26
f7
ef
20
08
f8
e6
0b
02
ff
f8
08
e8
e4
da
26
0c
f5
02
01
f0
11
e4
10
0d
e6
f5
1f
ef
10
04
d2
0c
fd
0c
07
08
06
f5
ff
04
0d
e6
e1
00
14
f5
1d
11
02
dc
0a
02
eb
00
f8
02
f8
fc
1e
fb
05
fc
d4
fb
05
ee
e3
f9
e4
02
01
12
05
d1
fe
f5
e9
13
0a
32
15
10
f7
f6
00
05
20
f3
f6
0b
0c
06
44
f4
e6
1a
d6
0c
ee
08
f6
13
e0
dd
f2
ff
0b
34
e1
23
1b
12
f3
ce
1a
ff
e5
fd
f8
02
eb
fb
ea
04
2c
fc
2b
bb
2c
f2
de
1f
f7
ff
1c
fc
f1
c2
0a
14
2d
ea
2d
17
30
17
e7
25
e6
03
f3
00
f6
e6
0b
0a
1a
0f
d7
e8
10
29
11
ce
f4
eb
f7
f5
0b
fc
0b
1d
2f
f7
af
dd
f9
fb
f8
07
e9
09
e8
07
02
05
fb
03
e4
e3
17
d6
00
e7
ee
fd
05
01
fb
fa
e9
ea
f2
f7
fe
08
05
0c
0a
25
0f
0d
23
1d
fd
f9
ef
15
e0
20
fb
06
e4
fe
1d
f6
04
09
ff
13
eb
15
22
09
0c
e2
f9
ff
d9
fe
da
f8
09
fb
41
de
fc
1c
13
ec
e8
fa
0e
33
16
16
c6
e0
e5
15
df
0a
00
f2
06
3e
1f
15
fe
e4
d2
f8
0b
e4
09
f0
19
33
19
2e
23
fb
df
27
fc
03
e1
d6
fc
10
e4
07
07
f8
f5
d6
3c
25
09
f3
3a
22
fa
02
0c
1a
0e
02
01
fa
ea
ff
fc
2d
14
f8
0a
fa
ca
fd
39
3e
f9
12
2a
f1
fe
f2
16
0d
f3
f4
f7
0d
07
08
2f
0e
f5
ee
e6
0c
0d
f8
ed
f8
f6
07
f5
0b
cf
09
10
e9
e2
f2
00
f6
e9
04
ce
f4
f9
09
27
04
0f
11
f6
de
03
ea
dd
ec
fb
f9
e9
fe
14
fe
01
f4
f5
f4
02
1f
ee
fc
da
de
f7
d6
03
f0
d4
f7
cf
09
04
f9
fd
0b
d6
f9
db
fb
10
d2
ec
f1
10
06
0c
0f
f0
0d
0c
ef
e9
f5
f4
f4
fe
3b
3a
f9
e9
0c
03
1e
e2
05
07
f7
40
ff
db
22
06
21
f3
06
eb
e7
0c
26
1a
f3
11
0f
04
26
0f
ec
e7
fe
d6
13
ca
cd
20
21
dd
4f
05
07
ef
fa
13
31
08
e8
0f
f7
37
db
08
fc
f3
e5
0e
01
12
10
0f
23
32
fa
f5
fb
d7
03
f6
f4
14
04
f6
e0
19
15
1c
ea
12
16
f6
0c
c7
00
30
f3
3d
29
1a
04
20
04
f1
1b
0b
1b
0f
09
2f
d0
ee
24
f1
28
e4
da
d7
23
2e
ed
0c
fb
08
f7
24
ed
d8
d6
dc
ee
15
f9
f4
fc
11
0f
e8
e9
0b
22
04
f6
16
06
22
1a
0e
0c
dd
fb
10
10
f6
14
1b
eb
1a
20
14
05
00
e1
2a
fb
fd
e3
f6
ed
10
37
ff
f2
0d
ff
00
22
07
09
18
1b
da
fd
ee
ff
f8
dc
f8
fa
05
fb
15
06
22
03
13
fd
e5
27
1b
02
02
e6
f4
de
fb
1f
16
07
dc
f3
21
de
f9
36
06
dd
13
fb
fb
dc
f1
fc
14
17
df
f0
18
ef
e4
30
08
e3
23
f1
ed
fb
14
e3
03
ea
18
dc
fc
e2
df
1a
f0
0c
08
03
11
02
f3
ec
11
06
20
10
0a
d0
1e
df
d7
27
f3
f0
09
23
f1
fc
e6
13
16
de
06
e1
fb
02
0d
0d
0d
fd
1b
f8
e0
08
04
e2
12
02
c0
09
f2
15
e8
df
f9
09
f7
06
15
22
d1
25
05
f2
ed
f4
15
0e
fb
d9
1f
05
19
f3
2c
ec
ca
0f
16
f3
ec
12
12
e4
e6
27
15
fb
f7
cc
14
3c
0d
14
f2
f4
f9
02
ee
ef
f2
f1
ec
f3
2b
e8
fb
02
15
16
05
21
09
07
0a
ee
f1
eb
0d
34
d9
02
cd
fc
f8
07
01
13
1e
02
f7
09
f2
20
06
fd
07
f3
cf
eb
fc
fb
fa
01
f5
0d
e8
17
f9
ec
0c
17
11
02
0f
ee
f9
d6
fa
05
0c
f8
01
01
f5
d2
fe
1c
f6
c9
fc
f3
fc
08
d7
f9
01
f7
0e
fa
23
00
cd
31
f3
ec
09
13
e9
fa
22
e3
0c
f0
13
04
fa
ef
14
eb
e1
f8
f2
e8
fa
14
25
0a
f5
1e
f7
f7
1f
0d
00
ee
f9
02
f5
1b
08
0e
16
e3
2b
01
19
0e
fb
0a
0f
34
f3
12
ed
ed
e7
fe
2c
dd
20
ea
e5
18
ef
18
0a
ff
d8
f6
26
11
e4
3b
f9
0c
1f
fe
22
e6
0e
02
ef
e1
f5
24
13
19
d5
05
23
d7
03
1b
01
2b
05
c9
ff
c3
1e
f1
ee
0e
16
08
08
e7
3d
24
24
eb
e2
f0
0a
10
f3
22
18
17
ff
f0
f2
ca
f8
29
01
ee
f7
17
15
f4
42
30
0a
0f
cf
19
19
21
f3
09
04
f4
32
02
fd
fa
00
f7
1e
0a
da
0b
09
0f
f8
e4
00
1b
16
3c
2f
05
d3
fc
09
07
f7
f9
f5
00
07
1d
08
00
0b
fb
ff
db
f7
e6
fe
fa
f6
f0
ea
01
14
ef
da
04
ff
ff
fc
07
ef
0a
d9
ce
f5
08
01
ed
15
0f
d0
f8
04
05
f1
fa
09
dc
dc
0e
09
e8
20
2b
f7
02
01
e5
09
45
f2
f3
fc
f3
11
00
19
ee
15
ca
02
01
f0
2f
f4
ef
19
e4
0a
fa
f9
0a
df
41
fa
00
ee
0f
2b
e8
03
0e
e5
f7
2d
2c
ea
1c
e3
1d
f6
37
e4
0a
08
f6
0d
02
02
22
cc
e9
fd
dc
06
ff
25
e2
44
12
ec
ca
f1
d9
f5
20
02
0b
fe
f1
0a
e2
da
09
f6
cf
d6
e4
e4
d9
e9
db
e0
f0
06
0c
f1
1c
e9
da
26
02
dd
01
f9
de
ff
02
10
11
09
fc
12
ec
06
eb
03
e5
0b
d9
0f
ec
04
21
14
e9
f0
23
03
50
19
1f
e6
23
2e
3f
e7
f3
ff
ff
fa
fe
16
ec
15
db
ea
08
fe
09
14
09
40
f9
d8
ec
0b
0f
d5
0d
f3
32
0f
3d
ef
ca
f0
06
f5
0f
15
02
ec
12
01
e3
eb
09
c2
ef
e9
cb
15
07
e1
0b
e8
f5
2a
f2
0c
07
f5
0a
f2
ee
d9
09
d0
f5
03
fc
23
11
23
f6
fa
0d
d1
20
fb
e8
1c
2c
c4
2b
e8
e8
0d
10
25
e7
23
e0
2f
fe
16
03
f8
fa
f0
0e
13
f5
00
36
0c
04
f1
f0
28
2a
0b
f7
e7
ed
fc
d5
0e
ff
1f
2b
e1
de
26
0c
03
e0
f8
1b
11
21
17
04
fe
ff
09
2b
15
12
08
2f
fa
fd
07
f5
34
ea
dd
32
fe
23
fc
20
e9
0c
dc
f5
e9
13
d8
f5
07
ec
f4
dc
09
06
ff
fc
e7
01
1b
1f
2a
e7
f0
18
e2
ec
04
0d
18
ff
db
ff
09
17
ec
fa
dc
0b
49
15
b1
2e
25
06
04
eb
28
f5
13
24
0b
16
ea
e8
fb
f2
f9
03
ed
f7
1f
35
d2
fc
e8
15
15
10
ee
01
25
07
05
f7
0d
de
ec
f2
0e
18
09
06
03
cf
ff
f8
0f
01
cd
0a
01
f8
01
cd
01
dd
00
d7
f3
ed
04
03
ec
ba
07
ea
03
f6
e2
e3
ba
09
0e
e0
d3
04
b9
f3
05
ef
05
f6
29
2a
f3
d2
e9
40
ff
24
f2
06
0a
fa
13
14
0b
05
fd
08
f8
35
21
43
ee
23
ed
2b
fc
06
18
f4
3c
f4
e9
ee
bf
0a
f8
e7
f8
fc
ec
10
04
16
0a
11
00
cb
0f
ec
ea
05
e8
06
0b
c5
eb
ec
ed
eb
06
14
06
f7
d0
da
f4
cc
0b
02
f7
02
10
f8
2a
0a
15
e9
0b
f0
e3
40
d4
38
04
0a
1d
f6
0d
f7
06
ee
10
0a
f1
30
0e
ee
de
35
ea
05
f0
1d
0f
ff
c3
e4
f2
ec
1d
09
02
fb
e1
f5
16
e4
1b
d0
09
1e
05
1b
dd
0b
27
cb
1a
f4
1a
1e
0e
e1
dd
fe
f5
fe
f2
f4
f3
fb
24
f2
19
01
09
07
e7
f2
18
03
02
01
06
22
f8
0e
fe
d8
c7
f6
ee
18
fe
19
fd
0f
f2
20
ec
18
f9
e4
f2
23
fe
0c
f8
17
e2
0c
fc
2c
07
0c
fd
f2
15
fb
14
e9
eb
ef
f3
0c
18
22
27
11
fa
23
43
1e
e1
13
0e
dc
dd
f7
f2
49
33
01
29
e0
0d
1d
34
03
f3
ed
e6
02
df
ff
12
01
f3
dd
e2
f2
f4
fa
da
02
ec
0c
fa
0a
11
e0
18
f2
0d
15
f6
05
16
0b
e3
e7
e1
00
03
2f
f4
03
ef
f0
e6
18
dc
e9
f4
02
1c
18
e2
13
cb
fd
eb
00
02
f3
11
01
0a
17
00
d6
f7
e0
04
13
26
e6
10
0b
f9
25
18
03
e7
38
1c
21
f6
16
f9
05
eb
2e
e1
f6
03
e7
05
fe
f2
04
42
0d
e6
f7
10
10
4a
08
1a
0c
f1
12
2a
0b
ea
ee
24
dc
eb
f3
f1
fa
16
e6
1b
f3
eb
02
19
0e
01
0d
0d
ff
ff
0c
19
20
fe
f1
e5
f2
26
38
0a
04
d4
26
fe
e8
08
f9
ed
e9
18
fc
04
19
18
db
14
f5
f4
d0
e3
d5
0a
12
f4
ed
ef
eb
08
0e
04
f9
06
0f
fa
ec
2b
f3
21
ff
0d
fc
10
ec
08
25
01
d9
00
f4
fd
35
12
14
d6
2c
ee
f7
e8
2b
05
df
ec
00
00
dc
01
e9
ea
fa
ff
fb
15
d3
20
fb
f7
f3
df
25
f5
f5
e9
f0
f3
08
30
07
11
00
1c
d2
04
14
13
e0
f0
03
e7
07
d8
1b
f6
14
cf
0f
16
f8
05
f5
e0
f5
10
e1
ef
f4
f3
d9
e5
de
4a
02
00
df
14
34
01
fc
26
04
12
3a
0b
fb
fe
06
19
55
dc
35
07
f2
0d
d0
07
20
cf
04
24
dc
d2
d2
f5
ee
f9
e6
e9
15
d6
0d
09
f5
e3
eb
0f
f1
0d
ed
07
0a
0a
14
dd
f7
f7
d5
fe
15
14
0f
27
ff
13
08
f2
f2
09
f5
db
da
0b
0b
23
18
06
ed
06
f1
06
1d
13
d8
0d
20
f4
df
16
e8
d4
23
00
ea
fa
33
02
e8
26
ff
f2
06
e7
06
03
02
fa
29
f9
eb
ec
e4
00
f7
0e
dd
20
02
df
00
12
03
f3
e1
0c
08
e0
f9
18
19
dd
0a
07
d9
fa
07
0f
08
0d
ee
f4
0b
14
eb
14
df
e9
0d
1c
0a
0a
f3
f1
e7
f9
ce
13
be
09
19
fd
0c
df
cd
15
02
0f
0a
f8
0b
12
d8
11
f5
0f
0d
0b
02
f4
2b
d2
ff
03
0b
0d
f0
1a
e7
f6
02
ff
09
0e
26
dd
ee
e9
1e
fd
37
0e
05
ed
1e
f1
04
08
1b
14
21
cd
ea
04
d3
fc
ed
01
04
0a
1c
ea
0e
00
dc
0c
07
e8
19
f8
f1
e2
e1
20
d7
1e
f1
16
f7
d7
f0
17
e3
f5
f6
02
fa
f4
f1
e9
f0
0b
f0
f6
eb
04
de
00
06
ee
10
23
17
f2
02
f3
23
eb
dc
01
26
f8
05
00
02
1d
fd
0e
f1
20
01
02
01
09
f1
25
ee
fb
e8
ef
f6
03
2c
f5
e6
e8
12
f5
03
0e
f0
fe
eb
e8
01
e8
ff
ee
04
0e
ff
02
2c
eb
0a
dc
11
2f
f9
05
ec
05
2d
13
1d
ff
d3
e8
cf
ff
0a
02
07
f7
04
e4
fa
17
0c
06
02
01
d9
fb
e4
01
ea
15
20
f2
14
15
04
e4
e8
f8
09
e4
36
e3
ed
1e
ff
d9
05
00
f2
ec
17
f3
ff
f9
f9
df
16
ef
10
ef
0d
dc
01
23
0a
f7
f2
12
17
fd
fb
fa
ed
f9
e6
f0
15
d8
17
e3
00
01
15
d0
1e
27
ec
13
14
f3
df
19
f2
ff
19
f2
15
f6
08
0e
fe
0c
08
0d
e0
f7
12
33
df
e9
de
e2
00
12
0c
eb
ea
16
f1
dc
35
2b
31
0c
e6
ff
ed
f0
20
01
11
f6
15
ff
f6
f2
e6
27
0c
e6
02
ef
21
fc
17
07
d8
03
02
fe
f2
f1
fd
fb
2b
09
f3
f0
1e
0e
06
e3
13
f3
e2
f8
f0
17
23
0c
f1
d6
01
f4
e7
0a
04
ff
05
15
f6
fa
16
18
fa
f4
23
0b
09
ff
2d
40
f3
f5
fc
2a
e4
f5
fb
d5
e0
fa
e7
1f
02
f6
fe
08
f9
d9
04
26
0b
05
ce
fa
ee
08
fe
0f
16
ff
20
3e
fe
f7
1d
16
e3
05
0e
15
14
ff
06
00
21
0d
0e
e4
12
02
08
0b
fb
ea
e5
07
f5
f8
fc
ec
07
05
1d
14
fe
fe
10
e5
08
07
f1
db
07
d5
15
f8
f5
14
ed
d6
ee
e1
05
06
0f
ee
04
15
24
f2
18
f5
16
1b
1d
18
ff
0c
1f
1e
0a
07
10
35
03
18
0f
09
c5
1e
25
15
e8
fa
fd
0c
f0
05
33
ed
f0
ee
fa
fe
10
07
ec
0b
ec
fd
11
fd
00
f7
ed
11
eb
05
2a
08
d6
0b
ed
03
12
31
f5
f1
1a
08
ed
1b
f3
24
ed
0d
14
00
03
eb
0e
e2
cb
de
f1
1e
f6
15
da
fc
11
27
06
de
03
f4
da
06
05
02
ff
14
fc
ff
12
0d
0a
24
15
26
fa
25
01
e3
03
01
12
fb
0a
0c
0d
ec
e0
fb
ec
ff
11
14
18
07
f2
1c
1e
07
d1
0f
ed
f3
0b
e8
e3
f9
e0
f0
d4
09
d0
f0
f9
17
27
f3
f6
01
ef
09
0e
02
d1
e2
10
1a
04
e5
e8
09
17
eb
0c
df
f6
22
f4
0f
14
07
d8
0a
0a
05
11
e3
07
d4
1b
0a
f0
05
ee
0f
fe
0f
12
08
0c
cc
02
08
21
fa
ef
dd
f2
0a
1e
e3
08
18
19
f6
ed
ec
dd
f3
f2
f5
cb
0c
47
0a
ee
02
0a
f4
d4
04
f3
0b
e8
ee
fd
05
15
e8
f1
0f
00
13
01
00
ff
ee
02
08
08
fc
0b
0a
1e
ea
27
0f
07
d8
f7
f9
3a
1b
2a
f8
e3
05
d8
0b
18
0e
2d
09
f3
12
ff
18
e8
11
fd
f2
0c
f2
1a
fb
18
05
02
e2
03
0b
fa
05
0a
05
fc
ec
d5
dc
ed
dd
ea
03
00
e7
d1
f8
e6
06
fe
32
f8
13
04
d4
10
ff
1d
fd
09
14
fb
17
04
03
bd
1f
fd
f9
da
03
f9
1a
0e
f5
18
0a
24
f0
0d
01
26
1e
13
ff
fc
05
01
f6
f7
06
f4
13
35
fe
fd
f1
13
28
fa
0a
0d
fe
2b
ec
ee
e2
0f
16
f8
16
fe
03
26
e6
f9
08
f2
2d
08
01
22
e3
fd
01
fa
de
ff
11
17
f0
0e
0c
f6
0c
f7
f2
f3
0e
d5
ed
02
0b
0b
e9
10
4b
ff
0a
ff
fd
1d
fc
10
13
e3
fb
f6
01
f7
fa
11
1a
19
0c
d5
e9
ef
fb
1b
25
22
fe
d4
07
f0
00
15
ee
2b
dc
e2
e2
d7
f6
00
ea
01
12
20
fd
1f
fa
03
20
11
05
10
f9
f1
07
2c
e9
ed
11
d6
02
fa
1e
46
f6
f1
f7
d5
f8
fd
e4
ed
e3
f2
e5
e0
02
2e
04
fd
08
09
ff
f6
02
20
f0
ea
f8
17
04
1a
44
ee
f3
0b
19
f4
f6
f5
07
fb
05
f9
22
0c
fe
de
f0
31
0a
1b
3b
f9
db
07
f8
fd
01
0d
e6
1a
f4
e8
13
ed
cc
06
28
d6
0d
f4
e7
0d
1c
1e
f6
ff
38
28
e6
ef
05
fd
f6
fe
e5
10
ed
ff
d8
1f
f2
18
d8
fe
25
e1
06
32
04
dc
f3
ec
f5
d8
1f
1a
05
d3
f2
d8
f7
03
ee
06
eb
e1
18
e3
0f
cd
ee
13
0b
06
ec
0b
f8
12
f7
2b
16
18
2d
f2
ef
e8
dc
0f
04
17
1a
ca
17
14
12
00
ff
f2
f0
f3
ec
fb
08
12
f6
fe
f6
f9
2b
f2
fe
19
1a
e8
eb
d9
00
05
cb
f3
0b
ee
0f
1d
f2
01
0a
20
d7
1b
1a
fa
1b
22
d1
02
fc
37
0c
02
ff
15
05
f9
df
ff
f9
f9
13
00
14
f3
0f
15
e2
ec
ef
fe
eb
f3
d7
21
df
ff
db
f6
16
f5
26
0e
05
f6
19
f5
ef
f2
29
f3
01
04
0d
10
0f
fc
f2
d9
f5
1e
ff
23
fa
fd
e0
f0
f4
22
15
1a
e8
ee
0b
fa
ce
15
ee
f6
fb
14
c5
ea
11
2f
20
ff
0a
5b
13
10
11
f7
fc
de
0e
f4
ed
0c
e1
15
fd
e9
10
ec
fa
16
e1
04
09
01
f2
ff
f5
1b
d8
12
fb
46
17
0a
e1
d1
10
0e
ef
f2
28
ed
ff
c7
29
f3
01
f1
0b
20
fb
f0
f8
2b
00
15
02
fa
19
1d
f3
22
21
0a
06
1a
08
29
cb
e6
24
ee
e1
0b
c1
dd
f3
d8
14
1b
e5
09
de
1c
f1
fd
e6
f1
d8
1e
fd
01
15
07
e4
0a
17
08
fd
d3
f4
1d
ec
f5
fa
cf
0d
00
dd
e7
f0
13
f7
dc
e7
ef
ec
1d
08
dd
19
2a
fb
07
21
08
fe
d3
fd
f8
3a
0f
10
db
f7
04
fa
dc
f4
00
26
fb
fe
09
e5
24
0a
cd
f2
18
0c
26
13
0f
13
f3
07
1c
c3
2e
e8
de
e4
f4
19
02
e1
01
d9
03
13
08
21
16
f7
2a
e6
32
ea
f6
fc
1f
0b
e6
07
05
f2
ee
f2
03
13
28
ee
26
04
d7
ec
e3
18
01
e5
f9
09
0f
11
f0
03
fe
33
14
0a
ee
da
e9
f8
f7
d3
00
f1
df
06
d4
f6
41
e2
f7
ef
f2
10
21
35
22
1f
da
f6
e3
ea
f9
d1
01
f4
3b
ee
17
2a
dc
f7
e9
fc
fa
db
01
07
02
f0
16
ed
06
0b
14
f9
f4
13
ec
ec
d5
fb
e3
c8
ed
f1
14
d9
e9
f5
f5
fd
0f
f5
e6
fd
ea
ff
02
29
07
11
df
10
17
da
f9
17
e5
f1
da
1c
32
1f
fb
21
e0
ff
f3
e0
16
05
ed
2f
e0
0d
fd
f0
29
eb
da
08
1b
c5
17
20
d2
e6
36
f3
f2
02
12
1c
05
14
10
07
f4
0f
fa
f4
15
11
e5
11
20
e8
0b
1a
08
fe
ef
08
c9
06
03
e6
2c
15
fd
f5
f9
f7
10
07
fd
0e
1d
fd
11
fe
d8
df
ee
e0
38
ef
0e
f3
f2
f0
25
2f
fd
f0
e3
f7
08
e6
40
28
ff
f7
ff
00
fb
11
1c
fd
f9
db
f1
fa
e0
e7
11
f5
f5
bf
dd
37
ef
0a
dc
06
f4
d9
ff
05
df
02
f5
19
09
1f
0e
0e
ed
03
02
fc
00
ff
0b
ff
0c
c4
f4
d9
15
d7
dd
eb
e4
ea
09
05
0c
e9
17
22
f5
09
25
04
20
e8
18
2f
19
f9
de
e3
f6
e7
00
03
d8
f1
da
09
fa
08
16
0f
ef
06
e1
e3
1f
19
1d
ec
15
fb
c8
25
ea
1b
10
ee
ff
f2
15
28
04
fe
01
f0
08
1e
14
ff
10
fa
ed
e8
ea
0c
c2
2b
0f
25
ef
1b
09
f5
13
ed
07
f3
c2
06
fb
00
06
10
3c
f2
d5
0a
e2
29
fa
04
fa
0c
01
f3
06
1c
ee
25
14
1a
e5
15
08
fd
e6
45
19
16
fe
fe
f2
2e
f3
0c
fb
05
1c
ed
00
f2
f2
09
17
20
0f
36
17
18
ec
e7
00
f3
f9
fe
2a
05
12
00
00
e9
ff
00
e8
02
12
05
1e
23
ed
c6
e1
f6
b5
0a
31
ff
f4
f0
1c
d6
35
e4
07
0f
11
f9
34
12
03
04
f3
e3
ef
09
06
29
cd
e6
ee
e2
fa
21
10
f5
2d
11
11
19
01
0d
e1
16
07
14
07
e6
16
2c
0e
22
f1
0c
2a
e7
e3
18
1a
0c
04
f0
26
e9
ea
f4
fc
20
39
0c
d6
09
ff
fa
20
15
09
e3
f4
1c
f5
0f
e0
2c
11
f8
03
ec
fc
de
f0
fb
e1
05
fe
01
02
ed
2f
dd
ec
f7
f1
0d
07
2d
de
e7
06
ff
19
07
15
01
e9
f0
0b
03
d6
0d
ff
0e
1a
e4
01
12
1c
3c
f1
1a
f8
f0
fe
1f
23
1d
f8
06
ee
01
01
0c
ff
ed
10
fc
ff
28
19
0b
de
36
ec
0e
11
09
0f
21
f2
e4
e3
0a
00
f0
e6
08
f6
e2
29
df
ff
f0
36
e1
00
f3
08
fa
f2
0a
ee
fa
04
ec
ef
18
ed
ea
fc
07
fb
30
f5
eb
0a
fd
09
fb
11
d6
df
f7
09
de
f0
28
f1
e9
ea
f1
df
07
f8
0f
0b
25
f5
d3
df
e1
fb
02
f5
1d
ec
15
10
13
03
da
0b
f0
e2
f8
0e
f9
1d
09
ed
12
d7
12
f5
fb
16
f2
ee
09
1e
18
0b
13
d3
f8
d5
fa
c7
08
11
f0
dc
f7
f5
02
fc
f7
18
e3
0d
ed
f1
fd
fd
15
14
2f
f3
2b
04
2a
f3
0d
f8
19
0c
0f
f0
04
12
fe
fe
d1
0a
d5
0b
22
14
f6
13
0b
31
f3
0a
e6
dc
fd
df
ef
df
26
35
0d
fc
df
06
10
f5
f9
dd
e2
f9
0b
06
0f
e7
10
f7
13
1e
ec
fc
24
ea
15
14
f0
07
09
11
09
0f
06
19
f3
0a
e5
d4
dc
00
f7
37
f9
04
25
26
36
f5
fa
e3
f9
ed
ce
37
04
0a
06
fa
22
11
02
ff
fc
f2
f3
ff
e1
18
f9
ff
ed
1a
fc
d9
26
05
1f
18
a6
ea
12
f0
f5
fe
f1
09
f8
ed
30
be
f9
33
08
e4
35
0d
14
13
fc
1b
0d
00
f9
1c
18
48
f0
db
ea
f8
1b
00
0c
f1
09
07
48
1a
ee
f9
df
36
12
ef
ff
1f
ff
f0
ff
13
02
13
0a
dd
ba
fe
24
f1
f0
d2
fc
f9
12
d4
0a
02
d7
e4
d5
26
08
00
0b
ef
17
f7
12
fd
08
c5
08
cf
07
35
eb
0b
31
ef
09
0d
19
e9
f9
0b
0d
f5
d5
19
09
fb
00
0b
d0
df
d5
c2
ea
f3
0a
18
f0
11
f4
ea
09
08
fd
fe
03
12
ec
08
08
e3
0d
18
12
2a
f4
12
ee
08
fe
01
0c
e2
04
ff
1a
1d
f4
ed
05
23
1c
cd
ec
e9
fc
f4
00
0e
00
f8
d3
ce
0a
32
12
ff
18
07
e9
e9
35
ff
05
19
15
dc
07
e3
04
f3
e0
06
1a
e6
cc
00
0b
eb
10
f1
11
0d
fe
19
27
17
ed
1b
0f
d9
ae
ec
f2
e4
ee
0c
00
d2
00
ee
29
e0
0a
14
ea
33
1a
f8
1a
0d
00
0e
0e
fc
f5
e6
10
df
24
0f
c6
0a
dc
f5
f3
18
26
12
e9
16
26
1a
0a
c7
f0
19
ed
ff
08
e6
06
f3
d1
09
24
f5
e2
f7
f0
1a
eb
f7
e7
16
16
00
0a
20
0b
19
d0
1c
f6
ed
fa
f7
da
16
0d
ed
f9
16
e8
0b
d7
de
fb
2e
01
2e
ef
f7
02
1f
11
0e
d7
05
ef
f2
17
02
15
02
20
e4
09
24
ef
02
17
f8
ec
00
23
d9
25
c9
e5
de
eb
e3
0c
0f
08
19
03
1b
0f
0c
25
11
d8
34
07
f1
0a
ff
f9
f2
12
eb
bd
02
2c
d3
02
1a
18
f7
e7
1b
f4
07
fb
0f
03
2e
e4
e8
17
0b
10
03
32
0a
14
0b
fa
12
cd
e8
f7
ef
0c
f6
12
fa
de
ec
e9
1f
34
fc
fa
1b
ec
eb
fb
f2
ee
fc
f7
27
05
1d
fe
f5
14
f3
2d
dc
07
06
43
fb
d3
c1
e7
f0
14
f2
1b
f7
00
db
0b
04
e2
ec
04
df
f9
fa
17
0f
05
f3
e7
f4
13
eb
ec
da
22
2c
0f
06
f1
0e
1d
05
d1
0c
ed
12
33
21
02
08
1b
02
fa
1e
1f
18
f6
30
d2
05
ce
16
12
1c
14
0f
fe
1c
ef
e7
fd
f5
ed
e1
f5
0d
cb
e6
27
f2
ea
f8
f6
fc
da
cb
f8
ea
3f
09
11
ee
cd
db
11
d2
e7
e8
fd
f9
f4
e6
14
c8
fa
ee
03
d0
e7
d4
ee
f5
1a
ee
13
e0
fa
0e
d8
1e
02
fd
0c
f1
f9
1a
1b
02
f8
02
12
43
08
01
e6
0f
eb
e2
16
d4
d9
e7
fb
0e
27
ff
d3
fd
dd
d8
ed
f1
03
ed
e6
f3
0c
10
ff
f6
d1
03
1c
e7
1c
ed
0d
e4
22
f4
0c
d6
0e
3e
09
df
0f
f5
03
e8
2b
0b
ed
fd
2a
e8
fe
ee
ef
d7
f1
fc
f0
be
09
d1
fc
11
12
26
0b
02
00
09
15
0c
14
0c
f5
07
e1
13
26
f9
1f
f0
00
f9
f8
03
fb
31
07
eb
f6
1a
e6
e5
0d
f0
ed
08
22
11
07
0b
32
00
00
db
16
d6
5a
35
d0
2d
e6
0c
fa
ed
f9
d4
45
ff
0a
eb
0b
1c
fe
f0
0e
fe
46
06
dc
12
e9
21
c5
04
02
e0
d9
09
e7
ee
f4
11
ee
da
e2
14
04
e9
4a
08
25
15
f2
0e
08
fa
05
c5
09
e8
0b
23
f6
0b
de
21
fc
f1
09
f0
30
18
07
ef
e6
06
fc
0b
1d
17
0e
1a
00
d8
eb
0d
0b
0b
fb
24
26
f8
22
ff
34
f9
26
34
d1
fa
e7
0d
0a
f1
f0
d6
1b
fb
e4
07
1a
20
33
15
0a
f9
0e
0f
0d
3d
01
e8
ef
fa
d4
05
d9
ec
dd
25
fb
ce
21
01
05
02
0c
0c
2f
fb
20
15
d3
f9
38
fb
eb
ed
f7
ed
10
f9
be
eb
13
01
fa
f1
fa
20
0e
15
0b
f1
e6
f7
19
07
e7
0e
1c
f6
d9
f2
ea
cf
2b
0a
1a
06
22
d2
ef
0e
00
09
e3
23
d0
00
d1
ef
fb
ed
14
df
41
f3
fa
ff
cd
0d
01
12
0f
fc
19
fe
13
df
00
36
03
1b
f7
f2
0b
07
de
01
25
d2
e9
0d
e4
23
f3
d7
00
b7
02
d6
11
1b
17
df
26
c2
21
06
e7
fe
01
17
f3
22
e6
0b
10
1c
02
10
02
fc
d7
13
03
02
07
1f
0b
0d
22
10
24
ff
ee
29
ea
f0
fa
cf
1e
f1
43
10
3e
0c
e3
0d
f5
24
0e
1c
01
dc
f6
10
18
22
10
d4
fa
f0
ec
0f
05
06
e1
09
25
f6
ef
09
0c
0d
04
eb
18
17
dd
f5
05
1b
ea
eb
00
d9
f5
e6
f3
f7
f4
ea
ec
10
fc
19
e2
df
08
21
01
0c
11
da
2b
ff
09
24
ea
f1
27
fa
36
d5
c8
22
e1
0d
db
15
0c
06
f8
1b
08
01
f7
f0
1d
f5
13
0e
e8
dc
ea
07
fb
09
1b
14
00
e3
11
0c
1d
03
06
ec
df
da
ef
08
1e
08
23
db
0b
1e
e7
ff
02
ff
f3
d3
f7
e5
f2
10
ff
ee
03
ea
fa
ea
f3
e3
e4
1d
f8
00
11
02
0c
f9
ec
f0
06
08
ea
16
08
16
37
d2
07
f5
2f
04
19
15
02
28
02
2a
f1
0d
00
08
fa
e2
08
02
fe
f5
27
2a
22
f3
e7
0b
f0
0d
05
ff
d4
00
2b
f3
17
ee
0b
d7
e1
20
f5
e2
f5
08
ff
1c
df
1c
eb
1a
07
2f
f2
12
d9
f8
c6
1c
11
08
2d
06
12
16
18
fd
0f
ea
f4
fd
00
dd
f9
20
11
39
e6
e9
13
f3
f5
23
12
d6
ec
1f
c4
ff
ee
cc
e7
ca
ff
19
1c
e5
00
f0
0b
04
1b
09
31
00
20
fb
ee
e7
10
04
f3
db
e9
ff
c5
1b
df
f0
19
0b
48
f7
0e
06
e8
fa
ec
f0
dc
fe
ec
fb
ff
fc
f0
01
cf
e2
ff
f6
05
03
06
f4
f2
cb
46
0c
e8
fb
fc
e4
0f
12
20
f3
0a
2f
d9
f8
13
ef
1c
cf
f3
ee
f2
0e
2a
13
d1
0d
0c
19
f3
14
1b
11
fd
ef
f3
05
ff
02
4e
28
ff
36
d0
d3
1c
f4
05
0d
1c
fa
bd
11
24
0e
16
2b
ee
07
f7
e7
00
13
09
09
14
23
ea
0c
ce
12
15
13
df
fb
e2
fc
03
e5
fc
f4
d6
ef
fe
0e
f5
dc
0e
21
e1
f9
ea
e7
de
f6
08
f7
0a
d9
f7
01
f1
1d
20
20
e3
11
04
1e
d3
19
19
ee
fc
0f
12
1b
f3
e3
0f
27
d7
f4
f7
08
f8
ee
ee
e3
d7
15
e5
06
e8
f7
03
e9
d5
f3
f8
19
1b
f1
fc
23
17
ee
e9
0b
f3
09
d9
f1
ff
e5
01
16
16
05
d6
0e
29
d9
1d
12
13
1a
14
34
08
f9
e6
38
0a
1f
20
08
12
eb
c3
f6
0c
0c
fc
0a
02
f1
10
eb
06
03
00
26
e2
ee
07
11
19
23
22
ff
dd
fd
2b
0a
e3
05
fc
01
eb
e5
0d
f4
0f
1a
f1
13
15
01
25
07
05
f7
1d
e6
e7
f6
ec
17
28
13
2e
16
fd
05
e4
00
18
12
13
fb
00
05
0f
08
df
1e
19
0b
db
10
fa
e5
f9
dc
e7
f7
0d
15
f7
23
17
27
fa
fb
e1
ee
ff
01
fa
e6
21
0c
12
0e
f5
00
ee
f2
ed
f0
0b
00
1d
04
0c
f6
ff
0e
13
e6
fe
ed
e5
ef
1f
11
05
ee
f6
f6
dc
09
f2
2c
1a
fb
ed
08
ef
e9
e5
02
0b
e7
df
ee
e6
23
03
ff
f1
cf
e0
22
e3
03
f6
05
17
05
f6
13
d2
25
0e
fb
e5
0b
09
f7
da
2e
0a
04
ed
1d
f8
11
fc
ed
eb
fe
ee
08
06
ec
fe
d0
ec
f9
21
04
23
ff
e7
1c
e7
1e
19
f2
09
f2
e2
fb
fa
df
fa
44
ee
09
27
0a
1f
1a
1e
19
ff
f2
f7
f5
fc
08
09
f3
1c
ef
f5
e0
fa
f9
fc
d7
fb
dc
08
0f
d0
fb
e1
f6
f2
e1
cf
0d
01
fd
1d
f5
f5
24
16
f8
d0
f5
08
f1
1d
fe
12
01
17
00
f7
13
02
18
1d
17
fd
01
00
1f
1d
f0
1d
f1
19
29
22
f2
02
df
17
d1
1b
f0
e5
f6
03
e3
1d
ed
f5
0f
48
1c
e7
01
f8
f8
18
ff
ff
de
ff
04
db
15
28
05
0d
29
ec
1a
e6
0d
03
fa
f6
c7
f7
ec
f4
d7
20
01
f9
e3
c6
04
fc
fe
ea
e3
16
cd
fb
12
e4
dc
0f
10
00
00
ff
07
42
c2
ec
e8
0e
1a
04
f3
fc
15
e7
14
e3
0b
0f
ec
00
1a
0f
0e
20
37
05
e8
fb
ff
00
ea
28
f7
00
14
01
f7
00
05
0f
0a
41
17
0b
f5
0f
22
e0
da
ec
e6
19
f1
f6
dc
ff
10
f1
1e
dd
11
fa
ea
00
02
db
17
15
06
03
e6
18
17
15
15
02
0d
01
0b
21
06
04
04
f5
11
15
fe
33
05
ed
f3
ce
fc
f8
08
11
f1
ca
fe
f8
18
24
ec
fe
1a
0c
f8
cc
ee
16
06
06
08
da
fb
ec
01
03
00
dc
e4
f8
ef
ec
01
1b
fe
da
e2
11
f1
e7
02
04
05
0f
14
de
0e
05
f5
ee
1f
02
14
00
15
03
ff
fd
25
10
27
10
f3
ee
f9
0e
1a
24
08
fc
fd
f9
da
01
ea
0e
12
eb
ef
f3
e5
11
2f
e4
f7
25
fa
01
1d
11
02
03
34
0a
fd
fc
d7
ff
0b
ef
0d
df
fc
de
d8
21
06
e1
12
13
20
16
0e
19
1b
3d
0c
fd
e5
ff
01
08
0b
f9
11
04
17
d1
ee
08
e9
05
ef
09
20
fe
f5
e9
01
ff
20
16
05
02
07
e7
01
1b
f4
db
17
eb
22
f0
f8
1b
0a
1b
01
22
f3
f2
01
ea
fa
ef
ef
0e
d7
f7
ed
fd
0e
f9
cc
f9
04
0a
22
db
0c
e3
03
19
ce
f1
fa
f9
04
16
05
13
12
e0
0c
f2
0e
25
ec
eb
e9
de
eb
f4
09
f9
f6
01
f4
02
01
00
eb
f0
f2
0d
eb
ed
e4
15
f9
fb
e2
1f
20
f7
f2
01
ff
1b
07
07
17
1f
1b
08
de
07
0d
f8
0c
02
12
03
18
02
15
dc
f5
11
17
10
02
eb
1a
04
e6
01
01
17
f9
1d
e9
28
f5
f7
1a
db
12
ee
10
ff
0a
1e
1f
fb
07
04
16
0b
f3
2c
05
f2
f9
e3
01
f5
d8
f1
1c
eb
e3
fb
03
1d
18
f3
e6
f3
04
11
06
e1
1b
01
db
1d
04
f2
36
06
c7
e9
fb
23
0c
0c
14
e1
03
fe
20
df
10
08
00
f7
02
ed
d5
11
08
e1
fe
03
e6
ee
0b
f7
06
0e
16
cf
fa
fc
18
01
ef
22
03
f9
eb
f6
f6
1f
07
04
ed
1a
0d
08
f0
e8
fc
f1
f2
f0
16
11
12
00
ec
f6
08
00
fe
0b
05
16
e0
fb
fe
0f
27
e4
03
e2
de
f2
e0
df
f4
2d
e6
f7
33
0a
df
11
00
06
05
10
fe
d3
e7
01
01
2b
15
fa
fa
19
09
ed
f4
08
2b
f2
e9
1f
dd
fc
22
f5
f7
e0
f6
e0
00
1a
01
0f
01
ff
20
1e
15
0a
10
dc
09
eb
04
e5
f3
fe
05
f7
0f
e8
02
ee
09
e3
ed
25
09
03
fa
13
00
16
17
1a
fb
30
db
e5
19
fd
fa
0b
f7
ff
ff
f8
eb
1c
09
08
12
fd
fb
02
16
2b
f3
0e
dc
fb
f7
0b
f4
ee
fd
0b
fc
db
fe
f8
23
05
f6
fd
1a
f3
e3
e0
fb
19
11
d1
12
f0
ff
df
0f
f1
fe
fc
01
0b
fe
00
14
ef
ef
ec
f5
03
fc
f4
e9
f9
eb
2a
dc
0a
00
f8
f8
ea
f2
07
f4
df
e5
1d
01
07
f6
f2
fa
ef
07
10
e9
12
f8
fc
f4
13
0f
e9
13
05
0d
f5
07
e3
0f
0a
10
12
0e
03
fd
10
f4
f0
2e
f5
2c
06
07
fa
00
16
f5
1a
eb
19
09
0e
fa
05
ff
d0
eb
eb
0f
e3
0f
00
11
f3
0c
08
f1
08
0e
d8
07
06
1e
f5
f6
1b
04
fa
17
07
03
10
f7
2c
28
09
00
fa
03
e8
18
33
0b
fa
df
f3
f7
25
f0
f8
05
dd
fd
fd
fe
fe
11
22
1a
07
f2
18
30
26
df
bb
e5
15
d4
24
f4
ff
e7
02
ec
dc
1f
fc
e5
02
03
13
f2
15
da
47
08
17
ff
fd
1b
dd
19
16
c2
44
14
d4
fe
3b
2f
0f
1e
ff
0a
31
fc
f7
d3
f6
24
ff
e8
05
18
e1
18
0f
18
1b
fa
03
ef
08
14
fb
f5
04
16
0b
0d
f6
2c
cc
25
d8
dc
0b
36
0a
1e
0a
12
20
f8
f9
03
df
dc
ec
e7
d8
17
04
20
ee
ff
10
08
e9
34
ce
d9
1b
fa
ff
c9
ee
01
f3
fe
04
c0
04
c0
2a
ed
ee
e9
d0
32
e9
0d
04
e3
f8
ec
0b
fc
fb
03
f5
17
23
34
05
fc
1e
fc
16
cc
05
ee
03
05
03
dc
fb
00
05
d1
df
03
0d
de
26
d7
e8
ed
11
18
14
0d
f1
ee
26
de
0e
f8
22
1f
fc
03
de
33
dd
f7
09
f3
d4
ee
07
df
09
2a
f9
15
1a
bb
df
db
02
09
0a
26
19
2d
b8
cd
14
20
e4
14
20
ee
d0
35
f9
47
08
05
46
29
f7
06
22
f4
ed
02
de
de
fb
d7
ea
20
03
ef
f2
ea
10
fe
fa
f5
e5
df
ea
e3
ff
ff
07
eb
ed
18
04
2a
00
16
0b
2a
04
dc
08
01
08
fb
22
f0
08
0c
fa
f9
f3
1f
21
fd
c4
ee
fa
de
1b
1a
0c
01
36
fd
e2
e7
31
07
27
eb
f6
ee
f1
0b
e2
1c
08
fd
c8
f4
f2
ac
e2
0c
10
25
16
1f
f1
e1
02
f1
fd
1b
03
18
f0
0f
20
f5
24
db
ef
36
11
0f
f8
2b
17
06
f8
26
0d
28
ed
e3
10
16
e9
2b
30
fa
09
29
fe
03
de
fb
e2
f8
10
f0
f6
20
ef
1b
12
23
19
04
e2
0e
02
e3
08
05
d1
05
0c
ff
30
0b
20
d8
e1
c5
10
ef
0a
f2
b8
de
09
20
d1
f7
01
01
fa
de
10
1f
04
e3
20
06
14
ec
20
05
0d
14
eb
19
e7
e9
11
07
e6
dc
22
f3
bc
09
11
ec
03
f1
dc
01
28
1d
40
f9
01
45
e2
ee
17
1a
cd
0d
ef
da
0a
e7
fa
f7
06
f7
fc
fd
0d
f8
e7
fe
0f
f9
47
fc
04
f3
f8
29
de
1a
12
1d
d8
ee
0d
01
ee
f3
d3
e7
f4
00
f5
c6
f6
14
34
da
00
02
fb
ed
f8
f6
fa
0c
04
f6
f8
07
fc
d6
0e
04
05
cf
13
03
f5
04
13
06
ea
21
f5
27
cc
f5
ff
55
18
f6
10
41
02
17
e7
d8
28
31
08
b9
1c
1e
05
f9
29
fb
25
32
ea
f9
10
04
e7
f7
00
f9
e5
fe
01
e8
f0
f7
e6
fa
26
f3
db
f5
02
f9
ca
f8
0b
2b
1b
e6
ef
e2
04
08
26
e7
f8
fd
ff
e4
10
cc
ff
d4
17
ed
20
c7
ed
22
14
22
ef
18
20
1d
1b
0c
d7
04
0f
ec
f5
19
f3
0d
0a
22
e4
05
f2
15
e9
f4
e4
fd
0c
04
c8
f0
01
0c
f1
42
d2
f3
00
e6
0e
e8
05
09
10
0f
11
09
ea
0c
26
0b
1d
e5
09
fd
18
fb
ea
d6
f5
07
03
13
f7
1e
ef
01
0e
cf
e1
0c
02
04
cd
f2
f5
f8
09
bf
f6
18
0f
00
f9
ed
06
1a
2e
f3
e7
f3
0a
f3
05
d7
33
06
23
18
23
f1
ee
20
fd
f3
e6
da
1f
1b
01
f4
f3
1e
0e
f2
f2
f8
f8
f3
f4
e5
f3
fa
f9
05
0f
f0
0f
0b
30
14
06
0e
09
f2
09
03
09
de
09
0d
ff
f6
d9
01
0a
19
f7
15
e8
ea
fe
f6
eb
f7
06
0e
eb
f6
fe
14
e9
0d
f0
09
31
07
f9
f2
19
1c
e8
10
1b
0f
35
1c
26
17
09
f4
fa
01
03
e9
f4
e6
18
ca
f0
0b
17
fd
e4
f6
25
1b
12
f6
14
0f
f6
11
ea
d4
fa
00
e6
ef
1b
ec
f1
f2
f1
25
1a
ed
e4
fd
19
2e
16
eb
f3
18
02
07
f7
1d
04
06
fe
fe
0b
f6
14
23
16
10
d2
12
cb
fe
de
3b
0d
17
0b
0a
fe
00
16
bb
10
04
c2
36
e8
03
40
e4
ff
27
0e
f7
0b
14
27
23
ea
c7
e4
e9
1e
2b
f3
e7
e2
1e
04
f5
f5
06
e6
19
ed
f2
05
21
00
f8
0c
04
04
00
e0
1a
f5
06
f0
fa
f8
fe
0f
22
f8
11
d8
1c
24
fa
04
d2
00
f0
00
f9
d7
d7
38
f3
1d
ec
04
0c
01
f7
ef
e1
bf
02
f3
fc
fd
ea
f5
02
ce
22
07
fa
f5
2c
38
e8
d4
e5
24
ec
ef
f3
09
06
fe
fa
fc
13
e1
ff
ed
ed
f3
ee
ed
fd
07
21
f3
17
e0
20
f5
fd
17
02
f4
07
f4
0d
0a
f7
f4
10
01
fc
ef
ec
e8
1b
f3
2d
2e
c4
ff
fb
05
25
fa
1e
fb
29
1e
df
ee
ff
04
09
01
e9
00
f6
fb
18
00
f6
f5
0c
c9
fc
bc
d9
f0
18
17
04
f0
d9
fb
1c
d8
10
f9
fb
f7
13
27
f1
e5
2f
fd
08
1c
fa
06
d5
2d
e4
09
ff
04
0e
14
08
11
1b
fc
05
33
05
ff
04
ff
01
fd
ed
14
fa
e0
fc
08
03
16
f8
00
f7
fe
1c
10
02
1c
18
f6
0e
ef
f0
05
10
05
f2
00
fc
fd
db
f1
3e
ed
19
ff
fa
ec
19
de
0c
da
12
07
28
ef
f1
f3
17
fc
dc
fb
33
15
0d
f9
e7
fb
f4
fe
1a
ef
01
0c
25
2b
f1
f2
01
0f
f2
ec
19
14
f0
0e
18
2d
13
04
00
26
0e
25
0b
db
01
05
f7
fa
f6
09
e6
f2
e3
dd
f5
fa
01
06
08
08
de
03
1b
f3
fc
f3
07
10
fc
08
e6
0e
fb
f1
0d
fd
09
fd
f6
07
0d
2a
ef
0b
0f
e2
f4
0e
03
05
fe
f2
1a
e6
23
02
08
e8
06
e4
03
11
f0
df
01
ee
12
fe
05
eb
f0
00
ff
fe
03
07
26
db
e9
ff
21
ff
34
16
f4
16
09
0b
e8
01
e5
23
fd
f4
20
08
fe
fb
ef
0f
01
ff
2a
1f
fc
24
00
08
fa
20
0d
1a
18
17
04
fc
0d
00
09
00
d2
f8
ee
fa
1e
06
fe
02
0b
fd
24
01
02
10
ee
d1
fa
e5
10
0d
17
24
f7
f7
fb
36
00
f3
ef
0f
d3
09
f7
ee
ea
1e
07
d6
fe
03
f5
0c
ff
e5
21
08
fa
f9
19
11
fe
07
0d
13
f2
07
f1
0b
c1
0f
f1
08
e6
c2
20
ff
11
0d
f2
f0
f0
de
f6
ef
f5
fa
f2
f3
ef
fb
fc
00
1c
0a
f5
fd
f7
f0
0b
e6
ff
06
08
f2
1b
c1
09
01
14
ff
e5
05
16
f0
0b
ee
fe
fa
e1
22
04
e7
07
ff
e2
12
d6
0a
0d
01
f4
f7
0a
fc
01
fa
22
f2
05
06
23
f2
0e
fa
e2
f4
f0
fd
ee
f6
1f
13
1a
f6
f4
ce
c6
19
eb
df
e5
0b
0d
01
ef
0a
08
14
f0
fd
1b
1e
e1
17
fe
f5
0e
e3
03
ee
e3
d9
06
01
1f
f6
13
0d
1e
ee
1b
fc
16
02
d8
10
0c
19
fb
18
e8
dc
fe
0f
e6
02
06
26
02
ed
06
f8
10
1a
1d
0a
1f
fd
03
fa
fa
e2
f6
fc
03
eb
30
08
f6
12
db
0f
0e
fc
0d
ec
09
18
f3
26
10
29
f6
1e
18
1e
fe
e7
fb
e1
f7
0f
f9
ef
e1
03
eb
fc
0a
0d
27
16
fb
f4
0a
ec
21
f1
26
02
12
d4
fa
f5
e0
21
05
f3
21
18
d7
ef
fa
02
09
ec
e8
18
02
f4
00
c0
df
14
fc
16
f0
07
1b
f8
f3
ee
04
17
02
14
00
1b
e7
f9
ea
e4
f1
f2
ed
07
e7
fa
09
fa
fa
01
01
0a
25
b9
f8
19
14
26
d9
f1
fb
ff
02
05
1d
07
ff
ee
f0
11
e7
fd
f5
fc
12
23
f5
f2
e0
1c
f2
00
eb
13
e8
18
11
ed
0f
e6
f3
18
c3
e1
19
19
0d
ed
ec
06
eb
d7
26
df
28
16
3f
df
2f
f7
21
06
15
fe
d8
c3
07
28
bf
01
20
f3
d6
10
da
36
10
fd
bb
12
0a
ed
09
f1
1e
2b
02
e4
e7
f9
0f
ef
f8
e7
17
ff
f4
03
e1
29
12
f3
07
28
ee
f5
01
f9
fc
f6
d6
fe
00
06
f6
0e
0e
13
2d
11
04
f8
1f
2f
e1
00
d6
de
f3
0e
15
0e
0e
08
04
4b
19
fc
23
08
23
06
11
d6
05
07
1b
ef
ff
0f
fd
15
fe
f0
17
e5
f0
fc
14
07
24
22
d4
e0
d4
fa
ea
12
0f
0d
e3
08
f1
08
ed
0b
e1
20
08
e5
20
e3
05
f9
1d
01
12
f7
04
2e
07
2d
f0
f9
0c
e7
db
07
1a
14
f1
18
fe
0b
e7
fc
fd
2c
c0
e2
28
fb
15
27
03
d6
01
36
11
f3
f5
f5
dd
1f
d7
f7
00
e9
d3
08
17
da
fd
29
f5
2d
f2
02
15
f4
f7
08
17
f5
0f
f9
19
2d
05
28
fb
ef
0d
fc
f4
29
f8
f9
dd
f1
e1
03
f5
fe
e9
cd
31
d6
26
e5
fe
f7
0b
f3
ec
0e
12
e2
05
22
07
1a
17
fc
fb
11
e6
f0
df
e9
1a
02
f4
0d
e6
ec
23
10
f3
fb
e5
f0
dd
0a
03
05
bf
01
f9
00
17
ef
2b
15
f3
f9
0e
e8
08
dc
ee
ee
d8
f1
df
02
16
08
24
f6
eb
1c
23
24
ee
0c
f4
19
e0
21
d5
09
18
3a
07
17
06
17
0f
d2
1c
17
f6
01
fe
f2
0e
08
13
f8
1d
d6
1b
fb
09
d6
07
15
f3
ea
08
ec
ea
09
23
0d
14
f0
0b
0f
0b
d4
f6
10
e9
f7
24
fb
01
ec
f1
0b
13
d6
f8
15
1a
f5
3a
e9
11
0d
fb
f3
01
f9
fa
09
21
02
d8
eb
ee
e1
08
d2
11
0c
e6
3f
e5
f8
0f
09
0e
f6
e0
f6
1d
2b
20
0f
cc
f7
ea
12
1e
01
ef
15
fd
23
fd
0f
f4
04
f6
fb
26
0c
fe
fc
d8
f7
1a
f5
fb
21
f4
f8
f8
03
03
0e
17
f8
27
ec
fe
e9
d7
f1
02
24
0e
cf
eb
f1
26
03
da
f9
ef
fa
fd
08
0f
f3
f5
eb
ea
18
cc
f7
f3
0d
f9
d4
34
fe
1e
f9
e4
dc
06
12
dd
07
ff
0b
d2
12
f6
1c
1b
07
ec
04
e1
08
f1
fd
f9
0a
0d
21
fc
01
ec
d8
1d
eb
e4
06
20
0e
e5
04
cd
cc
ef
15
10
f1
de
11
1d
07
e2
fb
08
2c
09
31
00
04
0e
1a
26
00
3f
e6
dd
fa
0b
1b
11
0f
03
fe
30
ff
fa
1a
e2
10
e9
03
3f
f8
de
06
f4
04
fe
d7
2c
f4
f0
f4
1e
01
06
e2
fa
19
f3
0a
cc
0b
d9
cd
11
0e
f6
1a
06
e0
e2
20
01
f1
ff
0c
1b
10
04
29
0e
f3
ed
f3
28
e7
e1
1f
09
19
e3
2d
0d
e7
f1
0a
10
f6
cf
22
00
f7
d4
13
0a
e9
1e
e6
04
0a
0f
2e
f6
d6
11
f6
fb
05
ee
fd
19
18
12
e3
f3
0c
ee
1d
f1
e2
f8
16
13
14
13
e7
08
e5
16
eb
cf
10
2a
1a
f0
eb
d0
31
09
0f
16
19
e0
ef
fd
f4
ec
e8
11
d1
23
02
02
f1
d4
ff
28
15
14
e5
e6
f2
fb
ef
fd
08
00
17
f3
e9
bc
10
0a
3d
29
bf
05
e5
01
da
1b
ff
00
f4
06
f3
e7
e3
06
de
07
fb
0c
e2
f8
08
29
e6
ea
11
0c
01
2b
e3
09
17
df
ef
05
00
37
d8
12
17
09
dc
12
ea
1c
f0
04
e2
05
e4
f1
f6
f3
19
33
ff
16
f9
0f
01
ea
49
1a
e3
00
fb
24
ea
1c
f3
f5
00
f4
ef
fb
16
02
01
e4
25
fe
e1
ff
ec
02
09
02
03
bc
1b
42
fb
0d
24
0f
1f
dc
0a
03
08
fc
12
bf
1f
23
d1
25
21
fb
e9
25
0b
09
2c
f5
3d
2d
e7
2e
23
ed
e8
31
ff
fb
0a
25
fd
28
1f
d0
23
ff
31
17
02
f1
26
08
d9
03
f6
09
ff
00
f7
fd
24
f8
11
fc
05
0d
3b
16
09
ff
fb
0e
f8
f5
cb
0e
14
fe
24
f6
e7
d7
0f
10
08
fb
01
f5
e7
f4
dd
c8
eb
e9
14
02
0f
0f
10
bc
23
06
da
fc
ef
11
fd
01
dd
ff
14
12
06
da
1f
db
19
19
06
db
0c
14
22
ef
e3
fc
02
dc
f7
0a
f7
10
15
16
03
d9
eb
04
e6
20
d3
fd
14
ad
ff
fd
08
1f
bb
d6
e1
22
16
13
e6
da
06
f5
0f
32
d6
e0
e2
fa
17
0c
d7
19
11
05
d6
0b
0d
3a
e2
0e
1a
f5
05
06
f1
f4
ed
f3
df
02
f9
09
d6
f1
4b
f7
04
04
35
ff
31
fb
30
f7
13
05
1d
f8
02
e5
17
d4
1d
00
03
fc
f6
04
09
00
07
f4
f9
fb
ff
06
fd
06
04
0b
00
10
f1
03
04
00
07
0e
ff
f4
05
0a
fd
fc
fa
03
05
fe
05
06
f7
fa
fa
0c
f7
fe
00
02
02
0a
f8
fb
06
ff
07
ff
04
f6
fa
fe
01
03
ef
f0
fe
f5
06
dd
05
05
fd
02
fc
02
fa
fa
fe
05
f2
01
06
0a
05
f6
fe
00
f7
0c
07
f4
fa
01
f2
fa
06
f6
06
00
05
fe
08
04
f3
07
0e
fb
0c
13
02
f0
01
05
fe
f1
fd
f9
01
fd
ff
0b
fb
03
ff
06
fe
fd
ee
ff
09
08
08
05
f9
04
0a
05
00
00
f7
fb
07
f2
fe
f9
fe
f3
06
fb
fe
f9
ff
fc
fe
e7
01
f2
07
06
f6
f8
07
08
02
01
fa
0c
f9
fe
ed
fe
f8
0c
06
04
fd
0d
09
fa
04
02
0e
02
fa
0d
16
02
fd
fd
02
f4
fe
00
01
ee
03
f9
f9
ff
f5
0c
f6
f2
00
f0
fa
f3
01
07
05
06
00
0a
03
13
07
e9
f8
f7
06
fa
07
f3
01
09
03
fd
0c
07
fd
ec
03
10
fc
fe
f9
fe
0b
02
07
f8
fc
01
03
07
0a
01
f7
f6
03
fa
f0
f4
0a
02
fe
fd
08
02
08
07
02
00
f9
fe
04
00
f6
01
02
03
f6
00
01
fd
ff
05
ff
fb
0f
06
fd
09
06
04
0f
00
00
ec
fb
f1
f8
f0
fb
fd
04
04
0c
07
f9
00
f2
fd
fa
fe
fc
01
01
f6
fa
f9
ff
09
00
fd
10
04
ff
fd
03
fc
f7
01
f8
fa
01
f8
fe
ff
f4
02
0b
fd
02
0f
f6
ff
fe
01
fc
f8
ff
fe
03
fd
fa
f8
07
f6
00
05
f7
03
05
0c
09
01
f0
fb
ff
fb
10
00
09
fc
04
04
fa
fa
ff
0a
02
0e
08
03
03
f7
02
f9
f0
03
07
00
fe
01
fe
03
05
fe
0a
02
fd
f7
08
00
00
05
fc
04
f6
05
fc
05
fe
07
01
06
05
02
00
fc
fc
01
00
05
08
01
05
f4
03
ff
fa
ff
fa
11
f7
f9
00
f3
01
06
0b
fd
00
02
ff
05
ff
f8
f2
0c
0a
ff
07
09
03
05
08
00
fc
0d
07
06
f2
01
01
02
fa
02
f9
01
fd
08
03
0c
03
07
06
fd
02
09
ee
03
f8
f9
ff
06
f6
fc
fa
00
01
ff
06
fc
00
07
01
f7
f9
00
06
fd
06
01
f4
02
fe
fd
ff
fd
ee
01
02
fc
06
08
05
05
03
0b
01
fb
01
04
01
f5
f7
e3
09
0a
df
d7
1a
06
d6
e0
13
f9
08
bf
3c
06
ed
f9
22
23
eb
05
ca
11
1b
f7
fd
ff
ea
da
e7
df
0a
2a
e3
24
11
fe
1a
d9
02
08
fd
dc
fd
0b
f8
13
ed
09
03
03
14
1b
01
fa
ee
03
f5
f7
06
0b
0f
f2
26
01
40
2a
ed
31
f7
08
0f
f9
fd
1e
11
f3
e8
1f
f8
db
0d
fd
f4
e5
0d
e3
e4
da
03
e4
2c
16
fe
d6
02
f0
ff
f0
fc
1c
e6
e8
d9
f0
ed
e6
ea
16
15
f9
16
00
07
e5
2c
f6
f2
09
f9
06
27
09
09
f2
22
e2
e0
07
e5
0e
01
eb
e5
f1
0d
fc
07
f8
ff
04
ff
13
0e
f7
08
dd
ed
13
ee
f0
20
f6
ea
00
04
ee
09
21
12
05
f5
e6
f0
0a
0e
d1
f3
18
0f
fb
f8
f0
e6
0e
e5
e9
e4
f4
11
2a
f9
19
00
d9
01
da
06
db
2d
fa
1e
2f
08
d9
04
08
f4
1b
2a
e3
f3
1f
0a
35
e8
ef
2d
d8
07
fa
39
e6
e8
11
fc
1c
03
f8
21
ff
f9
0e
df
f7
e7
05
f7
02
20
ed
2e
14
0c
1b
f4
f4
15
c7
0c
03
de
fc
08
00
e9
e8
f5
05
f0
1d
17
0a
1e
13
0b
08
e1
02
ec
fe
d9
ff
ff
0a
fe
0e
db
34
e9
ef
ef
0f
05
13
19
26
da
08
fe
e6
c6
00
e9
0c
1b
12
10
f4
27
ca
ea
f6
f3
1a
04
1f
da
17
09
1f
fb
00
e3
03
f5
f9
08
12
17
0e
03
fc
ed
3a
02
fb
0f
eb
e5
16
0b
d5
fa
2d
17
06
01
20
ec
fe
dd
26
df
f3
0b
ea
31
db
ee
0d
f5
05
d7
05
2e
12
27
f4
18
fb
d9
f1
01
fb
e7
da
17
f5
fa
2c
e1
29
1e
d1
0e
09
00
f8
ee
ec
f5
08
3f
1f
0c
f2
f2
01
f5
f2
e9
f4
03
1c
eb
ff
f3
f0
02
23
fd
f1
21
01
f9
e1
19
1b
e7
03
e4
03
e8
1a
22
d5
eb
e7
f1
e0
d9
1a
ef
e7
02
dd
ed
ef
e9
ff
e0
fb
d5
2b
fa
3d
0e
10
fb
0d
fb
fb
0c
11
05
da
ef
fc
15
d4
05
13
31
00
eb
08
eb
03
e0
1e
22
fe
e7
26
cf
c6
01
ef
1c
17
07
eb
0d
f2
27
0c
0e
f1
04
ff
14
28
10
3c
08
00
00
fa
06
fd
05
32
0c
fc
fa
00
1c
06
28
28
02
f0
0a
0e
ed
11
ef
05
1e
f7
ff
1d
ec
0a
10
01
ef
14
f1
4d
42
d0
1f
04
13
07
d7
2d
f1
cb
29
16
ea
09
12
e2
09
ec
22
fc
0d
13
36
de
05
fe
d7
f7
18
2e
28
0c
0c
e2
eb
27
04
ed
02
dd
ee
14
fd
e9
07
ea
db
e1
f4
09
e4
28
df
fe
f9
0a
14
fd
dc
2f
ee
fc
ef
f7
37
02
1f
13
39
0c
ff
f8
10
ff
25
ec
0d
0d
02
1a
0c
e8
34
f7
e5
14
0b
c0
0c
f3
f1
16
cf
23
e6
f2
0e
22
e8
13
0f
08
0c
f7
f4
1a
f5
1c
1a
36
f2
05
00
23
06
1e
31
14
00
1a
f1
de
db
03
e8
d1
2d
f5
37
04
fe
1c
f5
2d
07
f5
0f
e9
bf
fd
fa
e6
f2
14
ea
04
0c
f2
06
f5
f5
12
e0
00
f3
eb
f8
01
16
27
f3
dc
01
d4
f7
23
f2
ed
e1
f9
20
18
f0
ee
f7
09
de
01
26
34
f1
fe
1c
d4
0c
eb
2a
1a
0d
0f
14
0b
e1
06
da
e0
09
15
e8
ff
13
15
0a
26
cd
22
fc
0a
05
e5
13
09
0a
2b
24
e8
e0
f3
02
12
29
f4
c2
25
ed
11
ff
06
04
fe
fc
11
d7
09
c8
e2
e8
fe
ec
0b
df
04
fa
24
e2
e2
33
f0
fe
f8
14
27
05
d9
e6
18
d2
0a
01
1e
e3
0f
fa
fd
06
d4
02
c4
3b
1b
c7
12
e2
13
db
1a
14
fc
dd
f4
06
fc
11
29
ee
f7
00
28
31
30
f6
ec
fb
04
e9
e9
3c
12
de
fa
14
13
1a
12
2d
de
e3
01
1c
db
10
1b
2a
d4
e0
f0
fe
1c
e8
0d
ff
20
e0
f1
00
eb
fb
0e
1c
09
06
fe
f6
f8
ee
d7
d3
fa
11
f5
01
10
de
29
e4
09
1f
0a
29
0d
1a
eb
04
dd
eb
07
11
e6
e3
e3
08
d7
f8
2c
1c
13
07
fa
fb
fe
ee
16
ed
2a
e4
f1
30
db
06
13
f8
e1
f5
0a
01
20
da
04
e7
e7
f6
08
1b
fe
fe
0f
32
1d
1e
dc
c2
c2
24
26
fa
f7
09
f8
fd
ff
10
d7
10
08
e8
14
04
f4
f0
ee
e1
00
e0
1b
16
1a
01
e7
03
fb
fd
ff
e5
ff
f5
28
ec
d2
f9
e1
e1
d3
fc
e4
d3
ef
11
17
0e
ff
e9
0d
0d
fd
20
f1
f4
f3
05
fd
16
0d
ec
d1
d1
1f
f4
02
ef
dd
27
15
11
fd
1c
f3
1c
07
ec
29
3c
e5
36
fa
0d
05
0c
2f
04
04
fc
09
fc
e7
f5
0b
f6
03
08
0e
02
fe
0a
c1
01
13
1e
cf
11
fb
e2
17
0c
fd
ff
e8
23
dd
e7
16
f6
0b
eb
f4
1a
e4
f6
15
03
d7
e8
02
31
12
02
f1
e0
ee
f1
1d
16
fc
ff
08
f1
f1
1b
f5
ed
fe
27
d5
15
0e
1c
06
e7
e7
16
f8
ed
fc
07
e3
03
fc
0a
2b
1a
de
07
e3
00
f7
36
f8
fa
fc
f0
fb
de
e4
08
e1
01
f9
03
ed
04
00
1d
f1
ff
2b
07
ef
11
02
e4
ea
e6
fc
0c
12
33
29
0e
0f
1d
dc
0d
14
0b
e5
46
e8
eb
ed
21
13
1c
09
0e
13
09
09
e0
fe
05
f7
e7
18
ff
00
e0
f8
e9
0b
e3
15
0e
02
06
f9
06
fa
01
11
df
e5
e9
ec
e6
f4
f2
02
dd
1f
ea
0a
09
f7
e9
ef
f9
31
f0
06
c0
fa
e2
19
fa
00
04
27
18
e4
d8
d6
2c
21
24
3b
0d
ff
28
fe
f2
36
01
f7
f5
11
18
df
2f
e5
0a
0a
fb
cd
28
c9
21
fd
ff
0d
f8
08
11
07
e7
22
d3
0d
04
1e
18
0c
ec
13
0e
f2
0a
f2
e4
e9
00
fb
11
0e
e7
1d
e2
f3
e8
f6
0b
09
fe
df
e2
0e
f7
1b
0f
07
19
f2
02
f8
f3
e6
07
f0
f1
0d
09
30
2f
c4
f1
fd
11
f4
07
10
e6
f1
e9
e0
1c
06
f0
d5
eb
12
06
1b
01
07
00
05
09
0f
fd
0c
07
16
05
0b
fe
03
07
f9
1c
00
ec
e5
01
16
eb
01
f9
03
12
29
01
f7
13
03
23
e9
d1
fa
ed
ff
ed
1a
f8
22
ea
10
d9
24
20
12
e6
26
00
04
17
c2
0b
2b
1c
eb
12
f0
17
3b
e8
f5
18
0f
04
29
11
f0
0a
0a
20
ef
f0
f9
eb
fe
0b
e9
ec
17
fb
d5
00
e3
19
0d
07
e5
2c
f8
10
fc
dc
1a
f2
f7
cf
22
fa
e3
ff
ef
f6
e2
ea
0a
16
ec
e6
03
e3
e6
20
1f
06
fa
ea
0b
ee
24
17
e7
df
e1
ef
17
e3
eb
04
0a
f3
ee
03
0a
f9
d9
0b
15
2c
f4
26
f0
14
db
d3
21
f6
d6
e8
fe
eb
eb
04
12
01
07
02
c3
fd
27
fa
04
de
1e
13
2c
06
e0
de
f5
ff
fe
f9
d5
07
ff
e4
05
e2
05
19
06
1a
e2
d8
25
4a
19
f0
12
06
0c
23
0d
01
07
f3
fb
f4
fe
02
3e
f1
1b
f1
ef
24
36
ee
1f
d9
da
fb
f7
c2
00
f7
20
f5
d0
16
06
11
e9
04
19
ec
d4
ed
f3
e8
fd
01
ec
2b
ee
f4
01
18
08
e4
fe
0a
e6
fa
f0
0d
ef
0c
0b
ee
08
f3
e7
f4
04
08
e0
01
f9
f7
17
07
de
00
04
d6
1d
f3
e5
19
e6
0f
cf
09
f5
01
26
e8
1a
1b
02
08
0f
11
f5
25
f8
09
05
0d
f4
27
e4
e5
0d
0b
01
05
ef
f1
0b
fa
fe
ea
e9
ff
02
0f
ef
1a
15
ef
0a
1c
23
09
1c
19
02
ce
e5
02
00
28
0a
17
f7
e5
ff
01
0c
f3
00
f8
ec
cd
04
27
d8
00
e3
f5
f1
11
1f
ea
ea
15
0b
e5
f7
20
c6
fc
e3
10
e3
1b
05
f5
f2
ff
f8
ff
14
20
03
0a
df
42
f1
ff
ef
e1
0b
3a
20
de
04
21
16
fe
24
e9
fb
0c
fb
e7
f7
f5
11
34
fd
fd
1a
f7
07
f0
f9
2d
09
f5
17
e8
de
25
00
01
ff
25
24
f1
02
0d
de
e3
f9
eb
f4
10
e5
f0
ff
f8
fa
f8
f8
ed
fe
06
22
0d
16
05
fc
0e
da
08
03
dd
21
26
17
08
12
db
f7
f4
f8
f2
ea
b8
e8
1d
1f
ee
d0
e2
20
e8
ec
09
0d
ce
fe
f9
e3
e0
c1
05
05
e8
e6
00
08
fc
08
f9
0a
17
04
eb
09
0b
fa
00
19
16
02
f6
40
fb
ca
cb
1e
1a
14
e4
19
e6
dd
05
f2
11
fe
f6
12
06
01
1a
ed
4f
f6
fe
06
06
cf
f2
ee
f3
08
d2
09
04
18
13
e3
cb
10
08
f5
09
e0
16
ef
01
c9
1e
00
0b
c9
f4
17
06
08
0c
23
ed
24
08
dd
f9
17
f4
f8
dd
ee
15
12
06
f0
eb
1a
12
23
0a
14
ff
02
02
d3
e0
0f
f1
27
0c
f3
fa
fa
10
04
14
1e
dc
15
08
21
0b
1c
e5
07
23
01
f9
0b
e8
fe
ed
10
d8
fe
fb
e3
f3
1b
fc
10
0f
f5
2a
fe
0f
1b
25
28
fa
13
03
ff
15
25
11
15
19
00
e0
27
01
e1
17
06
01
0f
d8
d1
e2
07
ed
e5
ee
1c
f5
f3
29
41
0f
0f
ee
15
1a
03
ea
32
02
01
3e
fe
ff
ec
1e
eb
f8
10
d0
cf
04
01
21
18
05
0e
f4
0a
21
f7
08
1c
e8
01
29
1c
1e
f7
f1
18
e7
df
07
f5
e3
eb
0b
07
e9
03
2c
1f
ee
17
e0
04
01
dd
f2
fb
d4
18
ff
f2
23
11
1f
09
03
c3
13
e9
01
fc
f1
e4
e3
ec
02
13
f9
29
fd
eb
0d
da
19
e9
f4
0f
0e
13
2e
0a
e2
e5
d2
11
e6
fb
28
f6
de
11
08
0b
02
22
0e
f7
1d
d0
0e
18
f6
15
eb
31
07
27
fa
0c
e0
0a
ee
f3
f7
ee
07
ee
f3
27
ef
f9
fd
01
08
2f
12
28
12
24
2b
18
f7
eb
2c
ea
d8
10
de
f6
02
09
f1
fe
ef
04
0a
f7
ee
fd
e6
e8
2d
ea
ea
21
f6
cd
02
0b
18
e6
11
fe
ef
1a
e3
c8
d3
01
0e
15
e7
fc
d1
29
0b
fc
f3
d8
01
17
1d
e7
f0
00
0f
08
01
00
0e
fb
ed
17
fb
e6
bf
f4
18
ff
01
0c
1d
30
fc
e7
cc
12
fc
07
28
10
f5
f8
0e
e7
1d
0c
f7
15
08
06
ed
ea
07
19
10
cc
1c
06
f7
f0
fe
22
d5
15
e4
e6
15
14
f1
e4
d6
dd
3b
09
f4
06
f9
09
c7
08
d8
d0
d3
e4
24
fe
ec
ef
00
17
2f
09
fc
04
05
26
fa
14
e3
1e
0f
23
ff
f8
2d
03
19
eb
f8
17
ed
f6
f6
05
e7
24
f4
18
07
18
09
0e
f9
0f
0b
0f
fd
31
1b
f3
f6
f7
f9
03
ef
0d
4d
f2
fc
28
f8
fd
f0
15
da
27
04
e3
e1
06
0a
f5
fd
d7
1a
f6
07
fe
e9
e7
0c
e2
04
ac
e8
f1
ec
0d
0f
03
01
f0
fd
13
0a
df
0f
fc
c9
f6
fd
f0
08
d4
1c
e1
ed
f5
d5
0f
2e
15
d2
26
f2
f0
d3
ff
ff
14
fc
f5
fa
ed
cd
13
08
fc
31
e0
16
00
fd
28
0b
e7
e5
d0
c9
d8
08
09
25
02
28
19
ea
f0
08
f7
16
01
fd
fe
0e
32
fb
09
f6
e4
ec
1d
1c
f3
34
d7
d2
df
26
bb
0f
00
1b
2b
15
f7
cd
2d
07
04
f0
1d
e7
0a
2a
11
17
39
eb
0d
fe
2f
0a
10
e1
1a
08
cb
f5
ed
f1
ff
d1
f6
fd
0c
1d
0d
ef
0b
24
14
17
23
02
fd
fe
04
17
e9
f9
23
24
ff
26
02
ff
e2
00
f4
d4
f6
f0
0f
eb
da
1b
02
15
fa
13
14
27
01
23
2e
21
16
04
e5
23
f2
d9
29
eb
e7
f1
01
20
c7
da
0d
2a
04
f4
e9
dc
04
fb
05
fe
05
1b
20
03
1b
3f
fd
fc
15
fa
10
be
e9
10
fe
21
ea
01
ff
bf
ff
0c
02
07
f6
10
0f
f9
f7
eb
f8
e2
12
03
fa
d9
18
0e
f8
ec
fb
f4
15
0f
01
18
cc
ee
1b
e4
07
d3
df
f3
e8
fe
19
f3
23
f9
01
fd
f0
06
e3
01
e7
fe
ff
f8
05
f4
e9
0f
1e
cd
26
dd
fb
14
21
08
10
f9
de
ec
1b
14
e8
0a
0f
fd
20
f8
de
0a
01
34
01
1a
2b
07
ec
f4
25
f6
07
da
da
f1
04
e7
fb
30
f7
0a
f0
e9
00
f1
fd
f3
2a
f5
13
07
de
15
07
05
fa
e8
d1
12
12
47
fe
f8
c8
32
f2
06
1c
e0
f2
f2
15
0f
e6
e0
d6
f4
20
18
f8
13
ce
e9
e9
03
ed
02
eb
f7
1d
fc
e0
04
03
09
f5
20
f6
0c
d9
f4
0e
1d
0d
02
fb
14
13
06
fd
fb
e8
dc
01
f7
07
03
fc
2a
0b
f8
f8
07
0e
39
35
f3
c6
0b
0c
06
e4
e2
0d
fa
29
0a
2c
d7
ec
f9
24
3f
ea
f4
df
f6
e6
1c
da
00
00
ef
04
00
f0
fd
08
08
0b
13
ec
0c
06
40
1d
e1
f0
0c
0e
2c
12
16
00
ee
e5
0c
fd
eb
d6
02
e0
19
e4
63
04
15
30
12
e7
08
d7
11
f8
e4
0b
1e
07
fd
17
f8
18
d6
17
ed
0e
fe
25
f3
18
09
10
12
1a
ed
e3
25
d3
f7
e6
02
e2
e0
ee
f4
eb
0d
14
f8
22
1c
e5
f7
e4
fa
f3
cb
04
06
08
1d
d6
e7
f2
05
29
06
08
ee
f9
1c
1d
05
23
0e
06
1d
c4
13
16
15
10
1e
d0
30
1b
00
04
ef
bc
df
00
eb
17
ea
00
03
18
14
eb
e4
db
07
f8
03
16
f5
01
f9
1e
e7
2e
af
0c
00
e6
f5
00
08
f3
0c
f9
f9
38
ef
2d
f5
1a
3d
01
e4
18
db
e7
e9
e3
f6
17
f9
0f
ff
0e
0b
f8
11
09
0f
0c
01
e8
08
16
1d
c5
ec
27
1e
f4
f7
51
ee
fd
04
fc
e9
e5
f1
2f
f1
15
ed
f7
e5
d9
02
20
0f
0d
0a
1e
ff
b9
09
e9
cb
0a
d8
f3
1e
06
bf
04
e6
da
f5
0d
ea
ee
d5
c8
e0
26
10
31
17
fb
10
f0
f4
ed
16
25
e1
06
03
ff
dd
1a
00
dc
0d
2e
04
1c
05
2d
13
ff
ff
fa
cb
f5
01
e9
e8
01
d8
fd
ef
e5
21
fa
e8
ee
fd
04
14
f2
03
2a
3d
c3
ed
0a
03
f3
f5
f5
de
ff
f9
c6
0e
fd
02
dd
0f
d5
0b
1e
18
0c
e4
22
00
fe
e8
e0
09
1a
f8
fb
e8
eb
07
04
0e
2c
17
00
13
f9
f3
f5
05
0c
fe
ee
19
f2
f9
e6
0f
17
fc
19
e1
e6
f0
ed
01
39
30
e8
ec
1e
ee
37
2a
dd
f7
00
ee
1a
f7
2c
e1
e0
3c
39
c8
05
ff
fc
0b
0c
12
0a
f8
00
15
f0
c5
db
06
e4
1c
fd
11
eb
e8
df
19
ee
e3
ee
10
1a
07
0f
d4
03
2b
f7
16
16
0a
fa
0c
ee
f0
02
f5
fd
0a
ec
da
3c
f8
25
ff
e8
07
f8
f4
18
e5
eb
ec
0e
fe
1b
0c
fe
1c
de
05
fd
09
06
36
fd
f1
10
db
fa
d5
cf
1f
27
ff
18
06
10
e0
ff
21
15
d9
e3
e0
02
e4
13
01
1c
ec
f1
ff
f4
29
13
fc
07
03
fb
e1
e2
e8
02
f8
04
3e
f5
f1
fa
f7
f5
05
f6
f4
cf
f2
e2
f4
31
10
c8
12
22
15
fa
f8
e7
e6
05
0a
25
e4
0a
fa
f4
d6
00
47
ce
16
02
ed
24
02
13
0d
2a
0d
ee
ec
f0
17
fb
e4
1c
19
0e
2c
fc
2e
11
ff
22
e6
fc
06
15
16
fa
e1
ef
f4
f3
1c
fd
d5
df
02
bb
02
c0
00
f9
f7
f8
38
01
e8
10
ff
06
20
14
cf
14
09
ff
f4
0d
fe
fa
f0
f7
21
fd
07
e8
10
e8
f9
11
d3
11
f5
dc
d6
0c
fe
1d
01
01
f7
f0
c3
e0
1d
e2
0f
06
ee
ec
0e
ef
d3
fe
f8
f8
fa
0e
09
11
13
fe
e6
08
02
01
02
df
ea
16
19
15
07
0d
13
0d
05
04
1d
12
20
19
f4
f6
ea
0c
07
eb
2c
ff
19
e9
02
f9
f6
1f
01
1d
01
2b
15
f1
ee
20
e9
e9
fc
fd
0c
ee
09
2d
f2
0e
dd
e8
e2
10
08
0d
f8
fc
ee
fc
f2
12
fa
f9
df
f2
0c
fc
11
3d
f3
f0
10
0a
05
f8
17
de
fd
fc
f9
f5
1a
ee
fa
fb
1e
f3
fc
e8
f6
f7
11
ee
f6
00
f7
00
0a
27
c3
26
d6
f7
fc
05
10
32
e9
1e
eb
00
34
01
0d
da
e9
20
23
f8
0e
ed
0b
06
1a
f2
fa
08
fc
f2
1c
1c
05
d8
0d
f7
f3
2e
fc
23
12
e7
12
ff
32
18
1e
e3
00
11
34
03
fc
0c
fa
e7
f6
26
03
fb
1f
d1
05
28
23
d8
01
e8
15
0e
29
fc
de
12
e0
11
f5
16
d7
04
fa
06
06
fb
eb
0e
0d
ff
12
1b
f6
35
e3
0d
f8
1b
04
dc
15
e3
de
07
e5
10
d1
1c
ff
d0
15
19
11
d2
08
fb
09
0e
2e
fe
23
14
00
2f
05
01
29
e6
21
17
fc
0e
ee
d2
f2
19
00
1b
f6
f5
04
2a
13
f4
05
15
f3
04
01
cf
13
d7
f4
e6
0d
0e
15
08
ce
d7
04
20
e9
e9
c3
e7
0b
f0
fd
1d
20
22
09
2b
fb
22
e6
0a
16
12
17
1c
ea
e7
22
3b
07
e2
0b
15
17
e6
12
2a
d2
f8
e4
1d
f0
1b
dd
f8
01
e4
f3
e8
08
10
e9
16
07
0f
27
e1
29
eb
fe
f3
ff
1c
e7
21
2c
ff
3f
02
ee
fd
bb
04
09
0b
e3
16
01
f9
01
06
e6
12
f4
e8
fa
ed
03
f7
02
ff
22
f7
16
e4
25
05
dd
07
fc
ef
eb
1f
03
e5
11
fb
f2
fe
20
04
40
dc
12
ea
26
ff
09
d4
01
0e
f4
dc
0f
14
10
09
08
0e
f4
03
f2
f1
fa
27
ec
2e
13
d7
f9
01
c7
03
f6
be
d4
f5
16
05
21
ce
17
1b
34
32
07
21
ff
12
f8
0a
25
d3
0d
e9
0d
e9
29
fb
e8
cc
20
2f
16
fb
dd
3c
22
01
cf
f6
05
c6
f6
ef
f6
f4
20
cf
e7
08
0d
ff
2a
fc
ef
02
0b
24
d2
f1
1a
1b
22
31
03
0c
05
2c
d7
0b
15
15
12
df
2f
03
06
f1
ff
fe
18
1c
d9
ed
ea
ec
06
09
15
fc
f7
19
f2
1b
f3
f8
fa
e0
1a
06
ed
01
00
f0
db
f7
1a
04
ed
19
24
ef
00
e9
0f
dc
d3
fc
23
f9
c6
f5
10
32
d7
e7
e6
1f
0b
f3
f8
16
18
e9
fd
01
f1
33
f0
0a
1a
0e
32
11
09
03
f1
f6
de
c6
da
f1
d7
be
c8
ff
c2
d0
e6
ec
f3
24
20
f9
08
d3
02
2c
e3
17
fb
12
11
ea
fb
18
ec
fd
fb
14
db
d3
05
11
f2
2e
fc
00
30
de
24
12
fd
fc
21
fc
13
f4
ee
df
09
0b
ef
ff
ef
f3
f0
0d
07
07
21
f3
34
31
01
02
07
04
df
19
e5
33
08
cf
fe
ff
19
0e
ff
00
d0
ea
13
d7
11
f1
fd
1a
f6
16
e5
04
f1
12
00
ec
3b
25
fe
f3
0a
f3
ef
e1
31
16
03
12
fe
fd
1d
f9
04
28
0e
e9
02
e2
16
0a
33
f4
d6
00
e0
f1
29
15
de
10
1b
2a
0c
00
f3
34
f3
f0
df
dd
26
20
fc
d1
e6
fb
01
f4
f4
17
ee
26
fa
0f
df
ff
ed
0d
ca
01
09
00
08
17
ef
13
0a
2a
1c
f9
21
ee
fd
d7
13
f0
03
f8
11
09
fd
f4
35
1b
ee
ef
f0
04
f8
1c
04
20
05
07
e8
0c
0d
58
02
1c
e9
1d
f4
0d
18
53
f9
14
12
31
0b
df
fb
fd
12
da
17
df
2a
08
f7
f6
08
ee
e3
c3
e8
e9
1b
07
f7
dc
3a
e0
b7
fb
f7
f4
e5
0d
00
ea
00
e7
0d
f6
fb
04
f5
e9
fd
04
f1
10
f4
ec
f2
e0
ec
06
f8
fb
05
02
e2
f5
f7
ec
e9
f6
f0
15
f3
fa
30
de
06
2c
cd
04
d5
2a
08
14
ec
17
26
fb
d3
0a
0e
ff
1b
e7
02
e4
eb
12
18
0a
0a
ff
1f
00
14
17
f7
23
fe
06
f4
07
00
ed
00
fa
e4
03
db
fc
07
1f
09
f6
00
0f
fb
22
1e
f8
e3
f4
1c
13
ed
e3
f6
19
cc
0b
ef
e6
f4
c8
ee
01
c2
08
07
d7
15
ec
df
07
08
fa
e6
15
0f
eb
03
e9
df
f9
14
13
11
eb
e5
01
15
f5
e9
1d
1a
06
e3
fc
3f
1c
fc
1b
af
f9
f5
e2
e9
f9
e3
14
37
08
0f
e8
06
f7
fb
1c
0f
01
0c
f0
1d
2e
f5
01
f8
fa
f8
58
0f
14
08
fe
f6
20
f4
fd
e4
e8
0d
03
de
f7
06
18
f9
dc
fd
00
ff
fb
34
ea
0b
19
0a
f7
cc
da
fc
fe
05
19
07
ec
01
17
fa
01
1a
ec
1b
ee
d3
14
0a
08
e6
07
19
0c
1a
1f
1a
f6
d7
05
1d
0c
f2
ef
d9
f8
f9
04
db
dc
10
ed
08
06
26
0d
e3
ff
de
27
20
17
f9
1d
f3
0b
02
dc
08
18
fa
fa
00
12
df
0b
01
2c
f9
08
22
cd
e9
f7
e0
11
08
f6
ce
f4
18
02
19
05
0b
fc
0b
e1
19
1c
ef
fd
0e
fc
03
f5
e1
3b
f3
16
28
16
f9
03
fc
13
e5
f7
06
08
f5
ed
03
0e
d7
f2
23
1a
f9
dc
df
08
f0
f6
10
0f
f2
f3
17
f7
07
03
f0
f9
ce
1f
fc
04
e9
f5
fb
14
06
fc
e8
0f
f5
0f
ea
01
19
13
12
02
36
ff
09
08
f8
07
0c
11
23
fe
fb
0b
21
1d
f3
0e
1f
e1
1d
27
f5
17
17
09
fc
f4
f4
d8
eb
29
cf
14
1b
f4
13
f2
0a
15
1c
fb
07
ff
03
1e
fb
05
0e
07
ee
f6
f1
08
13
1a
07
e2
fe
19
fb
f4
10
ed
ff
18
0b
1a
14
15
f8
18
e8
fd
06
0a
ff
0c
13
02
fb
e8
f7
e0
03
0c
f4
f7
f0
e9
1b
14
f0
fc
16
0c
06
f1
2d
fa
1e
0e
1e
05
03
0a
fc
ff
ea
1b
0a
f8
29
f7
11
ef
f1
e6
fc
09
eb
21
ee
e4
14
07
f9
09
0a
03
e7
0a
35
23
00
f6
d7
e8
0f
f5
fd
e0
00
f2
12
f8
f6
07
f2
eb
03
1b
04
01
f6
e4
fa
da
f7
03
ec
f0
02
ee
3b
09
19
f8
2e
eb
02
2a
06
26
24
ee
0d
df
ca
09
e8
0c
f9
ea
05
09
f2
33
d9
f0
03
e1
22
fc
0a
f4
e8
32
0b
fe
0a
10
f5
f6
e6
f9
0b
15
f0
f9
d0
df
e0
10
e3
40
fc
ed
1e
f2
08
03
e7
e1
e8
05
0a
20
ef
03
14
ee
e0
f0
e6
09
22
06
da
20
f9
e2
fc
2b
0a
e8
f8
06
ef
13
ea
0d
fc
27
fb
29
00
fd
df
2a
1b
e0
1e
17
f5
02
1d
cd
fe
f7
cb
1c
10
f6
da
18
0d
d9
f2
dc
f8
2b
f0
e2
16
dd
dc
d0
e2
1c
fe
f7
fc
ff
17
e6
ee
10
dc
e6
f9
cf
1a
20
f0
ff
05
23
13
18
01
fe
01
0e
03
da
17
19
f9
cc
0e
e2
fd
d8
03
fa
e3
f5
1c
bd
fe
ee
41
08
f5
fc
f3
e0
2a
e3
d6
ef
2c
ca
d9
11
fe
23
df
14
e0
dd
c9
19
e5
0a
fe
f7
02
fe
f8
ff
cb
21
d8
00
0b
f9
c9
25
fd
e8
09
f2
de
37
07
0f
fb
e3
ef
0c
17
0c
25
38
2a
fe
ed
05
fd
22
12
f0
ff
07
01
02
e7
12
e0
ef
07
f9
d8
0a
f5
d9
03
04
01
14
04
24
02
17
e2
1b
f7
0d
24
fd
11
e7
2e
f5
ef
f1
f9
fe
e5
18
10
20
0a
01
f1
1e
e6
fa
34
0a
02
e4
e7
2f
fa
e5
ea
f7
fb
04
2b
ea
26
ef
11
f4
ea
ee
fa
f8
04
c5
13
11
f9
06
12
1a
fc
e8
0b
08
09
d6
07
01
f3
22
f5
f3
27
26
f5
d9
0c
e8
e6
fd
19
2c
d4
16
f1
15
fc
f8
0d
04
18
fd
db
f6
f8
fc
2f
1c
01
13
d5
fd
0d
ee
e8
f7
d6
1d
e4
dc
0b
ed
fa
12
03
07
f3
22
fd
ef
28
e8
e9
ee
09
00
08
11
d6
e9
4c
ff
d9
0e
31
0c
fa
f3
ee
1c
1e
0f
0d
00
f4
09
f8
11
27
0b
12
f2
f1
32
06
06
f5
1e
07
fb
01
13
13
1c
05
ca
fe
07
1b
e3
0a
23
ec
d8
fd
22
f5
17
18
d0
1b
28
e6
fc
4c
eb
df
f3
fe
d8
fe
d3
13
0f
e1
02
0f
12
e1
1b
1b
ec
d1
0c
f3
d4
f2
0a
e3
ed
04
e5
10
08
12
f7
ff
f5
f8
1c
d5
19
2b
11
13
ff
00
f8
dd
de
15
d1
37
09
03
22
0d
f7
05
f4
0a
02
25
32
0d
24
02
e2
f4
fe
e8
d1
02
00
fd
ec
ed
f6
2c
fc
1d
fd
ec
06
1b
0d
07
f9
e7
04
fd
fd
f1
fe
05
ea
f8
fc
fc
17
0e
fc
f6
04
ee
f4
02
01
03
0d
f6
14
0b
01
fb
0f
03
fe
f4
fb
0c
fd
f0
02
f3
05
09
08
f7
ef
04
f4
03
04
10
f7
fc
fb
ff
fe
0f
07
05
f9
2b
1a
02
06
f5
f5
07
f8
02
02
12
fe
18
0e
f8
fd
f7
0d
03
f1
ed
05
09
fa
09
12
f1
09
ff
fb
fb
fe
f6
09
00
00
fc
fc
fc
22
e6
02
0a
eb
fd
f0
eb
fa
f3
f1
01
05
0a
04
f1
17
06
ed
0a
13
20
17
00
0d
f9
08
0e
01
27
f1
fd
f3
fe
fc
f5
06
ff
f9
fb
0e
f7
f5
04
ff
03
ff
fd
7f
f2
f1
02
f8
f8
04
ee
12
f3
06
08
f9
f7
f6
01
07
fe
f2
0a
03
04
fd
ff
0e
f6
05
e3
03
0f
fd
0a
12
03
0d
12
05
0d
06
08
03
00
f7
f3
0e
f3
e7
04
fa
03
f3
0e
fd
ff
ea
f8
f9
ff
f7
02
f8
f8
f9
ff
f3
07
09
ef
fc
f7
f7
ef
f5
0e
09
02
fe
ff
ed
03
07
ec
fe
00
09
fb
08
f5
0a
fb
0c
f3
e9
f7
ff
f7
f0
10
fd
01
ec
f8
0e
ec
12
05
09
f4
f8
13
f3
f8
17
08
01
0b
f6
fc
07
0b
f8
fd
00
fd
f8
01
fa
fc
11
04
0a
02
f3
0e
11
11
03
0b
05
01
02
fd
f5
07
07
02
f8
04
00
fb
f0
f6
fa
ef
f7
1a
0c
ff
ed
05
08
07
14
f7
04
01
fd
fc
07
f2
f2
19
04
00
05
ff
05
fc
f8
02
ff
0c
ed
02
05
06
08
f3
f6
04
fd
f4
0e
05
ea
fd
f5
fe
00
01
f6
02
17
09
f0
fd
f8
fb
0e
01
f6
f5
f6
08
03
f6
01
fd
01
0a
0c
fc
00
0d
0f
f4
f4
f6
fd
0c
f4
06
f5
0b
01
f3
ff
ff
05
e3
0c
0c
f9
0d
f2
fb
06
0e
ff
02
e3
ff
17
ff
02
11
0d
0c
0b
f3
fd
02
0f
f5
0a
04
08
fb
fd
fe
fc
f9
f2
f6
07
07
ef
f1
0c
0d
07
05
ff
f4
14
fc
07
f2
16
06
02
03
f6
14
05
f1
f0
f9
03
ff
ff
f7
fb
01
f5
08
09
fe
f1
03
fc
f2
f3
f4
0d
0e
fd
0a
0a
10
08
05
fb
1a
04
ef
02
f2
07
fb
ea
f6
fb
f8
0a
fd
f7
fd
12
da
f9
f9
f1
de
14
03
07
00
f2
f3
fe
f4
f8
06
fb
ff
ff
f6
fd
03
0e
fe
ea
ed
fa
dd
f4
f2
06
11
28
01
21
c8
c5
d9
fc
01
0b
0c
e0
15
f0
da
01
1d
f5
ed
2e
fe
2a
d7
f6
e6
f1
06
e8
2a
d9
fb
08
16
14
20
ec
0e
0b
ff
f1
e8
da
03
2d
cb
f7
20
15
eb
07
12
0d
e7
01
10
39
f9
04
24
05
0e
d2
fa
02
fd
15
2b
00
29
f2
39
18
f8
fb
fb
06
01
ed
cc
f3
df
e9
23
34
08
1a
01
1a
fc
07
e6
cb
15
f5
0f
09
0b
dc
30
17
0f
0d
05
cd
09
0e
f6
23
f7
00
11
d3
fd
0d
00
e7
13
fd
e5
20
00
1e
ea
0c
ef
f7
fb
30
c7
05
e7
00
05
de
f5
fb
10
25
17
08
13
ff
09
eb
24
fd
11
fd
bf
cd
08
f2
ed
cb
e3
f7
fc
fc
22
fd
12
02
f4
09
fd
f0
0b
e9
f1
e2
f9
26
1a
04
15
f8
0b
ee
fa
37
25
f8
18
f6
ea
de
fa
fa
09
f3
f8
f0
13
de
27
0b
f2
eb
da
fe
20
0f
0d
e2
08
18
ee
ef
ee
d0
21
fa
08
f6
2b
ff
f5
ce
02
07
0c
10
03
1d
fb
31
06
21
03
06
f4
18
23
31
0d
05
ff
24
28
e7
39
e2
0c
ee
26
cd
0b
d5
d2
dc
48
2e
20
da
0b
ea
e0
f8
fc
1e
22
dc
2a
e8
f3
f6
19
2b
1c
e8
f7
0a
e4
04
fb
ff
e9
f2
f0
23
06
d3
d3
07
ee
2e
31
d4
ff
fb
03
08
0a
0c
fc
05
0d
27
10
18
22
03
0f
fb
ee
f7
fd
23
f2
f9
1f
04
0b
21
10
33
06
34
0b
e2
1c
ee
e9
f3
ed
f7
f1
d2
0f
09
f2
da
f5
44
02
f7
d5
00
11
d7
f0
1e
06
02
fb
fd
fd
f7
f6
f7
c5
28
27
fa
f9
0d
fb
08
0d
ed
d8
1b
0e
03
e4
26
0d
0b
2e
13
fc
e1
f0
f5
f8
fe
0f
e8
00
eb
04
10
1a
fb
fa
ff
fb
03
12
e7
11
fd
bb
e2
19
1a
28
fd
00
17
20
0f
17
fe
e6
17
19
1f
e6
f3
11
ef
0f
fd
13
e4
f9
0f
ff
37
fd
20
f8
0b
21
05
e8
0d
f9
e8
1a
18
fb
05
ee
ff
f4
1d
d3
1c
33
11
1c
0f
bb
0d
fd
e9
fd
f6
f8
30
f5
d4
0a
ef
1f
06
f2
fd
db
fa
05
14
23
09
dc
de
e5
cb
2c
0a
ea
0c
f7
14
fb
ef
02
ef
0e
ed
e2
1b
f2
1c
f6
ed
2e
ec
0d
12
04
0f
f4
fd
d9
0f
18
e8
dd
e3
01
15
15
42
de
f1
f4
fa
ac
d7
e9
fb
05
fd
e3
06
e5
ef
02
09
d6
05
21
13
f5
22
e8
05
0a
e9
af
f3
ff
fa
f0
e8
e2
16
ed
ca
03
0a
0b
ec
18
12
f3
f1
fa
0b
03
f4
ce
fd
04
1a
ed
05
f2
ec
c0
e5
eb
e9
11
0f
0f
fc
1e
ef
f8
e2
09
f8
08
09
25
11
e4
0d
fa
0c
11
13
0b
ff
00
f0
1d
0f
11
fc
fa
f5
1b
06
e4
f4
13
d9
f1
01
25
f6
27
01
f3
0a
d9
11
fc
dd
22
e8
f7
f6
dc
f0
09
fe
ee
f5
1c
f3
17
0b
08
22
22
11
f0
07
18
c9
c5
00
e7
fa
f6
11
30
df
f0
12
07
e9
fd
14
05
37
eb
f1
26
10
e7
22
fc
ed
0c
fb
ed
0e
0d
07
21
22
f7
e7
06
0e
21
ff
13
27
06
f4
fa
00
1b
d9
1b
14
25
22
15
ea
e6
35
d0
e7
08
1b
1b
e4
f5
dd
17
fd
0c
1a
eb
d2
f7
e2
d6
10
4c
f8
02
ff
26
e3
f4
f3
19
cc
e5
e0
e4
54
15
1e
17
f8
14
f9
e8
f7
f2
e7
24
eb
e9
ec
e0
10
fd
1b
29
e4
fa
f1
05
d2
e3
2a
f8
10
f9
10
2a
10
fb
fd
ea
08
14
2f
32
25
11
15
ff
f8
fa
10
16
f5
f9
f8
fc
d4
0c
25
f7
fd
12
1d
f1
05
2f
d3
06
24
eb
17
ec
0e
22
1d
1d
21
eb
1a
fe
dc
12
01
ef
36
09
0e
17
e3
01
2d
36
b0
07
18
04
e4
ed
00
0f
fc
f2
d6
fa
f1
24
f4
f9
e4
e3
32
03
fc
34
03
f9
d9
0b
f8
eb
0f
e9
fe
d7
0b
19
fb
04
ff
f4
d8
11
fc
26
12
0d
ef
10
f5
f8
fe
ec
0b
f6
0f
10
00
e9
ea
12
0e
d5
ef
eb
ec
ff
01
18
e9
24
0f
f6
28
05
1b
18
ff
09
ff
03
f7
23
f9
24
1e
38
fd
ff
0f
f5
0b
dc
ee
f2
0f
d8
21
d7
f5
ee
d3
e9
0f
e7
13
ee
fe
1c
03
00
2b
f7
0f
2d
20
f6
0d
00
fe
05
17
ea
ef
02
f9
e8
0d
c5
1b
dd
d4
12
16
33
0b
1f
e3
e4
f8
d8
e9
e9
0b
f4
03
16
f7
0e
11
dd
d9
16
d4
21
ee
f7
ee
20
dc
f2
12
ed
0e
2b
dc
f9
f6
03
d7
ca
e8
25
1a
05
1f
da
25
e3
18
e1
1e
27
e8
15
f4
fb
ef
01
f8
36
1a
0c
16
17
fd
f3
1b
ef
09
01
f1
10
05
14
ea
34
fc
04
11
09
0e
e8
06
24
f9
02
d4
ea
e1
ff
f2
ff
00
29
1f
ec
fa
1e
ff
d0
fa
08
e5
f4
1d
06
12
13
08
01
3a
fe
cd
11
f0
1e
19
1a
01
dd
23
f1
0c
fb
d9
f4
ea
ed
01
d9
fa
18
f2
1a
f2
e4
ec
f4
f4
16
ee
1c
1b
21
d6
d7
09
e9
05
1c
d2
e6
19
0d
e2
13
12
17
34
00
29
e7
13
fc
17
f5
18
1a
f9
ea
e9
f9
f4
f8
e5
03
09
0a
dc
05
0d
10
0d
2c
d5
eb
fd
38
2a
15
f9
ff
05
ff
d2
db
f2
f8
0c
13
23
e7
17
ec
0f
f9
c9
de
16
d2
18
15
03
1a
2c
20
17
fd
d9
1c
1c
f5
f5
e4
ef
01
f4
23
01
12
dc
fa
02
0b
0d
f8
20
e7
ec
f3
f4
f8
fd
fc
0f
10
d8
f9
cd
f2
e1
dc
f2
dc
fb
07
08
e4
07
2f
22
fe
01
3d
c5
19
1d
00
e5
d0
1a
dd
ee
fa
e1
fa
11
1a
fc
c6
f8
0d
0a
e5
db
e7
23
0a
04
ea
f8
05
13
f8
10
fa
f9
f8
0d
fa
0a
1b
28
ed
22
e0
01
e4
03
29
11
f1
dd
cf
03
f5
04
e8
0e
fb
f3
01
39
f8
d2
0f
17
09
f4
23
12
18
31
fa
24
de
fa
df
3a
ee
10
0d
2d
1c
f5
11
e4
f4
fa
f4
15
1f
e1
ee
17
1c
e8
04
3e
db
26
f5
11
f1
08
e7
ef
27
08
f6
05
da
e4
1e
f1
0d
11
ce
e5
f8
e4
42
f9
f1
01
12
0d
04
f4
02
eb
1d
fa
17
06
11
03
09
1a
0f
f1
f4
f5
02
05
13
1b
f8
1c
2f
0f
f6
0c
0d
e4
e6
d9
0c
02
ca
01
f7
fe
0b
ec
ec
07
02
f8
f1
f7
20
1d
fc
0b
f7
f0
0c
0f
0e
13
45
09
17
18
02
27
22
dc
ee
cb
fb
16
15
fc
03
e2
1b
15
0f
0b
28
cc
14
2f
f0
18
04
0f
e9
f1
e3
fe
dc
21
ed
18
f5
f6
ff
e8
0c
f6
fb
ed
f9
02
fa
e6
ee
e1
f3
06
ed
02
1a
2c
21
f5
fb
fe
0c
09
25
0c
f2
de
01
fc
d3
11
f4
ff
05
28
f4
fc
32
ef
25
14
d3
04
f1
f9
d7
f7
22
0d
e3
13
3e
ed
cc
0c
d6
f4
e1
ef
46
30
2b
cb
1c
07
3d
0b
05
e2
f4
e3
d0
e7
0e
fe
08
f9
f9
04
04
f0
e9
0f
04
01
08
f3
11
d9
ff
fb
1e
1c
eb
ea
ed
fd
0f
fa
0f
04
39
bb
fe
0f
23
db
e9
f6
29
d1
e4
12
11
02
f8
13
f5
e3
2c
c6
e7
16
f0
01
ee
0d
ea
2c
f8
ea
02
04
04
12
03
08
02
ec
15
07
e1
f6
0a
02
f1
db
11
ed
fb
f0
ea
dc
e5
f8
07
f9
0f
02
fc
f2
e6
f9
f8
25
04
f5
0b
26
34
fa
12
f4
da
07
fe
0b
08
09
12
21
ec
e8
f7
05
17
d8
f7
0a
e8
06
fa
d7
0d
d1
03
08
04
f9
f7
d1
c6
08
f0
14
ec
e3
2c
1f
20
18
03
ff
e7
12
2a
f6
ea
12
01
05
f4
0d
19
f6
14
fd
ee
f5
0e
fa
f8
01
0b
08
01
04
e4
0e
07
f1
e8
35
ee
20
01
f8
05
f7
eb
02
03
d4
01
16
ff
09
e6
fd
25
18
04
25
17
cc
f4
f4
01
e0
ed
c7
ef
07
e5
1e
03
08
1f
fb
07
12
d5
00
04
ea
e7
f0
1a
f6
03
13
fe
16
13
01
03
f1
03
ed
08
0c
e6
ef
29
fb
0f
0e
da
07
eb
18
ee
08
12
ff
e8
29
09
1c
23
22
16
ee
f8
fb
1f
00
27
cb
01
19
f9
0b
21
fa
04
2d
0b
31
e5
0d
fc
e0
0c
03
11
03
eb
2a
0f
ee
01
26
0f
03
f6
df
02
fa
06
d8
f4
e3
f9
27
09
f1
f6
25
08
f9
f8
e0
02
e9
f9
eb
00
05
0e
0b
04
f7
06
2a
41
04
04
ed
1e
ed
e5
03
0a
e5
ef
0d
0e
f8
07
0f
3c
07
04
13
fc
06
08
f4
16
0d
09
01
e1
e7
fb
ff
e5
0d
03
00
e7
f7
ec
fb
fd
d4
0e
e6
ff
f4
fb
12
fb
ed
f5
08
f2
0e
26
29
e7
0d
c9
05
0d
f6
ff
e5
db
fa
ea
f7
12
1d
e0
e2
f0
b5
fd
01
fe
ff
0b
1b
de
f0
ef
28
ef
ee
c2
24
ea
01
eb
01
ed
05
fc
f1
07
07
05
11
17
f6
fe
0c
1a
f5
13
04
f5
ea
fc
d2
0c
29
f1
e9
08
06
0b
d0
16
fd
ec
f7
0c
ea
f6
00
20
09
19
07
03
be
f9
0a
12
f0
fe
02
ee
07
f5
05
ec
fb
09
ff
f2
0d
13
e0
dc
06
fa
e1
10
dd
01
ef
08
f7
da
f3
22
02
11
18
04
26
0e
fa
fd
fa
16
04
f7
f3
06
39
fb
e0
f3
ed
11
ef
0d
05
e4
f4
2d
06
ed
00
03
34
06
09
e0
fd
e9
da
2b
f8
e3
ed
f0
33
06
f3
e5
04
07
06
18
08
33
10
f4
fe
f8
0d
08
12
21
dc
17
06
15
14
18
03
16
fd
c8
09
e5
fe
f8
e8
fe
ec
d1
27
0e
eb
f5
fc
2b
e9
d3
03
16
08
16
1a
ec
02
ea
d5
d7
35
ef
1c
1c
ee
c9
06
d8
f5
15
f2
ee
e5
1d
21
fc
fd
03
e6
ec
eb
d0
3f
ba
de
26
1e
f5
f7
ee
bb
09
cd
e9
17
ec
ea
e0
ea
f6
f1
10
00
1d
fc
f5
0b
12
05
f6
06
03
07
fb
e0
fd
d2
2c
05
d3
1d
f4
2a
fd
12
0c
fc
00
1a
01
f6
1a
f6
fb
c8
3b
fa
ea
fc
18
02
d8
ff
00
0d
22
ea
0a
e0
03
05
0f
08
dc
0e
00
f3
0f
f0
e0
f0
2a
06
fc
09
e6
14
21
c5
02
20
fb
03
1d
04
cf
1d
2c
09
df
20
1c
17
04
13
fd
1f
e7
01
10
40
2a
19
0b
fe
01
29
d2
09
0c
17
e6
2a
eb
fe
13
3c
f6
28
46
0b
02
ee
0c
08
1a
05
ef
f3
0a
f1
19
09
18
2c
34
10
1d
0e
f7
15
2e
13
d9
ee
f2
fd
f5
40
1d
f0
03
10
f9
01
11
e9
07
0b
0d
0e
29
10
27
0e
ed
e8
da
df
1c
27
f2
04
f8
08
28
29
dc
fa
0f
f9
f2
13
08
29
27
01
eb
d7
23
ef
07
44
1e
02
fa
11
c9
17
e3
f8
15
12
fa
21
ec
13
f3
03
05
e7
15
1d
f3
19
ee
f9
15
e4
16
d0
ff
1d
f6
02
10
21
0a
d9
08
27
ef
21
19
14
fc
d0
fc
ec
d9
f0
e5
0f
fc
e3
fc
0d
df
cd
fd
f3
2b
f9
e5
08
08
fa
b4
ca
27
27
ea
fb
d9
07
fe
0a
ef
f7
e8
de
eb
d4
1a
14
12
03
fb
df
ff
f2
c7
1b
0c
fe
05
b5
e5
f8
ff
10
da
03
17
06
01
20
de
d7
09
09
10
00
15
10
fb
f0
ec
f2
2d
e4
03
f0
0a
9d
f5
f7
0d
2e
2e
ed
14
d5
36
ee
2f
e0
fb
14
ed
ad
21
d1
df
c5
dd
16
01
00
02
0f
e2
f5
c8
db
01
f1
18
29
17
21
ee
c7
2c
ee
ec
05
1e
e9
00
fb
0b
e1
22
fe
df
03
f3
df
32
2a
f4
14
12
e8
f3
fc
fd
e1
f5
08
e7
d2
04
dd
e0
1c
2e
f7
11
06
fa
f9
ea
04
df
04
d5
f0
e7
1b
cf
e7
07
f4
cd
e7
25
0a
ec
16
0a
e7
1a
ed
0c
07
f1
fb
0c
0d
e9
13
0f
21
f3
34
f4
44
2b
fe
09
ff
13
16
cf
f6
06
11
fb
0c
dc
fb
d9
d1
25
23
14
ff
0c
10
e4
fe
f1
01
d6
1a
02
0f
f8
16
ed
1d
e8
e6
fa
22
1c
12
df
1c
f0
10
f0
02
f1
07
20
e2
14
05
0e
2e
e8
f8
0e
e3
00
0e
f9
17
01
f1
11
f8
09
ff
f8
fe
f7
0e
14
f0
06
3d
3e
25
1b
0b
f1
fe
d0
0a
1f
e9
19
00
07
f8
09
f6
0a
1d
0a
07
f4
08
fc
0c
df
ff
fe
0c
0f
0d
dc
0d
08
12
ee
ff
d9
0b
01
02
e5
f5
ff
14
0f
01
ec
09
0a
26
01
ef
29
f1
09
fc
25
d7
1f
09
10
24
0c
fc
fc
1b
12
ee
09
1a
e9
06
0c
12
f7
02
e1
09
cb
ea
0a
fc
1a
ea
f7
14
fa
0f
d9
09
f8
05
fb
1b
12
02
f1
1a
f7
23
c4
e3
ef
08
19
f4
f2
28
ea
0e
df
e8
fb
16
2c
c1
02
fa
07
fb
19
d5
23
44
f4
00
ff
f4
f8
07
ef
e4
ed
cb
ee
e3
d1
14
fe
25
11
f3
f6
01
e9
e5
15
10
14
19
19
34
1b
04
05
d4
07
f3
03
0c
fd
fc
12
17
11
de
0b
26
11
1e
29
ef
f7
fc
f6
01
01
31
02
f9
05
2c
10
39
05
2b
e7
fb
1d
c5
f6
05
d4
26
f8
19
fd
f8
eb
30
f7
04
00
1f
0b
fc
f3
f6
39
df
f7
07
f3
ef
e8
19
1b
f6
06
ea
0a
f2
09
0a
03
fe
20
de
f5
1c
ef
e9
ee
15
db
da
fa
16
0e
e4
1e
02
f0
02
00
08
e9
d5
16
01
22
10
12
ef
03
01
ed
15
e5
12
ed
13
31
0d
1c
f9
f8
f1
d5
17
05
e0
e2
05
fb
09
04
eb
ee
ff
15
cc
ff
fd
ed
04
03
fb
10
f7
e2
eb
f2
fa
24
0b
0f
13
e5
29
e4
ea
19
16
0c
db
0e
fc
11
e4
f5
06
f4
1e
fb
fe
f5
fc
fb
03
fb
f6
09
09
0a
ff
1c
27
0b
f0
07
0f
13
ef
1e
43
00
23
e9
0a
29
da
fc
e3
0f
07
0d
15
e9
e3
d4
e4
0d
f9
08
01
2e
fd
08
ec
de
c1
ee
1f
fc
08
07
01
12
3a
f7
18
e3
21
18
e3
ec
dd
01
2d
fb
19
1e
01
f0
2c
ea
ea
e2
f4
ef
01
fa
00
08
06
d7
f6
f8
e4
ef
1e
0a
da
21
fe
f3
d7
0b
0c
f5
e3
f3
fe
f3
0c
ed
26
fd
f2
fa
d5
0f
1c
00
f8
09
13
ff
eb
02
f1
f1
f4
cf
0f
04
f5
f4
09
05
e2
d4
eb
06
f5
ea
fd
eb
19
0c
0c
0f
f5
f6
d1
0f
05
0c
1a
f5
02
f6
f3
1d
0b
0f
00
ff
fe
05
02
0f
f3
06
f8
0f
09
01
0e
ff
08
06
06
fd
03
0a
00
f3
f0
02
f9
02
06
fe
f9
f4
07
fa
15
03
fb
fc
fa
fb
0b
01
0a
04
06
f9
06
ff
03
08
f6
fe
02
0b
01
f6
08
01
02
01
0a
09
05
02
07
00
ee
fe
07
02
05
fc
06
fb
fd
01
02
f5
00
02
f8
01
f9
10
ff
fa
02
09
f7
00
03
f2
ff
08
09
f8
08
06
ff
01
10
f0
02
08
fa
06
0a
f8
02
ea
f3
fa
ff
03
ff
fe
02
fb
06
fd
08
f7
fe
02
0d
03
04
08
00
02
fe
0f
fd
03
09
f8
f7
f6
01
11
ef
f8
07
05
f9
04
08
fb
05
01
08
f5
8d
05
f7
06
f6
fe
f1
04
f5
fe
0e
08
0b
0e
f9
f9
ff
08
fe
04
f6
f5
00
01
fd
00
00
ff
f2
fd
0e
0b
fa
ff
fe
f8
ec
fe
0f
f5
01
03
01
08
fa
0a
f8
05
0c
04
f4
01
0b
06
fe
0f
fc
04
05
08
fd
07
f8
f7
06
04
02
0b
03
01
00
05
05
07
06
05
0b
fc
f8
09
fe
fc
fe
05
fa
05
04
09
03
01
07
0a
00
fe
04
07
14
08
fa
ff
09
f3
06
01
08
fd
01
fc
f8
fb
f7
14
f7
f5
ff
fd
f7
03
08
fa
01
08
f8
11
06
f3
08
09
09
02
00
06
f2
13
ff
fb
f3
f4
02
03
fa
06
06
f7
0f
fc
f8
03
f9
0a
fb
fd
01
04
06
fc
f5
f9
f3
01
0c
04
f5
00
02
08
fa
f8
ff
f1
06
14
0d
0b
05
00
0a
00
fc
fd
11
fe
04
08
03
03
fe
02
fc
02
fc
07
03
04
f7
fc
f4
02
11
04
01
12
fe
f3
fa
fd
08
fc
f0
f7
0f
f5
00
f7
f9
fd
05
0b
02
02
fd
0d
fe
01
f1
03
0b
f8
09
fd
f7
08
f9
fd
fe
fb
0a
f6
00
03
02
05
fd
02
fc
fc
00
05
06
fa
f5
fc
0d
06
fe
0a
00
ff
03
00
fa
0c
f8
09
fa
f6
0e
02
0c
02
fe
f8
0f
07
fc
fa
02
f6
fa
07
08
fc
ff
f8
f0
f4
fe
f4
0b
05
02
fd
fc
05
fa
03
04
fb
06
f3
f5
f0
09
07
0b
08
04
ff
f9
0a
07
01
07
0c
0a
00
f9
ff
07
fe
00
f7
04
fb
ff
0f
fc
04
fd
02
fd
01
f8
ff
0d
00
03
0c
03
f4
08
09
0c
f2
fa
00
fc
fa
09
00
fe
0a
fc
01
0e
06
01
f5
fa
f8
f6
0d
02
f8
02
08
20
d2
19
d7
07
0b
e6
e7
25
db
1b
0a
1d
02
fb
18
07
f9
06
fc
fa
f6
04
fe
e1
ea
ff
06
e4
0d
19
1a
fb
11
17
17
03
06
0f
23
ec
e5
f0
fc
dd
07
ea
25
1c
e0
e7
ff
1f
00
0a
21
fc
08
e3
f5
f2
13
fc
15
17
17
05
e9
fe
fc
0d
fe
0e
f8
ec
ed
17
22
e6
0f
0d
15
fd
07
03
f6
11
16
fb
0a
f4
fb
16
05
e8
e6
1a
f7
11
20
1d
ff
f5
fe
d7
f2
f4
23
f9
15
0c
00
f7
fe
f6
fc
0d
2a
2c
df
07
f1
08
fb
09
f6
f2
fb
fe
fb
07
0e
1e
0d
2c
25
1b
16
0b
e1
09
0e
fb
e6
f0
14
f5
15
f4
09
e0
f5
fa
1e
fb
10
1f
ff
eb
df
06
f8
f1
f8
08
06
07
ed
fa
02
10
00
fd
f0
09
05
09
dd
1c
0f
11
f8
0e
e5
12
28
f7
f9
14
e8
fb
fa
fc
ef
ee
07
06
02
39
03
f3
0c
17
fb
0b
10
1c
fe
05
0f
ee
f5
e8
10
f5
ee
ff
0a
e4
fd
14
e8
00
f6
13
1c
03
f2
0c
23
18
fd
f1
e7
17
05
04
0f
16
f1
1a
bc
cf
14
fb
ea
06
1e
ef
0f
06
fd
f1
ec
cb
0f
fe
fb
fa
13
06
18
18
f2
08
e0
f6
09
ff
f8
f9
ea
10
f1
ec
04
fc
08
0c
23
06
06
fe
03
14
f6
08
12
ef
f4
e2
e8
0d
0c
f9
fe
f8
08
dc
13
09
18
d3
ed
fb
ff
fd
e8
f1
f5
e6
08
e4
f9
fc
05
e5
e5
08
eb
f9
fb
f2
f6
06
e1
0a
df
01
09
e2
13
14
23
20
f2
1e
f7
ff
28
f8
0e
14
13
fe
09
0a
07
0e
17
02
e6
06
f7
10
01
0e
16
0c
e3
1c
ec
2e
fa
f6
fd
0a
f4
f8
ff
01
0f
ed
14
31
2c
fd
08
fa
e2
f9
15
07
0c
04
12
1b
fc
d6
04
10
0f
04
fd
18
e6
09
f8
0a
29
07
09
0e
f9
d8
05
13
17
0e
fc
f6
0c
f9
02
f1
01
fe
1a
f2
e1
ec
fe
f4
08
02
f8
ef
03
0a
fb
e6
16
17
f7
0f
f6
24
0c
ef
fa
fb
23
09
ef
0f
fd
f6
24
e7
3f
0f
08
1b
0b
db
db
de
10
da
f4
15
f5
05
f8
0e
e4
eb
fb
24
11
e6
e1
ea
09
e9
12
0b
27
0b
03
0e
10
e6
e0
1f
fe
1b
fa
09
f6
e8
e5
e3
ff
fd
e4
f8
08
ef
0d
d2
e7
d9
08
00
07
2e
04
f7
fb
ea
e1
f5
22
18
33
14
03
21
12
21
2b
0c
f2
f9
f6
14
e2
12
f4
d1
de
db
1f
ea
f2
f6
d5
e0
10
18
02
f4
fd
e8
04
d2
e7
12
20
d4
04
0a
00
f6
e2
eb
e7
1e
07
f9
e5
fc
0b
fa
de
e5
0b
17
0d
e4
0f
13
16
18
1c
21
e9
f9
c2
00
03
e7
04
f3
ff
0d
f9
10
fe
04
00
06
d4
eb
18
c5
19
00
05
e8
f8
ee
05
4c
29
3e
fe
f6
11
ed
15
ff
fc
08
ee
ff
ed
0b
d7
20
04
ca
fb
08
d9
2b
08
02
01
ff
13
fa
17
f5
01
01
d8
ff
18
1b
ba
13
e3
fc
f4
01
fb
f1
e7
fe
11
03
f1
e7
14
20
25
06
ff
fc
dd
07
e4
fa
19
ea
d2
f6
ef
08
0a
f9
17
e4
06
1e
0c
22
21
e9
fb
de
eb
e6
35
03
fd
00
01
f6
0a
f1
11
0f
19
dc
ec
ed
eb
1c
10
e7
11
fb
0e
09
36
ec
f4
18
03
11
1a
1a
f1
f1
22
12
f8
f9
0c
e1
f7
2a
0c
db
eb
fb
f5
10
12
e0
cc
dc
09
04
20
ef
18
06
fa
1a
dc
cc
06
e3
12
22
ef
14
36
fd
e4
0a
d5
00
f5
d8
fe
e3
10
05
cf
f9
cd
f8
f2
0e
05
f2
e6
04
ec
f9
11
09
e4
ca
db
e9
ea
16
fd
f8
3e
22
f6
09
0e
33
e6
f3
f6
e9
13
fd
21
e5
fa
26
ff
28
1a
cc
dc
fe
1d
e0
42
07
fe
e4
cf
04
0e
ff
fe
25
2a
f5
ee
d6
1d
fb
f1
f8
d4
e4
f7
07
0c
04
03
16
f3
00
33
f8
0c
df
eb
05
c0
04
0e
e1
fe
f8
51
0c
36
01
18
fd
17
23
11
ec
04
fa
fb
21
2c
ec
16
f0
34
1d
23
fe
fa
12
08
0e
0b
22
f7
e7
19
1c
10
f2
0d
f5
18
f0
dc
26
25
07
12
11
da
07
07
e6
fa
f3
11
17
30
12
01
e8
f6
f8
e5
f8
0c
e1
0f
0d
f9
29
02
f8
f0
10
24
ee
13
f1
dc
08
e0
fe
21
17
c7
01
f9
f5
07
08
f3
00
1d
f7
02
20
12
e2
f0
f3
05
0c
0a
ea
e9
0a
02
1c
08
2f
f4
37
ed
01
0f
fb
f0
05
1c
08
00
de
ec
fe
1c
1e
d4
fb
00
ed
ff
f4
06
15
f5
fd
ef
d1
01
d1
09
f8
fa
11
fd
fa
0f
02
fc
28
01
db
24
fd
c7
23
b8
05
11
e5
e6
25
e6
23
55
18
0a
01
e7
db
e2
f9
24
0c
0f
f1
da
fa
13
14
14
e2
12
1b
02
fb
f4
1d
29
e9
f8
10
ec
04
21
ec
0d
cc
24
f7
0e
fe
cc
10
f9
e4
07
18
fb
e3
eb
f9
22
35
1b
16
df
e9
f9
17
f4
fa
ee
1a
16
f4
f8
06
e6
fc
07
ee
ed
22
e3
11
1b
0d
06
14
08
f8
ec
fe
e4
e3
0d
0e
de
f7
e4
19
08
16
dd
f9
08
29
14
03
03
f5
fc
2e
14
1f
1b
06
0b
e6
d7
1a
e6
0a
e8
f3
d8
29
ee
d2
ca
14
15
28
2e
f4
1e
1f
e7
f7
e1
de
e8
f9
f4
21
e9
06
30
f7
ef
01
0a
ef
16
f4
02
25
f5
fd
fe
dd
ef
0c
f4
1d
04
4b
d9
ea
1f
ef
10
1d
10
fc
19
b9
fd
19
06
29
17
cc
25
22
01
02
e2
12
12
10
f4
07
14
d9
f4
d3
ea
0f
1c
f9
05
13
f4
d7
22
f2
23
08
2b
e9
30
03
e7
ef
12
23
ec
08
f0
27
23
d3
06
06
28
11
fb
d9
f2
16
08
d3
15
f5
e1
13
df
11
0e
09
06
08
dd
1e
22
f6
ea
0f
03
df
f6
f7
e2
f3
04
0a
14
02
0d
fd
11
f1
f6
f2
11
bc
2f
cf
d4
f5
08
ed
21
f1
13
f3
06
f6
12
ec
e2
f2
d7
f1
de
05
da
04
10
fc
e0
ff
e8
c2
d4
0a
00
ed
e2
ee
26
ff
f3
0b
0c
0b
cc
33
e3
07
05
19
f4
12
03
f8
32
2a
f9
d4
10
2e
ef
d8
18
ff
00
13
e2
28
e9
14
2c
14
10
ea
05
e5
08
e1
ef
04
13
25
07
02
f8
0c
05
06
1c
2a
ed
ec
01
07
0c
10
10
1d
f3
01
e9
00
11
ed
07
f6
1b
fd
e5
01
e6
fe
23
ea
f1
0c
04
dd
32
eb
1e
0e
ff
cc
fa
15
11
f7
fa
ee
01
03
fe
04
f5
ef
e2
e5
fa
d9
ea
02
26
1b
fd
ee
00
17
de
1c
d0
f9
e8
d1
eb
04
0e
0e
35
cb
f8
1f
fd
d0
e1
3f
12
2e
16
fd
d8
01
dd
06
ff
f6
e1
fa
16
18
15
1f
cd
20
e0
be
39
1c
0c
ff
0f
22
e9
f3
dd
ef
11
02
01
f5
f8
ed
f9
09
18
fc
f9
fd
fa
0c
16
26
0d
1f
eb
e6
f4
1f
fe
e2
b2
e8
ef
ed
eb
fc
cd
03
00
0f
f0
14
07
1a
f4
f7
d5
14
05
fc
2b
fa
e8
02
ff
21
db
ec
d8
10
ff
ff
0c
25
2d
13
04
12
11
0e
25
1b
04
da
e2
2b
08
2b
28
1a
fc
e9
f0
0b
0c
25
1d
ee
0a
e7
dd
10
fc
23
fa
cd
29
1f
10
ec
00
fb
1d
07
f1
21
f4
d8
06
04
e0
14
0f
13
15
13
09
3e
ee
03
14
14
10
e0
1a
de
fc
f5
0f
f1
f9
dd
ca
01
f4
03
f2
f6
09
09
f2
08
e0
0d
e4
fa
3d
e3
dc
ff
e8
fb
2a
1e
fd
2a
f7
10
02
02
33
dc
28
05
08
df
09
c5
0b
f4
f4
04
fa
f9
eb
07
05
13
d6
05
f6
04
ef
f3
14
f8
e3
f3
03
14
d4
f1
00
0a
f9
09
0a
1d
21
0b
08
04
de
ff
04
e7
22
e3
fc
f4
ea
0b
00
f5
1b
0b
ff
f5
27
e8
01
fe
0a
e5
15
e4
f9
e6
f0
12
1d
09
0e
03
fd
0b
f4
0d
18
f7
0f
fb
09
32
d2
da
07
ee
f7
1b
05
05
f6
0a
3a
ff
fd
d9
d5
2b
05
13
e3
f9
d7
e4
f7
f5
ff
09
f1
fb
0c
1a
04
fa
e6
cf
d9
f1
01
0c
1e
2b
e2
fb
10
f9
0e
f8
17
d1
f3
d4
eb
ee
23
f7
10
0b
f0
1b
fa
fc
f1
e3
e2
eb
40
ca
e8
13
01
26
15
fd
fb
fb
e2
16
19
0f
16
4b
02
d0
08
f3
27
00
e6
fe
0a
15
fe
05
16
07
04
f7
2e
16
16
03
2a
ec
d1
f4
f6
ff
0e
01
0c
ec
fc
25
f7
fb
e1
1b
f0
10
0d
f4
f9
0a
10
fd
1a
d7
26
08
14
e8
21
ed
ed
18
f3
03
03
ee
f3
e4
ff
fa
f3
f2
ed
08
fb
04
10
f4
17
0e
05
35
eb
f1
12
fd
fa
10
05
ef
d8
f3
f1
f7
02
f6
1f
0e
01
15
0f
ed
fe
ff
10
f1
f8
12
01
3a
e9
08
11
06
1c
ec
10
fe
09
01
1a
f6
fd
fe
d0
dd
ee
0c
e7
08
07
f2
d3
ef
d8
0c
06
11
f0
f6
2e
04
fa
f7
16
e6
1b
f5
e6
f7
08
07
1f
f2
06
f5
22
18
c9
1d
1b
11
0d
e0
f5
f8
ec
eb
0c
dd
33
09
ff
fc
17
1a
12
ef
db
0e
d8
eb
d2
e0
0a
1d
fe
f1
f2
00
0e
fa
1c
d0
e3
20
ce
0a
1f
d8
f6
03
11
08
14
10
fd
ff
1a
02
25
e5
00
25
f1
14
de
29
d8
03
fb
0d
fc
06
06
fd
e1
d4
f3
f9
fc
f1
2b
ef
12
0b
f5
14
2a
0d
16
fc
e1
fe
f8
cf
ec
d7
03
fa
eb
fe
e1
2f
2c
10
00
e0
17
df
ef
18
2f
fb
0a
f4
14
03
bf
16
04
29
f3
10
ee
0a
f3
10
e0
e0
05
e8
11
12
25
e4
d5
df
05
fd
e3
10
e9
f6
17
20
ea
0a
3e
f4
f1
ff
1f
1a
0f
f2
18
08
1f
e4
0a
f5
0a
dd
e4
0e
1a
f3
0b
d1
d8
cf
10
f7
15
f5
01
1f
ef
1f
f7
0d
1a
1e
0f
0d
d9
03
18
e8
02
ff
f2
07
13
11
f0
10
0c
13
21
ee
dd
34
ff
fe
f7
16
e7
1b
e1
1c
ef
38
fb
d3
f8
05
f7
dd
88
1b
d8
fc
f1
e3
05
f3
22
ed
f5
2b
10
db
26
f8
f9
fb
11
28
20
06
23
1f
00
fa
cd
0b
de
1c
34
01
e7
1d
fd
0e
11
f0
cb
d9
e2
20
d9
d5
ec
f0
0b
09
23
1f
14
19
ee
08
fa
dd
2b
22
f8
db
fa
0a
06
15
fb
dc
c3
eb
18
01
ec
e9
00
13
09
12
de
f8
e3
00
02
fa
02
17
c8
fd
f4
e0
e4
f5
09
ef
0c
26
17
e5
0d
d9
04
db
f7
e9
03
fd
05
02
2f
f1
f0
fa
e5
f2
ce
1c
ff
fd
1c
08
2d
22
0f
fe
cf
f7
10
f7
fa
e4
cc
1a
ec
00
d2
e8
09
f5
09
01
ee
f7
e1
f4
db
14
15
fd
04
04
1d
1e
00
14
27
f3
d9
0c
e7
e6
0f
de
14
01
05
e1
f7
29
0d
09
06
00
e6
06
10
30
0f
df
fc
fb
07
0f
05
0d
05
06
12
06
07
0e
f2
fd
f3
08
f4
15
09
09
0b
b1
21
f9
ee
e5
02
fa
19
05
eb
d2
fe
f9
28
11
f0
19
39
0a
eb
18
21
e2
1f
19
d3
29
05
2e
07
16
f0
d4
24
f0
ed
fd
0b
1b
23
e7
e5
1f
ee
eb
d7
f7
22
df
09
f9
03
ed
fb
1d
e5
e3
e3
1b
12
f9
fe
be
18
ed
fc
0e
05
f3
26
0d
04
2f
1a
27
e5
bb
08
f3
12
ec
d0
b8
3d
f0
16
01
10
16
fb
0a
2c
f7
15
ec
15
f9
0c
f8
0d
01
07
0d
00
28
e2
22
13
f2
b1
01
35
0d
d8
fb
0f
13
22
fc
f0
1b
f7
10
fd
fd
0e
19
fa
db
09
fe
f5
0c
01
23
15
11
ff
10
1e
fc
1f
05
06
de
19
0b
c8
2e
14
cf
16
d5
0d
fe
0a
04
d7
2f
fe
01
22
01
fd
19
c0
fb
f6
02
53
07
f4
05
fc
01
03
0c
19
c9
17
09
f4
e5
f9
ea
ff
fe
06
0d
0a
f0
07
fd
09
22
c9
0a
f6
f7
18
d5
29
e0
16
0c
b8
f0
2f
d8
0a
1e
e6
0c
25
fd
05
36
fe
1a
fc
cf
15
f9
21
f9
05
23
e2
f8
f1
33
06
00
22
03
dd
d5
fe
11
33
e9
e5
23
07
09
09
2b
f4
0f
04
05
ee
e8
1d
c4
f8
16
08
f4
f4
06
f2
e9
db
16
1d
f0
e5
c9
01
35
02
12
df
15
ee
fb
f1
1f
13
fe
1a
01
17
fc
f0
fd
0e
f5
f3
ea
f7
00
12
10
0b
e5
eb
ec
1d
fd
0c
fc
10
1c
f6
e4
06
f6
f7
26
ee
f9
08
0b
f8
eb
fe
0b
18
fe
e4
0a
32
27
0f
f6
0d
31
d3
0d
0b
d3
fb
1b
17
0e
16
14
fa
d5
fa
ff
e9
eb
0e
01
ce
19
fa
ff
0b
fa
df
0c
f4
fa
30
de
e4
cf
05
e9
e2
31
35
f4
03
23
1c
d8
e8
f2
f0
08
fc
dd
35
ef
f0
f8
e3
ee
f4
09
16
15
f1
f3
f1
e6
07
fe
41
04
eb
06
f9
00
11
00
f8
2c
fc
fb
33
10
e5
0e
07
16
e9
f0
05
02
f9
12
ed
fc
15
12
0c
09
f7
fc
08
fb
06
14
2c
f5
16
20
e5
e6
d4
05
fe
27
f3
f0
29
1a
fb
f5
10
00
ed
f8
01
f7
14
e2
f9
f0
2a
0f
10
f1
0c
03
30
22
02
11
ec
0c
e4
e4
00
01
07
11
15
fb
0a
0b
e5
ef
d9
06
fd
f8
2e
00
09
f8
0d
f7
e3
09
f7
11
d5
0d
20
0a
2c
fb
12
16
f9
ec
2c
12
00
f7
11
08
02
e1
f0
fb
da
d6
e8
07
fd
23
09
fc
2f
10
17
0e
11
02
f4
02
0e
bb
0c
fe
01
f5
e1
f3
03
ed
24
04
06
e2
f0
06
0a
e5
06
fa
03
0c
f7
fa
1c
26
e5
fc
fe
ef
01
05
10
f9
0d
ec
d1
0a
09
e6
f5
2d
01
e1
fc
f4
fe
23
0b
e4
08
0b
e2
f7
bc
09
e7
fb
01
16
05
f5
e8
ff
16
0c
1a
ef
f8
f3
14
01
ea
2c
0b
eb
d3
07
ff
ef
00
2c
15
02
00
08
1d
d3
e6
f4
eb
f8
04
f4
eb
e1
1d
0e
f8
f4
21
ef
01
1f
f1
ef
f5
e5
23
03
e2
fb
15
02
0c
dc
19
e9
20
09
de
17
d6
03
de
ec
10
17
14
d9
c9
d2
e7
fd
e5
1c
cd
f5
07
0d
16
17
eb
0c
fb
d9
e9
06
08
fd
fe
12
00
03
24
14
17
09
06
0b
f7
fc
09
16
0f
00
d9
e1
12
14
ec
1f
ef
f7
f1
07
12
2a
10
fe
07
37
e7
11
e6
06
e5
f4
02
ef
27
26
ef
e5
07
29
19
0b
0e
f5
e1
eb
d7
ea
f0
02
09
01
07
f2
07
10
f0
10
fd
e0
12
20
00
ff
11
fe
fb
a3
e8
0e
11
f1
f2
24
f5
d4
14
f3
19
19
f4
0a
0b
fe
3b
2f
f7
e2
f8
d6
e4
eb
fa
f6
08
10
00
f1
25
ef
08
05
f0
13
05
f5
dd
12
e2
fe
05
19
14
1c
f2
04
0c
f0
cf
fb
0b
11
e1
1e
fc
27
f1
02
13
fd
f5
de
f9
3c
01
f4
ba
03
05
e7
13
0a
fe
02
f8
c8
ea
ed
08
ec
1f
09
e2
10
f2
e5
25
0b
2c
00
07
2d
0a
13
13
2e
ff
19
e7
f5
ef
c9
05
01
01
fc
ff
e1
f9
07
09
06
20
04
ed
13
18
e8
f8
ef
ec
14
0a
e6
02
00
10
15
1e
3a
13
ef
ed
1d
df
3b
0f
fb
0e
08
12
f7
d4
f7
03
0e
f6
09
1c
06
d7
f0
04
f3
01
fe
f8
0c
09
1d
08
ee
d4
f6
fe
00
00
17
d8
16
1e
11
1b
fe
e5
1d
f0
04
cd
0d
13
07
fe
01
2a
1b
30
04
fb
f7
06
03
03
ff
0e
c6
dd
1c
02
00
e5
18
e5
ee
11
f7
e4
ed
e5
0f
0e
fe
0d
e6
f9
17
07
d7
0e
14
f2
fc
00
03
e5
fb
37
03
e3
f8
f8
fd
1c
fc
04
32
04
21
06
0b
24
06
f3
e9
11
20
f0
fc
03
fe
fc
0d
fd
1a
e6
09
0d
ee
15
e4
01
eb
1a
fd
22
00
15
f9
08
ef
10
f8
2e
ea
fc
eb
05
e8
17
13
ef
ff
f6
e5
fe
f6
f1
1b
fd
ec
17
f3
09
f7
ea
ea
0f
ed
0a
ed
f9
e2
35
08
dd
00
19
f1
c7
f6
05
03
27
c7
e9
f8
dd
1e
23
02
19
0a
12
0c
16
e3
16
f3
eb
dc
19
0a
02
ff
f7
e8
1c
fa
0f
13
f1
da
11
f5
fd
13
00
fd
2e
ed
05
f3
ea
10
f4
df
01
f9
1c
05
1f
15
04
ed
15
16
06
13
0a
e9
ff
17
1d
18
0d
05
ed
f7
23
ff
08
0d
e5
25
e3
cd
f3
e7
18
06
08
ff
f7
09
07
1b
f4
f3
00
05
f5
17
f2
0c
e6
0c
f9
f1
ea
1d
06
06
00
07
ff
d9
17
04
ea
20
fe
03
f4
f4
38
e7
03
3c
c7
22
1a
2b
e2
0c
ca
f4
e7
d2
f7
ed
07
f5
fe
e9
e5
c7
07
f2
0f
ec
e7
03
fb
db
12
01
fe
17
1a
0c
ee
ed
ec
12
03
2d
0b
e8
26
e9
20
ed
d2
db
e9
eb
05
fc
04
15
06
09
20
fe
eb
10
ec
08
01
18
fa
13
02
fa
07
01
04
e5
ea
e3
05
d7
08
21
14
13
0e
25
0f
07
0d
14
21
fd
e8
12
18
0c
15
f0
e7
f3
ce
03
02
07
17
05
0f
fd
0d
fe
1b
25
f5
17
03
db
12
10
06
1a
ff
1f
02
ea
0d
ff
02
04
01
00
0d
f8
b3
09
df
fd
03
26
fe
f6
f7
17
ea
0a
15
0f
f1
00
04
21
06
1a
eb
1c
03
ca
26
f8
0c
c8
0b
ec
d5
1f
09
eb
0c
e8
ff
2a
e6
f9
01
f5
fa
fe
03
1c
f7
cb
e6
d8
14
02
19
f6
15
06
1a
33
17
1b
03
e9
d2
07
f0
fb
dc
fc
03
04
27
00
0c
01
05
24
0c
0d
ff
07
14
e4
e4
dc
f3
ea
ed
ff
35
1e
1e
e9
fb
26
1c
09
f9
02
f6
fb
f7
eb
08
25
22
e8
1e
16
0b
0e
fb
fd
07
ef
fe
12
ee
45
0c
df
32
29
20
f0
ea
f5
fe
1c
f6
ee
07
09
03
de
03
06
09
1a
1e
ea
ef
0a
05
0d
fe
fb
04
e8
f2
11
e3
03
fe
fa
07
38
f9
06
fd
07
06
28
05
08
11
24
fd
f4
d0
d7
e4
0e
c9
f5
ec
1e
11
0f
e9
f7
10
32
ef
0c
f6
f2
d5
14
e1
1f
2a
2b
0a
0a
d5
0a
e6
03
e6
06
eb
f5
0f
0b
f9
fe
0f
02
19
f1
12
f9
0f
12
f0
f0
f6
f7
01
f9
fc
30
07
ea
09
f1
e7
fb
02
01
28
e4
03
f5
07
2f
ec
0e
f6
0b
12
ea
00
df
0c
0f
01
12
03
e6
e6
fe
f8
00
12
d3
eb
fc
d5
23
e0
00
e1
01
13
09
df
10
ea
eb
f2
fd
db
fc
d8
eb
0e
e7
06
f5
09
00
37
1c
f4
07
1b
e4
fb
e8
ff
11
0b
fd
01
f9
da
14
1e
dc
0c
09
f0
e9
ba
13
f8
e1
0a
0b
14
0a
46
fd
f8
06
f6
f7
08
1e
e7
dd
ea
e6
cb
08
1a
ec
10
07
10
f3
0b
f4
0e
dd
eb
fd
13
eb
e6
0b
1b
05
15
13
e7
16
11
06
fe
f8
ec
08
ed
cd
19
ec
1d
04
f7
f6
e7
da
d6
1d
f1
f2
fc
02
e9
0e
ef
f2
21
04
f1
f6
08
09
d5
15
02
27
01
ed
1b
f6
f4
00
da
d1
1a
11
18
35
2b
0b
15
e8
04
16
0e
00
03
0a
1d
10
07
e8
08
f0
0b
08
22
e9
10
ed
c8
e9
1f
fa
28
c0
02
f3
e8
f7
19
fb
15
fc
14
e2
08
d2
f6
f4
d9
f9
07
01
1a
01
e8
05
ef
f1
14
ff
fd
fb
f5
08
fb
2c
f3
f1
f6
21
2a
0f
17
f7
ea
13
d3
de
e9
d8
ae
04
31
f0
32
11
3e
08
0a
34
10
13
fb
d6
e0
e8
e4
00
26
0c
f5
df
28
0f
fa
ef
e6
06
20
11
fd
05
08
21
f2
0b
e4
f2
34
ec
14
0e
03
f3
f6
15
0e
20
f4
1f
f9
e0
f6
ef
19
e1
ed
07
f3
20
1f
04
11
c7
13
fb
f7
f9
28
09
f6
d2
17
f3
04
02
1f
c1
04
e4
df
eb
de
08
2c
fa
e2
ff
12
00
0e
10
e7
ed
e6
ea
00
e3
14
1b
f1
bf
0d
f2
fc
02
0b
ac
02
29
01
15
11
f8
da
32
07
02
09
ea
1b
f6
0c
fd
11
0c
1c
20
08
07
da
0d
0e
ee
f5
16
0d
18
24
06
fe
15
21
ff
04
22
0b
fa
e9
0f
20
e4
ec
14
fa
17
fc
01
e0
06
13
fd
fe
1f
11
f3
13
19
e8
13
fe
f7
ff
fe
ff
1b
17
f9
0e
02
ee
36
15
0e
f3
f3
e9
07
00
1f
05
ec
cb
05
dd
19
03
ea
06
06
0a
07
25
08
fd
f1
d5
03
f8
00
08
eb
f3
f1
f1
00
f9
eb
14
e8
dd
08
02
18
10
03
e7
23
fb
03
2c
1c
f2
0f
e3
1e
03
0e
12
0f
05
21
db
0e
1b
01
31
f4
db
ed
f2
13
e9
01
09
3e
fa
f1
f2
27
f7
11
02
e8
e9
e8
01
e3
f6
0a
03
12
08
f2
e2
0b
db
22
16
fd
fd
1b
07
0c
0d
cf
df
f2
0e
d7
f5
e4
00
13
0e
ee
20
06
cc
01
1b
fe
17
ef
e7
ef
f1
fa
f9
cc
0b
18
f3
0b
e5
05
fc
f9
0b
05
c8
f3
fb
11
0a
05
22
ea
19
f1
13
2e
f3
de
ec
23
f4
e8
0c
f0
1f
ee
30
15
20
dc
fe
fc
f5
c6
dc
07
f5
ed
ea
f4
ea
f0
05
37
c6
df
f1
f1
f4
ee
17
21
ff
c7
e1
d5
ec
cf
01
11
f7
03
21
fd
28
10
d7
ed
db
fc
1a
e3
c4
df
e4
13
0e
fc
02
fc
08
11
ed
04
18
02
0a
1b
f6
ef
06
f1
1d
ee
fb
0a
0f
21
06
23
f3
fc
0a
f3
24
13
ef
11
10
14
fd
16
15
13
0e
f3
18
2b
f8
0e
fb
11
fc
13
0a
08
14
36
1e
ce
ef
1a
1a
0c
15
2b
eb
ec
f5
df
20
17
dc
29
ff
13
f6
f1
03
ca
08
03
f2
0b
0b
02
ff
1b
04
11
ef
eb
fe
21
f1
f0
fa
e9
c6
1d
d3
e3
0c
f5
e3
f0
e4
de
f4
05
d5
4d
15
05
cd
ed
06
21
de
0e
11
11
e3
e7
08
f5
ee
15
fc
0d
03
25
2f
d3
06
f9
12
24
0f
c8
fc
e0
da
ff
15
fd
1c
e3
06
13
0a
f3
29
1b
13
e8
13
1f
ea
0b
1e
04
fc
17
cc
e2
04
fd
de
05
fd
f7
ff
ee
e8
0d
ed
d9
06
e1
01
0d
ec
ba
cb
eb
f0
eb
28
00
f8
26
10
e9
ea
0e
fa
0e
d2
e7
e0
e7
e0
e1
13
0f
11
07
10
f2
db
f9
25
04
ec
e3
1d
fa
0e
14
08
0a
2e
0c
f1
0d
15
01
0a
0f
21
da
24
14
0e
12
e5
f6
d6
3d
0e
e2
12
ff
e6
e2
0b
11
c6
29
0f
0b
0f
fd
29
33
19
08
03
fe
0f
f1
da
db
01
ff
f6
fd
ea
fe
14
db
13
03
f2
1e
f3
f7
e5
ed
19
f1
03
e1
da
e0
e1
e7
0a
00
e1
27
e8
ef
1b
ee
0c
fa
fa
18
03
f6
06
ff
eb
fb
e1
f3
d2
fe
f7
24
14
08
f2
19
0a
da
09
1e
de
fd
f1
f3
e3
05
e8
11
fc
ea
19
11
17
02
02
15
1e
08
27
27
24
1d
fc
0d
ea
2c
15
fb
f8
f0
1a
21
e7
04
f3
cf
00
06
04
d0
0c
16
00
ed
41
da
fe
f8
1b
02
08
10
15
33
ff
20
f0
06
0c
0f
ff
22
da
06
ea
1e
f4
0c
ef
fb
e1
f5
e8
d6
0c
24
01
d6
03
1d
e7
d0
1d
25
0e
28
1a
15
da
ff
04
f5
0a
0f
fb
05
f8
e4
01
f1
1a
07
47
15
fb
f0
f7
05
33
1b
19
eb
dc
fd
e3
d5
fa
f4
05
e7
0c
01
ea
16
f7
0e
d7
18
05
eb
f1
fb
23
f0
f7
e7
16
ea
dc
09
1b
1e
04
25
21
f7
11
08
e2
10
2a
fe
df
f5
0d
03
0c
0a
fa
b3
0e
f9
08
c2
f9
06
01
01
f3
1b
08
02
03
0d
0d
f4
f7
ea
dc
0d
f0
f0
1f
20
f9
ed
07
f2
fe
f8
f7
e2
18
07
e2
ed
e7
00
0c
1b
05
1c
fa
de
02
0d
18
fd
2b
05
27
0a
14
cd
eb
0e
1c
ef
03
f0
d6
00
e6
12
d6
10
09
10
1c
34
2c
1e
fa
e4
dc
0d
17
28
1b
dd
ec
0c
f4
db
1f
10
02
ef
e9
cd
2b
db
0d
0d
09
fc
05
e8
05
0c
f8
fb
fe
09
11
de
fa
06
25
fa
f3
03
f9
15
1d
f2
00
0c
ea
d9
08
f9
fd
eb
08
f6
f1
f3
0c
fd
ef
11
00
21
f8
0d
fa
cd
cf
08
1a
ea
ff
e2
c3
55
0d
11
ff
dd
04
e4
e4
30
fd
04
04
d6
24
e6
fc
02
f3
37
fa
f7
15
f7
f5
f8
c6
00
1f
08
d9
e3
09
20
e3
f7
04
05
e8
0b
e9
31
e6
fa
19
fd
fa
fa
e8
fb
2e
fe
e2
20
fc
03
11
fc
e7
28
e1
ed
18
d2
2b
03
0e
d4
09
23
f1
24
ec
08
0f
d9
29
15
08
0b
ef
09
dc
fa
fe
1c
11
07
f2
f6
01
26
f0
00
08
cf
0a
f5
08
10
f9
02
dd
e4
dc
c7
0f
25
2a
d0
13
f7
f0
31
0b
f4
f2
fc
d9
18
fc
14
03
28
fd
1c
f2
23
db
cc
d1
06
e4
fa
f9
ff
ff
ef
eb
1a
0a
ca
eb
fe
f2
fb
35
fe
36
2c
1d
dc
d0
21
39
eb
27
2c
03
df
eb
02
e7
18
08
1c
f4
24
fe
dd
1b
f3
07
06
fe
29
19
01
1c
1c
da
ed
0b
08
18
f6
fe
d0
12
13
27
e7
ce
04
ed
06
f9
0e
e6
04
fa
f2
12
22
0f
1c
d0
17
c5
f8
04
f0
03
f3
0b
06
e3
e6
15
fc
f5
13
10
0b
d6
ed
0c
dd
fd
ef
eb
24
e6
05
02
25
03
39
db
15
30
08
33
d9
07
f0
d1
d9
f4
e3
2b
f8
01
15
12
d2
fd
21
f9
ee
d5
0b
02
07
fa
fd
ed
e1
16
01
f0
ef
ea
e4
0e
29
f1
e0
fa
e7
e4
0b
e7
2a
08
08
37
12
ed
0c
0a
0d
f9
16
26
07
1f
f0
0a
1d
d9
f3
12
10
17
f6
11
de
32
1b
1f
12
2a
e4
2e
e1
f6
0b
05
2b
db
ff
fb
f5
fb
ec
f2
f3
19
0c
fa
ee
fc
f7
0a
19
eb
17
2b
02
f3
d1
de
ff
21
e8
10
15
eb
f6
0b
21
f7
ff
e9
f5
fb
eb
1d
eb
f2
10
e4
f4
db
1f
11
df
f5
dc
df
36
12
37
03
f4
e6
0d
e7
f2
04
14
12
e8
35
e4
15
0b
4e
0c
09
20
f8
e0
14
2a
f6
f4
06
f4
eb
05
ef
03
35
af
2f
0f
22
f4
0e
0a
10
00
2b
ef
06
1e
14
f6
f7
1a
fc
26
e5
06
0b
04
fd
f6
e2
eb
ce
ea
f9
11
e0
e1
e1
33
dc
09
1c
08
16
f3
05
fa
17
0f
d8
ff
03
f4
14
1d
f7
09
fa
10
dd
05
f7
1c
1e
3a
e8
16
fc
fc
eb
f9
f8
e7
ef
f9
35
00
ce
d7
10
f5
d8
10
d4
fc
e4
f9
03
29
1e
2a
ec
f4
1d
0a
ff
23
40
0d
24
d4
02
fb
18
1c
fc
10
12
fb
f6
2e
ff
f4
07
f0
fd
f2
1f
fb
1a
1f
09
18
23
0b
1b
0c
fd
df
f9
13
f1
f3
13
12
17
f2
17
11
d8
1c
11
15
33
07
30
fd
10
13
27
1d
fb
0b
e4
f6
e7
20
ff
c2
ed
ef
d6
fd
0e
19
0e
df
d7
d1
ff
ef
1b
f2
12
18
19
0a
02
ea
ef
f1
3c
0d
11
1a
1d
f1
f6
25
de
bd
22
45
f8
35
ef
db
0f
dd
12
e2
0f
bb
1c
f0
fb
fa
0d
fe
fb
e4
fb
ff
04
e2
0c
e4
e7
00
18
db
03
f2
1e
04
f7
ed
18
f7
28
fa
f2
f8
17
f5
1b
17
fe
e4
04
f3
e1
e2
ed
e2
29
f7
d3
0d
02
28
12
fd
04
f9
ff
ea
ff
14
19
36
19
06
02
ee
1d
ec
f4
00
f8
20
08
1c
f1
0c
04
0d
f1
00
07
07
03
02
25
f1
27
0d
f3
dc
18
ff
15
fd
06
d2
04
e1
0f
0c
08
00
fe
ec
f3
12
03
ef
09
d4
ee
e5
fc
f8
08
02
e5
20
f0
eb
fe
d9
ee
1b
fe
f0
18
fa
07
26
f1
30
17
34
11
41
01
1b
f6
ec
02
ee
01
ed
c4
eb
f0
29
02
ff
25
19
02
fc
fd
e8
08
0e
cf
06
1f
04
24
cc
de
1e
f5
e4
e9
f8
e0
02
fe
19
f5
f0
0d
0d
0a
e4
e8
f1
18
ff
24
1e
e9
22
d8
0e
0d
1b
f2
d1
dd
f7
06
07
f9
ee
12
09
0e
d6
e1
2d
c4
cd
f6
14
e9
f6
e7
eb
ef
fb
02
01
e2
04
e1
01
ed
fe
0b
1c
17
01
18
e4
ed
e2
fa
0b
cd
e4
fc
23
0d
ee
fe
37
26
dc
e1
f7
f6
ed
0a
e3
f3
21
21
04
03
0f
fc
0b
f4
00
cd
03
db
f6
06
10
0a
e0
f9
f1
00
0b
15
f3
f6
ea
05
0c
f0
f6
03
ff
ed
0d
fd
fb
fc
08
f9
28
f1
ee
d6
05
e8
05
e4
27
ed
ea
c2
bf
fd
d5
fe
fc
fb
03
f7
48
f3
ef
e8
07
ff
28
fe
14
11
1f
04
04
28
f5
1c
c6
0f
d6
04
24
0f
1c
0f
dc
0a
ef
f0
f5
e6
11
05
07
23
10
1c
15
0b
dd
00
30
ce
1b
05
e6
f3
1c
ff
09
f3
2a
1b
fd
0d
13
e8
f6
0b
24
fa
04
00
c4
23
21
fe
e6
eb
11
06
18
f9
f2
0f
1a
38
03
05
2c
07
fa
0e
e7
f5
ff
09
d2
ea
ce
fa
dd
fa
d9
30
df
1c
ef
06
fd
f2
f9
dc
fb
22
ef
e6
f2
f1
f6
e3
fd
22
23
e2
1a
11
ee
0b
1a
fb
0a
1e
1b
e3
f1
2a
08
ef
f6
17
08
13
12
eb
18
08
ea
e6
02
e5
12
f0
d5
eb
fa
c7
d5
d5
24
e4
0a
fe
e6
fd
0f
1a
05
07
e0
04
10
f4
fe
00
0f
f8
e9
15
2d
ba
ff
e3
00
10
f8
10
d8
fb
0d
0b
11
2a
07
d3
22
0b
ff
e5
12
d3
ed
cb
18
12
ea
f0
ed
04
c9
03
16
1c
1e
0d
17
26
19
04
37
0e
07
0f
e1
19
2a
fd
25
e4
08
2f
be
24
ec
16
0a
10
ef
0d
fb
d3
21
fa
09
e0
ff
22
f8
f9
0e
17
f3
07
05
fe
01
fb
e6
15
03
cb
00
25
13
fb
f9
e7
2c
2e
f8
db
0a
ec
0d
10
16
13
f2
e2
e7
01
3d
f1
fe
ea
0c
df
f9
03
ff
00
eb
03
12
fb
e8
15
05
06
12
f4
fb
fe
13
c0
2c
3b
d7
2a
dc
05
18
e7
12
f1
39
05
1b
ff
dd
e9
28
20
f7
f6
de
1c
27
0d
03
f8
c7
02
0c
e5
ee
12
ed
08
0e
ec
37
f1
ee
f1
0a
e1
f9
d0
19
e4
00
02
de
f8
d0
1a
19
26
e4
e9
f0
06
05
f7
0c
14
fc
f8
f4
f5
e3
ff
ff
0f
f5
c5
13
36
f7
0d
0d
11
ac
16
1c
01
2b
de
ee
0d
08
fd
f1
1b
ea
22
21
e1
e2
12
f1
27
ed
06
0c
de
31
ec
eb
d1
fb
14
13
fa
49
03
e6
03
eb
03
e2
dd
d4
14
e3
0f
f0
c8
c3
e9
ce
ee
01
fc
14
cd
da
fb
d5
d2
2a
ee
0e
fc
10
06
e0
19
1d
cd
f3
ec
f9
0b
f4
07
13
14
f8
17
f4
df
0d
cd
12
ff
04
ff
db
ee
12
17
f8
15
03
f8
e8
eb
da
08
10
fd
0d
de
fc
14
29
04
40
01
03
36
b8
ea
e3
f9
10
f2
1a
f8
d0
f5
07
dd
f8
ee
f5
e6
08
56
12
0d
19
f3
d9
43
16
f5
f1
1a
24
e7
ff
29
1b
04
d9
fd
fb
d0
19
24
09
0f
e7
f5
ee
02
07
e9
2e
26
fe
0a
09
ed
11
22
16
3c
eb
f6
09
e9
05
d1
ff
d0
f7
0c
3b
e3
03
0f
e2
3c
18
f4
2b
1f
ff
d9
21
e8
02
18
08
fc
d3
14
d0
0c
c0
0c
fb
04
17
f2
21
07
14
bd
ef
05
f4
ce
1e
03
c3
0c
05
08
e2
1b
f9
09
e5
f0
0a
f0
14
fe
fc
13
d8
eb
c5
e5
fa
ea
bc
0e
19
10
1c
11
22
0e
f9
0b
12
fe
0b
15
f5
07
0b
27
02
d4
06
1d
16
10
b0
07
cd
2c
ff
17
eb
19
e9
16
f3
e5
ef
08
30
f8
f7
12
f9
05
07
d5
1e
18
03
05
27
0c
cf
fd
ed
f9
0e
e4
eb
07
24
cc
db
ef
db
16
07
fb
2d
23
f9
eb
e1
0e
01
f3
19
f2
ff
13
fd
f7
0b
05
e7
de
ea
d5
ee
e3
08
f3
e8
0e
e0
dd
20
10
f8
ef
fe
f1
12
f4
13
f8
15
0b
ec
f4
ee
f3
11
1d
ff
da
0c
23
f3
f9
0b
e3
f6
ed
ff
0a
09
e8
1a
d7
11
09
ff
e1
ff
1f
e7
05
15
0b
f0
0c
05
e2
fe
d9
0e
07
25
29
f1
04
06
15
f9
fd
ea
f5
07
0b
1c
e5
fb
e0
1e
ed
ff
11
01
23
05
fc
0c
fe
c4
15
07
1d
ee
fc
0d
f6
dc
2e
1c
e6
fa
d9
fb
ed
bd
ef
11
d5
d4
01
14
fa
fe
10
fe
dd
40
fc
32
ff
05
1a
28
f4
20
fa
f9
f9
f0
53
ed
e2
c1
17
07
e3
09
20
e3
ec
19
04
22
0e
ee
de
00
33
fd
0d
eb
0f
ff
29
06
f6
11
e1
01
fc
1b
f8
1a
19
f6
39
e9
fa
12
ce
11
06
1d
06
14
08
16
00
d9
f7
d9
f0
10
2f
ff
01
18
12
2b
1d
12
23
fd
0a
f4
05
f5
24
07
ee
09
cb
04
0b
ee
f8
37
22
fd
22
08
f5
00
fa
ef
21
fb
d8
f8
ce
fb
0e
dd
16
12
03
3e
ca
02
16
e4
ef
21
e2
08
f4
c5
25
ff
1b
2a
e1
02
15
e8
f1
f4
04
e2
2f
04
0f
2a
0e
ed
06
f2
00
f1
0b
0b
d1
ec
10
d2
32
3f
ee
bd
e5
fb
f0
09
13
e5
f7
f3
08
fb
dc
e4
12
17
1b
f1
fa
d1
01
e7
3c
0c
df
f3
35
c4
da
d4
02
01
f0
0c
0b
f7
17
1f
0c
c4
2d
f7
eb
d6
15
f3
31
0f
de
0b
f5
fd
2a
1c
03
03
e2
0b
fe
f7
f0
06
0c
05
e2
f2
f3
10
19
c1
d7
28
ef
fc
fe
09
dc
09
05
f8
02
51
f6
e7
04
fb
08
08
03
08
0e
06
1d
ef
3b
f0
1e
22
e9
fa
ff
04
fe
1a
f9
f5
1e
cb
ed
1f
fb
ee
1e
00
1d
e2
1a
ea
e9
02
e9
14
15
fa
ef
f5
01
ce
e2
f9
00
f6
d6
f3
28
e8
01
03
11
fc
f5
fe
0f
0e
f8
f1
3a
fa
e9
2d
f8
e2
f9
f2
26
f6
09
e7
0d
f7
e8
ee
07
17
e7
fb
f3
13
fd
05
f1
08
f6
2d
f2
1c
19
d4
23
e0
f1
1b
11
0b
18
1b
f8
1e
32
ee
16
ec
18
f7
10
f9
ea
0b
f4
0e
0b
29
fd
27
12
fd
0f
07
0f
da
09
d4
ef
fa
e2
01
06
ec
d5
0c
2b
1b
08
00
