f9
05
ff
fe
02
f4
f5
f4
02
f5
07
f3
0c
0e
1d
ff
fb
f9
13
f7
12
22
ec
05
08
fc
eb
02
16
fe
01
00
01
f2
f2
1a
07
0b
08
ff
0a
f2
fd
fa
02
ea
01
ea
fa
fe
10
ff
e0
01
04
07
f7
07
e4
f9
06
07
f6
0e
1e
0b
09
f8
07
f4
0e
f4
fb
fd
ef
00
f5
ff
ff
fd
0b
0b
13
02
fc
f6
12
04
15
fa
ff
29
01
d8
08
f7
ff
03
ef
f1
ff
f0
03
e5
fc
fe
fb
21
de
06
fb
ea
1e
ff
fb
20
04
fe
ee
10
fb
10
06
16
fc
f6
00
f5
e7
fa
1c
f5
f8
fd
07
02
e6
f3
f5
0d
17
00
f7
08
20
ef
05
0e
02
00
f2
05
09
05
02
04
0b
fb
12
e8
fd
fd
f6
ef
0c
ff
04
17
08
00
04
01
02
f1
0d
f7
02
01
03
06
17
04
00
d5
02
09
07
03
f4
0b
fd
dc
f4
05
fd
14
08
ec
10
05
ff
09
ed
f8
13
1c
0e
e9
ef
f9
08
f2
fc
07
10
ef
ef
fc
03
15
f8
e3
0d
02
15
03
f7
eb
f6
09
0d
0a
fc
fc
01
06
fe
f5
20
f9
06
f5
fb
0b
ed
08
03
f0
18
04
fa
13
0c
03
e8
08
fb
e0
10
05
f3
fa
f8
0a
ed
17
e7
f8
ff
f1
dd
14
0d
1f
fe
05
1a
f4
11
f9
fa
1b
d4
f4
fb
fd
02
fa
17
ef
dd
ed
27
e7
06
0d
00
fa
ec
f3
e8
ed
ed
09
03
08
e9
e8
07
02
ee
1b
ef
08
07
ef
fb
f4
fc
ff
ee
e9
19
0a
04
fb
02
0b
e8
0a
22
e1
ff
de
ef
05
f6
05
f3
fb
09
1f
05
16
03
22
12
ee
0b
f1
05
df
17
ff
1e
13
f5
2f
13
17
06
f0
06
f9
07
12
fb
f8
f2
09
fb
04
ec
05
f3
fb
06
f8
fc
fe
f6
07
0e
f6
eb
fb
00
fa
df
f1
f9
eb
f2
06
1e
fb
ef
f4
fe
00
03
05
f9
02
09
ea
df
17
f8
1f
f5
0e
e9
f5
fa
17
1f
0d
04
fc
fa
eb
ff
0c
01
11
fa
dd
e3
d8
f4
ff
e5
0b
01
f9
09
04
1d
ed
f4
07
fc
e7
f0
06
1c
15
df
f3
0e
fe
f3
ee
fd
f3
09
03
ed
09
16
0f
10
16
05
ec
fb
f6
fa
ef
fa
f7
16
1d
e6
fb
06
0e
ff
11
0f
07
06
05
fe
0b
14
ef
fa
10
07
eb
26
fc
12
fb
06
02
03
f5
1b
fd
07
04
f3
ea
07
ff
f0
0d
05
11
f3
ea
08
fe
03
14
05
04
0f
00
0b
11
fc
01
16
06
f0
e1
00
13
0e
f8
08
04
f7
0a
08
f5
fb
f2
f0
ff
f7
08
09
fd
f2
fa
07
fc
e2
07
09
0d
f4
0d
0a
f6
0e
f7
fc
0c
13
16
01
e7
0e
db
1c
05
ee
08
ff
10
ef
fb
07
04
f1
09
f0
fe
04
0c
ff
e0
eb
13
07
f7
fa
19
02
fa
08
02
f5
05
ea
fa
07
fa
0a
08
f1
e0
0b
f0
08
1c
15
fd
04
12
fc
00
f6
05
19
04
f4
ff
15
f3
0d
fb
fa
12
ec
eb
0b
06
13
05
fd
04
db
19
14
14
fa
eb
fb
09
0b
07
f2
e5
24
f3
16
0c
25
f9
04
ee
01
0f
f6
ff
ec
16
00
f4
fb
ec
ef
07
03
e4
f7
15
0e
17
fe
13
f0
18
f8
0b
07
fc
06
fd
0d
df
0c
f8
1a
f8
0c
0e
02
f2
fd
fd
fe
05
eb
0c
f5
fb
f1
0e
08
0b
f6
fa
01
f3
13
ed
e3
0f
ef
fc
ff
e0
fb
26
1b
ec
fb
06
f9
fd
f2
eb
f1
1f
f4
03
f5
08
ff
fc
ff
0d
fc
ef
0a
e9
ed
1b
f1
06
0a
f0
fe
dc
07
f3
1a
f2
0b
07
0c
fb
02
0e
fc
21
09
ff
06
0f
f9
04
f3
07
09
01
09
fd
fc
f0
fa
fa
18
03
17
04
23
fd
d7
eb
e4
05
ec
09
f8
f1
f9
0e
07
0f
06
ee
f0
09
16
0d
f3
07
ef
fb
09
10
05
07
0e
fb
17
03
05
fe
04
ff
25
21
02
04
e9
e5
01
17
1e
fc
e3
fa
fe
04
ee
dd
05
11
19
ff
fd
f9
f4
fb
fc
ee
02
f4
fe
fb
1b
09
04
e7
f6
fe
fc
f2
f6
01
fb
16
e9
00
e6
01
01
fe
fd
01
05
03
16
f9
02
fd
08
05
f4
19
fc
fe
03
f6
04
04
20
03
1a
0a
fd
e0
01
0e
f9
05
10
07
ee
f1
fa
f4
f7
fd
07
0d
e1
0b
0c
fc
f6
04
00
15
0a
df
f6
fe
fa
f6
e9
0c
fb
00
1a
0f
06
fc
1a
e5
09
ec
f9
fd
03
df
fd
f8
06
f9
01
ed
ed
02
09
07
f9
ea
09
09
f5
0c
f4
17
f7
11
f6
db
ef
0e
13
ef
f8
f3
03
ff
06
05
fe
fb
13
00
cc
fa
e6
04
ff
ea
06
0f
ff
09
0a
0f
08
1a
0c
19
09
ea
e6
ea
fc
0d
14
fa
f5
f8
ed
09
0b
03
f0
21
00
0c
f3
0e
fd
1b
e2
01
ee
0b
f9
0f
0b
06
10
11
f4
18
f4
e5
fd
fd
0f
01
01
ee
ff
16
10
00
f3
f2
e3
21
04
f5
0c
1c
03
fe
fd
fa
fe
e8
da
06
01
0b
fe
07
fb
01
f7
03
f7
12
0a
05
f9
00
f1
06
09
0b
fe
05
01
03
fa
fc
f8
06
ee
fe
14
0f
06
f5
ef
16
0c
db
06
07
05
fb
f7
f0
07
fb
09
05
ff
21
07
fd
02
0d
f0
10
fe
03
f8
13
eb
02
04
f6
f9
07
13
f6
f0
0e
f5
f7
13
fa
ff
f0
f1
f7
06
0f
fe
26
03
f4
e3
04
08
20
0d
0b
fc
16
02
04
f3
fd
f0
f7
fa
fa
fa
f4
d9
db
f8
0f
f7
0b
fe
e9
05
04
06
01
e5
ff
f0
ed
ed
17
ff
fa
01
01
ff
f4
f8
03
17
f4
00
fd
0a
07
f2
fa
fa
f7
f5
e8
f0
0a
f3
ef
ff
07
08
ff
08
f8
12
fb
04
09
0a
fe
f0
06
e7
04
00
10
0d
13
0f
f6
13
06
07
06
f3
fc
fe
f3
ea
05
06
06
03
0d
0d
fc
06
06
17
e5
e6
12
08
fb
1f
07
12
e6
ec
03
f7
00
0b
e1
06
f7
1e
fa
01
0b
15
f4
ff
08
ff
0e
f4
11
e6
0d
00
04
fc
14
11
0b
10
0f
f1
f1
00
f9
f0
05
f8
05
f3
03
f7
01
f2
ee
ec
1c
f3
fa
04
e8
f2
2c
04
fb
f0
f2
ff
06
02
f7
0e
f3
f9
09
02
0b
fe
fa
14
15
02
02
00
fd
25
f6
02
08
e7
ef
03
f8
f6
e8
fa
02
ea
00
fa
14
02
f5
04
0a
05
f3
11
e1
02
18
0e
f1
f3
12
02
0c
f9
00
f7
0e
f9
0f
f7
02
16
00
01
10
08
10
fa
15
1b
fc
0b
09
ff
fb
e9
15
f7
f9
fd
ff
0a
02
fd
f6
04
ee
11
01
16
0e
08
0f
07
13
0f
e0
f0
f6
f8
14
01
10
fe
f4
ed
13
12
ea
0a
16
fb
20
f4
07
f8
e0
09
04
06
00
fd
00
1e
0b
18
ec
02
00
df
f4
f8
0e
d9
19
0b
17
04
05
01
f5
fc
15
04
13
00
02
f3
fc
24
04
fa
01
0e
f7
03
fe
f4
ea
19
e5
04
1a
06
fb
0c
02
09
e8
ef
f8
ec
06
07
08
0e
0b
03
10
f1
00
03
23
06
fe
10
fc
ed
06
ff
fc
01
00
02
fa
fe
e2
0c
f4
0f
fe
0c
f8
e4
00
02
00
dd
ff
03
00
fd
ea
01
02
ff
fe
f1
f7
02
24
f8
e9
fb
fe
10
06
09
f1
1e
0c
fd
fb
e7
f9
fc
02
fb
fd
f8
1a
00
0c
0d
f6
13
f9
f2
ff
ff
fb
20
fd
fc
03
15
fb
0a
ed
11
06
fb
f9
05
15
f5
12
04
fd
e8
fa
03
f3
05
0a
1a
fd
01
f8
ff
f7
f9
0c
ff
ee
fe
09
14
10
05
e1
04
08
02
f0
20
e0
ff
fb
05
f4
03
14
fd
fb
0e
11
ed
05
f9
ea
06
e8
0c
15
f0
02
07
09
1d
05
f5
00
fc
f1
f6
e2
08
f6
fd
ff
e9
fa
05
0a
f4
0b
f7
f9
ea
f7
15
f5
f3
f6
0a
15
05
14
ef
f5
0d
00
e9
05
eb
19
ff
16
f3
02
f9
06
fc
f3
04
fc
04
13
11
f8
0e
04
f2
f2
fc
23
fe
01
08
fb
f7
f0
04
fc
12
0f
0c
10
ee
f2
1c
f8
f2
02
02
fd
eb
ff
f0
ff
f6
fe
f8
04
0c
06
fe
05
ea
12
08
02
11
ec
01
02
0e
07
ff
fc
fb
08
f0
11
10
04
ee
f4
14
f9
db
04
f9
11
06
f2
09
05
e9
f7
01
06
02
f8
ef
f1
02
fc
10
0d
0c
1b
f8
ee
06
15
02
01
17
eb
f2
0f
fa
ec
07
0f
15
f6
09
f7
01
16
e6
0f
fe
fc
f7
05
fe
f9
fb
0a
fb
0f
01
16
fe
09
05
fa
fd
0c
f3
ed
f6
fc
f2
11
18
f0
0c
f0
f4
1c
ea
05
fa
e0
0b
f4
0c
05
ff
f6
13
00
f3
f0
0f
02
14
17
fb
f6
08
ef
eb
fa
13
f2
ff
ee
29
fc
fc
0c
f9
ed
0f
da
ef
fc
13
02
04
ee
14
ea
09
0e
03
09
12
0c
0d
dc
f4
11
f5
02
0b
0d
1b
f6
fc
f2
14
f3
13
f1
03
02
f5
21
fa
ff
ef
03
f1
1b
f4
01
ff
fc
0d
01
d6
08
e7
06
e3
e7
16
e8
f6
03
14
10
0e
e3
fc
0b
24
f8
fe
02
0b
df
f9
05
f7
0a
09
0f
20
ff
fd
f8
05
dd
dc
fc
04
fa
11
0a
f7
12
02
f6
0e
09
14
f8
fa
f9
fb
f5
ea
e8
1e
d9
03
f6
f4
df
0b
05
f7
f2
f6
f6
10
ff
21
f4
07
ee
fb
f1
04
10
f8
fb
04
0d
f8
ff
15
da
04
f5
0e
f5
1a
f0
0b
11
09
1d
05
19
09
03
da
f0
da
02
ff
0b
13
f9
04
f7
fd
eb
00
08
0e
fe
08
09
14
ee
e6
0c
f6
fa
fa
19
15
ec
1a
f8
eb
fc
f4
0a
fc
f2
05
0a
0a
fb
e6
0f
e6
f6
e6
00
08
f9
1a
ea
e0
1b
f7
20
09
ef
df
20
ed
0c
08
03
fe
fe
f3
f3
17
1d
12
f3
00
11
f6
01
f4
f7
06
00
29
03
42
13
f5
18
02
f4
04
05
09
13
21
f2
f9
05
eb
f3
21
11
3d
1a
f9
e2
e2
14
01
fc
12
ff
06
fa
04
18
0f
ce
f6
0e
e9
05
f2
fc
f4
db
00
05
ff
f0
e2
fc
f1
05
01
f3
ff
f4
f0
06
1c
09
01
0d
f6
f2
fc
00
f2
f9
04
f9
f2
f0
13
e3
1b
ef
fa
fb
12
12
f9
18
0d
db
12
06
d6
0f
ff
ec
eb
f6
ed
21
1d
e6
14
12
f8
19
ef
10
f9
01
fa
12
d2
28
cb
09
0a
0d
f2
24
14
f3
18
f7
e8
f6
17
13
ff
fe
f5
12
17
fb
fb
f6
fd
00
01
fe
f7
14
f7
fc
03
f8
0b
f5
06
27
00
41
f9
e5
e7
04
1f
11
e8
de
01
e3
f8
e1
da
14
00
e7
e5
0a
e1
1a
d9
20
f5
03
10
fc
1c
e8
1a
e6
05
d5
f7
0d
08
fc
fe
f4
2d
bf
c8
01
f2
10
12
35
02
00
35
05
f0
24
e8
ef
ea
ff
fc
fb
09
0b
ed
13
ff
21
06
08
ee
f5
25
18
c8
2b
1f
11
24
0f
f7
20
10
0f
22
0d
26
00
eb
e5
0f
04
fe
f2
e8
dc
ec
fb
1d
ca
e7
19
0f
20
f7
dc
ee
ff
e1
15
fa
03
f8
1d
1c
ed
ec
1d
f3
05
16
08
f2
00
07
f5
00
ed
02
12
1c
18
0d
f9
df
e7
f0
16
13
0d
01
e2
10
f3
dd
19
f3
26
df
32
f8
2b
22
31
db
15
08
f1
0a
fd
eb
f4
1f
1b
25
f4
39
f4
f9
f0
e9
01
06
0a
0b
11
f2
09
09
ed
fa
eb
e2
e5
25
f2
eb
f5
1c
1c
ef
fe
e3
10
32
f9
fc
1d
02
16
0f
04
17
0a
22
dc
f7
33
1d
2f
01
e1
0c
ff
07
e7
ed
ed
f1
f7
f6
d5
0d
dc
f1
e8
e2
24
e0
29
db
05
ec
27
fb
31
0b
f2
1c
05
24
e3
07
f3
ec
01
12
05
ef
cb
03
f6
f6
e2
07
04
12
c2
0c
f5
05
0a
f8
f4
d0
04
11
1c
fb
2a
fe
de
10
08
17
11
24
f6
32
d7
1d
f7
23
0d
11
2a
03
0a
2c
dd
e8
22
eb
ed
e6
d6
09
18
f5
ef
0c
32
01
07
0a
04
07
1c
e0
f8
0f
dc
0a
02
d7
26
18
35
1f
fb
fd
c1
06
fa
01
16
00
0a
e0
04
1c
f3
de
03
01
ec
f6
25
07
01
e6
f6
ec
31
fc
09
38
0d
fb
f4
f5
1b
e7
18
ea
0f
d8
fd
b4
2e
2a
11
f1
0e
10
15
ea
dc
f5
ed
12
f7
e2
df
e8
0b
02
fc
d3
f0
f7
0e
e1
10
e6
04
1a
2b
ee
fc
f9
ef
f9
0e
3b
03
f5
09
f4
0e
f0
10
05
01
f9
f5
0c
f4
f6
01
06
0b
1e
f3
0e
ef
f1
f0
fe
fc
e8
f4
23
fb
fe
08
e3
f5
f6
e5
f4
e1
1b
fa
ff
22
f4
17
16
07
ec
fe
fa
fa
e9
11
22
fd
ec
fa
ef
10
04
1d
08
0a
ef
02
00
1d
10
e7
ec
ff
01
14
f4
02
10
ea
0e
20
fe
f9
1b
f0
1f
fe
fb
fb
f6
f6
0e
f3
31
f1
09
f1
13
3a
ee
f9
1b
d7
f1
fe
07
f1
0c
ed
16
e7
10
15
eb
fa
0b
ed
fe
eb
e7
22
08
0c
eb
f6
08
ff
ee
e8
21
de
0d
ed
f3
12
e3
04
0e
03
f3
c7
fa
d8
24
e3
e8
11
31
ec
e9
0f
f6
fd
f2
24
fc
e1
dc
16
07
03
0e
05
e3
de
fe
d1
f8
ea
36
e3
de
26
0b
17
09
fb
fa
15
e3
30
ff
df
0f
07
32
fd
e8
35
e4
fa
fb
f9
08
f1
f3
f4
1b
de
f2
cd
ec
28
06
08
d4
fd
06
f3
f6
29
e3
20
ed
08
03
26
f4
05
f3
fc
f1
fe
15
f8
1e
fa
20
15
02
04
16
00
05
ea
0b
07
ff
15
08
d8
f2
09
ec
00
ff
03
f3
07
1b
fb
14
1a
fb
11
f5
f1
f7
16
0b
14
f7
05
00
0d
e0
13
ef
0a
fa
fc
02
f1
eb
04
02
26
22
19
02
ea
e7
e3
dc
0f
18
15
04
16
fe
0e
fe
f0
fb
0a
02
fa
ff
0c
0c
15
df
20
03
ee
f9
12
29
fe
f3
01
e0
ed
f7
f9
f2
f4
00
0d
dd
0b
03
1e
08
ee
fd
ea
eb
fd
fe
e4
f5
18
08
d8
09
29
1b
fd
0b
f8
03
03
cd
ff
14
2d
05
f5
1f
06
1d
f2
25
18
16
eb
04
e9
10
ec
cb
ec
fc
ea
15
fc
0b
ef
ee
06
f8
f5
fb
05
e4
10
17
fb
13
0f
fd
19
e5
0b
13
04
f1
ea
f8
11
f1
04
0f
c2
06
e0
ef
f9
08
e0
f2
23
15
13
0e
ff
d3
d8
01
03
e8
e8
29
0b
04
f4
11
13
1c
fd
de
ff
0e
f4
1d
06
02
1e
06
f1
0f
06
13
e5
1a
f3
16
f0
04
15
0a
fb
eb
22
ec
e6
04
f8
20
01
d8
fc
04
f8
fd
eb
f4
d3
f8
28
f4
fc
28
f7
eb
f9
db
0a
2b
fc
07
0d
fb
0e
02
db
13
01
1d
1a
fb
02
d9
e6
1a
f9
0d
e7
fe
03
ea
06
1b
f4
0a
ec
1e
f6
12
f0
1e
15
f2
fc
08
f4
fe
12
00
fa
1d
f7
f9
f0
f4
0c
e0
10
0a
0e
20
08
0f
08
04
0e
13
0d
07
eb
0a
db
e8
04
fd
18
dd
fd
0f
06
01
f5
e7
04
f9
02
f1
fc
03
f5
07
f7
ea
0b
fa
eb
03
df
01
dd
28
f9
10
ff
ee
e5
0b
f2
fb
02
0e
00
fd
f8
03
08
fb
24
fc
f1
fc
01
f2
06
1f
01
ee
f8
05
07
f7
00
06
13
ef
f4
fd
02
f9
02
18
14
fa
f3
f3
ec
18
00
e1
04
ff
14
09
ef
d2
1e
07
18
06
e3
ff
21
02
24
e2
12
07
f5
02
f7
00
f4
0c
1f
d4
de
e2
f2
0a
0d
23
f9
f8
f9
2c
d6
f9
0d
f9
e7
f5
dd
07
ea
e6
1a
f2
ef
fa
08
00
ed
00
09
e4
37
0d
e3
16
17
f2
0b
07
f1
29
0b
00
f1
02
fd
0f
01
0c
eb
25
0e
06
33
cd
f2
f3
19
eb
dd
e3
00
15
1b
e7
e8
fb
f3
13
f6
f3
f5
16
df
03
17
ff
e9
08
f4
1e
ec
ec
19
fb
dd
22
01
e6
f6
0d
01
22
0a
d8
ee
1f
0e
16
0a
00
ea
1a
1e
f6
e8
38
f7
06
da
10
fc
1c
f1
e6
f9
09
eb
09
fb
f2
da
fe
f2
da
12
0d
12
f6
39
12
d9
e1
ff
1a
fa
fa
12
0b
f5
f7
0d
14
e9
fe
dd
e9
fa
0e
f0
fc
f6
17
f5
22
ee
07
fa
f5
e3
f7
f9
f9
e8
0a
fb
0f
08
ec
10
f2
e8
06
f2
17
f3
fa
01
d3
26
0a
df
1a
09
fd
01
ef
05
15
c9
12
16
eb
0d
ff
05
e8
f0
04
11
f5
f5
08
e4
f7
ef
1f
24
f5
05
0c
d8
07
04
f4
22
f1
0c
00
13
f3
f9
e8
0b
1a
05
e8
29
2c
2a
f6
19
e1
f9
12
19
f9
d6
f9
ed
fb
20
07
fc
2a
0f
ed
f1
ee
fa
f5
fd
e0
18
16
f5
fb
f1
df
d5
01
ef
00
0d
08
02
e8
20
fc
d8
0f
f3
1b
10
01
0d
26
f2
19
f0
14
f1
e4
1c
0d
e8
28
03
17
11
e5
1f
fd
02
0b
03
f3
0b
d7
f4
10
0a
11
ea
fa
f0
ff
04
07
d0
ec
07
15
e9
11
02
1f
fd
e1
ed
0f
16
df
12
d6
01
05
06
dd
23
e7
e0
e6
f1
d4
21
de
01
31
d8
ff
0f
35
10
13
da
19
e4
24
fc
fd
12
ec
1a
ed
e9
fe
08
f8
f5
ff
eb
17
28
ff
e5
c6
f7
14
f1
00
1a
13
01
14
10
d9
df
f6
0c
c5
f2
0f
e4
01
f9
e8
0e
0b
f4
db
22
20
24
16
1b
f4
20
10
07
13
1b
fd
15
09
f2
2a
f6
06
2c
29
01
01
f8
db
cf
04
1e
28
0d
fa
f4
ff
0a
fe
e9
fa
ee
08
0b
12
09
01
00
05
ec
02
f6
f2
27
1f
fe
0c
08
fa
d4
d0
e9
20
ee
f2
2a
01
03
ed
1e
05
0f
0e
e4
fb
09
ed
eb
fa
0e
f4
f8
ff
1c
ee
e5
20
e8
14
e8
fb
ed
ec
16
f9
03
2e
0e
e4
07
0f
f4
24
ee
f2
22
ed
24
1b
ea
0e
20
01
15
f0
00
01
00
df
24
ea
00
03
f9
fa
fe
10
13
fa
eb
02
01
f0
1d
f4
ed
fa
fc
e4
32
d9
0a
08
16
09
0b
05
0a
03
09
ff
03
fa
f0
f9
f5
15
fd
05
f8
f3
0b
f5
e7
f1
05
f6
f6
fe
fb
0b
07
06
e3
0c
f1
29
e8
14
06
00
0c
15
f8
03
f8
0d
f8
e6
f3
02
01
eb
16
03
0d
15
d8
ec
ec
f1
e8
09
13
1d
16
03
fb
01
f6
fc
e4
12
f9
f1
05
06
22
23
e3
01
06
15
0c
1f
d8
18
0f
ff
0c
05
18
05
19
09
14
fb
df
02
f7
13
1f
e9
f8
eb
e0
04
f6
f6
0c
17
05
f5
f1
24
05
1a
f0
07
08
f5
02
eb
e9
f2
02
f1
e8
e9
fb
02
0e
19
19
00
fb
07
07
10
01
04
e8
ec
19
20
1a
14
00
ef
ef
eb
fd
fa
0a
43
f8
fe
06
f2
04
0a
f4
f5
f5
21
fd
24
10
e3
f9
0c
10
fd
04
ec
fe
fc
e9
f0
fa
d7
f5
0d
0f
05
e5
e3
ed
fd
09
e6
03
00
ea
f5
ff
07
fe
07
ee
22
0b
ea
0b
00
21
27
09
00
e9
19
11
06
c8
05
f8
01
f9
de
0f
d7
f0
f7
d9
01
1b
f3
e4
1e
f6
ed
16
0b
f4
ee
1e
26
e3
06
04
ec
0d
f7
ee
0f
25
1e
fe
03
e3
f1
02
fb
eb
1d
fe
14
0b
eb
04
e7
d6
07
f6
ea
07
fe
e8
fb
0a
fe
0e
fd
0e
0f
f5
fe
f1
fd
08
e1
f4
dc
2a
2b
0f
01
f5
f7
03
18
03
ed
f7
f5
fc
fa
f7
01
f9
0f
2b
fc
02
1a
16
03
02
05
f5
d7
12
0e
ff
22
f7
dd
00
10
08
03
ee
f0
02
27
e6
12
f4
f6
16
07
db
ff
fb
e8
09
2d
17
0e
02
12
eb
0e
fa
08
03
0f
02
f3
fe
ec
1c
fc
02
06
f0
e1
fd
07
0b
fe
f5
1d
0a
e9
1a
f5
00
14
fc
ff
ea
0a
f1
fc
fa
f8
f9
0f
00
14
02
fb
18
f3
07
03
10
1a
fa
ef
10
02
fd
f8
f3
05
0e
15
0d
04
fc
f2
0a
15
02
fc
0a
03
04
eb
f5
0e
01
f6
f2
f4
fc
fc
f8
07
ed
fe
1d
f1
f6
15
0a
02
01
0d
22
ff
ff
fd
fb
0e
fb
ff
ee
de
14
02
0b
11
00
15
0a
10
11
07
0b
ea
ee
e4
0f
00
02
ee
08
f0
1e
e5
f9
d7
e2
07
fb
f3
f5
0b
e2
0c
10
f9
f8
09
0e
f4
f7
fa
09
ff
03
02
f3
0e
f8
ed
fa
fa
09
0f
07
10
15
ee
03
02
f5
ea
f2
08
22
f8
0a
f3
07
05
02
0a
f0
06
f9
ee
00
fc
f4
f7
ea
08
00
0e
07
fe
f5
ff
fa
01
eb
0c
f5
f5
00
e8
04
05
0b
05
22
ff
0d
ee
ee
04
ee
09
07
f5
fe
05
f6
ff
f6
ed
08
07
0a
0c
04
f9
00
08
ef
05
fc
ec
17
17
f7
07
fd
ed
1c
f9
fc
e7
05
0c
fd
21
de
1b
20
ff
02
29
fc
0a
de
e8
f6
f9
06
08
01
11
ea
f8
18
13
f6
f7
0d
05
fe
07
ea
1b
08
ff
fd
03
f7
06
f5
08
f6
fc
02
f7
0b
03
07
f7
f6
10
ff
0a
06
ff
f8
f9
ff
02
e9
f0
ff
01
f7
04
06
14
05
0c
01
02
fe
0b
06
05
00
0d
04
fc
13
ea
fb
f2
11
03
f9
f0
06
f7
03
f8
f3
00
0a
fb
03
fd
f1
0a
02
f3
0b
05
0d
1d
f8
fc
05
fd
07
09
e7
05
01
0e
07
f7
09
ef
0d
07
ff
07
f9
fa
ff
08
02
fb
00
f1
f9
fb
f3
00
fd
f9
fe
f4
00
17
08
08
03
e8
fb
f1
0b
fe
07
fc
00
f9
fc
ec
f0
06
f6
fc
f9
11
fb
f7
0e
fa
01
fe
01
0b
f7
01
03
10
f2
04
04
14
f4
13
f4
f8
19
fa
e3
ef
f8
0d
0b
f2
03
0e
fc
fc
06
f3
11
09
09
fc
0a
08
ea
ec
f8
02
10
ed
f5
ff
0c
0b
fb
0a
fc
f3
0c
00
ee
0d
f4
09
f9
08
10
eb
f6
09
07
08
0e
f8
f0
0b
07
05
ee
0b
ef
04
e7
f9
00
fc
00
fc
06
ff
0e
f4
0f
11
ff
0a
e5
e9
fd
fc
0e
0d
12
0b
fb
fc
08
01
ff
03
03
fe
e0
02
04
fb
02
fa
fd
f3
f6
14
19
04
f3
f8
1e
10
f6
03
e7
24
fc
01
ea
0e
16
1d
fd
29
fa
f8
02
f2
f8
15
f8
07
fa
09
0d
fe
25
ed
eb
f8
f9
ee
e9
f3
f9
07
0c
f8
00
02
02
09
15
07
0b
00
e4
f7
17
f8
13
dc
00
fa
1b
fa
f1
06
fc
09
0c
fa
ee
25
ee
01
f6
19
15
f9
f9
17
05
03
20
e2
0c
f2
14
ea
08
18
e0
db
f9
fa
03
0e
ee
f1
17
0a
0e
fa
f8
f5
0b
16
df
fd
ea
0c
0a
fa
06
f4
04
02
f3
02
f8
03
15
06
1f
08
0c
ff
00
07
ef
da
f3
07
02
0b
08
0d
f5
ed
f8
fd
fd
f8
e7
06
f1
07
0d
06
00
fd
fa
f4
fe
03
fe
fa
07
04
ef
0f
e8
18
18
11
f2
ef
02
ff
11
ea
07
fb
ef
f9
fd
0b
17
13
01
ff
03
fe
f5
02
0d
f5
08
f6
fc
fe
09
e0
0e
0c
fb
0a
ec
12
0a
17
dd
02
f0
10
09
f7
fa
0a
00
01
0c
17
fe
fb
f5
0f
0d
01
ef
f9
f0
01
fd
fe
04
e2
0d
0b
f5
ee
e5
03
ea
14
f5
f9
fe
0e
0b
0c
1a
f1
f4
04
0e
f4
fb
fe
02
0b
0c
fb
0a
16
07
ff
f2
06
fe
f6
01
ee
fc
03
fd
0a
06
0c
08
f1
00
f0
fc
fa
1b
eb
11
ef
01
10
1a
0f
0b
f9
f4
fa
01
f3
f5
06
f5
f2
07
03
fd
e8
06
26
f2
02
0a
0d
09
f4
fc
fb
fe
f1
0b
fd
10
f4
06
0f
e9
04
0a
01
09
09
0c
f7
06
15
ed
f3
f6
03
20
05
13
0b
13
f8
e8
ea
f3
0d
f7
ff
00
01
ed
f1
15
03
0e
ed
19
01
07
01
ff
ff
f9
12
01
ff
f8
08
fe
f9
05
08
01
1a
eb
1a
e9
0b
04
00
fb
f2
fc
f6
fe
04
09
1a
fb
01
e6
05
f9
07
01
f3
f9
03
04
03
fc
0c
e6
0d
02
f0
f7
fc
fa
f7
0a
f0
00
fb
fa
22
ef
f8
00
fb
ff
0a
f6
0c
eb
00
0d
fb
f9
05
ea
04
f5
02
10
16
f0
1c
06
00
01
0a
17
fe
09
09
fb
04
ec
fa
13
f4
13
07
0b
f2
f7
0a
ff
07
0e
06
fe
06
00
00
0a
0a
05
f0
05
fd
03
0a
f5
02
18
f8
f6
00
0a
02
f0
fe
ff
13
0b
09
10
f7
01
f5
f4
eb
0d
ee
fd
f9
fb
03
fe
fd
fa
0c
0e
f3
ef
f6
0b
fa
0c
da
03
fc
fc
f8
0d
ed
f4
ff
f8
06
ef
0c
10
06
fd
f4
0f
0f
00
0f
08
f7
e5
eb
fa
08
0a
07
fd
fd
f3
08
06
00
07
f7
06
ed
f5
fa
e6
17
f6
f7
f6
f3
fc
14
0d
0b
f7
f8
ed
08
1d
f9
0e
0f
00
fe
12
10
ff
f5
fc
07
f7
e6
11
0d
fe
0c
08
03
00
00
fb
f2
f8
00
fc
fd
09
09
08
ec
f0
0c
f3
04
ec
0c
ff
fa
02
f7
10
0f
1c
07
07
02
fa
ff
e8
fc
04
ff
ec
f1
f0
11
f9
f3
fa
08
01
ff
f7
05
f0
0b
fa
fd
00
05
06
f7
05
fb
09
13
fb
fc
f3
ef
ff
f9
09
12
ff
0a
f4
f3
1b
14
f8
f7
f6
06
05
04
d5
20
05
0d
0e
12
f4
fe
fd
06
08
06
08
04
fd
f8
07
13
07
fd
f6
08
f1
f4
f0
f4
f0
06
ec
fe
f5
f4
f6
0a
eb
0b
fb
fd
e8
ff
04
12
ff
ed
0c
fa
16
fb
07
0b
09
05
f2
01
f7
09
01
13
f2
1a
f7
05
04
14
09
fb
03
fe
fe
07
00
f8
f4
0e
e3
f5
0e
07
ff
fd
06
00
00
0a
11
ec
12
10
f7
08
e6
f7
fa
0b
01
e8
fb
f9
10
ec
03
ef
0e
f9
0c
f2
07
fc
16
f0
02
fc
11
e9
10
0d
ee
0a
fc
fc
0d
fc
05
f6
f5
04
f5
fb
0d
09
e2
10
15
17
f1
08
07
f7
09
01
18
00
fb
10
12
08
f3
04
f3
01
fe
0a
e8
ff
04
f9
08
0a
04
0c
0c
19
f0
16
f5
0a
de
08
ee
f9
1b
ea
02
f8
fb
fc
00
ff
06
dc
ff
fb
0b
fc
fd
20
ef
14
fe
01
fa
07
04
e1
10
fb
ec
03
13
28
fb
f8
ff
12
f3
03
00
00
16
ed
f9
e6
f0
e8
e8
e9
f9
e9
00
ed
f9
f5
0f
ed
17
fc
06
03
f8
2b
0a
fe
16
02
16
f5
16
fb
0e
ff
f4
04
ed
f9
f5
01
f9
f1
0a
11
f9
0b
df
f8
ff
f5
dd
00
01
0a
05
17
f2
fb
fe
fe
f7
f1
08
f3
03
f1
f4
15
ff
fc
f6
fa
01
07
fc
03
f4
fb
fc
0e
14
01
09
ff
ec
0b
07
05
f0
08
ff
08
0b
f4
18
0a
f7
06
0f
f6
0b
e5
19
ed
fb
f4
ff
0e
f6
11
f5
07
fe
16
f7
fe
0c
04
08
0c
fa
04
11
fb
06
f7
ff
03
03
0e
ec
f8
0a
ed
ec
00
0c
15
06
f1
f7
14
08
ee
f7
df
01
0a
ff
fa
10
09
08
0d
08
f8
fe
ff
03
f7
f8
02
06
f2
0d
09
f0
fd
f2
f2
01
0c
f3
02
00
02
0f
f6
f4
05
12
f7
03
f5
fb
01
0c
06
0f
fe
f8
00
f8
04
ee
0c
07
f2
11
01
fd
f3
fa
e4
f9
06
f3
04
04
e5
0a
07
01
f2
06
fc
f7
fe
ed
f5
09
ec
08
00
0f
0d
0a
01
ea
17
0b
11
fd
fe
f2
00
fe
0d
06
f8
f0
11
04
fb
09
f6
ed
00
f8
fd
ff
19
05
f5
fd
0b
0b
00
01
fc
03
0c
ed
f8
0c
16
0c
f2
ff
ff
fd
0c
f4
0f
f8
12
fd
ef
02
f8
01
f5
00
fd
ef
03
0a
08
f8
04
ea
fd
fe
0e
06
f7
13
10
fc
03
04
10
03
e8
eb
f4
06
e5
fd
0d
f9
d9
01
13
f5
f4
f9
ee
10
fa
01
d9
e2
01
e8
fa
03
02
18
ff
26
06
01
f6
f5
04
05
0c
f1
fe
ff
fc
fa
08
05
0e
03
0e
f9
00
fd
11
f0
0b
14
ff
04
f6
09
00
0c
e1
09
04
0f
ef
ef
07
f8
e8
f8
fa
de
1b
03
08
f0
03
17
ff
11
0f
0c
05
fb
ed
e8
ff
f4
ec
05
00
0c
00
fc
f7
08
03
03
0c
14
00
ef
0b
fe
16
f3
0d
09
fd
05
04
f9
fc
f9
05
ec
07
05
0b
16
ff
0a
0a
fa
f7
05
ff
fc
08
df
08
f6
09
06
0e
ec
0c
eb
00
f4
04
fa
f9
10
02
04
f6
f5
01
fb
17
0a
00
fb
fd
03
fa
fb
ec
0c
09
02
00
ef
08
0d
0f
ff
03
f9
0a
fd
07
f5
0c
0e
02
fc
0c
09
f3
04
11
07
e3
13
12
fe
fa
f6
17
04
08
fb
00
f9
ff
fe
f2
fe
01
02
fd
0e
03
00
04
f7
06
fc
ff
f5
00
13
ff
f8
ea
fa
fe
0c
0a
02
f2
f1
06
0c
05
f6
f0
0d
eb
f2
04
fc
06
00
f7
fa
01
12
f8
0d
f5
0a
f6
1c
ff
f5
fb
01
ee
05
0d
fe
0a
0f
13
05
ee
fa
fa
14
0e
19
01
08
ec
06
f9
0a
fc
11
0b
01
e7
04
f7
f9
e7
ed
11
22
00
0d
ea
fd
01
fa
fd
03
18
f2
0f
fc
f5
04
fb
01
0c
0b
0b
08
02
dc
f7
03
fe
ea
fd
fd
f8
0a
fe
ec
fa
15
2b
14
f5
fc
00
0b
0f
04
f8
f9
02
03
04
f4
09
e4
0a
08
05
04
13
00
f1
00
07
02
f4
f9
eb
20
04
fa
ea
ec
ed
0b
ed
0d
eb
f8
fc
01
1c
00
0f
05
03
fa
10
f7
02
f0
fa
ef
f8
0e
f9
04
07
09
e9
15
21
18
13
ea
0d
c9
fa
fc
13
0a
d9
e4
dd
09
d6
17
09
09
30
f3
2b
e8
17
16
f3
19
e6
1e
12
f8
ec
fe
1c
dd
0e
f2
11
f5
18
01
31
ee
df
d9
f4
1d
0c
11
0d
df
04
e0
ee
d6
0a
f9
0e
27
0d
d5
fd
f7
1f
ed
1d
00
16
f6
ed
d9
0a
fb
07
fe
f0
0a
f9
0b
07
26
e9
f8
bf
21
fd
f3
29
17
1a
1b
00
08
fc
e9
0a
e1
13
dc
e9
f6
21
02
0f
e1
1f
2c
fc
f6
e3
fe
f5
d3
00
19
d2
42
01
13
ea
02
df
e4
08
f5
ea
13
e6
0c
0e
f5
ed
e6
d5
dc
3b
04
17
02
eb
09
ff
02
ea
06
20
e3
11
11
09
e2
16
09
02
ea
f6
d3
f6
1d
3f
f4
e7
f3
fd
10
fa
0d
0b
f7
2f
01
fd
1a
f8
fe
12
10
f8
04
f9
fb
e6
19
02
17
06
01
1a
05
f6
f1
e4
f4
fc
f1
ed
0b
11
2e
09
24
e5
0e
19
ff
02
c9
0f
fd
f7
f8
09
01
1d
f8
f2
15
fd
fc
25
09
f2
e7
03
f9
16
17
f0
fe
ee
0f
fe
1a
03
07
e3
f0
0c
f9
eb
2d
03
09
09
04
de
f6
ef
00
09
fb
d9
07
ff
da
fe
ef
08
dc
0f
15
fd
fc
f1
23
26
06
e6
10
0b
16
07
f7
19
29
06
fe
03
01
04
e8
da
01
f4
00
fc
f4
04
01
ff
f7
1a
04
f9
f7
f0
eb
ef
2e
f2
03
01
fd
f0
23
ff
fd
ef
0e
f5
f7
1b
19
f4
ee
02
ff
fd
f3
f0
0f
04
08
f0
f4
08
f2
f5
1c
f5
14
13
dd
01
0d
0a
03
0b
0f
f9
f2
00
f9
03
e1
f9
07
09
04
05
17
fb
00
0a
12
fb
08
e9
fb
f1
19
0d
1d
10
0f
f8
1a
f4
fe
f7
fe
dd
12
d7
05
06
ef
18
0a
10
ea
06
fc
06
01
f9
fb
15
f0
09
0c
fb
f5
f8
fd
12
05
cc
ef
15
0f
fa
f3
fa
04
07
09
f5
10
ef
02
0b
08
db
e2
0b
fd
fb
16
07
16
dc
0c
08
16
00
f7
0d
fd
00
07
fc
f9
05
00
05
fc
13
0e
1d
02
15
da
16
f4
f9
e5
09
ed
fa
16
11
16
ef
ee
0a
03
ff
02
05
f2
0b
01
f5
11
ff
fb
07
00
03
09
06
f8
00
f4
f1
0c
ed
05
f9
e8
12
fc
dc
0e
0e
f6
fe
f3
ed
25
f7
0d
0d
fe
f9
05
f8
04
14
f7
16
0e
03
00
f7
fb
09
f9
00
f4
e5
0c
f9
f9
24
e3
f3
02
f0
18
fa
0c
14
ed
f4
0d
05
07
08
12
f8
13
f3
dc
f3
0d
1b
12
d5
0b
f3
ff
0a
11
10
13
ee
df
08
f0
f8
03
00
0f
07
f2
e6
0d
fc
04
09
fc
f9
1d
04
ff
18
eb
13
fa
19
ee
03
24
f1
fb
07
01
e1
fa
fb
08
0a
fa
0b
f4
f3
01
12
f1
fa
0b
ef
01
fb
f2
07
fd
ed
f7
ea
16
ff
0d
ea
17
ef
fd
17
f2
fd
20
15
f0
10
03
fa
0d
05
e1
15
f3
0d
0f
ee
f8
1b
e9
fb
f7
0b
e6
e7
f7
fb
db
f1
17
07
15
fe
fb
0d
2d
f5
02
e8
f7
1c
0c
09
f9
e0
f9
0e
04
fc
0b
dc
f4
eb
e6
fd
f8
e8
11
01
fe
f1
fc
f9
f9
00
08
fb
f7
0d
f2
fe
10
f1
e1
05
ff
f3
fe
fe
05
fb
07
fa
f7
fa
f9
f2
f6
11
00
f0
f4
19
0b
04
05
08
ed
f4
0d
eb
14
fb
05
fd
f7
1d
f7
f9
fa
0b
fb
06
01
08
d9
06
21
e8
00
0d
06
02
0b
10
08
12
ec
f9
ff
0d
05
e9
15
16
07
00
f0
0c
09
19
0e
15
00
e4
f9
f2
f0
00
05
0b
04
0a
ec
09
1d
f9
1d
13
f7
04
1a
01
0d
07
f3
f2
10
24
e9
e6
f1
fe
f6
0b
fe
e7
06
f9
f2
f2
d8
00
f7
13
f5
0f
fa
04
04
0a
f9
03
14
ff
ee
14
07
e9
04
e2
07
13
f7
01
f7
0f
ee
fc
fa
10
0b
0d
12
2a
f3
06
fd
f0
ea
17
1f
ef
fa
e4
02
1d
ec
e4
ee
f6
17
1f
08
0c
f8
04
29
1c
0f
ed
20
12
1d
e0
f1
07
f8
f9
e7
f9
2d
df
20
e4
0b
14
e9
fb
04
ea
f4
1e
e5
e2
0d
ed
0a
00
04
00
ff
06
ed
0e
f7
fc
f5
16
10
e8
14
3d
00
ed
0e
ed
12
12
f7
01
e2
fe
04
03
f3
03
09
09
fd
fb
13
fc
09
10
17
f6
fa
06
0c
0f
01
f6
03
0b
0a
fe
06
17
f3
fc
02
fa
06
05
fb
01
04
02
eb
eb
09
f4
0b
f9
05
f4
1c
fb
09
fe
e5
f9
0b
08
f8
0b
fd
fb
f9
fb
ea
e2
f3
fd
0f
06
f9
06
1c
fd
f5
0a
08
fc
fc
f2
12
ec
0b
00
f4
fd
fa
07
f5
fc
12
04
0b
f1
ff
01
1a
0b
e5
ea
f6
f4
e5
fa
05
fa
fa
f5
fd
f5
e7
02
f9
f9
03
ff
02
00
08
06
f2
09
18
08
01
0d
18
02
f5
fc
0c
00
09
16
0c
ff
28
fd
ef
fc
eb
f2
35
13
f8
03
ee
f9
f5
e9
05
fb
06
0e
d5
f4
e7
0d
fb
32
04
ee
0c
07
0a
13
1f
ed
00
0a
d4
0c
0e
11
08
1b
02
22
0c
15
0e
e6
eb
ff
1a
00
f2
f8
21
14
0b
e9
e5
16
08
f6
fe
03
1c
0e
f6
f4
f8
1a
0c
0e
ea
09
f5
ff
0f
ff
f3
08
ff
1b
fc
08
db
e7
ee
ff
12
0b
01
fc
ce
f9
ef
ec
ed
e9
f8
10
f5
11
22
f3
0d
f0
eb
04
07
ee
09
ea
0e
eb
08
08
08
f3
ff
e0
fd
f6
33
e6
1c
1e
0f
1d
0e
0e
f4
05
00
15
1e
01
f5
0e
00
12
0f
04
f4
e1
ec
fe
13
02
fd
15
f8
f0
fb
09
e1
1e
f9
03
ee
14
0a
e5
ed
0c
ef
df
f5
f9
fb
0b
02
0b
fe
14
ef
f4
12
f6
fd
07
03
0b
19
ec
e3
04
f5
15
00
e3
ed
f5
fc
05
00
1e
0c
f5
fb
ee
08
18
db
0b
06
12
f6
e4
0f
04
e7
fc
f3
fc
f1
dd
02
da
14
f7
1b
ea
fb
f2
1d
f0
f0
f3
11
ef
ec
2b
df
04
fd
09
0c
31
07
fe
e8
05
07
ec
f1
f7
f5
de
13
ff
09
f8
12
e7
01
03
e8
f6
fa
13
f2
f8
0a
2d
de
0b
01
fa
f8
02
07
de
13
f7
f6
d9
05
f3
ee
0e
08
fe
14
18
df
ea
f8
e9
06
f0
f8
08
fd
18
e8
10
da
06
e9
e1
04
18
eb
ef
f1
00
1b
01
24
f1
f2
f7
04
00
0a
22
13
0d
1b
08
f8
02
eb
12
eb
f0
05
12
0b
10
08
f6
f3
ec
e4
08
f1
f4
f4
1a
05
cb
23
00
ed
12
10
fa
f3
fa
0a
e6
07
ed
ec
fe
e8
26
16
ef
30
f9
fe
dd
24
f0
fd
fa
2a
2f
25
0b
00
03
00
07
fe
2f
ef
f2
03
d8
0b
06
f2
e7
f7
ea
1a
f0
19
f0
11
08
08
dc
20
0a
f8
04
11
fa
00
03
15
db
d0
d7
18
23
07
20
e5
fa
09
0a
ec
0c
11
1f
db
fb
ea
f1
e1
f2
0f
f3
ff
f2
f1
e4
00
03
1e
ed
0a
09
eb
0f
19
f3
1d
0d
e4
f9
23
f3
22
08
f8
ea
06
1c
fe
fe
fd
e7
04
dc
e9
09
16
00
f7
05
1e
1d
21
ec
fc
08
e7
fb
e7
ed
1e
09
fb
04
0e
0f
fb
f2
e0
f9
fd
21
09
0d
f4
21
00
fc
f2
f9
f6
f2
09
08
07
12
e5
0f
07
13
03
1c
07
19
0e
12
07
07
e2
03
ed
f8
0e
03
07
0c
07
f0
1d
ef
fc
fb
11
16
fd
e0
ea
f2
03
da
12
01
fa
ef
02
01
11
fd
0b
fc
12
04
01
fd
14
0c
fb
12
f9
0e
f4
ff
0f
f9
f0
e5
ff
16
03
0b
0b
eb
13
e0
e4
0e
06
ff
ee
fc
00
03
fe
00
f1
e3
fc
fc
ec
00
fa
fd
2c
ef
ec
ff
2c
13
0b
e6
ef
26
f0
0f
fd
06
01
d1
06
f3
09
0c
ec
05
fb
e9
fc
f4
0a
ed
df
13
1f
f8
fc
1f
04
ff
0b
f6
fb
19
0d
f1
18
28
fe
fd
f2
fb
0b
0b
ef
f6
e7
12
ec
d9
f8
0b
ce
f8
06
16
f4
03
02
fd
dc
23
f5
0e
09
11
01
ee
06
0c
17
0b
fb
1e
fa
f3
02
e7
11
02
ee
0a
03
07
ec
f1
f1
f0
f4
06
18
16
fd
fa
12
01
11
12
ef
ed
ea
f1
fd
ed
fb
07
02
fa
e6
08
e0
12
fe
04
10
13
21
09
db
fe
f5
21
04
0c
0e
00
fe
05
08
19
06
fd
12
e2
e1
ef
01
0e
19
f9
fc
05
0d
02
e8
e8
0d
f0
25
ed
f0
16
14
d7
08
ed
eb
1a
ef
d2
15
08
16
03
f4
f1
02
12
0a
19
04
f8
ed
02
f5
f8
e6
03
07
ff
08
e5
07
ef
fa
06
02
ff
02
fb
fb
fb
0e
07
f8
06
15
f0
f3
13
13
03
0a
0f
16
08
fe
fc
03
f8
0b
e8
01
f0
01
12
f2
00
01
02
03
fe
03
03
f1
07
ed
f9
01
0f
12
f4
0b
12
12
db
0a
09
fa
12
eb
f7
f8
0a
20
f6
fe
f0
06
34
10
03
f8
f6
07
07
f7
01
02
07
f0
ff
fa
fd
07
12
eb
01
00
ef
ee
08
f4
01
eb
f1
0d
fa
f4
06
ed
09
13
10
0d
f6
fc
f7
06
06
1b
05
00
0a
e5
04
06
f5
0b
e8
0c
0e
03
13
e9
f8
09
f8
27
f3
e8
0e
0a
0e
02
f9
fb
09
ea
fe
f7
1d
f6
0b
08
ee
ed
ff
0e
04
fd
fa
0b
ee
0f
07
f0
19
f5
0e
02
0c
f4
0c
02
10
ed
0f
e2
f6
06
f2
e5
18
01
01
f6
f4
09
f7
00
f7
00
e5
15
08
f0
fc
06
fd
e4
12
fd
de
06
ee
d3
11
07
f7
fa
09
fb
07
ee
f5
fa
fe
2a
07
d6
e7
ee
ee
12
05
e9
d1
04
0a
ea
16
01
04
eb
03
00
06
07
2a
0c
11
05
02
f5
19
08
0e
32
e4
fd
0b
04
07
1a
0e
05
19
fe
f8
0e
33
f0
f8
13
ee
08
f8
f9
d4
f3
18
fa
ef
12
17
00
f8
05
14
e0
03
ca
0f
0b
39
e9
ec
ef
0e
12
f7
0d
f3
f4
0d
15
e6
17
0a
fb
06
13
06
c6
04
0b
12
1d
05
e1
0a
18
f0
12
f5
10
eb
01
ee
19
0f
1e
42
17
18
f5
f3
0b
fb
01
f7
01
0f
f6
d7
08
07
f9
fb
fd
c4
f5
e8
f8
17
ff
1a
e9
1d
1b
0d
ea
19
e6
db
34
e7
13
e6
ce
f3
1b
e3
cd
d0
2c
0b
0f
19
ea
e7
ec
fe
1d
1d
ed
e1
19
14
f2
ec
f0
f4
0d
24
15
29
25
f1
1c
fd
f6
26
f9
ed
dd
ff
e2
f2
0f
d6
d1
f4
0c
02
04
e3
f2
f5
e6
f6
ee
d6
e2
f9
1d
fe
eb
0f
1c
e8
0f
fa
dc
03
06
0b
fc
0e
f8
41
f5
16
f7
24
09
1e
13
29
e0
03
14
03
ef
f3
ea
ff
08
f4
fd
f1
16
0f
d1
13
ec
18
e1
d5
0b
28
f9
e0
23
f8
f9
e0
0d
04
d5
e6
e5
fe
fc
03
27
fb
fe
fa
d9
08
1e
ea
16
f6
ee
f8
17
23
22
0e
f3
1a
17
e5
ed
24
d4
12
f1
ed
ed
1b
00
23
e8
f0
f7
f6
33
05
f4
fa
df
e6
f0
ea
21
27
16
cd
f4
07
f4
f0
13
0b
08
2a
10
0f
de
22
fa
fa
20
f2
cd
f1
f7
fb
17
23
ef
fc
c8
fa
f5
ff
1d
f5
e5
0b
ea
e8
06
f9
15
f7
e4
fa
d7
e4
fe
0d
28
26
18
17
f0
c2
04
e7
10
de
e1
ff
20
f0
ea
e6
06
07
0a
09
e9
01
18
f9
1c
d0
ef
e7
fe
ce
e9
2c
1a
07
19
f9
22
f9
14
cf
e7
30
1a
06
21
ea
17
19
fe
e7
16
f1
db
20
07
f8
f6
0f
f7
fd
c7
00
de
21
f3
0f
fa
2f
e7
eb
e2
1c
f3
f4
0e
20
d9
df
07
f8
e3
ed
29
10
fd
a0
f3
f6
08
00
37
fb
11
f8
e1
e7
09
10
24
12
12
db
ef
f3
f2
18
25
0b
e9
10
d8
fe
03
ef
f3
e6
f4
e6
1d
f2
0e
12
f7
f1
23
25
04
28
c7
ed
04
ee
e0
34
09
04
08
09
0e
29
0c
fd
f8
04
e9
02
1e
17
03
00
fb
f8
0a
e7
ee
fd
e8
f7
04
ea
13
f2
1b
12
ed
fc
ff
f7
fd
29
06
f4
1f
1c
09
03
07
ee
ed
e1
fe
12
e0
11
f9
f2
ed
1d
ef
2b
d9
13
ee
f4
d8
f6
f6
01
10
00
ee
16
08
e6
c4
1a
1b
10
d6
fb
fa
22
19
07
f4
f5
fc
18
d3
f3
fc
00
0d
0e
1c
2b
ee
05
2f
fb
f1
35
fc
fa
f6
16
fd
fd
0d
12
cb
11
f6
38
07
f4
04
16
dc
06
ff
10
e6
02
fd
0b
d6
12
f8
e2
0a
d7
f8
d4
0f
f2
1b
e0
15
e4
fd
12
0a
03
11
0a
f1
e2
27
23
01
27
f4
41
da
00
f5
1f
ca
07
ff
00
fb
fe
e7
e8
f9
f5
f9
f1
f1
e1
f3
15
0b
e1
dd
ba
0e
14
0e
f4
15
21
f3
29
e4
02
fc
ee
fa
e1
1f
e8
12
f3
fe
06
3e
fc
2b
02
ff
19
d8
11
de
d9
0f
f3
08
00
d9
13
ec
08
19
02
c6
19
f1
ed
17
ee
1c
d3
0f
0d
0b
05
f7
40
c5
10
fa
ee
06
09
df
22
f1
dd
c2
e0
df
fa
05
e7
f9
13
ea
ef
07
fb
d9
0e
2d
f2
d1
05
17
01
01
2a
05
de
d8
ec
f3
08
d6
0e
14
ec
13
da
1b
0f
f5
1a
09
f3
0f
fb
02
02
fd
22
1c
04
21
14
d6
f9
02
10
03
cd
f6
1c
24
fb
e6
f3
f9
fb
2d
f5
ee
3c
eb
e8
1c
e9
0a
03
fc
ce
2a
ff
f3
f8
f1
fc
2c
08
1a
15
f8
0f
14
13
05
e7
f6
0d
fc
1c
24
18
08
ff
ed
ea
11
f7
19
06
2c
0a
03
ff
13
fe
06
0d
f1
fe
fa
0e
fd
eb
ff
02
f4
f6
03
db
15
fb
fb
05
d4
f3
09
d5
09
f8
ec
ef
ed
f9
e4
e6
03
e6
fc
ea
11
29
08
0c
f8
cb
10
1a
fe
fe
f2
03
e1
db
02
f8
16
f9
f1
06
fb
19
f9
fb
e2
f0
f1
fe
14
ee
0e
0b
f6
11
24
0f
0a
06
e7
f2
fa
e7
fa
fe
0f
24
f3
06
f4
04
fc
03
14
f1
19
e5
0a
07
03
00
0c
1b
11
28
1b
12
e5
e7
3e
fc
0a
05
ce
f6
dc
07
e9
0d
ff
f6
e8
17
0f
b4
dc
15
13
fc
01
0e
3e
1a
ef
04
e2
1e
0d
f8
01
1d
ef
df
ef
fe
1e
ff
27
23
ce
02
ca
16
d8
30
ad
f3
13
3a
dd
e4
01
e2
00
08
20
d9
e2
eb
07
12
0a
0f
04
14
1f
08
e9
ee
fb
23
d8
e5
1a
f9
00
1c
11
ec
df
fa
10
02
cf
2e
20
3a
f2
cc
15
d8
bb
0c
df
0d
d9
f7
f2
db
15
10
ab
d5
e3
f2
fc
f3
02
fc
f7
25
28
fc
14
27
2d
32
43
ed
07
11
f8
05
eb
10
03
00
0e
10
03
f2
13
fc
f0
ed
db
29
12
ef
e3
24
0c
e1
1e
05
20
d2
1e
0f
25
f6
f8
16
0f
e5
f7
ff
fb
f7
22
f1
00
f3
0d
f7
e1
e0
19
31
07
05
fb
1d
d4
09
ee
11
08
fd
0b
eb
cf
f4
eb
f8
04
fe
01
fa
14
08
12
e3
c9
fd
12
08
02
18
f5
e8
e5
dc
da
0b
dc
ec
2c
27
f0
1e
11
20
18
f6
e8
02
08
04
f6
c3
f7
de
f8
e7
34
1e
f7
12
f7
ea
2f
f1
0a
1a
ec
11
01
19
0c
3c
0b
fe
29
e2
0e
ed
f8
ee
0e
0a
04
fb
08
1c
1c
29
e1
06
e7
28
ff
f8
e2
04
f3
d9
0c
02
e5
0d
e3
12
df
04
f0
e2
07
32
e4
2b
13
e6
e2
cf
d4
ef
1f
25
14
e8
25
e2
f2
03
13
16
09
0c
3b
10
f9
18
f2
1f
0e
1b
21
1a
ff
f1
f9
e4
0e
17
06
fb
e7
f9
2a
f7
ed
f9
c9
fe
d9
10
07
f6
13
e4
1e
28
f1
1d
fb
17
17
df
d2
f7
f1
f1
e6
0a
10
db
1c
0f
3e
23
3c
06
ee
02
f2
df
e8
06
43
f4
f3
f5
fc
f0
2e
05
f5
e1
38
22
d4
f3
09
f6
22
f0
03
ec
f8
03
fe
f6
17
e9
1d
fb
0f
ea
fd
0a
e9
0d
0a
0b
f1
10
03
f1
eb
f7
0d
e7
13
00
f5
f6
ea
2f
06
04
fd
f3
05
ee
0b
04
11
ff
18
fa
12
e7
eb
07
19
1a
ee
0b
e2
f3
01
0c
10
16
0b
d7
f0
f2
fd
ed
0c
2e
1d
08
e2
03
fa
f0
07
1b
09
e4
ef
15
da
d7
02
e4
fb
0e
d6
0c
fb
13
fc
22
0f
2e
20
f4
e3
10
13
fa
1a
f4
0f
ef
25
06
f5
f0
f8
dd
e1
f3
ee
09
d7
04
fa
1f
0f
1b
f8
0f
e4
31
f7
37
10
08
0e
1e
09
14
1f
e9
f5
f6
fb
f9
02
fb
dc
19
f7
00
0f
ef
f9
e6
13
f4
0c
fe
fb
0c
f1
01
ea
05
03
21
0a
f8
08
f9
fc
04
f4
08
eb
08
00
1e
ee
0e
16
08
f4
04
fa
f1
fb
f8
06
f6
fc
f5
06
0f
05
fb
f5
f2
0a
f9
1b
f9
f9
0e
f0
02
da
f6
f8
ff
f6
fc
11
ee
ff
11
20
d4
14
de
01
fd
f4
f2
fd
fc
10
ff
12
12
0c
fe
f4
12
ef
15
08
eb
1f
2e
ef
03
03
0e
fb
10
0f
06
e7
fe
fc
06
ff
00
fc
18
09
f3
ec
e6
07
0e
06
de
01
0b
3a
f0
e7
14
0f
db
dd
04
f8
ff
fd
f8
07
fd
ef
06
ee
fb
fd
2b
08
3c
0a
06
04
f9
f0
03
f7
06
e9
10
15
01
0e
03
dd
f2
0e
f3
09
e8
dc
06
14
ee
fd
0a
fd
09
0c
fc
ea
02
ea
19
0e
13
1e
ec
fa
07
f9
fe
0e
db
12
0a
06
fe
21
19
0c
fc
f4
f4
01
ef
05
01
dd
f6
dc
ef
10
12
fc
f1
eb
f0
09
ff
08
f8
08
02
0c
e8
00
f3
20
19
1a
0b
0f
ee
fa
12
fd
08
f0
fd
1d
da
f9
e6
0c
fa
f6
f7
03
f9
12
12
05
06
e0
e5
d8
1f
f6
1c
23
fc
f0
05
fd
19
02
0a
f7
fe
fb
f0
0c
e3
13
e8
f3
0f
f5
f0
d0
f6
1a
05
ed
16
05
d5
fc
ee
f9
f7
f4
1f
fd
ed
16
f1
f8
fd
0f
10
fe
04
16
37
e6
1b
f8
0e
17
15
f9
20
d8
12
fd
01
22
16
0d
f6
03
27
2b
db
fc
0f
15
18
f4
02
19
04
16
cf
fd
03
db
fd
2a
f7
05
11
22
0b
fb
fa
e2
f6
0b
f9
09
c1
06
17
04
0a
d1
fb
d4
fe
fc
02
20
e8
20
e6
cb
13
fd
dc
12
1e
fa
05
fb
c1
13
ea
10
cb
03
e9
0d
ee
07
10
f8
10
f5
e4
f3
0b
fa
05
f9
1a
f0
18
06
fc
18
df
e8
0f
11
ff
0f
1b
f8
01
02
e7
01
1a
f5
06
1b
f9
de
dd
15
ea
f5
17
fe
e2
de
0e
17
05
0c
e8
02
e4
f2
f6
fc
fb
df
e4
f6
14
07
0d
f9
17
2f
ff
eb
02
ec
16
fd
f8
0d
fb
17
fa
f4
f4
d9
02
de
fa
ed
f9
0b
28
ed
26
0f
14
28
ff
04
05
21
15
e4
07
eb
d7
04
0b
ed
09
fb
04
05
1a
06
0c
18
f3
0d
20
04
f1
05
05
e9
fe
2f
da
0b
0b
06
f4
20
ee
0a
0b
ff
19
0d
11
08
f9
00
d9
12
07
f3
32
dd
20
f3
eb
09
ea
fd
0d
06
fb
fa
0f
13
13
0b
f7
1e
22
fc
e6
25
0c
fe
e1
05
f3
ed
f5
00
c2
fb
00
ee
ff
04
ed
f5
dd
ef
09
f7
17
f5
11
ff
fc
f4
01
e7
1b
1a
f5
00
fc
19
0c
fe
ec
05
f2
e0
1e
00
de
df
0b
0f
13
12
e4
07
12
0e
f6
f5
f9
ed
11
09
e1
0d
e4
12
e2
f4
24
ef
fa
f0
19
16
fc
e9
03
17
29
05
e9
fc
16
02
ea
09
f4
fe
0d
24
07
fd
f2
17
25
ea
ee
07
07
fa
fb
ee
09
09
02
00
07
2a
ed
07
f2
fb
05
ff
14
09
ef
ff
12
26
fa
0d
0a
06
f5
01
eb
d2
e3
f0
02
f4
f4
09
13
f3
16
02
0c
0d
ff
e1
01
fd
fe
1b
fb
03
01
0d
f4
0b
f1
ee
d7
06
f8
03
06
fd
fb
f4
37
f0
d0
f4
fd
06
fc
df
f1
11
ff
f1
03
f2
f8
f4
e7
fb
1f
fe
fe
23
0a
07
15
2d
08
fe
1c
e4
fa
0b
1d
f9
f3
ec
f1
17
13
03
00
fe
02
18
0b
ef
04
f8
ee
e0
fc
eb
11
2a
01
0f
0b
ee
f9
e6
01
f8
f8
1d
dc
09
fb
07
f6
13
fc
0e
15
fc
e5
ed
12
0b
ff
12
06
04
21
f0
03
03
de
f6
ed
10
09
eb
f4
f2
fc
ff
ff
ed
f5
06
0b
ff
fc
16
f5
ed
11
04
0c
05
ff
06
11
de
22
10
0d
fd
fe
fd
e9
ff
fa
fd
ff
25
fc
ff
fe
07
19
f8
e1
fb
ee
03
07
18
0e
03
02
08
fa
fa
20
f2
02
f0
1b
c3
18
0a
13
f1
f7
ed
f4
f6
e9
01
ec
12
02
0f
01
f4
ea
f4
05
eb
f7
14
08
fa
22
05
f6
04
12
fe
f6
ee
06
0a
fc
0d
e5
01
e9
18
e8
f8
04
1e
0c
db
f6
e5
dc
fb
fb
0a
0d
20
06
05
02
15
e0
f4
05
07
1c
00
04
00
2c
e4
fa
fd
09
ef
f0
1d
0f
13
f0
f4
f2
01
fd
03
16
15
fb
f8
df
25
fe
0b
ee
16
f0
04
e0
00
de
0e
e8
0f
01
19
19
08
ea
0a
13
fa
fe
f2
f9
f9
f8
1b
f4
15
f0
0c
09
04
00
08
06
11
f2
fe
ee
cc
0c
04
ee
00
f9
0e
1c
03
0b
ea
14
f7
fe
01
0a
f8
03
01
fd
15
03
fd
ff
f5
07
0d
f4
14
10
f7
08
02
eb
f0
01
f5
07
08
01
0a
02
f8
01
e3
ee
08
fb
ff
ec
00
e7
f6
fb
01
0f
0c
03
f3
1a
14
1d
00
fe
0d
e2
02
05
01
f5
21
06
ff
f1
f5
fe
19
20
ea
fd
f8
11
e0
f5
f1
f7
f5
f3
f1
d9
fa
03
ee
eb
1c
f7
00
00
fa
f6
f4
0c
f2
19
ee
16
fe
f6
11
10
01
05
09
f0
08
06
ec
01
fe
f5
e9
11
06
fd
19
fc
f7
f3
d5
1a
0d
12
0c
02
1a
01
ff
f6
15
fd
09
1e
1e
ea
0e
f3
05
05
0c
df
f6
0e
14
08
f9
1c
f7
f1
fe
f6
e5
ff
fe
0a
ea
fd
ff
0e
f2
f1
00
09
fd
f6
ff
05
fd
03
0a
07
f2
00
00
1f
02
ef
17
16
ef
fb
0c
e4
01
06
0a
00
ff
0c
f4
fb
f4
ee
04
09
f5
f6
1b
06
14
12
fd
e6
00
f4
05
05
ff
00
04
fb
05
00
0e
05
13
f0
03
05
1a
f8
f1
f3
ff
07
06
07
0b
e9
0c
08
f3
ff
fd
fa
f8
0a
00
f8
f7
f8
0e
0f
19
15
fa
06
0e
ee
f5
f2
f2
f4
f8
0f
fc
f7
16
0e
25
f1
f0
f6
fd
f2
fc
0e
fd
f3
f3
fb
0b
fd
f2
13
0c
11
ff
0f
08
0f
ff
10
f8
f3
f5
08
01
08
0d
ec
26
fe
0f
ff
e6
01
05
12
0d
15
fc
f5
05
df
05
02
06
de
ed
10
11
e9
f8
0e
f8
0e
d7
0b
da
f0
f7
fc
2a
f1
fe
e6
05
12
13
08
08
06
fe
f7
0d
16
12
19
ea
0c
01
10
fb
fa
ff
ee
06
14
0a
0e
11
0c
04
dc
d5
fa
23
f7
00
0c
22
ef
ee
fb
0a
f3
04
ff
f9
16
f6
e3
03
ef
ed
22
11
1d
2b
0b
e8
11
f0
fd
09
07
04
f5
f2
fb
05
fd
fb
17
08
eb
ce
f0
16
f5
f7
f9
12
f0
07
0c
05
eb
11
f4
06
f7
f0
0b
f2
f5
fc
ed
19
18
11
f7
f4
fe
0d
f6
f6
12
f4
0b
24
ed
f3
fd
0f
f7
10
05
02
0f
09
1f
f9
0b
ff
11
11
ec
f0
ed
fc
f8
13
f8
0a
ff
f1
fd
dc
00
2c
da
01
f4
14
06
fd
0a
f7
f9
ed
fe
01
fc
fe
fa
00
04
f2
01
01
e2
fc
0d
05
f3
f0
13
0a
0c
ed
11
07
ef
0a
ed
fa
f8
0b
f9
05
03
f6
fa
07
f9
07
ee
02
10
f7
01
fb
e9
1e
f6
f5
fd
03
0d
f4
08
ff
0e
02
e8
02
1d
fe
11
02
08
0d
0d
13
f7
fd
07
fe
ee
f8
05
1a
1a
ed
0d
fc
05
fa
ff
eb
e9
0c
fc
f3
0a
1b
03
f2
e5
0b
0d
ff
06
06
05
18
04
16
08
02
2c
0f
f4
17
09
f6
23
14
08
17
f3
f9
f4
ec
10
06
fc
fa
f8
0a
02
04
e0
17
f5
fb
ef
f2
f5
fe
ed
ea
f9
03
08
ef
13
f7
e9
e9
e4
f5
ed
0d
09
fc
f3
09
07
05
09
f8
0c
e7
e7
ef
f2
de
19
df
14
03
0b
1c
f7
19
19
09
26
e2
fd
10
ef
ee
fe
0f
14
f0
02
0e
18
e4
e2
f7
06
fc
12
12
07
08
07
e8
00
e8
eb
ee
e8
00
0d
11
f3
0d
12
fd
07
f8
f8
0a
02
17
f6
02
03
05
06
0f
02
fa
fd
02
fb
09
fa
0e
f7
0c
ff
f4
08
f4
0f
0c
f3
fe
06
fa
01
fc
06
11
ef
02
fe
04
f5
04
f9
10
0a
fc
00
0f
01
0c
f9
00
f2
fc
f7
11
e1
00
08
0a
14
00
0e
14
ed
06
f2
0e
0f
1a
fd
08
f9
f8
04
01
f0
0e
f2
01
19
f7
12
fe
e9
06
fb
f9
fe
01
06
ea
15
ff
02
13
f4
06
03
f3
ee
f8
06
15
0c
09
05
fd
f7
fe
fa
f0
08
03
03
e5
00
f3
01
fd
03
03
ee
01
06
ff
ff
f7
0b
eb
07
01
09
19
06
12
fb
f0
f9
03
05
04
07
fa
18
00
e0
04
05
1d
f8
ed
ea
ef
19
19
05
f0
f6
06
db
1e
f8
f9
ec
fd
0b
dc
fe
26
28
27
10
16
07
0a
14
ee
f5
01
06
00
02
f8
01
e5
fa
16
06
e9
e4
f5
ec
fd
f9
05
fb
13
1a
f6
f1
02
07
f4
21
ef
07
12
00
f8
f2
f0
1e
0a
fb
f8
df
f8
08
e5
0e
2f
00
19
04
07
00
0d
e4
00
fb
25
fd
07
10
fa
0f
f6
fd
0c
f5
f2
f9
eb
08
f6
fe
e1
1f
08
f0
f4
2b
ef
00
08
e0
02
f8
08
f9
12
0b
f3
df
fd
df
12
fe
ed
14
0d
20
f8
00
f8
e8
14
e7
ff
fe
e9
19
06
f1
1b
18
ce
e8
09
34
08
08
16
11
0e
11
f3
f7
1d
05
07
0d
ed
15
04
fe
14
ff
30
f7
ec
f5
f9
f6
0c
2e
f9
f7
f9
16
00
ef
15
08
f8
0c
0d
f9
0a
05
0e
ef
f4
f0
f8
0d
02
12
f3
0c
14
00
0a
e4
ef
19
0b
fb
fc
f3
f2
e6
21
f6
04
ed
fc
f6
ff
e2
f7
f1
0f
eb
ff
f8
1b
07
fb
0a
eb
14
ed
06
08
18
1c
e5
fe
0e
f9
fa
d2
05
0f
fd
fa
fa
0b
ef
05
13
f0
fa
eb
19
eb
00
0a
fb
d7
fd
19
02
f2
ff
fe
03
f6
02
07
1f
ea
0a
ee
e1
11
00
07
f6
04
ed
ec
f2
03
24
05
10
fb
11
ea
11
fb
0f
fd
12
03
17
f7
1e
ee
0b
fe
e5
0b
e9
ff
f5
09
1a
12
1a
07
fc
1e
10
de
ef
eb
fa
0a
fb
e8
0f
fd
fd
1b
08
0c
0f
ef
ef
e6
fe
25
f8
0f
d7
f6
03
f4
10
fe
f9
ec
f0
eb
f4
1e
0b
ed
f5
f1
f7
0b
0a
08
1a
d6
f9
11
27
fe
00
03
f1
22
fe
ee
0c
0c
0f
0d
09
06
08
03
eb
0f
ff
fd
10
ef
17
08
11
13
f3
f7
f1
fa
00
10
10
19
00
ea
19
14
0f
fb
07
10
fb
f9
f7
03
d1
12
05
14
f6
f6
fa
06
12
fd
0e
08
fe
fa
10
03
e7
ed
ed
f4
24
00
f9
06
ff
0b
18
fa
20
13
05
ef
f1
fb
1a
fc
04
ec
eb
07
fd
ee
02
02
18
fe
12
fc
05
e2
0f
05
fe
f2
fb
08
f2
f4
11
fd
ff
f9
ed
f0
0a
f3
f1
fb
13
fb
03
08
d9
fa
02
ec
ff
ff
f4
09
f3
0f
ff
0e
07
0d
f8
02
e5
e4
f6
01
01
df
0c
ec
f5
08
fa
eb
15
f9
17
fa
f0
22
08
05
db
f9
f9
03
05
0b
08
fa
d8
04
f3
06
08
fd
fe
04
ed
05
03
1b
02
f2
fa
fd
ed
fd
14
18
04
02
f2
1e
06
00
f1
1a
15
e4
0a
ff
03
ee
03
06
f1
06
03
f6
14
0a
11
f6
f5
0c
11
27
06
e4
09
fa
03
fa
ff
02
f8
11
06
e1
0d
12
f9
f7
fa
fc
00
1b
f0
ff
19
e2
00
f4
08
0c
03
ed
00
11
10
f7
03
f2
1a
0e
fd
fe
f2
e3
15
23
f5
14
0f
ee
02
f9
07
15
f9
18
fc
16
09
f7
f0
f0
0c
04
ef
fe
04
f7
1a
f8
ff
11
12
f8
02
00
0b
07
07
15
00
fe
0b
fc
ff
f8
ff
03
01
f6
ff
f9
f1
1f
ff
08
ed
01
fa
fb
f2
fe
05
fa
01
06
f7
0b
f9
f6
eb
f4
19
10
e7
0c
00
05
e3
f8
fc
02
f9
07
0f
fd
0d
0a
04
0c
0a
f0
09
08
fa
09
f3
f7
f7
14
ff
f7
0a
f4
f5
f8
05
01
fb
12
0a
f8
fb
0c
04
01
f6
11
04
e8
e8
f9
f8
1c
16
1e
06
fb
eb
03
00
0b
05
07
e6
0c
e9
08
fa
00
01
ff
01
fb
17
fe
fd
12
e7
f8
0c
ee
fa
ed
02
fa
08
1c
0c
fb
18
04
fc
fd
f5
f2
f3
1f
ff
fb
ff
01
f6
1d
08
00
02
ff
0d
f6
ff
f5
0f
0d
06
f0
0b
fa
0c
f8
0d
ec
05
ef
ee
04
09
e7
e2
07
de
fb
09
13
ed
f5
f5
f3
ef
d8
f0
f2
d6
fe
ea
f2
02
f5
0c
f1
f9
05
f3
10
14
0c
19
fe
f6
df
06
f4
1c
f8
03
fe
f4
12
14
e5
01
fb
f1
08
f3
0a
e2
02
04
eb
fe
0e
fb
08
e5
17
03
1e
07
0a
fc
08
16
04
1c
07
05
14
04
02
20
18
07
04
12
3f
05
fb
02
c7
27
e7
cc
e0
fd
1e
bc
d9
18
f2
fd
f4
2c
fb
11
0b
fa
38
0c
dc
01
de
06
01
03
fe
0b
e5
1b
f5
18
37
fd
07
3e
f5
19
d6
0e
ec
40
c6
27
08
39
d5
f1
24
e4
0b
0f
09
d3
f2
f4
fd
09
f0
2b
15
c3
28
e0
02
05
d0
0f
e0
ea
2e
d3
f1
28
f8
11
07
ec
e8
11
f1
35
2a
26
ea
cf
0b
ef
cc
13
ff
fe
ef
12
12
ec
03
01
cb
c5
14
eb
02
cd
f7
d3
f5
0a
09
13
1d
fe
db
08
32
da
09
d0
fb
06
fa
ec
1c
0c
fe
f5
13
f0
ed
cb
e8
22
27
19
ff
01
e2
ee
fd
05
2c
e9
f4
f2
f0
f7
f9
e9
4e
e4
f5
04
01
0a
fa
46
de
00
f0
0a
cd
11
f5
ee
ea
ea
d9
d4
e2
db
23
d4
f6
e4
d0
eb
f3
0b
03
f3
13
fb
c4
f6
25
0d
2a
0d
cd
dc
26
fc
dd
e6
cc
04
f9
e4
01
0a
2b
fa
0c
d5
f8
04
e0
d8
d5
06
f5
15
4f
d9
30
16
f9
f1
09
ff
2a
12
0f
f5
1c
11
05
fc
db
03
f0
19
13
22
03
e7
0b
d6
e8
0b
14
ed
01
20
f9
21
02
12
1b
3e
dc
00
0c
f0
13
f5
1c
08
0b
04
fb
0c
02
fb
12
07
f7
0a
de
0a
fc
e4
fe
fb
06
20
e9
21
02
24
07
24
f1
ec
f4
0e
23
d9
11
05
e1
06
19
da
1c
0a
01
f6
f5
f2
05
fe
f4
01
06
f1
06
0c
e2
f7
10
22
03
ef
08
05
03
ea
ec
34
0f
00
e7
02
fb
ec
11
f2
f6
1a
da
03
fd
36
f2
23
f3
00
00
f1
02
f3
06
f6
e6
00
20
de
18
0f
e9
e4
ef
ce
fd
f9
e2
00
fd
f6
ff
ef
11
14
12
d7
17
f1
f8
eb
14
03
10
e3
1d
f3
e4
07
f5
11
12
0b
0b
03
0b
fa
12
1f
ee
30
f0
f3
06
0a
e4
f6
f5
ee
08
f8
ed
f0
fb
f6
f2
17
ee
df
f9
df
f9
e7
1e
05
0c
fa
0e
e3
12
e8
26
0f
0a
0c
1a
1a
e9
0a
fc
11
03
11
20
0c
0f
f6
f3
0d
09
d2
11
f5
0c
04
12
0b
ef
10
fe
fe
f2
0d
02
ee
0d
f9
09
00
f6
cf
37
ef
12
ee
fd
fa
f7
dd
e0
fa
f6
ef
16
ec
1d
fa
fd
10
0f
08
fd
12
f2
ee
23
13
f5
08
e7
f7
0d
01
ee
1a
eb
09
25
f0
05
f8
ff
0f
f6
11
db
f8
06
e1
08
17
05
1b
0a
fb
fc
eb
ec
fc
2b
dd
da
06
f2
09
01
c6
ff
d1
f4
dc
06
fa
fc
28
16
e8
d3
e2
fc
f6
3e
25
ef
27
0e
e8
0d
ef
e1
1e
f5
ff
11
24
dc
13
ff
18
31
23
06
e9
c7
0f
f7
f8
03
1e
f7
0c
e5
f5
24
09
fd
d6
f3
05
f6
1e
05
2b
f6
00
1b
08
14
f5
fc
e2
f6
19
08
30
e4
eb
e0
ff
ec
ff
30
ec
f7
1c
c5
cb
0b
ef
ef
0f
dd
f8
16
f4
fa
10
ed
2e
ea
0b
e0
1a
e8
3d
08
49
eb
f8
0f
36
e5
1a
1d
e8
2d
e1
ed
18
22
d8
f0
e1
1b
01
10
e4
f4
d6
ff
06
01
eb
41
0b
1b
13
fc
0c
ee
0c
2c
fa
dd
ef
eb
e6
ff
31
2e
07
de
2e
dd
f4
12
df
00
06
cd
f7
0c
ed
14
ff
32
f0
04
cb
0c
ea
13
fd
11
02
ba
f8
1b
2c
f0
df
dd
16
00
d9
f7
d3
07
03
fa
08
f9
24
1f
ee
30
f7
e3
dc
1e
07
ce
df
1a
0d
23
f2
02
fc
fa
08
06
2c
e2
0e
25
1c
1f
1b
fb
e8
17
16
ed
ff
21
fd
e4
fd
ec
f1
00
f4
eb
20
f3
f2
e3
2d
da
00
1e
00
fb
f2
fa
e2
eb
f4
de
0e
f6
0b
14
c8
03
0d
f7
e9
24
fa
ea
1f
0b
20
eb
16
02
fd
fe
e3
de
07
0c
18
16
09
e5
0a
df
23
02
1b
0e
3f
cd
05
04
fd
f6
0b
02
05
03
fa
f5
f0
0d
fb
17
06
19
06
fd
f1
df
0c
fc
eb
ea
0a
1d
0f
0d
01
13
e9
03
21
02
fc
fd
fd
15
04
cd
e8
11
04
0d
0c
23
21
fe
09
e6
0a
f1
fa
f2
f8
ed
f2
fe
e4
20
10
fe
fc
ef
e9
06
06
06
e5
11
02
04
20
04
00
dc
fe
0d
0c
f1
fd
df
f2
f9
ea
f2
f0
01
0f
25
ee
fd
01
16
31
0a
09
e3
fa
0a
06
03
eb
1d
0f
10
13
f5
01
e4
d2
10
14
fa
20
fe
e2
1f
03
f7
ee
17
f3
f6
f2
fc
d7
12
f2
f0
1c
f4
01
02
ee
f3
09
02
f0
ff
12
35
fd
10
18
de
f0
0b
05
f7
02
f0
0d
ff
0e
1a
f1
f0
f1
fd
e2
0a
f2
23
0a
08
ea
1f
ca
10
f2
06
e8
fe
fe
fb
0a
1c
ee
fd
08
ec
fc
d8
11
15
ef
19
ff
04
ee
24
18
fc
f5
27
f4
05
e4
fd
f5
0f
f4
2e
13
0a
0b
d8
1d
e6
dc
ed
fe
fa
10
2a
ed
e8
33
c9
ed
f6
fb
00
10
c1
20
fd
f8
fb
e0
f7
0b
ca
00
f1
f3
13
1e
0d
e4
04
21
04
f2
2f
35
c3
b5
fd
06
fa
f9
eb
1d
df
07
b7
f5
b5
eb
f1
d5
f1
24
d0
04
e2
fe
fc
f5
44
f6
d6
00
ef
03
22
25
24
01
e8
0e
ff
f9
e8
25
fc
f9
21
01
0d
fc
14
ea
eb
e7
27
07
e9
0b
fb
49
23
d4
12
f5
d7
0f
f5
1a
01
fc
da
11
0a
03
c6
20
f5
1e
04
e9
0a
1b
d6
f6
2f
d0
0f
03
15
f8
2f
ec
fd
10
f4
f1
0b
1f
02
d2
f7
e3
ed
f9
17
11
fb
eb
29
ee
fa
fe
06
f2
29
f9
17
04
0f
22
04
2f
eb
00
04
e8
ff
fe
e5
17
1a
fd
f6
f3
fd
0a
f3
24
ff
1c
ee
ea
0c
05
15
ea
10
15
0a
e3
fc
1b
f2
f2
03
fb
f5
28
f8
06
ef
01
03
f3
e6
03
19
30
20
14
0d
df
ff
06
02
fe
df
d6
f8
ed
01
ee
fe
32
14
f0
17
f0
11
1f
02
14
e4
fb
e9
eb
fe
f5
f9
18
fc
de
19
0a
f4
00
0b
10
fc
12
d7
e3
0a
24
f1
fe
ff
ea
ec
25
ee
ed
00
06
05
ee
f6
0d
fd
14
ee
e9
07
05
04
12
06
f3
02
d8
08
00
28
08
04
fe
00
19
f1
0e
12
0a
07
ff
0e
f8
d7
13
fd
08
05
20
f6
f8
f0
0f
f4
10
ed
f4
02
e9
1c
f9
0e
0a
ee
f4
0a
ff
ea
f3
e3
0c
0d
01
03
06
f6
00
fe
06
ff
10
f4
ee
e2
23
0d
fc
0c
11
f5
e2
fc
f1
fe
12
f7
10
f8
14
18
10
13
03
10
0f
f7
05
fe
01
f1
0c
e6
e5
f7
04
f2
f9
01
07
04
df
03
06
de
ff
f7
0a
03
10
fc
f4
f3
f4
ef
07
fe
ef
09
fc
11
fb
f2
09
15
ea
f5
f7
0d
fe
f1
03
04
08
04
ff
0c
f7
12
0f
f2
10
f0
ea
fc
13
1a
f0
f7
1a
0f
f5
14
0f
e2
fe
ea
30
ee
fa
08
0c
f4
18
f3
e5
ff
f2
23
16
f3
09
fc
09
03
f8
f6
eb
0b
10
fd
fe
1b
11
0e
f6
01
1c
0a
07
00
f5
e6
15
fe
07
0a
e7
0d
ed
f1
0e
06
0a
01
07
f7
ef
0d
17
12
0a
0d
f9
f3
f8
ef
f1
0b
de
fe
ef
ed
0b
fa
02
ee
06
ca
db
fd
fd
ea
fb
f9
0a
10
de
23
0b
1c
0a
0e
00
08
f3
0c
f0
f8
f7
ee
1f
d3
08
04
ef
fc
05
f3
2d
13
f4
05
17
f8
e1
e4
06
15
0b
2e
06
1b
2c
d9
e8
fd
e7
fd
0d
23
01
27
e2
f3
e2
16
05
e5
fd
e8
e1
33
e0
24
21
ea
e7
24
04
f0
e1
f7
fc
07
0c
0f
ee
0a
0b
f8
17
10
f3
03
ec
fa
07
14
15
47
da
0a
dc
08
ff
eb
1b
eb
ec
1a
04
e9
dc
ef
fb
fd
e6
02
e6
fe
16
ec
34
0f
20
08
f6
fc
30
0a
e0
21
1b
31
15
e7
10
ee
ee
3a
df
0a
ff
f8
fc
14
fe
f7
f9
ee
03
09
06
18
fe
f2
ed
03
0e
e3
ee
1e
f9
fe
19
1d
1b
fd
fe
f8
0d
10
eb
ff
f4
12
f2
20
12
1a
10
d8
e1
fd
ea
ce
0d
f8
20
11
e4
eb
0c
19
0f
fe
12
fa
f4
ed
17
1d
0e
d8
f7
06
f5
f7
f3
e5
d5
f2
ee
23
0a
0d
ff
0e
cd
e7
25
00
f9
e8
e1
0d
26
16
e1
29
f0
da
2c
04
f5
f2
e8
06
ff
f3
ec
fa
17
f3
1b
09
02
02
12
df
1f
fe
1d
ff
f2
ed
22
f6
d2
0c
0b
0f
34
02
11
f8
fb
08
df
10
13
fa
ef
d4
e6
16
f3
0d
28
09
03
17
17
e4
09
d8
fb
0d
e1
f5
00
0a
08
fa
d6
f9
18
07
0c
11
f5
08
11
ed
c8
f1
0f
ff
f6
04
f3
01
08
19
f8
f2
f7
fa
fa
03
12
08
0c
fe
0b
e5
09
e5
12
1b
f2
fd
13
00
2b
0b
03
0f
16
eb
f5
ea
19
f8
00
1d
04
02
0e
e6
f6
fa
06
19
fd
fb
11
fe
06
f3
1d
00
fb
f7
f6
e8
15
d3
f3
f3
fb
09
14
03
10
f7
09
12
f5
e9
fd
00
e0
05
20
e8
e9
db
ff
11
23
e4
db
0b
02
06
1f
10
17
f0
f6
d7
11
ff
05
01
00
f2
e7
3b
ef
15
de
08
ff
e2
19
fb
d0
fa
02
01
d8
f7
1a
f6
d5
02
ee
db
08
3a
0e
f6
f9
fe
f8
f5
05
26
0f
4c
e7
f4
ce
1e
11
16
19
f2
26
db
f6
2b
f3
04
da
f5
cd
2a
cd
1b
ff
42
d9
32
18
ea
04
ee
e5
ee
07
fa
2a
e1
4e
22
25
f9
0d
ef
d9
f9
fd
13
f5
36
08
0f
1d
ef
eb
3a
13
f9
ef
eb
fd
0d
e9
19
01
1c
ff
cf
fe
fc
26
f3
20
fb
ff
1a
36
16
25
15
27
04
02
f7
fd
13
02
e0
eb
d0
02
27
f4
d5
ff
d4
d2
ef
f9
e5
05
16
0b
ef
fa
fd
f7
08
fc
ee
f8
01
01
ff
09
ff
f2
f9
07
04
fa
fe
fe
0a
05
ea
0b
07
f5
fd
f8
09
05
07
f0
01
08
f6
07
fc
f5
03
f9
0a
04
f8
06
f2
00
01
15
f9
02
f5
0d
f5
fc
08
fc
01
02
12
f9
ff
f6
f3
ff
f8
08
fc
09
ff
f3
00
0a
f0
07
0f
fb
0b
09
fc
09
07
0e
f4
ef
fe
fe
f3
0a
01
10
fa
f4
f3
08
f1
eb
fb
00
f9
01
0a
f4
0c
0b
f2
f8
1b
0a
12
f7
1b
0f
f6
00
19
ff
12
04
08
09
0f
0e
00
07
f0
e1
f2
f6
fc
f6
f2
f0
f7
0d
0f
ea
fb
05
07
ff
fd
1c
f6
f0
16
00
f9
e7
06
0f
02
06
f9
f6
fe
f1
f5
e5
ff
16
f6
fe
07
08
05
fb
f4
09
f2
01
0c
fb
07
04
f7
0a
04
04
06
fa
f2
fd
fc
fe
0b
db
fa
f9
ff
07
ea
04
09
fc
02
00
fd
07
03
05
ff
0b
0a
06
0e
ef
fe
03
f6
1c
01
f5
0c
f1
05
0e
f3
08
0c
ff
e1
13
05
f3
03
fb
0b
06
02
f8
0f
01
0e
00
ec
f2
f2
00
0c
fe
01
ee
0f
fd
06
fe
ff
fd
00
11
03
08
02
02
04
f5
e2
f7
fb
01
10
ee
f2
14
0b
0b
05
ec
16
ff
f6
03
f2
fb
1a
09
fb
eb
07
e9
f8
ea
03
01
0f
ff
0a
e7
0e
07
0a
01
eb
01
0c
0c
16
fd
fe
ff
02
01
11
ef
fc
f9
05
01
11
fb
00
06
eb
03
03
fc
13
01
fe
18
0a
fb
fe
f6
fa
f9
04
02
0a
f2
0b
f9
01
17
01
f5
0c
fd
0f
f7
f1
04
fe
fd
ee
fa
fc
01
01
14
03
03
f4
03
03
ed
04
02
06
0b
06
07
00
17
fc
f5
01
0d
f2
0b
fa
02
03
10
07
04
f0
06
08
fe
f8
07
ff
f4
fb
fc
04
f7
fa
f9
02
09
fa
f4
fd
f2
fd
0d
04
05
fc
f7
0f
f2
ff
08
fc
e9
01
fa
ff
fe
00
ed
ec
03
f6
06
fe
fe
13
e8
00
02
09
0c
06
f1
00
f9
05
03
07
02
f2
ff
08
fd
f7
06
ef
05
0a
0c
02
fb
0b
13
0e
f6
fd
01
f6
f7
fd
fe
f6
0b
fc
fe
05
12
00
f2
fa
17
f8
09
03
fb
07
fd
01
f9
f9
0e
00
fe
fe
fc
11
00
ff
fe
f6
06
fa
f4
06
11
05
f5
09
1a
fd
0d
fc
f4
f8
1a
f9
f5
f7
0f
01
0b
01
e7
02
02
03
02
09
0a
f5
f8
ed
0f
0a
fd
fb
1b
02
1a
03
fb
fb
04
fd
ef
fb
ea
fb
14
fe
1c
07
ef
10
13
0c
04
00
f4
08
f2
fc
f9
fd
e3
f7
fb
f1
f0
fd
04
06
fb
02
fb
07
fc
05
fa
e9
04
08
00
0e
07
fa
f6
00
ef
dc
0a
0a
07
ed
f7
00
0f
0d
00
ff
fa
f8
0c
fe
ec
f5
f3
fa
04
fc
e8
fd
13
f7
05
03
0a
10
f4
ed
09
02
f0
02
06
05
09
07
03
fc
09
0f
0b
0b
0c
04
10
05
01
f2
e8
03
f7
fb
06
01
e7
f7
0a
fb
11
fd
00
0d
04
fd
f6
fc
02
f2
06
01
fc
12
0a
14
f6
0c
dd
0d
02
f6
db
06
17
1a
0c
0e
03
f6
fd
03
fa
f9
fd
f9
ee
0d
0a
f6
01
fc
02
ff
09
12
05
f7
f4
04
03
17
ed
0a
fb
00
fe
f6
f4
07
1b
f8
05
08
08
0f
e2
f9
0b
f8
05
07
f3
ff
02
04
e6
0e
f7
11
f0
f3
00
0d
ee
01
f9
ee
f8
ee
0b
0a
f7
00
f8
07
06
fd
0d
f7
fe
fc
f6
09
fc
17
0b
06
04
11
08
0b
05
fb
02
09
fb
f5
04
f5
08
03
f5
f6
f7
f7
f7
fa
08
05
f9
04
f6
1d
fe
0c
f5
f5
02
11
f9
f9
fc
fc
11
0c
11
f4
fc
09
16
f7
f0
f4
f7
15
f1
11
03
e9
1e
fc
f8
0c
05
fe
f5
11
03
01
ed
0f
05
f6
0a
03
0e
1b
14
ff
0a
f8
16
e6
05
01
17
13
fb
f4
fb
fe
f1
0e
0d
f9
eb
fc
f5
16
09
fe
0d
0f
14
ff
f7
f4
0c
05
ef
f1
06
e8
fa
00
10
00
fd
0a
09
ea
fe
ec
f5
09
fa
f6
f2
ec
e9
02
0e
09
fb
01
ef
f7
03
e9
f8
1c
04
ee
ef
0c
08
08
02
fd
0a
fb
11
08
12
04
f0
0b
04
ed
fd
e8
0c
0e
f3
0a
0e
fc
02
fa
08
eb
07
0b
03
fb
06
04
f0
fd
0a
f8
ee
f8
fe
f9
04
e6
03
ee
0e
0f
f8
05
f8
0a
ff
f9
e4
11
06
f3
0a
03
f6
fc
07
0d
0a
01
07
04
0f
f2
f1
03
f4
13
f0
02
02
0d
f6
e6
fe
23
09
02
e7
e4
0c
fc
00
fe
06
0d
ec
09
f9
e6
0b
fb
04
1b
04
01
0d
04
1b
fe
07
f6
02
f2
fd
0c
f0
f7
f6
19
ef
fb
08
03
fc
f5
fe
0f
0e
f5
f7
f9
eb
0b
09
09
12
07
0e
06
f5
0e
e7
f7
12
f3
fb
ea
fc
08
fc
fd
f7
f2
05
fc
f1
f5
fe
03
04
f6
f5
08
03
f5
fe
07
fe
fc
02
00
02
f9
f4
13
f6
e9
03
09
03
fb
09
03
ef
06
00
fa
e9
03
ff
0f
08
f6
fd
ef
f7
0d
ef
f3
00
09
fb
10
f8
01
f0
16
fc
f4
f5
fb
ff
fa
01
fa
fb
fc
f9
02
02
fe
f7
0d
14
06
fd
04
f2
f8
02
01
ff
fd
0a
06
03
f5
08
11
f5
f8
04
fe
ec
f4
0c
f7
08
0c
fc
03
fc
f6
fc
0b
0c
fa
0f
fd
0f
08
02
15
16
13
fb
07
fc
04
01
f0
14
f8
fe
00
fa
eb
fc
10
05
f1
13
f8
fe
fb
11
ff
0a
f2
06
18
fc
fd
f4
06
f4
f5
02
f8
fc
06
0e
00
f2
0e
f6
ed
fa
12
14
fb
fa
12
fb
f5
fe
00
04
0b
f4
eb
ec
0e
02
03
f5
e9
0c
08
11
ee
00
f8
01
fc
06
f3
0c
06
ff
05
fd
0d
06
f0
f8
fd
f2
fb
0b
f9
f9
09
13
11
ff
0a
17
fe
02
05
fe
06
f5
f5
f5
02
f8
05
f6
05
ff
04
06
fa
08
ff
fc
07
fb
f0
07
f5
f6
07
f3
02
18
fe
fe
05
e4
08
f4
09
10
ff
f0
f2
07
04
09
0f
0e
12
fa
04
00
17
f9
09
f1
fa
f1
fb
03
06
0c
e7
f8
f1
0d
fd
08
fb
f2
07
e5
0e
fa
0a
09
0c
08
fa
fe
fe
0c
05
16
e9
05
04
0f
0a
01
02
17
f2
f4
00
f0
fb
f8
11
07
f7
00
f9
fc
f8
fa
02
f4
f5
ee
fe
0f
0a
fa
f9
ff
08
fa
ec
ef
f5
f6
fd
f5
06
f5
01
0c
0b
e5
00
10
f1
fd
fc
08
04
07
0e
f8
05
0a
f7
0b
f3
fa
0f
06
0f
02
13
00
fa
fc
01
f8
14
02
03
fb
00
f6
03
ec
ed
03
17
f3
fe
fc
f4
f9
00
00
01
11
00
fb
ff
08
08
0c
09
08
f5
10
ee
10
03
07
1b
0b
fc
ff
f9
eb
04
07
07
ff
09
06
f3
0d
05
00
ed
fc
f6
ef
f4
f7
13
00
05
eb
fc
f9
0c
ff
08
02
fb
0b
02
fc
ef
f9
05
05
ff
f3
03
0a
f2
08
13
f1
f2
14
fc
07
01
fb
fd
fe
0c
0c
fd
0b
f3
05
05
fe
05
f9
f3
02
f8
f5
f8
0d
10
07
fd
f2
ee
f8
fe
05
ff
14
04
f9
e7
06
02
f4
f5
ed
fc
07
14
f9
02
fe
11
05
02
03
02
03
0a
f2
07
0d
03
07
0b
ec
ff
02
ff
fb
0b
fc
f6
fb
f5
05
02
0d
f4
fa
05
09
07
03
ec
fc
12
0a
05
06
f8
0d
0c
03
0b
09
06
01
0c
0d
fd
fb
05
0b
00
0b
09
fc
06
0b
07
07
ef
ee
06
ff
f7
0c
0a
03
0b
fb
0f
f3
fd
fb
01
01
00
0a
fd
0c
03
06
00
02
05
0c
f8
00
0b
13
05
06
f2
05
fa
02
01
f9
ff
15
00
fb
04
f0
0a
f6
03
0f
02
11
0d
fb
03
0f
f6
f6
f5
ee
fb
05
fe
f9
fd
01
f6
fe
fc
e7
f0
fc
00
03
fd
fd
02
04
f9
eb
fb
fb
f9
fd
05
01
fc
f3
fc
e4
ec
13
f7
f0
fc
05
0c
08
12
06
e9
03
2a
f1
0d
ff
1b
00
15
f2
e3
16
fa
01
1a
f3
1a
e5
f0
08
1d
09
07
ed
19
10
e3
05
0f
08
ea
06
06
eb
14
ec
0e
dd
ee
e6
20
09
f2
eb
f2
e7
f7
16
f2
0e
07
1b
ee
fc
fa
1e
f5
05
0b
f9
13
fd
10
0a
0e
1b
fe
e5
0c
fc
f6
f5
f3
0d
f5
e3
1c
eb
0c
ff
ed
02
ed
f9
0f
09
01
fa
1d
07
0b
08
15
15
f6
01
d8
0a
05
0c
fd
fa
f2
e1
1e
ff
fc
03
ee
12
f6
fa
fc
0c
10
ed
ed
fd
ef
06
09
fe
10
02
fe
06
f9
01
f0
f9
12
03
ec
08
f7
e5
05
fc
fa
fe
fc
f8
fa
f0
06
00
05
04
04
ea
12
06
10
04
fd
ff
14
f2
17
04
16
05
17
fa
01
00
f8
fb
14
fc
03
f2
fd
fb
fa
fa
05
f8
03
fc
02
e9
0c
05
f8
f6
01
f5
fe
f7
0a
05
08
12
03
08
fd
10
06
08
f1
06
f5
00
f7
f5
f6
0c
f5
fd
0a
02
03
07
00
14
10
f9
03
02
0e
e6
05
f6
fb
02
07
0c
16
fe
08
09
0a
fc
0d
00
f5
fc
f2
05
02
f8
fa
04
09
f3
02
f3
f6
15
04
ec
ed
fa
01
fd
f6
1a
18
02
0c
ee
fe
e6
fe
07
0f
01
fc
18
03
f9
ed
11
fa
02
f3
f6
05
e7
f5
00
fa
ef
fd
02
05
19
f8
02
04
12
02
f9
14
0d
0e
0d
f8
0e
0a
10
08
f1
fb
fb
f5
09
f7
ec
06
02
0d
e9
03
06
0a
01
f7
0f
05
02
ff
f7
0e
0c
ff
f2
fd
00
e4
f8
ea
fb
ff
ed
01
ff
0c
01
14
0d
f1
0a
02
ec
f8
06
ff
f9
fb
08
fb
f0
00
f9
fd
e1
04
0e
08
04
0e
14
fe
fb
06
00
f7
06
15
0c
01
fe
0c
fb
07
03
02
0b
ff
f6
09
01
09
fd
fc
00
fe
07
00
fc
f9
0a
03
f8
09
ff
eb
05
ff
02
07
fc
00
d7
06
ff
fe
f8
24
08
f9
0e
08
fc
28
06
04
0b
ff
00
05
16
f7
f6
02
fd
f2
07
fc
f6
0f
f3
f8
10
09
07
fe
f7
fe
eb
fb
03
fa
f4
0a
fc
10
04
03
ee
f4
11
f7
02
04
06
f6
00
fb
fd
d7
05
04
05
02
05
f8
fb
f9
fb
ff
02
fa
f9
0e
03
04
ff
01
fd
f9
f6
0d
05
fd
f3
02
0a
ff
fa
09
f6
03
ef
fb
fc
08
fb
ff
04
11
fe
01
09
0d
f6
f4
0d
0d
fc
08
05
17
0f
04
f1
03
f1
0b
fd
00
07
02
fc
07
f4
f1
f9
f4
f1
19
f2
11
f5
f5
fd
0b
f3
07
09
fb
fd
09
ea
ea
09
04
f6
00
f6
02
07
00
11
fb
13
f6
fe
1a
fb
13
f9
13
07
10
f7
0b
fc
00
01
00
23
fe
f1
e5
07
02
f7
0d
fd
fd
1a
13
ee
f0
00
fe
ec
01
f9
07
f5
05
ff
fd
06
fe
f8
03
08
fa
fe
0b
e1
e4
09
f9
02
ef
fd
02
08
e9
21
fd
1f
f3
fc
dc
f9
05
04
f7
20
fb
0a
00
07
06
02
fa
02
e9
f5
fc
0e
07
00
f3
fa
02
f9
04
f4
ec
01
04
05
05
07
00
00
fe
f9
01
03
f9
06
0b
33
e8
f2
fa
f9
f7
fe
fe
fb
f3
fa
d5
01
fc
fe
00
f5
f9
1c
f6
fa
fc
fe
fd
02
0e
fe
fc
03
01
01
fb
02
05
f6
06
0a
0e
00
03
0c
f8
fa
fd
04
02
08
00
fc
f2
fd
ff
08
fb
fd
fd
12
1d
02
08
02
fa
03
fc
0e
01
03
02
ff
03
f7
f2
08
fc
0a
fb
fc
fb
f9
f9
00
12
fc
fb
ff
fd
01
1c
fb
f9
00
01
03
f9
02
fa
f6
0f
02
fd
06
fa
01
02
06
f9
f5
fd
09
02
07
fc
01
fe
fd
f7
f8
fd
01
04
08
ed
01
07
fe
f8
03
f4
19
fe
0f
05
00
07
f0
02
f9
f9
04
d6
f8
06
0b
03
04
02
59
00
03
02
ff
09
fe
f4
04
fb
fb
01
00
04
00
fd
02
00
f4
fd
f9
fa
0d
fb
ff
02
fe
00
04
fe
fe
00
0b
f5
f1
ee
08
01
06
ee
fd
04
fa
02
fb
08
07
fa
fc
04
04
f9
00
f4
fd
fc
f8
03
f9
0b
07
03
f9
fb
04
fa
08
01
00
01
fa
05
08
fa
fc
08
09
04
11
fc
0b
fd
06
16
fe
ff
fa
f4
f9
02
ff
fe
fe
fc
fb
0b
ee
08
05
e7
05
02
09
28
f9
fe
fe
ef
ff
05
26
0f
fc
fc
fb
e5
e5
0b
ea
fd
00
ee
ee
02
fb
09
fc
ff
d1
05
02
ec
11
01
11
fc
1b
ff
ef
fe
0e
f7
01
02
f4
03
f8
05
01
fe
0a
fd
fe
f3
06
fb
07
01
08
04
fa
fb
fe
04
ff
fa
f9
22
ef
05
05
07
01
05
14
01
0f
fa
07
f9
02
0d
05
1a
fd
05
fa
02
04
01
f8
ff
15
fb
f8
00
f7
d6
f6
05
04
fc
00
06
02
0a
f2
fe
fb
04
03
1d
00
fd
ff
0a
ff
10
01
fe
08
fc
ff
0a
f3
02
fe
f9
f7
04
00
fa
0b
0d
fe
fa
fb
06
e1
0b
0b
05
00
08
fc
fb
fb
03
fb
2b
f7
06
fd
09
ff
00
f5
00
0a
01
fa
fd
12
f8
0c
05
fc
01
01
01
03
01
ff
fc
f7
fe
fd
f6
04
05
f9
fc
00
02
06
f4
01
08
02
f3
00
06
04
f8
e7
dc
05
00
06
06
f9
04
01
f9
fe
04
fc
01
fa
13
fd
f6
f7
03
07
07
0b
01
f6
fc
14
fd
02
01
fd
df
00
06
fe
00
fe
0e
06
00
f2
fa
06
fd
f4
12
fa
fc
0c
02
f3
00
fd
fe
02
0b
03
fe
f8
07
04
0b
f6
00
fd
fa
03
f9
fc
f7
06
05
eb
1e
07
f6
fd
f8
06
04
03
f4
f4
19
06
01
02
02
0a
f2
ca
09
f3
01
f4
02
f6
0a
05
09
04
fb
09
f6
03
f3
13
03
05
f4
0c
11
fb
fc
07
f7
f1
0a
f9
01
fb
05
01
01
02
fc
05
0b
f7
fe
07
00
06
06
0c
0a
ea
f3
05
fd
fc
ff
fe
fb
0e
02
f8
f0
0d
06
02
fe
07
f3
0e
fd
05
f9
03
f8
08
f4
03
08
fd
00
f4
f0
02
ff
f7
f7
f7
ef
0f
f6
f9
0f
ff
02
fd
fe
02
02
02
f9
09
fc
07
02
01
01
fe
f7
08
ff
0a
0c
02
0b
16
e4
ee
fa
f9
13
03
09
0f
f4
fa
fb
05
fb
07
f0
fa
fb
32
02
e9
ff
00
05
fa
11
fd
fd
ff
ff
ff
fc
0a
fb
01
09
0f
06
11
10
f6
02
0b
ff
ef
fe
f0
f8
07
0a
fb
05
0e
06
fa
03
21
0e
08
08
04
f7
06
ff
f3
fa
06
f4
ff
f9
01
f5
07
04
06
fd
0b
04
fe
fb
08
0f
05
f4
f8
06
f6
26
05
04
fb
00
00
f4
04
01
0a
f2
06
01
04
e8
ff
f9
05
dd
01
ef
03
0d
ff
f5
fa
f9
01
fd
ff
14
f0
00
03
12
0a
07
17
fd
f7
0d
1b
ef
f6
0d
fd
f5
06
01
fe
0a
fa
f2
ff
04
ef
f6
f7
fa
ed
0d
fa
0a
01
02
06
f9
ee
f7
06
0a
09
03
0d
fb
fc
f8
fe
fe
0c
03
fb
f3
f8
0d
f4
0d
ea
0f
11
01
0f
05
ff
01
f8
08
0f
29
ff
04
fa
f4
0d
ec
fc
fd
f5
ff
03
f9
f9
f7
1b
07
f6
09
fd
03
03
02
ff
ff
de
0f
f6
0e
ff
f7
0e
0d
00
f4
06
00
06
f3
0f
f8
ff
f9
f0
ec
f6
0b
07
f0
0e
ee
01
fc
f6
01
f9
ef
fd
03
f1
fe
0a
01
03
d0
02
f8
05
02
01
fb
b8
fd
f1
02
fe
0c
f9
11
f1
ef
f6
39
15
03
0b
00
fe
05
f8
fc
f7
0b
fb
11
e5
01
f4
f8
07
04
06
f9
ff
07
f4
02
0a
0c
07
13
f2
ec
0a
fe
08
fe
05
07
00
02
02
f9
0e
fa
f9
0a
fc
e8
07
05
fc
02
09
02
fc
06
0c
fa
00
fa
0b
01
12
03
10
00
f7
08
fe
f9
01
04
ee
f8
fc
03
00
01
00
03
0e
04
fb
f1
0c
03
05
17
ee
0c
19
0e
ff
fd
fc
f8
09
0c
f9
f3
0a
ef
f5
fb
f9
06
f3
fd
fc
f8
fb
02
fe
fe
f5
f4
f0
fd
08
09
f7
0f
04
f1
f1
fe
f4
12
03
dd
13
02
f0
f5
fc
10
1c
13
0d
f2
0d
f2
02
f8
00
fa
0e
06
06
ff
f9
05
ee
06
ff
03
e2
ed
0f
f0
ff
06
fd
fb
f8
f4
14
f6
07
0d
f8
ff
02
00
01
f4
ef
08
04
02
04
fe
ff
f7
fb
fc
01
ee
fa
f2
13
05
12
f7
03
0c
1b
07
04
fe
fb
08
0f
ff
0d
01
fb
f1
02
06
00
08
fd
15
fc
f2
05
01
06
18
09
ee
f7
f5
09
0a
fe
f9
0d
f3
11
11
06
12
07
fb
fc
1a
13
f3
03
05
fa
04
0e
f8
e1
16
05
04
fd
0e
eb
0a
fb
05
0b
14
ff
01
01
f4
03
03
04
0f
07
0c
fa
f4
04
f5
f9
00
f7
fd
fc
0e
fc
fd
07
08
0b
f6
05
00
02
08
fe
06
0e
f9
f9
ea
f6
fd
07
f0
05
f4
f7
03
db
df
00
09
08
f4
07
11
0c
00
ff
02
fd
02
f7
ff
f6
f8
f4
ff
ff
05
15
05
19
f3
04
f8
00
fc
f9
f1
fe
01
f4
0b
ff
fe
0b
03
fd
13
12
0b
ff
12
05
fe
f0
fa
fe
f8
04
fa
09
fc
08
10
e8
f2
0b
f4
e7
04
03
ee
fb
f9
f9
0b
04
f9
eb
1d
0d
fb
ff
f5
f9
00
fd
06
f2
f9
ff
01
ff
fe
02
02
28
19
0e
0a
05
f3
03
ef
04
fb
06
0e
fe
f5
f2
09
ff
f2
f8
f2
f9
fc
11
07
f6
f7
03
fc
04
03
07
0c
06
1a
f0
01
fa
fb
f2
cf
fb
f1
fd
04
03
04
fa
f1
fc
fc
05
01
0b
f5
fe
01
f9
19
01
f5
0c
fd
f8
ee
0b
11
01
fc
00
f7
09
0c
06
03
02
0f
f8
f6
eb
f8
fe
11
01
08
03
f5
02
ff
00
fd
10
0c
00
ff
08
f6
0a
fd
11
1f
f6
fc
0f
01
f6
0f
14
f7
04
fe
01
e0
e7
10
fa
fd
fc
e9
e7
f8
ef
08
13
fe
e3
fb
ea
fa
e5
05
fe
07
05
03
f0
fd
fe
f8
f8
0a
1e
f9
09
09
fe
0f
0b
15
06
00
e8
fe
e5
fb
0c
f2
0a
fc
f7
0b
0a
06
01
05
09
ea
e8
09
ff
f8
0b
ff
09
0f
fd
00
fd
f7
0a
0d
ee
f6
17
0f
11
05
f9
03
f8
e6
01
0e
fc
05
eb
10
f9
01
fa
08
fc
01
eb
0e
ff
00
0b
0a
09
02
07
0b
f9
fd
05
e1
05
04
fa
0b
05
04
f7
fd
fe
03
fa
02
fd
07
01
da
fe
00
fb
ed
f7
08
e2
0a
f9
fe
ff
06
f5
fc
f9
0a
07
f4
0f
ff
02
f4
fe
f6
5d
09
02
f7
f9
00
0b
09
09
0e
fd
04
05
f2
08
07
ff
fb
ff
00
09
fa
0e
fa
f0
f9
02
ff
09
fc
f8
06
fe
fd
fd
0e
06
f7
f2
c8
f1
fc
fd
03
06
00
fe
08
ff
04
02
00
fc
f3
fe
0d
fa
f7
01
fb
06
fa
02
0a
02
06
f9
03
00
0b
f6
00
fd
01
ff
fc
f7
02
00
ef
fd
f2
01
14
02
06
06
04
f0
fc
10
00
f6
ff
ff
f9
0b
09
0f
07
0d
fa
fa
eb
f9
fc
14
ff
06
0b
d7
0a
05
00
01
08
06
f7
ff
f5
fb
1a
03
f9
0c
f6
fb
f5
0b
fa
04
fb
0a
00
fa
f9
04
ff
ff
fd
fe
f3
f5
07
06
12
16
13
05
08
f7
f9
07
eb
ea
10
0c
f9
fa
08
fa
04
06
04
fb
00
01
de
05
05
f5
f6
f8
f6
fd
f8
03
f9
fe
07
ee
0f
01
03
ff
02
ff
fd
f3
fb
ff
0a
08
02
f0
f9
06
fb
0c
02
09
02
ff
fc
fe
fd
0d
e2
f7
ef
fe
ce
19
00
0b
06
0c
07
07
14
01
ea
07
05
09
07
13
07
fe
ef
04
f7
05
00
0e
21
00
0c
30
ca
e9
02
f8
0b
0b
fe
01
03
ed
08
02
f2
12
fd
e7
09
e4
e9
07
19
0b
15
f7
26
e1
0e
10
06
ec
1d
fe
fc
fc
02
10
17
08
f5
e2
04
f6
11
db
07
e7
e5
0d
f7
fa
08
14
0b
e4
f1
2e
45
0f
0d
01
db
01
1a
f5
f0
09
f7
f1
f7
fb
0b
0b
f4
19
07
f6
09
f0
05
fd
15
f0
03
d1
f5
ed
29
02
1f
f0
f6
f6
f8
f2
fe
fc
26
fc
0c
0f
fa
ef
06
03
09
09
f6
fd
fe
03
f6
f4
11
f4
00
f4
02
ec
12
08
0c
07
0b
f9
ed
f8
03
2f
04
00
fb
05
f2
f3
03
e5
06
04
ab
01
fb
f7
f0
fe
08
44
fa
04
fa
05
fb
00
fc
f6
00
fa
fe
0e
11
f5
0b
f9
12
fc
f5
eb
f5
14
02
08
06
07
fe
02
04
07
09
03
08
ef
f2
fd
01
0c
12
f0
01
03
06
0d
ff
02
fb
0e
05
f8
ff
08
e7
f4
f8
f9
03
f8
06
05
00
03
01
02
02
08
fd
05
04
ff
eb
02
00
0d
00
0c
05
fb
00
0a
01
f7
fa
05
f9
06
fa
03
ef
00
f2
fc
09
f5
02
ff
fb
00
f9
02
00
fe
23
ff
f9
fd
fa
fc
01
47
fd
03
fd
fa
f2
06
f9
03
f5
07
d1
f1
03
f1
06
fb
f0
d7
fa
03
fb
fa
ff
fb
ff
02
f5
05
ff
01
04
08
f9
07
fb
00
ed
fa
fd
08
04
02
07
06
fb
f6
13
ff
01
fc
fe
01
f7
fd
0f
06
3c
04
f7
0a
13
04
f4
03
01
02
06
08
07
02
e7
fe
f5
0a
fb
fe
fa
02
fd
fc
f2
04
fa
15
ff
fe
03
06
00
fd
f9
fe
ff
03
f2
04
ed
06
04
f8
11
08
0d
05
04
03
00
fb
ff
f4
03
0a
fd
fd
0b
0a
01
04
00
06
f5
01
f3
ff
03
03
ff
a6
18
01
f9
08
fd
11
fc
fb
08
03
4f
03
fd
f8
03
0f
fe
bb
fd
02
13
07
ff
fb
f6
05
0e
fa
f9
00
03
f8
ff
fd
06
09
fd
05
ff
eb
00
0b
06
fb
fd
fa
00
ff
fd
f8
09
08
fd
fb
0a
df
e9
fd
f4
09
06
0b
f8
fb
02
0e
0a
f6
10
05
14
fc
06
fa
fd
05
ff
f9
09
05
f2
06
fe
fa
fe
fa
e3
09
01
02
ff
08
f1
f5
fe
f7
fc
12
02
04
03
12
07
00
fa
f7
04
f2
0a
01
fb
04
08
fc
09
f6
ed
02
fe
1c
02
fb
08
fd
ed
f2
01
ea
23
0a
ff
07
ef
fe
13
01
01
fb
04
ee
0a
07
00
0f
0a
f4
07
10
06
07
f7
04
df
04
05
16
f2
f3
fe
01
fb
fc
fa
ee
03
0a
f9
08
ff
03
03
ea
f4
09
04
0b
08
11
10
fa
01
08
03
fe
ea
04
fe
ea
f7
ef
fd
fb
fe
04
03
06
04
0d
fa
04
0a
f7
fd
fb
05
07
fe
f3
f0
07
fa
f2
07
f4
ea
05
fa
06
fd
00
13
ff
08
f9
07
0b
fb
01
0d
05
ff
01
fb
00
fd
00
02
ff
f8
fc
ff
f9
fc
03
05
ff
00
07
cb
03
07
04
fd
fb
03
c7
0c
04
06
fb
20
01
fd
03
fe
ff
26
0b
08
16
fd
0a
f7
41
05
0a
09
04
fe
02
f6
fb
12
05
01
fe
00
04
04
03
fd
fd
05
07
f1
07
fc
ff
03
f5
02
04
ef
06
04
08
00
fb
ff
fb
02
f5
b8
09
01
00
fd
ff
fd
f5
f9
01
01
04
03
fb
00
02
f6
0b
07
fd
01
09
08
fd
fd
01
fd
00
02
01
07
01
fe
f6
fd
f6
05
fa
fd
0d
03
0c
ec
01
0c
fc
e5
e7
08
02
f0
ef
03
fa
ec
0f
f9
03
04
14
07
f5
03
0d
10
06
08
08
08
fe
fe
fb
0e
0b
0d
f6
04
fa
fc
0d
0f
f8
09
ec
14
05
fe
0e
0a
df
08
07
05
1d
ee
0b
f4
09
02
ff
f7
03
01
07
06
f6
fb
f6
01
0c
f3
f9
06
ff
03
f2
f4
0b
ec
18
f7
08
fc
01
ff
f9
fa
de
0d
fc
02
f4
f3
02
07
05
06
fc
0d
01
fe
fd
09
fd
1c
f7
04
03
0c
fa
0d
e3
f1
04
08
fb
f0
fa
e6
f8
fd
06
f8
f9
fe
08
18
05
12
f4
fd
01
f7
fe
f1
f3
f8
01
04
f9
f1
15
f1
04
08
02
fb
03
ff
fd
0d
05
d4
04
19
fb
02
f9
fc
c2
16
07
02
00
17
07
f9
06
0e
fb
06
01
15
0b
eb
f5
00
2b
fc
07
02
fc
f1
f9
ff
fe
05
07
fc
00
06
04
02
f6
ea
f5
02
fa
fe
fc
09
f4
02
13
f2
06
ee
0b
15
fa
ff
0c
0b
fc
f8
f5
c2
fa
fd
f9
fa
fd
04
05
0f
03
fc
12
fc
fe
f4
06
0a
0a
ee
03
fc
f4
f4
07
fe
0a
0c
05
f1
08
ff
f3
02
00
02
04
09
06
0a
f0
f0
d7
f0
ee
04
f3
e4
f3
15
12
08
fd
03
00
0e
0c
07
10
07
fd
de
f8
09
f2
fa
0c
f8
0f
13
14
08
f1
ff
07
05
f8
26
09
ff
1e
f5
f1
30
03
f9
07
f2
fb
14
d9
1d
0c
00
ff
f0
ff
04
ef
10
0b
02
15
16
ff
f1
0d
0e
15
f4
ff
24
08
fd
0b
0a
fb
00
e7
ec
08
f9
1c
f9
04
f8
00
f8
1e
e0
08
15
e6
ef
e7
e8
04
0a
fa
f6
fa
ea
fc
0e
f8
ec
f0
12
08
0d
fa
f1
f3
fe
fe
10
15
02
f8
1a
09
fc
e8
0f
f3
02
ea
ff
00
03
08
08
00
f7
fa
10
0a
03
fc
fc
0b
f1
fa
07
07
ed
02
03
f8
06
06
fc
f1
ea
fb
f9
01
fd
fd
fe
22
e1
f7
01
fc
f9
f6
fc
f8
fc
fd
d8
0c
fa
0d
fc
fc
01
4d
f0
f4
f7
fb
12
06
0e
fa
e6
01
06
ff
e6
02
07
ff
fc
05
01
fa
fe
0a
fc
fb
fc
f9
fb
09
03
08
fb
f7
00
00
07
0d
01
12
eb
fc
0c
11
13
06
0a
05
fb
f7
00
f8
02
05
f7
0d
fc
04
f7
08
04
06
fa
fd
07
f2
fe
f9
05
0e
1f
fc
fa
18
00
fa
fa
fc
03
02
01
04
00
fd
0e
0d
ed
f7
f1
ff
fb
fa
00
f6
0d
04
fe
08
0d
0a
f0
f1
f9
0c
e8
00
f2
06
07
00
08
e4
0c
0a
0d
fb
08
ff
02
0d
0f
04
f8
ef
04
01
ee
fe
06
44
10
12
08
0e
f3
fe
f3
07
14
00
04
fa
00
fd
ff
04
00
00
f9
f8
05
0c
00
fe
09
e9
0b
f3
04
ff
ff
00
09
02
02
f3
f6
f6
c7
fc
f8
eb
0b
fa
01
fd
01
01
09
10
f9
05
ea
f9
04
f9
0f
03
f6
0d
0a
ef
fc
15
01
f3
f5
f0
ff
01
07
03
fa
fe
01
f1
ff
03
ff
03
05
08
10
04
f8
02
fb
08
14
03
f6
0f
ff
f1
17
fa
11
fe
f9
f4
0e
f9
fd
08
f5
07
fa
f9
0d
d5
12
0b
fe
05
07
ff
fe
01
fe
f4
27
f3
0c
fe
01
06
ff
e8
0d
08
f8
fb
f1
0b
fb
0a
08
04
00
00
11
06
fd
07
0e
ed
04
fc
09
01
06
07
f1
02
05
03
fb
06
10
07
fb
ff
0e
04
04
f3
d7
fb
04
05
06
fc
fa
05
f0
f8
fc
f3
f2
0d
13
fa
f7
03
15
fe
f4
03
ff
ec
e9
0e
f7
fd
fa
f9
dc
ff
03
02
f7
f8
07
04
07
f8
06
00
09
ff
0e
ff
01
04
13
fe
03
ff
fb
01
fa
09
01
fd
01
ff
f4
f5
fd
01
16
02
14
fa
00
fe
00
f7
14
0a
08
06
e9
09
fd
07
12
f0
17
eb
12
f9
f9
09
04
9c
09
06
06
10
ee
0a
f4
0a
0b
ff
00
fa
fd
05
f8
ef
f4
f5
f6
01
fa
01
05
05
0d
02
02
fb
fa
10
08
05
fd
f4
0b
06
fc
fb
fa
02
00
0b
0d
f5
05
fa
00
f7
01
0a
fd
0b
04
18
fe
f5
f4
13
fe
19
01
f6
f1
10
0e
fa
f0
01
d5
fd
f4
0b
fe
fa
0b
fa
04
f8
e0
08
0c
0a
19
f4
ef
ea
ff
fc
0d
07
f7
05
f6
fb
14
eb
0c
02
1c
f0
f5
00
1f
f1
0e
0d
f9
f2
0c
0a
03
fc
1c
fa
ef
fd
0c
e1
09
02
f5
ff
ff
03
01
eb
09
bc
04
1b
f3
09
06
fd
f2
f3
02
0e
08
0e
f4
f0
0b
10
fa
f8
11
f0
fd
12
ef
ed
e1
ff
03
17
01
f9
02
fe
0d
06
10
ec
f4
f4
15
00
09
00
ff
08
0b
07
05
09
fa
1a
03
00
15
fb
fa
1c
0a
f9
08
04
fd
00
ee
0a
f3
f9
0c
0d
dc
01
f8
07
08
00
1f
f1
09
08
e8
f9
04
02
0e
e5
f9
09
ea
13
03
10
05
00
f4
fc
04
fd
0f
f5
06
0a
ee
fb
ff
07
fa
10
e3
eb
13
bf
09
ea
13
f7
00
ed
09
eb
ff
10
28
19
00
0f
0f
f5
0f
d7
f8
08
f8
01
1e
fa
03
f4
ff
fa
0c
0c
06
01
17
ff
f9
0b
16
ed
09
08
ff
ed
f5
f6
fa
01
eb
04
16
05
fd
08
ff
fc
f6
e2
f1
fa
06
fe
08
04
10
ff
10
06
04
15
e9
fc
15
13
ff
23
fa
f7
13
f5
ec
f3
09
f9
ff
f6
14
06
e2
f8
04
16
00
fb
02
0c
05
fb
f7
ef
fb
05
e6
08
ff
fc
09
09
05
03
0f
1b
02
07
f5
14
fe
11
0f
0e
06
fb
01
f1
ee
0b
03
fe
06
26
e3
0f
f2
0a
1e
1c
f5
12
f9
06
e2
05
f0
08
1e
23
f8
1c
eb
05
07
f8
07
03
08
06
06
ee
fa
f8
0b
fb
eb
0b
00
f0
10
07
0e
f5
fa
02
f5
f1
f1
fc
f3
ec
f7
04
04
0a
fe
10
03
21
14
fe
fc
02
f2
f8
f3
eb
02
f9
05
fa
11
03
fa
fa
0d
00
06
03
ff
e4
e9
fd
03
08
f6
fc
02
e7
1c
0a
09
f5
f9
f5
f1
fa
07
fc
e9
01
0c
e9
01
fa
15
fa
f4
f9
01
fc
fb
04
04
0f
f9
0d
02
fd
00
fd
ff
f6
11
df
0e
11
ff
f4
03
fd
fd
19
02
04
f5
f7
fc
fe
00
fc
1c
0c
e9
f2
fe
19
08
e5
03
00
17
f4
08
f7
03
f7
0d
04
00
f7
ef
0a
0a
00
f8
00
06
04
f9
fd
fb
fb
f8
e8
08
fe
ff
fb
0d
fd
06
fe
12
0e
02
09
f1
ff
08
02
fc
0b
03
f0
03
fe
05
0e
f2
03
1a
00
10
00
01
15
fc
11
fa
07
f4
10
fa
e5
12
fe
f6
fd
06
f5
07
fc
f4
f7
f6
07
ff
f9
fd
07
fe
1a
00
03
0e
0f
f9
0d
03
f9
02
06
ff
fe
ff
02
ef
0a
05
09
09
07
13
08
f4
0d
16
f1
ff
da
02
01
04
fd
fb
fc
00
00
f5
06
03
04
fd
ec
e7
05
fd
fd
e3
0f
07
f6
07
fe
08
df
f2
f9
fa
ed
fe
f8
00
18
fe
ff
0d
1b
0d
00
0a
fe
ff
0b
0b
04
0a
e9
02
f0
de
f3
06
f7
fd
f6
fd
06
fd
09
1d
1d
fb
00
f2
03
05
ec
14
f0
ff
0e
f2
fe
18
09
f5
ec
14
02
09
f3
fc
00
f1
ff
f4
f5
f8
1b
0d
13
fa
05
0d
0b
fc
f9
0b
03
f9
03
fe
f8
fe
04
ff
f4
fc
f9
04
04
04
05
02
ff
fb
02
fa
fa
05
08
f6
0b
08
ef
0b
f5
05
f7
07
00
fc
fc
f8
0a
12
02
fa
f3
0b
09
06
f6
fe
05
09
0a
fc
0c
fa
14
fe
00
03
05
fb
00
fc
0b
13
f7
11
00
08
ef
01
ff
f4
0d
fa
02
f4
00
08
11
02
f6
0a
00
ff
ff
f3
fc
f7
09
ff
fb
f3
00
02
05
fa
06
12
ef
0b
ee
fe
10
ef
02
f7
fc
07
f6
f2
0a
f4
03
ef
08
f2
01
00
f3
fd
fd
03
fa
0d
08
0c
f9
f1
f5
08
f1
05
fb
06
f3
09
02
f8
f8
02
ff
02
00
f7
fd
0b
0c
f2
19
0e
04
ff
f6
07
fa
01
eb
06
fe
00
fe
f6
05
04
02
02
04
0d
05
07
f6
07
0b
03
dc
ff
f1
fc
f8
09
00
01
0f
e7
02
08
09
0a
06
f7
11
fe
09
03
f7
0d
e9
f6
0d
fb
0c
fa
f6
06
f7
11
fc
ff
09
0d
fa
01
f1
0c
f4
02
08
09
04
09
ef
00
05
00
09
fb
00
05
fd
fa
07
07
f9
06
f0
04
00
f5
fb
07
ff
fb
fd
ee
00
ff
07
f8
07
00
07
03
0c
0e
18
05
f9
04
e7
ff
12
f4
f7
fa
fe
ea
0b
fc
f7
fa
fb
fb
14
0a
11
ff
08
fe
0f
fa
fe
04
f7
ed
f6
0b
05
09
fa
e0
fe
02
f3
fe
fb
02
01
0a
f5
07
f3
10
f3
05
f5
07
f2
02
09
f1
18
e9
18
f1
1d
fc
07
01
1c
ef
04
f5
fe
04
e7
01
f8
f6
24
fd
ee
05
0b
01
ef
0b
15
09
f9
fe
fb
ff
fe
ee
fe
1a
0c
02
ea
fd
0e
fe
0d
00
0c
e5
0e
1b
15
f4
04
e7
ea
0d
ee
f3
00
13
17
f7
01
06
02
f7
23
ff
ee
07
e0
0c
06
f8
fb
04
00
02
fe
02
02
f9
f5
f6
01
05
fd
03
ff
00
08
11
05
02
05
f3
02
f1
0f
ff
fb
06
ff
ff
df
fb
0d
fa
0b
00
fd
10
08
04
fc
1f
0b
04
fc
f6
fb
0a
eb
01
07
09
fd
07
f6
f6
09
10
09
f5
07
05
f9
fe
07
0b
00
06
f9
0c
ee
fc
02
0a
0a
fd
f8
ff
0b
ff
03
00
02
08
f8
fb
07
f9
ff
f4
01
ff
fd
fe
f9
fe
0b
fc
04
fb
f6
0d
11
02
05
f8
fb
f6
f5
06
fa
eb
f8
03
02
04
08
f4
00
05
f8
f6
ee
f2
fe
0a
fd
06
f8
09
0a
f6
0a
0d
ff
00
ff
fc
fa
f9
f0
f7
04
03
04
02
f0
f0
fb
fe
f5
13
f8
ed
06
f6
fe
05
17
00
04
00
f9
ea
03
03
fb
03
f5
ec
ef
06
f3
03
fd
05
0a
fb
0a
01
06
04
00
04
e8
04
04
fb
09
14
0c
10
f3
fb
f6
ee
fd
e8
0d
03
06
06
f5
02
08
0b
fc
f4
00
09
fc
f3
08
15
00
08
fc
f7
09
03
ec
05
04
0a
0b
05
fd
01
15
fe
0a
04
ff
f4
07
f4
10
05
fc
09
05
f5
fa
fe
f7
ff
0b
ef
06
fd
05
f7
0e
f7
fa
01
fa
fd
ee
01
02
01
02
00
f3
0a
fd
f9
f7
f8
04
fb
00
08
fb
09
fe
f9
09
ed
05
00
ff
fa
f2
f4
e0
0e
13
ff
fa
09
01
fb
0b
06
03
00
12
f8
18
f1
13
fd
0c
fe
ff
0e
01
fd
fd
fa
05
00
0c
ff
02
01
06
04
07
01
08
03
fa
09
ed
ee
07
ff
ff
12
08
f9
f9
0e
f7
fc
06
05
04
ec
fa
e6
f6
10
ff
0c
00
00
f2
0b
0c
0c
0f
00
f8
02
06
07
09
fb
04
f8
fb
01
00
04
0a
f2
ff
00
01
00
05
ff
fc
00
fd
f4
0c
f6
fd
06
f6
01
fa
02
08
0c
02
06
f6
05
f3
fb
f5
03
03
06
03
15
f8
02
fa
00
f4
09
02
fd
08
ec
06
fb
f2
06
0c
05
03
f0
04
fb
09
10
02
12
01
09
f3
06
10
ff
e8
fa
f7
04
fa
06
07
07
0e
03
04
ff
02
f7
f7
fb
00
13
fc
f8
f9
0d
f4
04
01
07
05
fc
05
04
f7
f6
f9
0b
fe
07
06
04
fe
f5
fb
ee
0d
04
fc
f2
ff
fd
0d
01
f7
07
07
0c
fd
00
f5
00
ff
fd
0c
0a
f8
02
06
fe
00
02
04
f4
05
e0
fd
09
03
01
01
ff
03
19
fd
02
f9
0a
fd
f6
fc
06
fa
fe
08
00
fa
ff
ff
ec
05
fa
08
0a
ff
fd
0d
e0
f6
f8
03
fd
fa
f9
00
01
12
fe
f7
02
fd
02
09
f6
fc
f6
14
f7
fa
ed
0a
12
10
03
ec
0e
e5
07
fa
02
1b
e7
05
fd
0e
f7
ff
fb
09
0f
00
ff
0c
fe
f3
06
fc
0b
ff
f5
f0
f6
0d
fa
fb
11
01
1c
03
0a
0c
fc
fc
f4
fe
0c
12
f7
df
f7
05
fd
f4
f3
03
f3
05
fc
0e
e4
06
f6
f9
04
f1
09
08
03
09
fb
01
0a
01
02
13
f3
f8
f8
03
07
00
00
02
fb
fd
06
06
00
09
fe
08
02
fd
03
09
09
03
fe
05
02
04
fd
00
fb
06
e3
f6
fa
f8
09
08
e9
e0
07
08
09
ff
0c
f7
01
fb
fc
ff
0d
0f
fc
f3
06
07
fb
f6
0c
f4
08
f1
01
0a
05
16
06
ec
06
06
f4
03
ee
fc
05
03
08
01
14
f4
01
03
fa
02
fc
fa
f6
fd
0f
03
f6
f8
04
00
f6
f7
f4
f8
f9
0c
ff
12
fe
06
ff
08
07
f5
fd
fe
05
f9
f7
01
01
05
fe
fc
0d
05
fd
07
0a
00
f6
05
fe
fd
0a
02
01
fb
fb
f9
08
00
03
05
04
fd
00
06
04
13
06
ee
fb
0b
00
03
09
03
fa
00
fa
f5
f8
f4
07
fc
f0
f4
0a
fa
ef
09
fc
fd
04
00
ff
fe
fb
00
f8
0d
fc
fe
00
00
f7
f6
0a
ff
02
f9
fa
f3
0c
ec
01
0c
0d
20
fc
fb
ff
fc
f8
fd
eb
16
08
fd
03
05
20
e8
0a
f5
01
0a
fc
07
f8
03
03
03
fe
f7
10
01
fa
04
f9
f7
f5
0c
10
0c
04
f5
06
0b
f9
f6
05
09
11
f1
fe
00
f0
fc
fd
04
fe
f4
08
00
f1
ff
00
03
ff
00
fa
f7
03
fb
05
07
06
04
05
e8
08
ff
0e
f2
12
16
01
ef
f8
13
f7
f4
ff
fb
e9
f8
ff
f6
05
06
f9
05
04
fd
f3
08
03
03
11
f5
00
04
03
fa
ee
07
f8
02
f3
fe
03
02
fe
11
01
09
07
fd
f9
f8
fc
ed
09
fe
ff
09
fd
01
f1
11
09
fd
fc
12
06
02
fe
ff
11
fd
f2
1a
fd
f5
0c
01
0e
ed
05
f8
0b
11
03
10
f9
fd
02
ef
f2
f6
0a
e9
f7
f7
f7
0a
10
f3
f9
fd
f5
08
e4
0c
fb
14
f0
f6
ff
01
0a
0b
eb
0b
fb
ff
fa
0d
fb
16
f7
08
00
0b
ee
f4
02
f5
04
13
ff
29
0a
ec
ff
f4
f9
fa
1b
fd
0b
fa
fa
03
fe
f4
f7
ff
f9
f5
f7
09
24
06
fc
08
09
f8
01
01
08
1b
0a
f8
f7
ff
0e
fd
05
fd
0f
fe
f8
0f
f4
1b
f8
0b
e5
f6
fc
0d
05
01
15
f5
03
ee
f8
fa
0b
fb
fa
f0
00
fd
00
1c
07
f2
1b
fb
f5
0e
fe
ed
05
fa
f8
ee
09
0a
1e
08
f7
02
08
16
fd
e1
01
05
02
02
fc
00
07
fa
17
f9
f4
eb
04
ee
0c
25
f9
05
14
f5
00
f2
10
f9
fb
fc
04
d5
06
07
10
0a
f8
03
02
fc
06
f0
12
f8
f8
fd
04
06
03
00
11
01
03
f8
f9
fd
04
fe
fc
fb
fc
07
ed
fa
03
fb
fd
09
0a
e3
0e
05
00
fe
03
f4
0d
05
f9
fc
11
09
02
fa
02
04
01
f4
04
fe
03
fb
fe
fd
ff
16
04
03
12
0d
ff
04
01
ff
02
02
06
f8
12
f7
02
fc
ff
03
fc
00
f6
05
0e
0c
02
f5
0b
05
f6
00
eb
fb
0c
ff
ff
11
fe
f2
fa
01
fe
02
01
fb
0f
fe
f2
04
f9
fc
01
fc
f4
01
f5
fd
03
0a
fe
0d
ec
ff
03
04
03
05
fd
fd
03
01
fc
ec
f6
0e
f2
26
e3
fe
04
02
f4
f2
0b
fc
f8
09
05
f9
0b
06
07
02
06
04
09
02
04
03
f6
0d
fc
03
fb
f2
14
08
04
05
01
fe
02
f7
fe
ed
0f
11
ed
ee
e1
03
fc
15
fa
12
00
07
07
f5
11
f6
fe
0b
fd
02
f5
e8
05
fd
f6
fe
02
1d
fe
fc
06
06
05
0b
03
0b
f5
f1
ee
0b
f2
f2
10
fa
08
06
fe
04
ef
02
15
0e
0f
09
fc
fb
0c
05
f9
0f
f9
04
ec
08
01
06
00
f5
09
02
fe
fa
eb
00
f9
00
fb
f3
f9
0b
03
13
09
fb
00
07
04
fc
f0
f9
11
f7
fb
02
f2
fd
05
ff
07
00
fe
00
f2
01
fd
f3
fd
01
ea
ff
00
09
fc
fb
fe
05
f7
fe
fc
0e
03
0b
fb
0a
ff
04
f1
07
fc
05
f3
00
fd
51
fc
01
05
f4
fc
0c
0e
fd
07
04
05
ff
f8
0b
04
fa
ff
fc
00
08
ff
0a
05
03
0b
fe
0d
f8
06
fb
f3
00
08
0c
0f
ee
05
19
eb
f2
01
f9
03
14
03
fd
fc
03
ff
01
f6
06
f9
02
fb
07
fb
fd
ff
ff
00
02
fe
08
06
fa
ff
fb
17
00
05
f4
00
f9
fe
f2
fc
fd
fa
fb
f2
fd
f1
02
02
fa
29
04
fe
01
08
f2
03
02
f4
08
02
04
f8
f7
f9
fc
16
ff
f5
fc
fe
06
00
07
ee
08
02
09
0d
1b
f9
0e
ed
01
13
0f
02
f1
15
0e
fb
cb
03
07
04
01
fa
fd
20
fb
10
04
fd
04
07
fd
01
07
0a
04
04
0b
06
de
01
0a
05
08
0e
ed
f7
f8
fa
fe
03
08
ff
f3
0b
18
1c
07
ff
06
f8
fd
f2
03
05
05
f1
00
f6
ef
10
03
01
f8
fa
02
fb
e8
07
08
01
fe
04
05
ff
00
00
ff
03
f1
fe
f4
fc
ef
fb
f4
fb
ff
05
01
ff
e4
04
05
0c
fa
f6
05
05
fe
08
f5
05
fd
ef
00
13
f2
ed
f9
14
06
f5
f9
00
07
fe
32
ec
01
fb
00
03
fb
04
f6
f7
01
df
07
f0
f2
14
fa
fd
f0
0d
eb
00
0a
09
0c
0f
fb
f9
fe
ff
02
04
00
05
eb
11
02
f6
ff
fe
11
fa
0d
fb
01
0f
f4
13
05
04
fe
19
f1
00
f2
fa
0e
35
ff
0d
06
00
09
ff
fc
01
fb
ff
fc
f9
fd
f5
fa
fb
fe
0a
f8
08
06
fa
01
fd
fc
fc
fd
05
0d
0d
07
fe
07
0e
16
f9
fb
f2
f8
12
03
05
00
12
12
02
04
f6
0c
0d
0e
01
03
ea
01
eb
ef
ea
f0
e1
ed
01
0a
01
ed
01
f2
f5
fc
01
e9
13
11
f9
fe
fa
f1
07
f1
02
02
06
ec
0b
02
0d
10
fa
f5
10
09
13
fd
f2
12
fb
18
0f
f6
0c
fd
0f
f2
f9
f2
fc
f3
fa
f8
fd
0f
00
ff
ec
0d
1f
08
01
fe
0c
fc
0f
e3
17
ff
f5
ee
eb
08
fa
04
0a
02
06
ec
0b
11
f1
0f
f8
11
00
fc
f6
f3
fa
0e
fc
08
06
f9
f3
25
fb
01
fc
f5
ce
ff
07
07
fd
0f
19
0a
03
f5
19
fc
01
04
0e
04
06
fa
03
f3
0c
f7
fb
ff
01
f0
ff
f8
00
04
ff
f8
ff
05
0d
01
f9
f0
eb
fd
fe
30
01
0e
f7
10
e9
f8
ff
03
00
ed
cc
fe
0f
f9
fd
0a
f6
23
02
00
f9
01
f9
05
08
0d
f9
02
06
01
f9
fe
04
03
00
ff
fa
fd
02
08
07
fe
00
0a
08
f3
08
f5
fb
ff
0a
01
01
fb
04
06
15
f7
f9
09
02
04
f9
02
f4
fb
03
07
0a
f4
ee
00
f7
04
fd
0b
f9
f7
ff
fb
09
09
03
01
00
0b
0f
f8
f9
f5
fe
f9
0f
ff
fb
0a
ee
09
07
0f
e8
05
f9
fd
fb
ea
04
08
eb
03
05
f6
ff
06
19
01
01
01
01
07
f0
0a
08
f0
f9
20
00
36
f3
ff
02
07
e8
04
08
e6
0d
09
be
fe
fa
e7
09
e9
06
19
00
0f
05
05
f6
ef
05
10
ec
10
fd
f9
00
f7
08
09
ff
f4
02
f2
0d
f8
0d
ff
f3
01
07
09
04
14
fc
fb
11
f3
f6
02
fb
07
13
05
f2
fe
f9
0d
04
0d
03
fb
ea
fb
ff
02
f9
01
0d
fb
ff
e5
ff
ee
07
01
03
08
fa
02
f9
fc
0c
f6
0c
07
fb
09
fb
ff
03
01
02
fc
0d
03
1f
f5
fd
fe
05
01
06
f8
fb
04
00
04
f7
f1
06
05
02
ee
04
fa
e9
fe
09
00
f2
fd
15
ce
1c
08
0a
fa
03
ee
06
01
02
02
09
07
f7
f2
07
fa
fd
09
00
ff
fa
18
03
fd
f5
fb
02
05
fc
fb
f6
04
10
04
09
f8
00
fc
fa
05
ff
02
f6
05
03
0e
fd
0c
f7
03
08
f8
fd
06
ed
e5
cd
fd
02
03
03
10
ed
fc
03
fa
04
fa
05
fa
19
0a
03
00
f3
0f
09
fe
ff
f5
f6
04
05
09
0a
09
e2
fc
f9
08
03
02
00
ff
0d
f3
00
f2
0e
03
ed
f4
f2
02
fc
fe
02
09
02
0e
f9
09
00
f0
ed
10
03
fc
ff
06
1e
ec
ff
f2
f3
e7
17
3f
06
07
fb
fb
01
24
f5
1b
0f
1d
c1
fa
ff
0d
0f
06
f8
05
e2
fb
f4
00
fb
fc
06
f4
01
ef
01
fc
0e
10
ef
0d
f5
ee
eb
03
fd
ff
ff
05
fa
02
1c
f8
09
ee
ec
ee
fb
0c
0c
08
05
11
28
fc
ff
06
06
05
fe
f9
0b
fe
fc
fe
01
0c
f6
0a
0c
05
e0
11
fd
ed
01
fe
f2
06
03
12
ff
f5
01
08
09
0a
ff
04
fe
f3
01
03
fc
f8
01
fb
10
f8
07
04
fe
f7
0a
0a
f6
04
fa
fe
fe
f9
00
08
07
ff
07
f6
f9
08
04
fd
05
fd
07
be
15
02
fe
03
ff
0b
03
ff
14
ff
36
00
03
05
00
f8
f7
d1
f5
fe
fe
00
f9
05
ff
05
f4
fe
0b
00
fa
00
fd
fc
fb
0a
fd
fe
09
f9
09
fa
f9
05
06
f9
02
07
03
fa
0d
05
fe
fc
0a
e9
ea
06
04
08
fb
03
05
fd
f9
fb
fb
0c
00
04
0e
01
0c
03
f9
fb
fa
fe
f8
06
fe
ff
02
fe
ff
01
f3
fc
fb
05
0d
0a
f9
f6
fc
f7
04
03
00
06
0d
fc
fb
02
04
f3
08
02
03
fe
10
01
fb
01
03
08
05
fa
0a
08
fa
01
02
03
ff
fd
f6
d9
0a
13
fe
fb
09
ef
fa
ff
04
04
15
fb
f9
0d
08
03
fb
13
ff
0a
09
10
f9
fb
ee
01
04
fc
07
ff
08
f9
03
ff
05
07
f0
fe
fe
f3
fb
00
02
00
03
ff
f3
f9
10
04
00
00
f9
08
07
e7
d7
06
09
03
03
01
f8
0a
ff
ff
07
00
00
f9
fe
ed
fd
f8
02
e9
fb
ff
11
fc
ef
fc
f0
12
f1
06
fb
00
03
f9
ee
0a
0a
f9
fa
01
ff
fd
03
03
04
ff
08
11
f9
04
08
13
fe
07
f6
ee
05
00
fd
00
05
13
f6
02
db
fe
f9
fc
03
fe
02
d7
03
f4
fc
f7
0a
fa
fd
fe
f6
08
12
17
fa
0e
05
fd
03
34
06
ed
fd
fc
06
f9
01
f8
fd
fe
00
04
04
f9
02
06
fd
00
0c
fc
0b
fb
fb
02
f0
fc
03
0a
f8
fe
0b
ff
03
02
f1
08
fd
f7
d5
00
04
00
f3
f1
03
02
02
01
f3
f8
05
fd
08
fd
02
05
04
fb
03
02
05
0a
0d
ef
f5
f6
02
02
10
00
06
09
06
fd
fe
00
03
06
0f
fa
fa
fb
ea
0b
fb
03
0f
ef
fe
00
ff
fd
f8
08
f9
07
05
00
01
03
0c
f7
03
04
02
01
03
08
08
20
e0
0b
f9
02
0f
0d
fc
04
00
01
dd
02
fd
06
fe
06
00
41
fa
04
00
04
f4
0a
0d
fd
fa
fe
f6
f9
fd
fc
f7
f7
08
0a
05
ff
02
f9
08
04
ff
fe
fc
00
f5
0a
04
01
fc
00
0c
ff
03
20
07
08
0b
ff
f6
fe
f5
01
f8
fa
00
01
f8
fe
02
04
05
f4
06
05
f9
fd
04
f7
12
fc
ff
f8
fc
fd
1a
ff
fc
01
05
02
f8
0d
00
f8
e9
fb
14
0d
0d
0a
00
09
fb
f2
04
05
0b
0b
f5
03
08
fa
08
fe
07
06
07
05
14
11
ff
fa
f9
08
fe
ec
18
05
eb
0a
f1
0b
fe
fd
0a
04
26
03
ff
07
06
09
0d
c7
f8
fa
01
fd
00
f4
ed
03
07
05
fd
0a
0d
f4
fe
f0
f8
f9
fa
f5
06
f6
07
0c
0b
ea
ff
0c
f6
00
04
02
fa
16
0b
03
04
ec
ff
ea
06
fd
ff
02
08
06
00
06
04
f9
00
fd
0e
02
06
07
06
fb
0b
fe
00
ff
0d
fc
00
fc
fa
f7
dd
05
0c
ff
f1
fc
06
04
ff
fc
08
ee
f5
0a
ff
02
ef
fb
08
00
05
fc
08
02
fb
0f
f6
06
00
fa
02
fa
08
fd
df
10
fb
f2
01
08
f8
d9
12
07
fc
ff
21
07
0a
fc
05
f6
0d
04
09
00
0a
09
ff
32
00
02
02
f4
08
ee
fd
07
0f
00
02
06
0d
fb
fe
00
f8
fa
f6
fc
f9
fc
fb
fd
08
f9
ff
fa
f1
02
04
fb
fc
f9
fb
06
fc
f6
d6
04
fa
fd
04
f3
07
f6
08
05
ff
09
01
f2
e6
01
01
f8
fd
03
07
fd
ea
07
0c
f8
12
0f
03
03
00
00
07
06
00
08
fc
00
f8
f9
06
f3
00
0e
11
ff
11
fa
08
0d
04
f9
f4
18
04
07
f3
05
e9
03
f5
f4
0f
05
f7
ec
fb
fc
0c
18
ef
ec
0e
0c
00
f4
22
0a
f5
17
07
01
13
f0
03
16
04
07
03
fc
fb
eb
fb
08
04
02
f1
10
ee
f3
ef
0a
fc
fb
f4
f8
f5
f8
fb
f7
08
f8
ff
0a
01
06
03
05
10
f6
0b
07
03
0c
f2
06
f5
f3
ee
fc
f4
fe
03
fc
07
02
fe
e9
0b
0b
fa
fe
fd
f4
17
f9
fe
04
0e
02
f8
10
01
10
10
fb
f5
f4
fd
f4
00
fd
03
fa
05
fa
09
0a
00
04
0b
0d
03
0d
e6
05
02
0d
11
01
fe
ff
01
ed
05
07
0c
fc
07
06
0a
f6
f7
03
f2
f5
15
0e
fe
d3
f7
02
fe
ff
19
0f
f8
07
01
06
27
fe
fb
fb
f5
01
fa
00
05
07
fe
0b
02
ff
03
09
07
fd
ff
08
0d
08
08
f7
17
fe
07
fe
08
f4
03
07
ff
fa
07
01
10
f4
09
fb
f1
fc
ff
0d
f6
e8
e4
f3
fa
fa
05
f8
05
f9
08
f4
08
f8
ff
ff
0f
f1
00
fa
14
0b
f5
f8
0b
f6
02
1c
ff
08
02
ec
02
f8
03
04
f3
0c
fd
03
fa
fc
ee
e7
ed
fd
13
f6
fc
06
29
08
fe
04
00
fe
11
04
f9
0f
06
ff
e9
f9
fd
07
14
03
f5
00
07
f7
04
fe
f8
06
fe
ed
11
12
12
1a
f0
00
39
ec
10
10
19
1a
ff
bf
fa
f6
04
0e
08
fd
ff
0c
12
fd
ed
09
12
00
f2
04
0e
19
1c
0f
0c
f2
01
10
0a
ef
ee
06
e7
fd
f9
0e
01
f4
01
f6
ee
0f
08
09
fa
f2
01
f8
ff
f8
0b
fe
fc
e9
fd
0a
24
0e
05
02
ee
0a
14
eb
ed
ff
f7
fa
f8
f5
fc
fb
fb
05
fc
f4
02
e3
e4
09
ff
f1
01
04
f9
fe
25
fc
fe
f8
10
fb
05
f4
15
05
0b
fe
f0
fb
19
05
03
08
06
02
06
11
fb
f3
ec
0c
f9
d6
1d
fc
06
f7
f1
ed
09
eb
08
08
12
f1
ff
02
06
f4
fd
e2
fc
03
fd
05
01
13
f9
13
0e
fa
09
fe
f1
f9
12
fb
0a
0b
fc
fa
fc
0c
fd
f9
f9
ed
0d
f9
f1
06
08
0a
06
ee
05
0a
f6
dc
ef
fa
fe
03
09
f3
00
0a
00
fa
02
03
fc
fe
05
f8
09
f8
fa
05
fe
0d
f1
09
f3
17
00
f9
03
0b
d4
fb
ff
09
06
0a
01
00
fb
fa
09
03
08
fb
fb
0e
f6
00
02
fb
02
01
ed
e8
12
f8
fc
f5
fd
06
05
fa
0e
f2
0a
f6
fc
15
f2
03
01
20
e8
03
04
03
fb
07
f8
01
f4
eb
e5
0f
ef
fd
f4
f7
f8
41
e8
05
fe
f8
fb
fc
07
08
fa
00
08
0a
ea
06
02
fe
1a
06
0c
07
f8
07
f8
ff
f2
0a
06
1a
03
f6
fa
01
02
10
0b
08
09
0d
ff
f8
04
f6
02
06
ee
07
f5
01
f9
00
09
ed
f1
05
0b
fd
03
13
ee
f9
fc
f6
1f
16
f9
fb
09
02
24
fb
f9
f0
08
f9
04
06
f7
f4
19
fa
06
03
0a
0b
10
fd
07
f1
06
06
e8
02
02
02
08
f2
00
f3
ec
ef
13
07
0e
08
00
f3
f3
ee
ef
5c
14
0f
fb
fd
ec
f9
0c
02
08
06
b8
f0
11
0b
f2
0e
00
3e
00
fb
fa
f0
f4
01
f3
16
06
ff
f1
fc
07
f8
ee
06
04
ee
f3
ea
f4
06
04
03
01
0b
00
12
05
12
02
03
fd
f1
06
01
05
17
02
ef
f0
01
17
e7
02
fd
fb
f2
09
fa
0a
19
e8
07
06
f7
f4
18
01
18
fe
ee
f7
13
f8
1c
f1
0b
03
04
ee
fe
f6
ed
13
09
0c
f5
f4
f8
fc
12
fc
18
e7
01
00
06
1e
f9
f8
17
00
01
0f
e4
fa
06
ff
f9
0f
04
ee
04
03
ec
01
10
0f
dd
12
02
08
0a
11
02
02
1e
0d
ff
1b
e8
fb
0a
f2
fe
08
f1
f8
06
03
07
f5
08
fc
ff
0c
fb
ff
02
15
00
f2
00
fd
11
f9
05
08
f4
04
0b
f7
f3
f5
f0
02
01
14
ff
06
00
02
f9
ed
fe
f1
08
ef
f4
f0
0f
fc
fc
08
0a
f3
f8
ff
1c
10
f3
02
fc
01
0a
fe
f1
f8
12
fa
20
08
0f
f2
f8
ec
08
01
ff
fc
21
fb
f0
04
00
16
f0
fc
0b
fa
f5
fe
fb
f0
fc
06
fa
0e
1d
0d
fd
f4
0a
00
fd
02
03
13
03
d2
0d
fa
f0
04
04
fb
e6
fc
0d
fb
fd
2e
fe
fc
06
02
06
fc
fb
02
22
f8
07
00
7f
0a
f8
04
f8
fe
05
fe
02
09
02
fd
f9
00
06
fe
fc
00
f8
f5
07
03
07
08
0a
14
ec
f4
f7
eb
04
05
02
ff
fc
fc
0b
04
00
b8
fd
05
f3
f9
f2
fc
01
02
fe
0d
fb
f5
fc
ef
f6
fc
f8
05
fc
04
fd
00
02
02
fc
05
ff
f2
ff
18
fb
08
fe
fa
fa
f0
fc
fa
08
08
05
e1
1c
e0
fa
f1
f5
0c
1a
e7
16
08
0b
fa
fe
05
15
ee
00
04
02
f9
19
0a
fc
07
ee
18
13
fb
2c
cc
e3
08
ed
17
cc
02
0a
f6
16
c7
00
f5
ff
30
f3
fd
55
0d
fd
ee
2b
fe
05
f4
f3
ea
fd
f2
f0
f4
06
1b
f6
f9
15
2a
14
f9
0f
02
f2
ec
f6
f2
06
f8
ee
0c
00
ef
e9
ef
ec
d1
f9
14
07
ff
fc
f2
16
13
0c
05
e8
ea
00
fa
f9
0a
ff
01
18
f7
e3
0e
f1
04
13
fe
ec
10
fb
03
02
0f
f5
16
fc
f5
07
0c
0b
1d
00
fc
04
fa
01
03
09
07
05
00
06
03
06
f9
fc
f5
02
fd
ff
02
f9
fd
00
fa
05
bb
02
07
07
02
01
07
9f
10
f7
ff
02
13
f6
08
02
02
0c
2f
14
06
0d
f4
fe
04
41
fc
05
00
fa
00
ff
01
f8
0f
fc
f7
02
00
f8
07
ff
f4
03
19
fc
ff
fa
fb
f4
f6
fe
06
09
f3
04
04
02
f9
07
fe
fe
ed
f8
ac
fd
fa
fd
01
ff
04
f9
04
fd
f8
fc
00
03
0e
00
00
07
fd
fc
01
f8
fd
05
01
fa
fc
02
0a
02
03
f9
02
00
fa
fd
05
04
0c
02
00
03
06
16
1b
fe
0d
01
f3
fa
f6
02
fe
05
f8
f5
0a
f1
f6
10
07
06
0c
10
0f
0f
12
01
07
0e
0b
d9
28
01
02
0f
01
ea
02
f0
0d
0d
1d
05
fd
11
fe
fe
09
ee
0a
01
fb
01
f9
ff
ec
0b
07
fc
f0
f7
fa
fa
fd
04
02
fb
0a
07
e8
f3
0d
f9
06
f7
fb
02
ff
07
02
ec
f7
fa
08
fe
04
eb
ed
ed
fe
fc
ed
03
f3
fe
ee
06
f5
ff
fe
ff
11
f8
0a
01
03
f0
0c
04
05
03
ef
10
fc
0f
f8
00
e2
f2
06
00
e9
07
08
03
06
fa
08
07
06
00
15
ff
f3
fa
f9
0e
fe
fe
f5
fd
07
06
07
fb
f5
ef
f8
f4
01
f7
01
06
f9
f1
08
fe
e5
d4
12
08
09
f9
08
f8
fa
07
09
fe
2b
f8
fb
02
12
04
0c
eb
17
fc
f3
14
fa
ff
f4
05
0d
fd
fa
10
f5
0c
04
05
f6
04
ec
fc
03
0b
00
04
0e
fc
02
fe
00
f7
0c
fe
00
ed
00
00
f7
d6
d3
08
f8
08
0b
00
0b
fb
09
f8
fb
fa
02
09
0e
0f
03
04
f9
f9
02
0a
07
f8
f2
04
0e
15
01
04
f4
05
f3
06
02
fc
05
ee
f7
0b
fc
08
f8
f9
08
13
fc
f0
f6
15
fe
00
f8
09
fc
f4
ff
04
13
fb
f6
08
06
0a
f8
ff
08
fa
fd
01
fd
d3
0f
f0
fc
08
fa
e5
fe
f5
04
0c
30
f9
00
f9
04
ed
00
ce
1d
fe
f9
00
e8
fd
00
0a
ff
06
fa
f8
eb
ff
09
f5
ed
f7
16
00
02
01
06
f8
f1
03
ee
0e
00
10
f3
fd
f3
13
f9
08
00
db
eb
09
fe
00
01
0b
1d
04
0c
f9
fa
02
00
fa
1a
05
11
0e
fc
0b
03
fc
0c
fb
ea
0a
00
06
ff
01
ef
ed
09
f8
fb
06
0b
07
10
05
f1
01
ff
f4
d7
10
f9
ea
16
f3
ee
ea
f3
e7
06
1f
ff
21
fc
0a
ed
f5
fb
fd
fa
07
ed
0e
19
08
fe
23
e3
0d
fc
03
11
09
01
10
0f
ff
ea
fd
f9
f1
0b
f0
f9
20
ee
f5
0b
f9
12
f7
08
0b
fb
f6
f0
f9
f4
ee
ff
f4
f6
f9
f2
e8
f8
fd
06
06
10
e1
03
01
0a
0f
f9
07
fc
02
f9
ff
0c
0d
1b
18
ef
02
1e
fd
f7
fa
fe
fd
09
f9
0a
ff
ec
f9
17
ea
10
01
02
fb
12
e9
0d
f5
11
07
01
ff
2c
0d
0a
fa
ef
f7
fb
fe
f2
f3
2c
fe
f2
e9
1a
fd
08
fa
0b
f6
e7
23
f1
f4
12
ec
f1
0c
ec
22
f4
02
f3
ff
ff
e4
f8
ff
fe
fc
ed
f5
03
ef
f9
fb
0b
0c
f8
02
e1
fe
25
12
09
fb
f3
13
e5
14
11
d1
0d
00
fb
f1
1b
15
f1
fc
10
08
00
03
e5
13
15
21
11
1d
fc
e2
08
05
0f
07
fe
e2
e4
03
f7
eb
07
fd
00
fa
11
04
f7
2b
05
10
e9
0a
f8
ed
e9
fc
e7
0a
f0
ea
10
20
ff
fe
10
06
f4
14
00
1f
07
fe
ed
10
fb
00
2d
07
01
f4
19
01
eb
fb
e2
fc
0c
01
04
0c
1c
fc
0d
fd
0a
f5
0e
f3
f1
0f
fa
0d
06
03
03
06
0b
fe
09
03
f9
fc
ef
f7
0c
08
f3
cd
14
13
01
f9
12
ff
f1
02
0b
f7
30
f7
06
0a
0f
14
fe
e3
03
f5
ff
12
05
06
f4
09
02
ee
fa
fd
fe
fe
f0
ef
00
fc
fa
01
ea
fb
fb
01
04
00
f0
02
02
fb
fe
00
02
f7
ef
fa
06
db
d0
fb
ff
0d
fd
01
fd
fa
fb
f9
16
f9
0c
f4
0c
f7
00
ff
04
0f
08
0c
04
05
f0
04
04
05
f4
06
f0
06
fe
02
fa
0d
fb
08
02
0f
f2
f2
19
fc
f3
fc
0b
1b
f7
18
f5
05
f8
16
f9
fd
06
09
07
0d
15
0f
12
06
f0
10
02
0a
0a
11
16
1e
e7
f2
e8
0c
02
f8
04
de
00
fb
ee
1c
e5
e7
ec
e4
16
ea
fe
dc
09
ef
0d
e5
1b
e7
09
f5
ed
09
00
00
f1
e3
03
0f
13
f0
fd
f1
03
00
23
ea
05
fd
16
17
e0
09
f0
16
f0
fe
02
08
3a
dd
04
05
d7
1e
1d
f4
ed
06
07
e4
e9
f6
0f
ff
00
11
17
02
0a
f8
14
16
09
02
00
f5
fa
0d
23
f2
fa
fc
f9
08
ee
08
08
08
22
0a
08
fe
22
fd
07
06
fe
20
f0
f4
05
00
ec
f1
01
f8
f9
0b
05
03
05
13
e0
08
04
ff
f5
f8
fe
f2
18
ef
01
ef
f8
df
00
e9
05
f6
dc
ff
f6
f0
f2
08
05
55
16
ff
fb
11
01
fb
01
fa
fc
f6
15
f9
ef
0a
11
03
02
12
04
fc
f0
1a
f4
f2
fe
fc
04
0a
0f
00
e9
07
0d
e7
f3
f3
ed
ff
df
ee
08
00
e4
29
26
f3
f4
02
f0
f9
f6
04
fa
08
03
06
ed
0d
0f
18
04
0d
f5
05
fd
f4
f7
06
19
f5
f1
03
15
12
f8
00
13
0d
0d
00
01
f1
ed
02
f9
09
f1
00
fa
fb
02
f3
fe
0a
f3
f6
f3
fd
f8
02
05
f9
08
f7
19
02
f9
f7
fb
1b
fe
0a
03
0d
ec
ff
0e
0a
fe
fe
f9
fc
08
fc
fa
04
fd
f4
f6
09
f8
f6
01
ff
f8
00
f7
01
06
05
07
0c
01
fb
fb
fb
fe
00
fa
04
f6
ee
f8
04
f4
0f
0b
f3
05
fa
f2
0b
03
07
0b
04
13
04
ff
00
04
02
fd
0e
04
09
fd
04
02
0e
ea
07
05
00
fc
f5
f3
10
00
f8
0e
06
fa
02
00
fd
02
f6
f5
fd
08
02
01
0c
05
03
02
fe
f1
07
0b
0a
fb
04
fe
fa
14
07
fc
03
fd
f4
08
ff
0b
08
05
03
04
05
fa
08
06
04
ff
07
07
cf
0a
f8
fd
08
fc
06
02
fb
f9
06
2a
06
05
fe
00
f3
f8
e1
04
03
fe
00
f4
06
06
fe
f9
01
03
fc
00
f7
05
06
04
fe
fe
09
04
f2
10
02
f5
07
0c
fa
f7
02
05
f5
0a
fd
fc
fd
04
ec
f5
05
06
06
fa
0a
fe
02
f8
00
fd
fd
01
01
09
fa
fb
fe
0f
f2
f4
fc
fe
fd
f5
0b
04
0b
ff
01
eb
00
07
f8
02
0c
0a
fd
fe
02
f3
ff
f5
f6
ed
04
01
02
09
01
02
fe
fa
f2
00
03
f5
fa
fb
fd
f8
f3
fe
03
12
04
01
f9
fd
0a
fd
28
ef
fc
04
f5
0a
08
02
08
03
07
e9
ff
04
fa
fc
f8
02
e4
f4
02
fe
fe
fe
f0
01
f9
f9
03
fb
00
0f
02
fc
06
0a
05
fb
02
02
f3
f5
05
07
00
fe
f7
05
f9
f8
03
ff
10
fe
ff
fd
0d
38
fb
09
fe
fa
03
fc
09
04
06
02
01
fd
fb
f9
03
03
01
09
05
05
f9
f9
05
09
f8
fe
01
ff
fc
11
03
0c
f9
03
00
f4
0d
01
f1
08
fd
fb
06
fa
06
fb
f9
06
05
0a
02
fb
07
00
fe
01
fe
04
06
f3
06
0a
03
00
ff
fe
f4
eb
00
f2
2c
fc
08
f4
0d
fb
0b
03
f8
fd
0e
c5
ff
03
02
06
0a
fa
3e
fc
fe
04
f5
f6
00
04
02
fc
00
07
fb
02
f8
05
03
03
ff
00
fd
fd
07
01
01
f3
0a
05
00
fb
03
fa
fa
07
03
fa
f5
ff
08
f8
fb
fc
07
f6
ff
06
05
00
02
f8
04
fc
fb
f4
fb
06
f9
06
06
01
10
fb
0c
03
05
06
00
f5
ff
07
fd
fe
fa
0a
06
0f
05
02
f7
fa
0a
0a
02
14
fb
03
08
eb
01
f6
05
fb
05
0d
04
04
fa
02
00
08
fa
12
ff
10
01
03
fe
fa
ef
ff
fd
29
02
fe
e8
e9
08
f3
fb
fe
fd
0c
eb
07
fc
0f
04
08
de
04
0b
00
0e
f8
0d
f7
f6
05
0c
f4
05
fb
f9
03
15
ff
ea
f2
f9
02
11
0c
0d
ef
11
f4
ff
f5
07
07
fb
04
f5
0a
0d
03
f2
ef
02
f3
00
fd
fc
ff
14
0a
f5
01
ec
0d
ff
fa
05
0b
fd
f8
f4
00
05
ff
fa
ef
f2
f9
0c
00
0d
dd
0b
fc
0a
f9
ff
06
ef
ef
02
f7
f6
fc
fd
17
fd
12
f7
04
05
00
0a
fc
f2
00
01
f6
fe
fe
01
f1
f9
06
f9
00
f4
02
f5
fa
03
fe
cf
10
0d
03
01
0f
12
f5
fd
08
0c
2b
00
ff
02
0a
01
fe
cd
f5
0b
04
07
fd
fb
ee
05
08
f9
fc
02
0d
f0
0a
f9
0b
08
0a
fd
05
fd
f8
fd
09
02
fe
04
fb
f8
fa
03
0a
04
01
ff
ff
ee
e8
f5
06
0c
02
f3
f4
fe
01
05
f9
07
03
f9
16
04
0b
fb
f4
0a
ff
03
fd
0f
fb
08
f3
0e
f7
fe
e3
fc
fe
f4
08
fe
07
00
09
f1
f8
02
fa
0a
1c
03
1b
f9
fc
13
f0
0a
01
13
01
fb
03
0a
0b
02
05
f6
05
07
1f
f4
01
08
14
0c
f7
12
05
f4
f5
ec
00
09
f0
f5
02
01
fe
fe
f9
06
03
fa
09
ed
11
0c
05
07
f6
03
f3
fd
0e
f9
e9
ef
04
e6
0f
07
fa
fb
0c
f9
fa
f8
04
08
03
fd
f7
f5
06
03
17
08
01
10
06
f9
ff
00
fd
02
fa
1b
fc
fd
f9
f9
eb
06
06
03
01
fd
05
ff
f5
0a
13
f1
04
15
f9
f9
eb
04
f3
f2
08
f4
e1
fc
08
fe
f2
f5
12
f4
0d
05
0a
f7
02
05
f6
01
f9
05
04
06
fe
05
fd
fa
02
fc
04
ff
fc
fd
fc
fb
0b
fd
10
05
fe
f9
01
ff
10
30
ec
00
f9
06
01
01
f7
0c
fc
00
d3
f9
fb
fb
f7
f9
fa
0a
f3
0d
f6
03
f7
fb
ff
05
06
f6
fe
04
0a
05
01
fd
fe
06
06
04
04
08
08
fa
03
00
f6
03
05
fb
03
00
01
01
03
fb
f8
20
25
f8
ff
06
ff
00
f8
f5
fb
f8
f6
06
06
09
f9
03
00
04
ee
02
04
fb
fa
fa
f8
12
fb
10
06
fd
11
00
04
fb
ff
00
fd
02
0a
02
00
0c
02
07
ed
f6
06
fb
11
f6
f2
f6
ff
07
12
02
15
fe
f3
0a
0e
fb
fd
fa
36
fe
fe
fc
09
09
f9
3a
ee
09
03
04
09
04
f0
04
f4
0f
0e
f5
f1
01
1b
01
fb
b9
ee
f5
07
ff
09
10
09
03
f5
08
f4
f7
f8
07
f4
00
09
ee
f8
f6
fe
ec
06
05
f6
ef
df
f4
15
f8
f9
f3
f8
01
13
11
26
fd
3b
1c
f7
04
f8
09
fb
f1
f9
fd
19
f6
14
fd
0e
ee
f7
f4
09
fc
02
f8
fd
01
f7
04
0a
14
fe
00
fc
01
fa
f4
ff
08
0e
f6
e9
f3
f3
fe
0a
01
0e
fa
f9
f8
0d
f8
05
03
01
02
01
f9
0f
04
02
07
f5
06
f3
00
28
f8
fd
fa
05
fc
ff
1e
08
09
01
09
e2
08
05
ff
fb
fa
f1
f0
00
f4
fe
07
03
a7
10
00
fe
ff
03
04
07
07
fd
07
0c
03
fe
02
01
03
ff
07
05
00
02
fe
01
02
02
09
0d
01
09
05
0a
04
06
ef
00
f8
05
00
2d
04
01
fd
07
f9
08
07
08
02
ff
04
f8
02
07
ff
f8
fc
fa
03
f8
ff
f8
00
f3
05
fc
fc
fa
00
e9
07
02
00
08
fd
0a
f9
fe
06
f5
01
02
0b
f6
02
f4
02
11
fe
0d
fa
07
06
00
f6
0c
00
06
06
fe
f6
02
03
0f
0c
08
f7
f5
fc
06
f6
f6
fc
eb
00
06
01
04
08
01
f4
2b
00
07
fc
1f
08
00
c2
0b
fe
0d
01
f6
04
09
06
09
ff
05
05
06
07
fe
f2
fc
f9
fd
04
04
f8
02
07
ff
ff
f5
fd
e6
0a
fb
01
ed
0a
02
ff
02
f2
ff
07
f8
ff
fe
0a
00
f4
07
fc
f9
01
fc
f4
1b
0b
05
04
08
04
04
fe
08
05
f5
0a
04
f8
f8
f7
e4
fa
02
fd
f4
00
fd
07
00
f8
f1
09
09
fb
1d
fe
01
ff
fc
14
10
fa
05
10
fc
06
08
fe
11
f7
04
0b
02
fd
02
03
f7
0c
f6
f8
0e
da
10
f6
fd
0e
e9
fb
fc
f6
fb
fb
21
07
fb
02
fa
05
ff
da
fa
06
ff
02
06
03
04
04
00
f9
02
ff
fa
01
05
08
fc
09
09
fc
ff
fe
03
08
f4
fc
02
00
ff
fc
02
00
00
01
03
f9
05
ef
f6
f9
f6
01
ff
07
08
f0
fc
06
02
f7
07
09
19
f7
00
ff
05
08
05
04
ff
fc
00
02
05
f5
0e
fb
e8
06
f6
06
fa
05
fd
00
05
fa
ed
01
05
09
06
05
f3
fd
f7
08
08
01
fe
02
04
08
02
fd
fd
fd
03
f4
01
01
f1
fe
fa
f9
0e
ff
f0
cb
13
fa
f7
fd
0e
07
02
ff
06
05
22
08
ff
02
f3
fd
03
ec
f6
01
04
eb
05
f6
04
fc
0b
fd
01
f7
f9
02
f3
fc
fd
f8
f8
fd
04
fa
04
fa
04
07
02
03
0c
07
04
f9
fb
00
0a
02
ff
ff
e5
07
fb
06
01
fc
08
f8
06
02
03
04
02
01
01
fb
f6
0c
fa
01
05
fe
fc
0d
ff
f8
0e
07
0a
fe
f8
ff
fb
f7
07
00
06
f8
03
07
f8
05
06
fc
fd
0d
fc
ff
ed
07
00
06
ff
ff
f3
06
f4
f3
05
fe
05
0c
04
fe
0f
06
fa
0d
fa
02
fc
23
0c
f5
02
00
e4
fd
08
f0
0d
07
e3
04
fc
f1
fc
f3
07
cd
f7
ee
fa
fc
08
f8
fb
fb
f3
f6
fa
05
06
f7
f7
f9
f8
f8
f0
09
02
0c
04
fc
00
03
0f
02
15
04
ed
fd
0e
0b
f4
fc
f5
08
3c
f6
06
09
01
fc
08
12
01
fc
f5
03
01
0f
e8
08
06
09
fe
09
02
0b
0f
02
03
f8
03
00
00
07
fc
01
fd
14
fb
0e
03
fe
06
06
f5
01
fb
fd
05
15
1e
12
04
f7
19
10
f4
03
f6
0d
f7
ff
14
fb
07
17
ef
f6
fb
11
ee
11
16
f9
07
06
fa
f9
ed
ec
fd
09
e3
f4
08
03
1a
0c
0e
11
f4
f9
fc
fe
ff
ff
14
ed
01
08
09
fe
f3
f9
f5
f1
0a
07
00
0d
f3
03
0b
00
ee
ec
03
00
0e
e6
02
01
f6
fd
fb
f8
06
0c
03
04
02
fb
f6
06
f7
09
00
ef
eb
00
ff
fd
ff
eb
0e
00
04
fd
ee
02
fc
04
f7
12
f8
fb
0a
f0
19
ff
06
11
00
16
fa
15
05
04
02
03
ee
04
f5
04
13
fd
0a
06
05
f5
01
fc
09
03
02
0b
05
f3
07
fc
01
06
f7
00
0a
01
e1
06
02
ff
03
fd
07
e2
07
fd
f3
fa
11
10
f6
0e
fa
fe
17
03
fb
ff
fc
01
0b
19
0a
fa
03
f1
03
fd
05
01
fe
01
fd
07
11
02
fd
03
fb
f7
ff
06
10
f5
fd
0d
fd
fb
fd
f8
01
00
06
08
04
11
0c
fd
0f
fd
dc
03
ff
f4
00
04
ff
00
09
f8
fe
f8
fd
02
06
05
f5
fe
0d
0b
f2
04
f6
03
f8
04
f6
02
f4
f8
01
07
0e
01
f3
0b
04
f0
ff
fc
f3
fc
06
f9
05
04
06
fa
f5
02
0c
02
f9
0a
0b
05
08
fb
f9
ea
02
fa
fd
fe
cf
fb
01
fb
00
0c
02
a7
0f
fb
03
fb
17
ff
fe
ff
04
0f
43
0d
fc
0a
fc
f1
00
19
fe
fb
0e
fc
00
fa
fb
02
10
fd
00
ff
03
05
fc
fb
fb
08
06
fd
00
f3
09
05
fe
01
f9
02
f6
f6
0f
08
f0
06
ff
fc
ff
e0
b4
fe
f4
00
03
f8
ff
03
0a
fe
fe
08
fd
08
03
01
04
07
09
02
01
01
01
0a
fd
09
ff
ff
fd
f8
fa
06
11
ff
f8
06
ff
0a
f5
f7
13
04
fb
06
f1
08
ff
00
fd
f4
f8
09
08
0c
05
f3
f7
04
fe
0c
0c
fa
02
08
ff
fe
06
00
fb
00
01
48
e1
01
f7
f1
08
fd
00
0b
f5
08
bf
fa
f9
0a
f3
f7
fc
7a
06
05
01
05
f9
01
0e
fc
f9
06
fd
fc
fb
02
04
02
05
00
0a
01
02
03
fe
05
f6
f5
02
0a
f9
ff
05
0a
02
00
fe
f8
fc
1d
04
05
06
f7
f7
04
fb
08
ff
f1
fc
01
fa
f4
e6
04
f9
03
05
00
fa
03
f5
fb
08
00
f9
00
fe
ff
20
ff
04
ff
ff
fc
00
06
fc
0b
fc
0a
f4
0d
05
14
04
10
06
f0
0e
1e
fd
f6
0a
00
f3
fe
ed
fa
05
02
00
fa
0a
03
07
f4
fd
03
f8
e2
f3
0a
e3
03
03
20
f6
0f
eb
01
35
f6
0d
0d
0a
0b
f5
bc
fa
f4
fa
f5
f9
09
13
07
0c
0a
f9
05
08
02
ff
0a
fd
e6
fe
12
14
e3
0f
07
ff
ed
03
f3
fe
10
12
f6
fb
f2
07
0a
f6
fe
0a
0f
f4
10
f5
f4
f2
fd
fb
ff
f1
0f
f2
08
15
18
f6
f8
05
f1
f6
0d
fc
06
fa
fd
f7
05
fc
f0
e8
05
11
f7
05
ec
04
f0
ef
fe
f8
01
06
09
2c
f7
02
f4
fc
02
f3
06
08
00
06
05
f2
fb
0c
11
11
fd
ff
0e
09
fb
09
11
fd
04
f6
d2
1b
fb
0b
f9
f0
f5
01
f2
fe
ff
30
0b
00
f9
ff
fc
02
c6
19
03
fb
0c
02
04
ec
14
05
f5
fc
f7
fd
f9
08
fe
11
fb
06
05
ee
ff
f8
f7
f2
01
16
0b
00
08
f8
09
0a
fd
00
fb
fd
dd
eb
ff
09
02
02
09
fd
05
f9
fb
fb
0e
00
f1
0e
04
fa
00
fd
f6
09
0c
fc
00
ee
0d
05
f6
02
0d
cd
00
f1
01
f9
fc
0e
fb
0a
ff
09
01
08
fb
1a
01
f1
05
e1
02
0f
f5
fa
13
fe
00
0a
fc
0f
0c
f2
ff
08
fa
f6
f4
02
f7
f8
f6
ff
d5
22
f7
09
0d
e0
ee
f8
f8
12
00
0e
f8
06
0d
f1
05
f8
e6
10
1b
01
12
f0
04
e8
ff
08
fd
02
f9
f6
05
0e
f5
fd
f5
f6
f3
07
19
fe
fd
f8
0d
00
0e
06
0e
0d
08
0c
03
0c
f8
02
e5
db
f1
ff
01
09
f9
04
ff
0f
05
0f
05
03
0d
0f
ef
04
03
fa
08
09
fa
02
ec
ee
0a
fb
03
f3
0a
d3
f7
fd
09
03
11
10
08
13
01
0a
fa
03
07
ef
fb
00
fd
fd
08
f6
fd
fb
fb
fd
ff
fe
08
04
f5
f4
f5
f7
08
f2
f5
02
02
ff
05
0b
2a
ec
f1
07
ff
e6
f5
01
f7
05
05
c8
06
fa
fa
03
e9
f9
45
05
fe
02
02
04
f9
f7
ff
fc
fb
06
f2
fd
02
0a
f8
05
ff
06
07
f3
03
09
f4
08
16
01
fc
05
ff
ff
01
fd
f4
08
ff
fe
16
ff
f4
fa
00
11
07
02
0b
05
01
fc
f9
fe
06
f2
06
fd
03
f5
ff
05
0b
06
fc
02
02
04
03
01
01
18
f0
ff
04
f6
ff
04
14
04
0c
fb
fb
fa
fa
d4
f9
03
fb
0e
08
09
ee
00
fa
f1
11
0a
12
0f
02
02
fd
ff
ef
f0
fe
07
fc
11
f5
15
03
e7
00
04
07
27
08
0e
0e
0c
00
fc
0a
eb
00
fe
f6
f3
11
e1
02
0e
01
04
f5
14
e5
01
f9
eb
fc
fb
fe
fa
f0
fc
11
10
fb
fc
e6
f6
f9
fe
0a
f4
fe
f9
f3
fb
f2
eb
20
fe
fb
fc
18
01
fa
f6
fc
10
07
f3
04
0a
0f
0a
f2
02
f3
09
fb
14
08
fd
09
05
dd
04
04
18
01
f9
f6
06
ff
25
01
00
fe
f2
06
eb
19
fd
0d
01
15
04
11
fd
f6
24
0b
fd
04
d6
04
1e
e3
dd
ed
f1
02
fc
11
01
f5
e7
0b
f2
f6
08
08
f6
ec
0b
f0
01
ee
0b
ef
f6
fb
fa
dd
fd
02
ed
18
f7
0b
05
e9
f1
27
0d
fc
03
1b
1e
f0
f5
f8
fe
fa
11
f9
03
f5
20
ff
15
0c
1a
14
fb
fc
f2
fd
05
ff
23
f2
03
f7
f3
0b
28
ea
f7
ed
f6
12
0b
09
0c
fa
00
03
fc
15
fc
03
f4
fb
fb
ec
ef
12
03
0a
ec
f7
f3
f9
06
13
09
ee
09
ea
07
f2
03
04
06
12
06
f9
e1
11
e5
09
17
fb
fa
0b
01
07
fa
01
f5
06
01
05
04
07
04
f8
ec
15
f8
01
05
10
0a
ff
b2
0a
f6
00
0a
02
f8
c5
fe
01
06
fb
36
02
fd
03
f4
f7
fb
18
08
16
e7
17
f8
77
fd
f9
f8
f3
06
00
0d
fd
fd
fe
06
03
f4
02
09
0b
fb
01
05
05
0b
10
f0
f8
fd
eb
06
04
f4
0f
fc
fc
0a
03
f7
07
fb
0a
b6
05
04
f2
f2
00
06
f2
f1
fb
fe
01
fb
f8
f0
f7
f9
fa
08
f4
01
fd
00
09
11
f4
08
fc
02
07
30
f7
00
fc
0b
f7
f0
f0
0e
07
00
f6
03
fd
f6
02
07
02
0d
fc
fa
f3
fd
f9
00
fa
01
13
fd
09
fe
04
08
00
10
f5
ec
fc
0e
0b
f5
3c
db
05
fc
f8
1e
06
fa
fe
fc
f7
de
06
f3
f1
07
07
f6
ed
f3
f3
11
0c
03
00
05
ee
03
f7
03
04
03
06
fb
f5
03
0b
08
f9
fd
f6
00
06
01
0f
00
f9
0e
f6
02
f8
ff
02
f2
fe
fb
0f
37
fa
f6
0e
0a
00
00
05
fe
08
08
f9
09
fe
e9
f1
fa
01
00
02
fa
f8
09
04
fe
ff
f6
01
eb
f9
17
fd
08
0b
fd
04
f1
02
fc
f3
f0
f5
04
f4
dd
0d
ed
ef
09
e8
fc
f7
e8
f5
04
17
02
fe
f3
fc
e6
02
04
ed
21
06
f4
f5
17
ff
f5
3c
f3
19
fa
13
08
15
01
15
1b
00
ca
ea
f3
0f
f2
19
11
15
e4
03
22
09
0d
07
e4
07
07
f6
ea
ff
12
ee
eb
f4
12
f3
ec
fc
f4
fb
10
0d
0d
ef
ff
e8
1e
f0
07
e3
13
f3
14
fc
f8
27
10
f0
e7
04
17
ef
f9
fd
07
02
1a
07
15
2b
f7
e4
0d
e6
13
18
0a
f4
08
e4
07
1b
fc
f8
fd
fc
01
17
06
01
ed
13
04
04
f7
f7
ef
0a
f9
fa
e9
0f
0c
fa
06
e3
03
f2
05
f7
0c
13
f7
fc
f4
15
fa
f3
05
09
00
fa
03
06
ff
f1
d9
ca
0f
10
e7
fd
0c
24
00
21
04
18
1f
fa
02
10
0a
23
12
0e
ff
f7
0c
f4
eb
06
04
f2
00
00
ef
02
09
e9
f8
02
fd
ed
db
f4
0c
f2
11
23
14
01
fa
f1
eb
03
08
f7
0b
17
03
f8
08
fb
ce
1d
fb
08
ff
0a
f2
06
09
08
10
f5
f7
09
0d
fb
10
f7
f8
03
f3
fd
07
f6
f2
05
f6
f7
f8
f5
fe
07
06
e9
01
ff
12
f9
f7
05
f1
fb
09
01
ed
fe
09
fa
02
13
f5
00
0a
fd
03
f4
fd
07
fd
fe
03
f9
f9
fc
19
f8
05
fc
00
fa
06
36
f1
ed
08
fa
f2
09
04
f4
f4
05
df
02
fb
00
00
f9
01
c5
01
f4
f0
ff
09
f4
11
00
f2
07
01
0d
f9
fd
05
00
fb
0b
05
fd
0d
03
f0
06
00
03
f5
fd
05
fb
fa
02
03
0c
f7
f8
07
17
45
fc
fc
f3
f2
0e
0b
15
fa
ff
f9
fd
fa
fc
fe
14
04
10
0e
fa
0c
01
f6
08
09
f6
03
fb
0b
f6
0f
f9
03
ff
0a
fb
f2
08
f7
fc
de
04
ed
ff
e5
09
e9
00
06
02
06
0c
0d
06
f7
f8
fc
20
fb
f7
06
0a
e5
02
18
fe
0a
04
16
07
11
11
db
f0
12
e8
06
13
0d
05
f9
05
00
04
fe
fc
01
ec
f9
c8
fb
04
10
0a
09
f3
14
f2
e4
02
0a
f2
f2
0b
fa
03
01
13
14
11
0d
ec
fb
f9
f9
e9
09
fb
f7
07
f5
00
f3
08
05
e7
fc
10
46
13
08
ec
f6
fe
09
f3
0c
f6
fd
ff
f4
03
07
f8
fc
0c
f6
01
05
f6
05
07
01
02
0b
e7
fd
fb
12
04
0c
fb
fd
01
e9
0b
0b
ef
f3
08
f3
02
05
0e
ec
03
0d
e9
14
ef
f8
15
17
fb
11
18
12
f7
f9
0f
08
03
fa
07
e8
f2
03
0c
0c
ee
2a
11
f6
04
09
0f
f8
14
ff
0a
f5
ef
0b
ed
ee
f8
f8
b6
fd
06
10
f1
f8
f4
0a
f8
f6
09
f7
fc
17
f8
07
10
f4
fd
fa
f1
1f
f9
12
09
03
ef
fa
08
08
1a
07
05
13
12
fd
07
26
f8
12
25
ec
09
0f
f0
ed
02
03
f1
0b
00
08
04
fc
df
08
f0
ff
0b
ec
e5
f7
f0
f8
00
01
21
fa
02
f3
06
0a
12
f3
0b
fb
f5
0c
07
01
02
08
04
e0
f4
06
fb
eb
01
f7
05
f9
04
f5
12
05
04
f9
f8
fd
fb
03
0a
08
f2
02
fc
00
09
ef
47
02
fc
08
09
f3
ef
ff
fc
11
06
bc
f7
fa
f9
02
f4
fe
1d
fa
fa
fa
f7
fc
00
fa
f9
ee
ff
03
f8
02
ff
ff
fe
f4
f0
e8
f5
ed
10
f8
f9
06
0d
06
fd
11
fc
00
03
02
fd
f7
0a
03
05
2a
fd
fb
09
05
0a
01
06
ff
00
07
11
05
08
dd
02
11
fd
fa
fc
10
09
05
0b
02
00
07
fc
02
00
13
f4
0d
fa
ff
04
12
0e
00
02
04
0a
04
0b
fa
f8
04
f2
fb
04
fd
fe
09
04
02
f7
f8
0d
05
08
06
ff
04
0d
dc
03
f3
14
01
0d
01
cd
0c
03
0f
f1
17
0c
0d
fe
05
f8
17
09
fc
02
03
07
0d
2c
03
0b
00
ff
fe
fb
f3
fd
fb
09
fe
02
ff
0b
0a
ee
f1
02
fe
02
02
06
fc
f9
07
06
f4
03
f0
0a
f6
02
02
15
f0
f7
10
01
d1
ff
03
f6
03
02
04
f2
03
10
fe
08
07
fb
f5
03
f7
01
f1
f4
fc
fb
15
00
f2
02
06
f7
fc
fa
1e
f9
01
f5
f9
ff
f7
f7
06
08
f8
06
00
10
f2
08
ff
0b
0b
ed
ff
fb
06
02
06
fc
f7
0e
04
07
05
ed
fe
0b
0e
f8
03
fd
f1
0b
04
2a
ef
fa
03
fc
fe
06
07
0f
00
f5
de
f2
fb
fc
f3
01
fa
f9
07
06
f9
03
fe
e6
f8
02
f3
07
f5
f7
03
02
fa
0e
01
06
07
f4
0f
fb
09
0a
0d
02
e9
01
0c
fe
f0
fa
f0
10
fc
fe
11
03
24
02
0a
f8
e6
08
f1
f7
fd
06
06
f9
08
01
fd
00
fb
03
f6
fd
18
f6
03
0c
fb
fc
03
f2
00
f3
05
02
07
f2
fb
fc
e6
1b
fe
00
ec
01
0d
f5
05
e7
fd
01
ef
06
0f
f2
f3
12
f4
ff
15
f1
12
fe
0f
fe
fe
fb
1a
1b
f9
ff
fd
ef
fa
03
07
09
fe
fb
00
fe
0e
f3
0a
09
f6
f5
ff
06
f1
fa
12
fb
01
18
fc
f5
00
0f
fb
e2
fe
f9
05
0a
0b
05
ff
02
f5
f8
ec
00
e0
21
ed
fa
fc
fa
16
fe
fb
ea
f0
08
f5
f7
fc
04
04
fd
10
f5
f6
fa
05
fb
fc
0a
02
00
1b
10
fb
f0
f7
f6
07
13
02
06
01
02
fc
08
f7
0b
fe
0e
0e
0d
fb
09
07
fc
f6
0a
01
fa
03
eb
f6
ff
17
fa
15
f6
0b
08
07
eb
fd
f7
f4
14
12
04
0f
0c
12
04
12
fd
ed
f9
04
0c
01
f6
07
01
05
01
0d
f4
1a
08
f0
0c
f5
f6
08
fe
ed
00
fe
fe
f6
09
ff
f5
f0
f6
f7
fa
06
03
e7
09
e6
14
fb
f9
eb
fb
f6
1b
14
fc
fa
fa
0a
fd
fe
00
fc
f8
06
fe
db
08
17
f5
f8
0a
0a
09
0f
f3
f2
08
0a
03
03
ed
ee
07
03
06
09
f4
03
03
ff
ff
01
10
fb
0a
09
0a
f9
fa
04
0a
ef
ee
0a
15
02
f5
fd
0a
f4
ea
1a
f0
08
01
03
05
fd
f0
f4
fb
f6
f2
0d
09
f4
f2
0a
e9
fb
ff
01
00
0a
01
f8
f8
09
09
15
00
fe
15
f3
fe
03
32
fa
06
04
fa
f4
fc
08
ff
06
f8
df
e9
f9
f0
03
14
04
fe
01
03
04
00
fe
0b
08
15
f9
fd
0c
f8
0e
08
02
f5
f9
06
ff
f5
ff
f9
02
03
09
fe
00
f0
01
fe
f7
06
01
0b
00
03
08
06
1f
07
fe
05
f8
fb
f4
fa
ff
0a
f7
06
fc
00
ef
09
ff
f8
08
fb
fe
07
06
fe
f9
fd
fe
ff
f7
f0
08
ff
fc
f4
0c
f4
fc
fd
02
ff
05
fb
04
f6
07
f6
fe
fc
03
0a
0f
04
fb
ff
f9
15
18
e4
f8
f9
fc
fb
00
03
0f
f7
fd
03
02
f6
07
23
fc
01
04
f2
fd
f2
fc
f6
06
fa
e4
f3
f8
ff
fb
f6
02
05
fb
06
02
02
f5
16
fb
f8
e6
fa
09
0d
11
fc
06
f2
f9
08
f5
f6
fa
0a
fb
fb
08
18
fa
05
fc
f6
12
12
f7
03
fa
07
fd
fc
03
ec
05
06
06
fb
fd
0a
0b
0a
04
06
02
05
f1
fc
04
f8
07
02
0d
0b
ff
f9
00
03
fb
05
01
06
03
08
fe
01
fb
02
fe
01
ff
f9
fb
00
fe
01
0e
09
02
04
07
fa
09
fb
00
ff
07
fb
05
07
0e
ff
00
04
fb
01
fd
05
fd
f9
01
0b
06
ea
00
ff
f9
02
06
01
0a
05
ee
01
31
04
f9
02
03
fd
03
d5
f6
fe
08
00
04
fb
01
fb
15
fc
03
00
01
03
03
fa
02
07
0b
02
02
eb
01
03
ff
f3
f8
f8
f9
03
01
fd
fd
06
05
fb
02
f9
fc
02
ff
ff
f9
02
08
fa
04
06
fc
f7
01
04
15
fd
fa
07
05
06
fb
f5
06
0d
05
04
fb
ff
ff
02
f0
f7
fc
00
ff
02
f3
08
fc
02
fe
f9
f4
f9
0b
00
fa
00
fb
0e
02
01
fd
03
fb
05
fc
06
0e
fe
06
f3
02
02
fa
04
0e
02
fd
03
02
d9
0f
04
07
01
0a
05
02
fd
05
07
2c
05
08
fd
01
04
ff
ee
02
0a
0c
05
fd
f5
f8
04
05
ff
06
f6
fd
fb
0a
0c
fe
02
01
fc
05
ef
0c
01
07
00
fc
ff
f9
ff
fe
ff
00
fc
01
f9
00
ef
e8
05
03
00
f7
fa
f2
fb
00
08
04
02
00
00
0b
03
fc
fb
03
fb
08
04
fb
09
ff
04
fa
03
ff
07
f0
f6
06
f0
0f
01
f5
0d
00
0c
0c
05
f8
06
f3
f3
fd
02
fc
0b
00
fc
09
02
ff
04
02
08
0a
08
f5
09
fe
01
f7
0c
fd
fd
04
fc
04
1f
f3
fe
f8
ff
0b
02
00
f8
03
06
db
04
fb
05
05
03
f6
35
fa
fe
03
07
00
02
06
fb
ea
03
04
fb
04
fd
07
00
fb
06
07
07
fb
01
0e
fa
fa
0a
f6
ea
f6
02
f8
fc
04
0b
f7
ef
0c
04
09
fa
0d
f3
01
fa
06
03
0c
fe
0b
0a
fd
f4
f8
fb
0b
02
04
f9
00
f4
0d
f9
fd
f3
f9
fa
f9
01
1f
fb
fc
01
01
01
e3
f9
07
f5
15
fc
11
00
01
01
07
f8
fc
02
e7
fc
e6
12
0e
01
00
f7
f3
10
02
f9
14
f5
e8
02
ff
fd
f9
f8
03
06
08
01
0d
02
fb
05
f6
f6
f8
f8
fb
f5
f8
0c
ec
01
ef
43
fd
f6
07
00
06
07
ef
fd
06
fe
fd
f6
fe
ff
09
05
17
ef
00
ff
fd
0a
0a
08
fa
02
01
08
f5
05
09
f1
17
f1
0a
03
08
0b
de
00
ff
01
00
00
f4
0a
00
07
07
e6
01
08
fa
01
02
04
fd
07
fa
fe
00
fd
04
0c
fe
0a
f6
fa
05
04
06
03
f9
fb
fc
f1
fa
fa
10
f7
f0
0d
03
05
03
02
0d
ff
0c
fc
03
f6
fc
fe
01
f9
f1
04
fb
00
03
0f
f7
0c
0c
f1
fd
0a
ff
02
fa
f8
f6
f3
1e
f6
1a
06
f7
01
ea
f9
fa
11
e9
fb
03
3c
02
06
06
ff
f7
00
07
fd
01
ff
04
f4
fc
01
f7
f9
fb
09
05
f7
e6
0e
f3
f3
fe
e9
13
0c
fb
02
ff
ff
05
f5
04
fd
f8
06
ee
03
f9
eb
fd
ff
02
00
fe
fc
ee
12
f3
ec
fe
ee
01
08
f4
00
fb
0c
00
0e
0f
17
03
01
fe
12
0f
09
06
02
01
0e
04
16
fd
0d
fe
05
0b
f6
05
f8
04
01
08
ff
ea
f4
f4
f6
0e
01
f7
fb
fd
0b
02
09
06
f5
08
01
03
10
fe
fb
01
ef
14
fd
07
f6
f5
14
fe
fe
fd
f3
25
02
00
fa
07
0f
fc
c5
f3
f7
06
02
08
04
fa
0f
f5
0a
06
00
f8
fb
fc
f9
06
fa
fc
f7
0b
f1
fe
fe
f4
fe
00
01
fb
05
00
f3
06
1a
06
00
14
f8
ff
11
fe
fd
0a
00
fc
0c
0a
0d
08
f8
fd
0e
0a
02
02
01
f4
fe
f0
fe
00
fc
04
03
ff
06
00
03
ed
09
fb
00
07
fe
fa
fc
f5
f0
d4
0f
f1
02
de
01
19
13
f1
fa
02
f5
07
09
00
12
fe
0e
08
04
09
02
02
02
e8
f7
f5
fe
14
03
ed
1b
f1
0d
f0
0b
06
fe
fb
ff
01
03
f6
ff
0f
04
0c
f5
0c
0f
00
f8
12
de
0b
f5
f7
e3
20
f7
ee
05
0a
fa
fa
f7
fa
ef
ec
f8
07
f0
fa
0a
0f
03
fa
08
0e
f5
f4
f9
00
00
05
19
f5
12
08
10
da
0c
fd
f6
ef
12
04
0a
04
f7
03
12
fb
07
fe
01
02
02
07
05
ed
11
02
de
fe
03
06
09
05
04
02
07
06
f4
ff
08
fd
01
05
fe
01
fd
f6
fc
f4
fd
fd
05
fa
03
fb
04
07
04
00
00
03
fd
fc
06
05
fb
0f
fe
fb
09
03
09
fd
30
f3
00
fe
01
f2
03
00
fd
ff
fe
e5
f6
00
f9
03
f3
04
06
06
07
fb
f8
f9
fb
00
f1
f7
fa
fe
06
fb
fb
ff
00
01
f8
f3
02
fe
13
ff
fc
fd
0c
fd
fd
08
fc
03
04
09
fb
fa
f8
07
0f
22
fa
fd
01
02
ff
05
04
fd
03
03
fc
07
fa
ee
ff
fb
07
f5
02
00
fb
ff
fa
02
09
fb
05
fb
08
17
03
07
fd
fc
03
01
f7
03
f8
f9
01
fe
0e
04
f4
0c
f5
01
03
f4
01
f8
09
fd
03
09
03
f7
17
fd
02
05
03
25
02
06
f7
fa
00
07
13
0f
fc
08
ff
e7
09
0d
ea
04
fd
fc
ee
f8
f6
0d
ff
f8
b7
0d
00
03
16
ff
fe
f0
02
f9
07
f8
fc
08
05
ff
ff
04
f9
02
09
f8
08
09
ff
fc
12
05
07
07
0a
f7
f2
1b
ee
fd
f3
04
ff
20
fe
02
f6
09
ff
02
04
0a
01
fc
09
06
f9
10
fd
09
08
f4
fb
ff
01
0f
f9
e8
0a
05
f7
f4
00
ec
05
02
07
f6
07
05
f9
08
02
fe
0a
14
f7
02
f2
ea
fc
fc
f0
fc
f8
fe
f3
03
f9
f3
04
00
13
f7
f9
0b
f8
f7
0c
ff
07
ef
02
0e
f1
05
f7
ff
f3
e7
f6
fe
0b
04
f7
0f
fa
00
02
0d
1e
e9
0a
00
f9
fe
0d
f7
f1
ed
05
0b
0c
02
fa
04
14
04
06
08
fb
04
1f
15
01
0b
fb
e5
0b
09
12
f5
ef
f0
08
04
15
04
02
04
f9
f9
02
08
ec
09
f4
fa
0b
13
f3
fe
f6
0a
01
0a
f5
03
f8
04
12
f0
f3
1c
ff
15
f3
0b
f6
07
f4
fb
09
f7
fd
01
f2
02
00
0f
e9
f7
ff
02
fb
04
fb
02
02
05
f7
00
06
02
00
00
01
02
0d
07
04
fc
f7
01
ff
03
00
09
05
fa
07
03
fd
09
05
0f
f1
00
06
0a
ff
09
05
fc
f9
02
fa
ff
09
09
02
fd
fe
07
f5
00
fc
f8
ff
f3
ff
02
03
00
05
f8
06
02
0b
fc
09
fe
02
01
00
fc
ff
ff
04
f5
fc
00
01
06
04
f8
fa
13
07
01
04
06
03
fd
02
04
09
01
02
03
05
03
ee
00
f1
06
06
fa
04
0a
ff
03
04
fd
02
f8
f5
04
06
02
03
fb
f7
00
06
08
04
fe
fe
01
ff
fe
fa
03
f8
02
fd
05
04
02
f6
08
04
0d
ff
08
08
06
f6
0f
03
00
08
fc
04
f3
ed
f9
10
02
00
0d
06
f7
06
02
01
f7
fc
f8
01
fb
fe
02
fb
fd
ff
fe
03
01
fe
02
fc
fd
ed
05
fa
0d
fd
0d
fa
fb
fc
07
fb
08
02
00
fe
00
fc
fa
07
00
07
04
02
0b
00
fe
07
0a
04
f1
04
08
fe
02
01
fc
05
04
02
04
07
f9
fb
fc
04
0a
fc
fc
02
fa
ff
02
03
f2
fc
01
09
f6
fd
fa
08
fc
fe
fb
f7
01
01
ff
0b
f8
fb
f7
01
04
f5
15
fe
ff
f5
f9
04
fa
ff
ff
ff
fb
fe
0a
ed
0d
f7
fb
0b
fa
f9
01
f4
02
f7
09
01
ff
fb
04
02
fc
fd
fe
f8
04
07
fd
02
01
03
02
0b
fa
06
ff
03
f8
fc
04
f5
ff
fe
f8
07
00
ff
fe
f9
fd
08
02
fb
f9
f7
fb
01
04
01
02
01
04
00
f8
07
fd
ff
fd
fb
ff
ff
fe
fe
fe
06
fd
f9
fd
f9
ff
0d
00
06
03
fd
05
fc
04
02
fb
fa
fc
fe
08
ff
00
fc
fa
06
fa
04
08
01
f5
09
01
fa
07
fb
03
05
0b
04
fb
f5
07
fb
fd
f8
f7
f5
00
0b
09
f6
06
02
ff
ff
02
fe
f7
06
f8
fb
03
ff
02
00
02
0b
fd
ff
0a
03
06
04
02
03
fe
00
01
fe
02
ff
01
fc
fb
07
03
f5
02
f8
fc
fb
fd
01
00
fa
f4
07
fe
0d
05
fe
07
f8
fe
01
f6
fc
00
f1
f5
02
fe
05
03
fb
15
0b
01
05
04
02
00
03
01
04
04
f6
03
05
f9
fe
fb
05
05
06
02
ff
02
0f
fd
07
fd
fa
02
02
00
f8
00
02
04
f5
f7
00
03
f8
07
f4
f7
01
f6
04
fd
ef
0d
fd
f9
ed
06
03
00
05
fe
04
05
04
ff
03
fd
ef
05
f8
05
06
ff
f7
05
09
fa
07
03
0b
06
fa
fe
07
ff
f7
00
f9
07
eb
00
fe
fd
f8
fb
fb
fb
fc
05
fe
05
09
fe
05
f5
07
f8
04
04
fe
fa
0d
