fb
cd
01
0d
ec
01
0b
fa
10
03
f5
f7
f9
16
e8
0b
df
fe
f3
18
ff
09
ea
e5
f0
23
11
ff
0f
fe
eb
10
fa
fc
04
f3
11
d8
16
05
ed
f8
02
16
fa
03
e3
fc
01
ec
e3
ef
f7
18
fe
11
f5
09
05
fb
00
03
ff
ef
00
f3
fa
09
0c
09
01
03
f4
09
02
04
ff
f4
fe
fd
f3
ff
05
00
20
00
fe
05
0e
2f
ef
1f
04
f3
17
e3
15
ef
f4
0e
f3
03
f8
14
1a
05
f1
da
0d
fd
f6
1a
f3
10
f6
16
f6
ff
ff
eb
ed
f5
16
0e
09
f3
13
ff
f4
01
e8
09
eb
13
19
f9
0d
01
e1
f7
09
fd
f5
07
12
ef
09
01
f1
ff
19
dc
ff
d1
fb
f1
f8
06
01
ee
e5
fb
11
fb
fd
2c
22
fd
01
f1
f3
12
08
0c
0f
fa
10
fa
21
10
0a
0e
f3
f5
fd
04
0a
0e
f4
f0
f9
05
f8
fb
0c
fa
10
00
0f
13
0e
ff
f8
fc
15
01
06
0a
08
09
01
02
14
f8
ff
11
fb
81
0d
f0
04
04
fa
ec
f8
f4
05
fd
f1
0a
10
00
00
0b
f2
f8
0d
0c
0b
e1
f5
fa
08
f2
fd
15
07
fb
f8
14
e2
f4
ed
e7
01
06
12
19
03
11
0a
fc
e8
ef
f4
f6
f9
0b
08
ee
09
07
1a
e6
fb
e8
f9
f9
f8
20
02
0f
fd
09
15
01
05
f9
23
f8
f9
10
f7
ef
04
f6
26
05
06
e6
fd
fb
1a
e7
e9
f1
2a
f2
0e
ea
0b
fd
fc
f3
f9
f1
02
f2
08
0f
0c
fa
f1
0f
03
f6
05
f0
04
0f
06
00
f7
02
15
f1
13
03
fb
0c
e0
f3
06
f3
f3
06
f8
ff
f0
16
00
0d
04
ff
ff
ec
03
ed
00
e7
ef
0b
fc
08
15
f9
0a
04
02
10
07
0c
15
f7
ff
1f
f3
03
f8
f9
f7
17
02
1d
fd
e6
0b
0e
f4
06
fb
1a
f0
07
0d
11
e4
13
03
00
ea
1b
04
08
f4
0e
f5
f0
08
18
ef
0b
0b
f0
10
0f
f1
f6
0a
eb
15
12
1c
15
cf
ea
16
e6
fa
e8
f7
ee
12
14
13
ea
eb
24
16
f5
d4
09
fc
f7
fe
fb
07
ef
fd
16
03
06
00
ff
01
01
03
fb
00
04
0a
f3
1a
f9
1e
f9
f9
fc
03
0b
fa
0e
0c
04
f0
f3
e9
de
21
e5
ff
06
e5
f0
ff
0e
03
1a
d7
10
05
fc
07
f4
fd
f4
1f
19
ff
13
f9
22
f9
e4
00
01
0a
fc
ff
f1
0f
f4
07
13
03
e6
f0
eb
0e
f9
05
fa
ce
f4
09
fc
07
12
f9
00
07
ee
09
07
01
f2
f2
fb
ff
18
07
e4
ec
0c
1b
03
09
0e
f5
f5
d8
fa
10
0b
08
d3
ef
08
f2
f7
0c
07
fc
26
01
f2
dd
f1
0e
ec
17
1d
ef
06
13
10
fa
fb
04
00
fc
08
f3
12
f7
01
ff
f7
f8
15
06
05
fc
0c
02
fe
08
11
fb
f0
08
16
0b
f8
ea
20
ff
03
f0
f5
0b
03
1c
f6
0f
f4
11
f9
ec
08
09
10
00
02
f3
f2
11
11
0f
01
fb
12
09
f5
ee
11
fa
26
d6
fd
0b
03
0a
d9
ed
e6
fb
20
e9
f1
12
23
0c
09
0c
e7
f4
0e
11
06
f4
0b
01
0e
00
0f
04
12
06
1a
1e
03
29
e4
fe
05
fa
1d
e8
0b
ff
ff
15
e8
f0
f4
fc
f7
f0
08
08
02
01
00
11
f4
06
fe
f4
f7
ef
fd
05
f9
f1
0f
02
ff
f8
f0
09
07
fc
02
f8
01
f1
04
fa
fc
06
f9
02
e5
ef
0b
00
e6
ff
15
f1
16
f5
e5
fd
1c
0b
f7
e1
ea
fb
11
e9
ec
ef
fb
16
07
f8
01
0e
f6
14
fb
f0
14
13
00
f4
00
07
17
00
09
10
00
ff
0b
11
12
06
05
f6
09
fe
17
12
f7
ff
01
07
f2
13
05
17
f7
f9
fa
06
08
16
0f
f3
fa
0b
1a
f5
eb
0e
07
cc
1f
fd
0a
0b
e7
ec
03
e8
05
fe
06
0c
ed
13
fd
0e
f5
1e
07
05
00
ec
f4
ef
e7
f2
06
0b
f5
f5
ff
f3
14
08
f6
f5
07
04
ff
fe
09
f1
f0
f0
01
09
06
0b
fd
07
03
04
08
0f
fc
e2
cf
05
ec
fc
2a
ef
0e
f6
f9
06
f8
02
02
0e
ff
0c
07
14
04
f5
fb
16
fa
e3
09
0e
05
01
00
05
0e
0a
07
ff
ed
fc
03
ee
00
07
e9
0b
fb
f7
01
fe
f6
f0
08
fd
00
05
09
ef
0a
f0
0b
f2
04
13
f8
e8
ff
fe
0e
f2
07
10
f3
f7
14
15
fb
f4
05
0f
e8
f4
fd
f8
04
fc
fe
ef
fe
d5
f6
ec
02
cb
01
f3
fd
00
01
fc
f3
fe
ef
0d
16
02
f5
f5
f7
00
0c
f4
0f
f9
fe
f8
05
02
fa
f3
ff
f2
00
f8
0e
01
f5
0c
05
f4
f6
f0
46
e7
11
03
03
f5
f1
fd
ef
ff
06
02
f0
0d
0e
20
05
f7
f3
04
09
f0
1a
00
fb
ef
08
f0
e8
0f
f8
d9
f2
17
0d
10
02
10
f4
fc
f4
0f
07
05
12
fe
0e
10
0b
e4
eb
f6
f3
0b
07
f7
06
ef
f7
02
02
f0
da
fb
f0
f7
08
fc
f6
fc
02
d4
0a
0e
0e
05
de
f5
ff
d2
04
f3
28
08
0d
ff
1a
1d
02
f5
12
fc
ff
ea
fa
00
e4
0a
fb
01
ff
0f
fe
ec
f6
fc
fd
08
0a
fd
1e
fb
0e
fe
e8
fa
f2
06
1c
fc
f5
03
00
1d
0a
0c
06
f1
f3
03
f2
fb
1f
03
02
03
fb
11
08
0d
09
15
16
0b
f9
e5
03
0b
06
f8
00
ee
fc
ff
00
f9
ff
fb
f2
fb
fc
04
00
ef
fd
f3
f6
f8
e9
f4
03
12
0d
0d
f4
02
00
15
0b
01
0a
f7
de
f4
0d
f4
0e
fc
12
ee
ec
f7
e0
06
0b
09
00
fa
05
c3
00
05
00
03
fe
0d
ff
d2
0c
06
43
01
0c
e2
21
f4
06
e6
f8
0b
14
00
fe
11
00
06
fd
f4
f8
fa
e7
06
01
f7
01
fc
02
07
f5
10
02
fd
0e
0b
00
06
f8
ec
fc
f4
f3
1a
f4
fd
fa
00
ee
fd
14
24
f3
fc
e8
10
f7
fc
13
07
04
eb
1b
ff
0a
fa
dd
0a
10
f0
05
0d
de
fa
ec
ee
02
01
e8
07
15
0a
00
14
f5
1b
f3
fc
0f
0d
09
04
01
04
f1
ff
04
13
ff
07
17
eb
03
ed
fc
f8
08
0d
05
f3
10
12
2e
01
f3
0f
ea
f5
12
24
f4
fb
fb
f2
ed
03
e9
fb
ff
fc
fc
f4
05
f6
f4
e3
fa
f0
03
08
02
fe
03
09
0b
ff
f7
0a
17
0b
f7
11
1a
fc
0d
fd
09
fa
fb
06
05
1a
00
fc
06
ff
f2
fd
07
f9
0a
04
fe
0c
fe
1b
34
ee
12
06
f4
fd
ff
0b
f5
ea
f1
0b
f7
fd
f6
10
ec
e9
e6
04
e6
f3
06
00
ec
08
ee
05
e9
0d
fe
d7
ed
18
fe
05
f2
0b
fd
03
10
f4
0d
07
f3
02
f3
04
19
00
e9
fd
00
07
09
0c
df
04
0a
f3
0d
13
2b
08
0f
06
ea
f4
16
ff
ea
0e
fe
05
08
f2
03
1b
ea
3d
ff
f8
ed
fe
04
03
0c
ff
f8
03
e5
04
0e
03
09
ff
0d
fe
f6
05
fc
ee
16
0a
01
fa
fc
04
fb
0b
08
fe
04
0a
18
f7
fa
ee
07
06
07
fc
11
f8
e1
05
0f
09
e8
02
f4
0c
fe
f3
07
f6
03
0a
fd
f8
ec
0d
da
f9
ef
f0
02
f8
04
02
f7
f1
1a
f7
01
f7
0f
05
1c
0f
ed
fc
e8
f7
04
fe
ee
f9
f6
fb
0f
1c
0f
ea
fc
f5
08
f2
fa
f3
03
01
f1
f9
04
f2
04
04
f5
f5
04
f8
15
ff
ea
fe
12
f1
fe
0a
eb
ec
03
e3
ea
06
01
f9
fd
f8
34
fc
11
fe
21
e2
f5
da
ed
03
05
03
0f
03
10
07
f8
03
02
fc
fb
0c
fc
fb
0f
02
02
f2
e7
f8
01
0d
0a
fa
f5
eb
ff
f3
fc
f2
1f
07
f0
fd
f4
f8
1c
04
0d
07
09
e9
fb
09
0e
10
1a
05
f5
f5
2a
02
e4
ff
f9
f0
f2
07
ed
ea
fd
e3
e4
ff
ff
12
f3
0c
fa
24
00
0b
fc
19
18
fa
0a
fc
14
05
0d
09
fa
0a
ff
f7
f3
01
ff
0d
13
03
ea
f1
d8
ff
09
f9
24
0f
27
fd
fd
f1
fa
0a
f7
48
00
fb
ff
eb
ff
fe
f2
31
fe
fc
d7
db
02
00
fb
eb
fb
ed
ec
0f
e4
ef
21
08
fe
ff
08
04
f5
fd
09
f5
e6
02
01
f8
03
ff
01
fd
f7
16
f0
dd
05
10
16
ed
0b
fd
15
e6
03
10
f4
10
5c
10
fc
03
07
f3
10
0f
0e
ff
0e
ff
08
ff
08
0c
f8
f2
02
02
0b
fd
01
03
0f
00
f4
ff
06
03
09
02
ff
f0
e6
fe
03
01
fb
0d
03
f7
f8
0e
25
f6
05
00
11
0e
f5
18
fe
02
eb
08
f0
ea
fe
fe
09
13
10
0a
e1
0f
08
f4
f6
0a
f9
b7
26
fd
0c
06
f9
e8
03
db
01
01
25
20
ea
11
f3
f6
0c
0e
0d
00
f6
f7
03
e7
f1
ec
0f
04
ff
ee
f9
ec
00
0c
fb
15
10
fd
00
0b
00
ef
e6
fb
05
00
08
00
eb
12
f8
05
f5
0f
ed
d0
e6
03
f9
f9
27
fe
15
f6
0d
1b
03
f2
e9
fb
08
f7
fd
12
fb
0a
f8
26
03
e7
f9
04
08
f3
fd
04
fc
15
fe
08
f8
13
f1
fb
fb
f3
f6
10
fe
08
01
f4
1b
ee
f4
0a
16
f0
1c
11
f2
06
16
f6
01
08
f0
fd
01
ff
1a
12
08
02
06
fd
15
e6
07
d6
fa
ef
e3
fe
1c
fb
e9
08
1b
f0
fb
e0
09
06
03
d8
f0
02
01
12
fd
fe
09
14
00
04
0e
fa
fa
0a
13
11
0b
02
d3
f2
e3
f1
ee
fd
f5
fc
fb
e8
10
03
02
03
0d
fe
f8
f0
f3
06
10
e9
ec
04
fb
fc
02
10
04
e8
03
06
01
00
19
f5
fc
07
f2
fe
03
f9
fc
fe
1c
ec
21
fd
ff
01
ea
14
f6
21
ee
f3
01
18
00
1b
07
0d
ff
0a
0b
01
fd
04
0a
0a
0e
05
02
01
f3
04
04
06
f1
05
ff
f8
1d
f9
1f
f4
02
f5
f6
fb
0b
41
f6
0a
08
01
ee
ff
0b
0c
e7
f6
f2
ef
f3
0a
fd
ed
f5
eb
f8
00
f8
05
0c
fd
f3
ff
fc
ef
16
fb
06
10
fd
fc
11
f9
f4
0b
ee
00
09
13
f7
fc
f3
07
03
0b
05
04
00
ed
f6
01
04
f7
3f
f0
f2
15
ef
fa
0c
fe
0c
06
04
f8
03
10
08
f2
ea
00
fe
f7
07
0b
f8
06
11
ff
fc
01
07
fc
0b
16
01
13
08
ff
02
ff
f8
0a
ff
0e
01
ff
0c
f8
12
07
fb
ff
0f
0a
07
f9
ee
00
0b
05
04
f8
01
02
0f
f5
2f
f2
fd
0d
f2
0b
0a
3e
05
f5
f5
fd
e2
f9
06
fc
0b
f8
ff
fe
f3
f5
06
e6
08
f3
f2
fe
f2
fb
08
01
fe
f3
f1
09
00
08
fd
0a
f8
fb
09
ea
ff
e8
06
fd
0c
05
f0
ef
0a
fc
f3
f1
03
fd
f3
f1
fe
01
08
0b
70
10
f8
ff
e5
f9
0c
f9
0b
ea
f9
0a
01
00
11
ea
09
03
fd
fd
04
17
06
08
06
f5
fc
05
0f
fd
02
fc
fd
0d
0e
06
f9
04
fc
ec
01
f9
03
06
f3
f0
f8
ef
0b
06
0d
0e
0c
11
05
06
04
10
f6
01
ff
f4
0d
01
1b
f5
0b
08
07
00
f7
3a
f8
f2
fe
fd
0a
f8
fe
fe
06
06
d5
e6
02
e6
f5
e7
0c
00
ff
f1
f7
16
08
08
13
e4
fc
09
06
f9
01
f8
11
05
fb
fc
01
fa
fe
f4
02
fe
f8
e5
05
02
fa
01
00
00
04
ee
ff
fe
01
15
32
0b
0b
ff
ec
01
13
01
16
f6
07
ee
f1
f8
05
0b
fd
fe
03
04
f9
06
fe
0a
05
ef
21
09
18
0a
ff
06
f1
0c
0a
f4
0b
fd
07
04
f0
02
f3
00
ea
f1
1a
19
ef
f1
04
01
09
f3
00
0e
0c
fd
02
0f
e7
1c
ea
f9
0a
0c
e3
07
f4
05
05
f4
fc
02
fd
11
e6
fb
14
05
f2
0b
04
0d
fa
f2
09
14
03
cc
eb
02
0c
e7
08
fb
fe
23
f9
f8
0e
12
08
fd
eb
00
15
e8
f7
09
f7
f0
f8
0e
f9
0e
fb
e5
0d
e4
03
fe
f9
18
fd
00
f6
18
f1
ed
09
09
04
04
05
03
eb
fd
0d
0f
1b
0b
09
ff
0b
0b
fe
f8
fb
e9
09
10
0a
09
fd
ed
e7
12
f4
05
f9
04
fd
03
02
0e
f8
f5
fa
f4
00
fc
ea
00
f9
16
e9
fc
20
fd
f2
fa
f2
08
0d
f6
f6
ff
05
27
dc
fa
1f
1a
f4
09
ee
01
06
ec
f5
f4
f3
04
08
04
fc
11
f0
02
06
01
ef
dd
01
1c
0d
d1
ef
03
ee
fc
f6
06
12
f6
0b
01
16
04
f0
0c
f0
00
11
fd
ef
ee
09
07
03
12
1d
0e
05
f5
0c
05
09
05
09
20
f6
1f
01
f9
e2
e6
0d
08
fe
09
1f
fb
f1
f4
0c
08
ff
ed
f9
f5
13
fd
02
ff
0a
f2
fe
f5
15
16
ff
11
ea
0d
14
ff
0a
ff
08
f4
f4
05
f1
f1
f1
fe
f2
f6
02
0c
f3
fe
fc
f5
04
01
09
07
06
04
1d
fe
07
07
0f
04
cd
00
09
05
ff
08
f5
04
f7
d3
0b
08
ed
0d
f4
f5
06
d7
f5
fb
21
04
fe
e9
18
13
08
d6
02
08
08
ff
02
f8
04
00
0d
f3
08
f8
02
e9
ff
0b
06
fa
f6
f9
0f
01
12
02
ef
0c
13
ed
05
fa
01
04
ef
36
04
ff
ff
f2
11
ee
0b
01
0a
0b
f6
05
fb
03
06
ec
fc
f8
21
06
f5
f7
f5
07
10
ff
06
f7
f7
fc
ef
e8
00
0a
ea
fa
00
0c
fa
00
08
05
f6
15
fb
ff
f7
0e
2f
06
00
0f
1b
0b
eb
10
df
fd
ff
01
f3
10
fb
fb
18
08
1f
fe
11
f6
f2
ea
01
ff
f1
44
02
14
15
16
dd
f5
f7
ec
0e
f1
f8
0f
f2
08
13
f3
11
fb
0c
fa
0b
f4
00
e0
f6
ed
fe
17
e8
fc
f2
07
f2
f5
f2
f9
13
03
ea
2d
fe
ea
fc
f7
00
05
f5
16
e9
ff
01
e2
02
0c
16
e8
48
1f
f6
f6
1b
08
00
f5
17
00
f2
f1
f1
06
21
04
0f
fd
f9
fd
02
1e
00
e5
07
f8
fa
07
09
f5
e6
11
0c
13
fe
e7
11
eb
ea
f5
04
fd
13
0a
f9
0b
fb
24
f0
f8
fe
ea
ed
f2
f6
fa
09
09
ff
03
fe
2d
e9
07
f5
0a
f3
04
04
05
02
fb
e7
0a
00
0f
0b
15
04
2b
f4
f7
04
17
f7
1b
fe
25
f0
d9
ef
fe
01
e9
f2
ef
0c
ef
01
02
e7
fe
fe
15
ec
e7
13
fd
f1
f5
14
fb
0a
1e
fe
1b
f1
f1
0a
f6
f0
fa
06
0f
0a
10
f9
09
b7
03
ef
fc
08
03
03
f4
f8
0d
f0
fa
0a
ff
df
f3
10
ff
0c
ea
fe
e8
06
03
1c
19
f0
fb
fe
0b
1c
f4
05
f6
fe
e3
0a
f2
f6
13
17
00
08
ff
f4
f7
09
06
0e
f4
fa
04
ea
0a
07
0a
ef
24
01
f6
fa
1c
25
11
f7
01
eb
f6
00
03
f2
26
e0
fe
0e
00
10
12
fd
29
fd
15
e5
fa
f5
25
f1
fb
10
0c
f5
07
f8
01
f5
f8
f4
f3
ee
0b
fe
fb
04
13
02
f5
0a
eb
ff
08
fb
fe
fa
10
0f
01
02
0d
00
02
f2
eb
03
df
07
fd
04
fc
dc
fe
f5
fc
fa
0a
fd
00
f6
06
e7
03
08
08
df
fe
ff
02
0c
f3
f5
e9
f6
0c
01
0d
f7
10
fc
0a
1b
f2
fd
f6
f8
fe
04
f3
0d
ec
fc
09
f2
0f
f5
01
ef
fb
ea
08
04
0d
0c
f3
f8
05
1d
fd
ee
00
fd
07
03
fc
29
f7
fd
04
02
00
03
29
fb
f6
0a
e8
f6
00
00
f2
f6
08
fb
d9
05
ec
ff
fe
0e
de
ef
fa
eb
0e
ff
f0
06
e3
f5
0d
08
f6
09
04
ff
f8
08
01
d9
e6
f2
0a
0c
15
1f
fe
f7
fd
f3
0f
ef
0f
fe
f6
f3
1d
03
fe
35
fa
fa
f8
f5
01
0f
fb
0f
e7
0c
f9
0f
02
f9
09
f7
fe
07
0f
fe
f0
0e
09
13
01
07
18
ff
00
03
fa
06
17
f8
f7
0f
0d
fe
0e
eb
fe
03
04
02
ed
f1
f3
01
13
fe
fe
00
08
ff
12
05
02
ef
11
04
f2
13
f2
09
fd
05
f8
fc
f9
01
3e
04
02
1c
ec
08
01
f9
01
f8
e6
e8
fb
02
09
04
fe
04
05
f4
f6
f9
fa
13
f3
04
ed
03
09
f7
f5
11
06
f9
ec
fc
11
fa
08
fc
0f
fe
0a
ff
ea
01
f4
eb
04
06
07
0d
f3
fc
07
02
fa
0c
0f
ea
01
09
f5
04
f2
29
0f
07
f1
fb
f8
ff
f6
07
f8
05
f7
0b
11
18
04
26
0e
07
f7
16
fd
15
18
0b
0b
07
f5
1d
f5
08
07
26
02
0e
ff
f0
04
ff
fe
08
f5
f7
f1
02
f9
0e
07
f6
02
06
f4
f6
23
1f
0c
e4
f7
fb
03
06
fa
f2
fc
ff
00
01
fb
09
0d
f9
39
f9
01
ea
f9
06
34
03
02
fc
1c
fb
0b
07
06
0f
01
f5
00
05
0c
ee
ff
05
02
00
e8
0a
03
02
f9
0b
f2
f7
01
07
08
04
0d
06
06
01
fd
fc
eb
00
0a
13
11
b4
f8
f3
f8
03
01
f7
fe
ee
00
fc
ef
06
0f
e3
f1
fb
ff
11
ec
00
fb
f5
09
17
04
fd
fd
f0
fc
0a
19
fb
f9
f6
f6
fd
fa
fa
0d
f4
f5
03
ee
02
f9
f9
0f
fc
f2
ff
03
ef
ec
f6
eb
04
f6
09
f8
fa
12
cd
ef
fa
07
fa
03
f6
f5
06
d5
eb
09
f5
18
08
00
01
e7
00
0c
19
fe
ff
f2
18
08
fa
f8
01
10
02
00
03
09
07
07
0b
fc
01
fa
08
ff
05
07
fa
03
01
03
11
f2
01
01
05
10
07
fb
fb
0d
f4
f7
f0
31
ff
09
15
f3
e2
02
12
fe
00
f7
f8
f7
05
e9
fd
fa
f5
ec
0a
03
0b
03
01
fd
f9
fb
ff
07
fa
15
f8
08
f3
f7
f1
02
07
f5
f9
fb
f5
12
05
e8
f4
15
0d
07
07
15
da
08
fe
01
f2
0a
f5
01
ff
00
f5
fe
e8
f8
0d
1b
19
02
fc
00
08
fe
fa
f9
03
02
03
0a
f0
f8
0f
0f
e5
07
f9
fa
00
0b
05
05
ec
08
06
12
f1
ec
00
f9
fd
f2
f1
e8
09
06
fd
f5
0c
eb
fd
fe
ed
fd
ef
f0
0d
21
fe
06
17
06
fd
0a
ef
0e
fe
0e
03
ee
e2
01
0d
df
e3
14
f3
fc
03
f8
04
fa
1f
f7
f3
d9
06
f8
e9
e7
fd
f5
02
05
ff
0b
f9
05
0d
0c
05
0c
23
f9
0a
00
08
0a
1b
fa
fc
03
03
fa
09
ea
ee
f7
e9
fa
fc
f0
07
e8
08
01
13
07
0e
fc
1b
01
10
01
f6
04
d8
07
fe
fa
09
f7
fc
05
00
d4
eb
fb
f8
08
fb
01
1f
01
f4
fc
02
06
00
fb
06
07
fd
ef
f8
fd
f8
fd
01
06
f2
1d
00
f9
0a
0d
fc
00
12
12
1a
0a
fa
08
f8
ea
03
04
fc
0d
f9
04
13
f8
fa
f5
05
24
f8
f1
fd
f4
da
f7
fa
0c
f9
14
f8
f6
fc
ed
f1
11
00
02
01
ff
ff
05
f7
07
ee
fe
ed
fe
ec
10
0c
fa
f4
01
ee
fa
fe
f2
fe
0f
fa
fe
06
00
fe
f8
fb
ff
01
ff
0a
f8
03
d9
03
fa
00
f1
05
fe
09
04
10
0a
f4
01
ea
12
05
07
f5
f6
f8
10
02
e5
f2
04
08
04
fc
0a
12
00
f5
10
fb
03
ef
05
00
0a
f0
e9
fc
04
0a
eb
ef
05
0a
0e
ee
eb
0c
00
01
06
e6
fb
0a
f7
05
07
fb
f3
0e
09
02
1c
ea
e7
06
fb
05
ee
fb
25
06
00
06
03
f0
ed
0a
14
fd
06
f4
fb
eb
f6
12
13
0b
17
04
03
0f
05
ff
f7
f7
fc
f2
13
fb
03
fb
f8
ea
01
f6
fe
09
f4
05
02
f8
05
f9
07
01
f7
07
f0
14
fa
ec
0e
e5
f6
ed
05
f4
0f
fe
0c
e9
f6
f2
05
f8
09
d1
fd
df
fd
f3
01
03
fd
1a
e6
ff
04
09
ec
21
03
f7
fd
fd
0e
0d
0e
0b
1a
f8
18
f3
fc
f5
0a
06
05
00
fd
f6
ee
ff
f7
f4
f7
ff
ff
fe
f2
fb
0e
01
f8
02
fd
0c
04
0b
0a
ee
e4
0a
ff
fe
f6
f8
10
df
06
f1
10
af
0e
fd
f1
16
f5
06
ff
01
05
12
03
02
ff
f8
0a
04
fc
0b
ef
f5
f4
05
f4
fc
08
05
08
ff
f6
0d
f7
0d
ef
ef
09
f7
f5
fe
f4
0f
05
05
01
f6
04
f9
f6
0e
17
fb
00
07
fa
00
00
e5
fb
ff
07
04
03
0f
04
12
02
0d
0a
fe
08
00
1f
fe
f4
f9
f1
0c
00
f7
15
f8
0d
da
f2
05
13
fa
f7
f9
21
f8
08
ed
08
0b
11
06
f0
f4
ff
0c
09
0b
ff
1c
ef
08
0b
1d
0a
fc
05
0a
ff
0a
ee
f0
08
f7
f1
11
f2
f7
ee
ed
0c
01
0d
f0
0b
fb
f9
e9
fb
fc
11
03
0e
ef
f7
f2
06
e1
fb
02
0a
f4
f6
ed
15
f9
06
08
fe
0c
10
12
fb
0a
06
f2
08
13
fb
06
f2
03
f6
1e
f7
03
f5
e1
fd
ff
20
f0
f1
f7
0b
12
06
10
0d
0f
f8
08
fb
0c
14
01
00
f9
0a
e7
f5
fd
ff
f1
03
10
00
f8
ed
17
f1
06
29
f3
00
02
ff
fc
0d
14
0c
fc
10
ff
ff
fe
09
04
0a
f5
07
00
fb
e9
f0
0d
0c
f5
06
03
e8
ec
ee
02
fd
fc
01
0a
08
1e
fa
02
13
07
ff
12
e6
ff
ec
e3
fd
c4
f5
e7
fe
fa
12
19
f7
ec
0c
ff
0c
f6
f7
e0
06
05
09
12
ed
02
e2
fb
08
fa
fe
fa
fa
05
16
21
f8
0e
fa
fb
ff
fa
f3
fe
f4
10
0e
0b
08
14
06
f8
f0
15
0f
fe
f8
fa
e7
0d
f9
fc
03
0e
07
fc
06
37
09
01
0a
0e
0b
fa
0d
ef
05
fa
08
07
ff
09
02
f0
14
01
f0
e3
fc
04
04
e0
05
fe
0a
03
07
02
02
ef
03
00
ee
f6
00
f5
0b
05
ff
01
03
f8
0f
f1
06
ff
0e
03
12
01
f5
05
13
0b
03
ed
03
fe
ec
11
12
13
fa
fc
0c
f2
04
e3
f6
f3
00
10
fd
fa
f0
f9
07
ed
ef
e7
fa
04
02
f2
f8
12
0b
f6
05
0a
f6
12
fc
ef
03
f8
09
1a
f5
07
f5
0c
03
f8
f3
fe
fa
0f
0e
fd
11
15
06
ee
03
ec
ee
08
fe
d1
0a
fc
0b
fe
14
f0
03
fe
e8
13
f2
02
0d
0f
03
f3
fd
fe
f6
0c
22
e6
f7
fc
f3
e5
0d
f4
08
e0
ff
f9
03
06
07
01
08
ee
06
05
f1
ee
0b
0a
fe
fc
fa
1c
ee
0a
0b
2f
0d
03
fe
14
15
05
13
dc
fa
01
0c
00
ee
01
1f
f6
08
23
fe
e8
19
fe
09
02
e9
ff
f1
09
09
f0
ef
10
0e
e8
fe
00
fd
ef
07
f5
fd
1c
ef
05
1a
ff
09
01
0a
e9
f5
04
0e
fe
08
f6
02
fe
f8
10
03
0e
fc
04
04
04
0a
f1
f2
00
09
0b
01
f7
0f
fa
ff
10
01
fa
fb
d7
00
da
01
ef
06
04
05
00
d2
f9
f2
f2
fd
0c
f3
fd
0d
ff
ff
15
0a
06
07
14
05
08
07
04
04
f2
07
03
fc
fe
0b
07
10
ef
f1
03
06
02
07
08
13
01
fb
04
ea
fc
fe
f9
0e
0b
01
02
01
04
00
fe
03
00
0a
ee
f5
b2
fd
fa
fb
21
04
07
ff
f5
10
ff
ff
04
ef
04
ee
0b
fb
16
f5
fb
01
02
fc
fc
10
0b
ff
fc
07
0f
f7
f7
09
f8
f8
fd
f4
f9
fc
13
fc
eb
fc
08
03
ff
09
ea
f3
fd
f8
ef
fd
02
09
12
f8
0b
0a
00
f5
eb
00
e0
0b
fd
01
f8
f3
f8
bf
0b
05
02
00
00
f0
ec
0d
ef
05
15
fe
06
08
06
16
f6
f7
0a
f2
0b
00
ff
05
ff
17
07
03
fc
fc
14
09
fd
08
00
fe
ec
fb
09
ff
f4
fd
08
20
05
04
fd
ff
fa
0a
00
13
02
f3
f5
fa
c0
ee
f3
ff
0b
f9
04
f3
fa
04
03
03
0a
00
f1
fe
03
f2
10
f8
01
fd
00
06
ff
11
f6
ff
fc
0b
01
f8
0e
03
f3
07
f1
f6
ff
ec
0b
f3
07
e7
c9
04
f0
f7
d9
06
00
f8
1c
0b
f9
19
28
03
f5
0c
fb
05
09
f4
05
0e
06
1a
fc
f4
1b
b0
f7
f4
f7
f7
19
02
f1
16
fd
07
0a
f8
01
1e
f0
ec
f2
da
fa
e7
fb
00
02
0a
f5
fa
0b
e0
1c
fd
f7
f3
04
05
fd
fc
f8
fc
12
cd
04
10
03
ef
11
f9
09
e2
04
fc
10
08
08
db
f9
16
c9
ea
15
f7
fd
fa
0a
0c
dd
f8
07
07
05
f4
e9
fc
ff
01
fa
f5
0c
dd
18
04
f4
0e
0b
fe
f7
fb
19
fc
f4
fb
e7
12
05
0b
0d
03
13
0e
fd
01
f0
fb
fa
ec
fa
03
05
0c
04
0b
fc
07
05
ff
fd
06
00
fd
30
06
0e
f9
f8
00
02
00
01
3b
07
03
07
f1
08
09
fd
25
f8
05
da
fd
fe
10
f6
eb
00
12
ff
00
ef
fe
f6
fc
09
02
ed
09
0e
0c
f1
18
07
f2
01
f0
07
08
f3
00
02
00
01
e9
f3
fc
f2
0a
f2
fc
0f
d7
ff
0c
00
16
0d
e9
04
fb
f3
11
06
03
f4
fd
0a
0f
03
0c
dc
f1
01
fd
09
06
08
f7
fb
06
04
00
fe
05
fa
fd
0a
fd
f8
02
fe
0f
12
06
fd
e7
fe
09
e1
ee
dd
f7
f6
01
f6
f9
0d
00
19
13
05
09
07
f5
09
17
f4
13
dc
f4
f5
12
f2
12
f2
fd
1b
bb
f4
f0
f6
fb
08
01
01
12
db
0a
fe
e5
04
04
10
16
e7
e0
f4
ed
0f
fd
fb
0c
06
09
0c
01
24
f7
09
05
0d
1b
14
0e
cf
f8
01
d2
0a
13
18
12
f2
f7
0e
ee
01
fd
07
1c
05
f1
00
05
a8
d8
1a
19
ed
ff
0e
fd
fa
f9
08
20
fd
f3
da
f4
f8
fb
e6
f6
f2
f1
0b
09
01
0d
0e
fb
e4
fb
1f
12
e8
03
f9
fe
f4
0e
f4
eb
0a
10
f6
fb
0d
11
02
eb
13
05
29
ec
e9
e4
f5
e3
0c
f9
14
03
f0
f5
28
11
10
1a
12
08
f2
fb
f0
d7
ff
03
fd
10
fa
06
05
ee
f6
e7
f7
f9
01
db
e5
0b
ff
06
0c
08
05
05
eb
0b
fa
fb
fc
11
0a
17
fb
01
09
09
df
ec
ee
03
fe
1f
f3
fb
ec
f5
08
11
f6
06
e5
09
fe
03
20
02
14
f5
22
06
17
00
f6
e5
e3
08
fb
f3
fa
f9
09
06
11
e9
f4
0b
e9
26
f0
10
f7
f2
ea
17
fd
fd
0d
ff
d2
02
fd
05
21
ee
12
ef
0a
11
f3
0a
03
fc
ff
f3
12
f2
f1
01
e6
10
10
00
f9
08
fd
03
e9
19
01
05
de
f8
1a
f1
fd
13
0b
fe
1d
2e
f4
ee
0b
ed
fb
f4
ff
ed
f0
16
ef
f4
f4
00
15
ec
06
f2
e3
15
fb
0c
10
09
01
fc
fc
02
0b
f8
07
fc
0a
00
19
0b
10
f2
04
f3
17
0a
fa
fa
e9
00
01
f8
00
f8
06
04
e3
fe
e8
0f
22
07
09
fb
f2
fe
0a
07
07
0b
0d
10
02
ed
0b
0e
07
fc
fd
09
fa
f7
18
f9
0c
f1
fd
05
0d
03
14
e9
03
0e
f5
17
0c
04
fc
e9
09
f4
0b
f0
e6
01
f7
16
e3
01
11
f0
fc
0e
f2
0f
02
09
04
e5
f8
07
15
05
f2
01
fb
11
fa
06
eb
ef
04
fb
05
0b
1d
ff
f8
3c
01
0e
fb
fe
fc
00
fd
24
10
10
0b
03
f2
05
03
11
f2
12
0c
f8
ed
01
0a
08
04
0d
0a
fa
ec
05
06
fd
ec
02
0c
01
11
ff
02
fe
02
03
04
e5
f8
09
eb
ea
c2
01
08
f8
05
08
0c
15
e3
ea
03
f6
07
ef
e8
fd
0a
06
18
f4
0e
ef
f5
18
08
02
fa
09
0d
f3
1a
f9
0c
fb
fb
f1
f8
ff
11
fc
04
0b
08
06
f7
fa
fa
f3
03
fa
ff
fb
fe
0a
07
fe
0c
0e
02
02
f7
06
38
00
0a
00
09
07
fe
f6
f5
32
04
e9
fd
fb
fe
ef
06
2a
07
fb
e4
00
0b
fc
03
e9
fc
f8
02
f1
ed
f0
07
01
03
0b
09
0b
0b
11
fb
12
f2
00
02
f1
ee
fd
08
f3
f3
f6
f2
ec
05
09
fb
f9
f4
fe
04
db
10
f9
ff
02
08
f2
fe
f9
f4
08
fc
fa
f8
02
fa
13
ff
14
ea
ff
f9
f8
f7
fd
08
00
fc
1f
11
02
03
f5
03
09
15
f3
f5
0f
f7
01
01
ff
f5
04
e8
fd
fd
03
08
f6
0d
08
02
fa
08
f9
0b
0f
fc
01
06
03
11
12
06
02
ec
03
0c
02
fc
ff
ef
06
09
ff
06
fb
fa
09
eb
e4
09
e7
12
01
23
08
04
fb
1e
0d
03
fa
0b
fa
fd
f7
fa
f6
00
06
ff
f9
f1
00
ee
ea
ee
0e
fc
0d
05
f6
04
01
12
f7
f4
f1
06
e6
09
0a
01
01
02
04
0d
fa
f0
fd
31
ff
ee
fb
07
00
f7
f5
f5
fc
0e
0d
ff
08
1a
1b
0b
f8
03
f6
03
08
05
fe
fa
ff
03
f4
ff
0e
00
f6
01
fd
fd
0a
fd
02
fd
ff
05
fb
ee
05
df
08
0b
00
f7
fb
f5
fc
02
fc
09
0d
0e
f9
f8
fc
06
09
39
fd
0a
01
fb
06
fb
fa
fe
31
0c
fa
f9
fc
fa
08
08
33
02
02
f0
04
fa
08
0c
dd
fa
fe
f7
f3
0a
f8
0a
fc
03
09
fe
fb
00
fb
ff
12
e8
fe
ff
f8
ec
ff
03
f3
0a
01
01
f0
ed
fb
f6
f5
fe
00
02
e8
f8
08
0a
0d
06
f4
04
0f
00
02
f6
00
02
f5
13
07
06
07
de
f6
ee
fc
03
fc
09
fc
0f
10
1a
f6
f9
02
f4
04
0f
09
f9
f7
00
f8
fb
09
ec
ff
03
ff
f7
09
fc
06
f8
ef
02
10
18
f0
f3
0b
02
f3
18
fd
fa
fe
02
e3
20
f3
03
17
12
fe
ea
04
12
13
1c
04
00
0e
f5
01
1b
08
0d
fb
f4
eb
fa
ee
fb
e5
09
f3
01
03
0b
ec
f1
04
f9
fe
07
06
fd
09
08
eb
e6
03
fa
f2
05
fa
ee
0f
00
f5
f6
e5
06
f6
0e
f1
ff
ff
0a
01
f5
ff
f2
05
35
ff
04
f8
0c
01
06
07
01
f1
10
fc
19
09
18
fc
f4
05
fa
03
17
06
01
f1
18
1e
fa
04
0a
09
e3
fe
fa
11
f4
0a
0d
0f
01
04
03
ed
ed
f9
06
07
ef
e3
f0
0e
00
f0
f6
0c
f7
f0
f2
03
f6
f5
fb
03
22
04
f0
09
02
fb
08
f4
04
0a
07
0e
ec
0a
1a
06
fc
0f
f9
09
ff
f1
eb
00
f4
0b
f9
08
f8
00
f5
0d
e7
fc
19
fb
14
05
07
fc
03
f4
03
08
f3
ee
e0
ec
09
eb
05
05
07
fb
fa
df
0a
fd
02
ff
e4
12
e3
ee
14
01
fe
0a
fa
0a
06
01
f7
fe
0f
fa
0d
f0
17
ef
00
08
04
03
1c
fa
fc
03
0b
f8
f1
19
ea
04
0d
f3
fe
fe
07
f5
f2
18
fd
00
04
04
05
ef
10
ff
fb
0a
08
13
0b
f1
f4
02
e6
0a
04
05
e9
fd
01
ea
16
17
f1
10
d5
0f
f3
ec
f5
03
eb
b4
00
10
05
01
0d
15
eb
f5
0a
fb
1a
27
10
24
03
23
08
26
0a
01
fe
f4
f0
fb
f6
fb
06
ff
ef
f7
09
f4
f9
0d
f6
15
03
f9
0c
15
f4
f8
f2
fe
06
1b
ff
fb
06
0c
fa
0d
04
0c
14
f0
a1
09
ff
02
0a
06
f9
fa
08
01
e8
00
fd
11
00
f5
06
0a
0b
fc
09
fe
fa
fd
ed
04
f9
fc
0a
f2
09
18
08
fe
06
fe
f3
eb
02
f1
ec
05
ee
fa
07
04
03
fe
01
0e
08
00
18
06
e5
f9
26
f7
08
16
06
e5
f2
f0
04
f2
08
09
f1
fe
18
ff
fe
fa
f5
10
e3
f5
25
e5
f5
05
2b
e8
f6
e0
fd
f2
15
d8
fe
0d
fc
f7
f4
0c
04
03
ff
ef
ff
16
fc
f2
f8
0a
06
f2
f3
ee
ef
fb
f0
0f
f4
ec
fb
f0
f9
ee
00
06
ed
21
01
fb
fe
08
36
f8
0b
12
fa
fb
0a
06
12
fc
1c
fb
03
04
0e
11
fc
f3
f0
05
0a
02
12
10
0d
f6
fe
f9
03
f6
ea
03
04
14
ff
08
f0
0f
fd
05
0e
12
f1
16
03
f6
01
f5
f1
1a
0a
fa
1b
eb
f3
01
06
02
05
0e
02
ee
06
02
1b
0a
fe
0f
04
09
03
1c
fa
ed
f4
f6
e9
00
f6
fb
05
07
e2
f9
f5
e6
f3
fb
f8
ed
e7
f8
fa
1c
12
09
14
fa
e0
f4
1b
07
f4
0c
12
f9
03
fb
04
f6
f2
fb
ef
14
ff
f3
ff
fd
eb
05
fc
07
06
f6
08
f1
f1
03
67
ef
28
05
ed
07
ff
08
fa
01
0b
07
f7
fa
fb
fd
ec
03
ee
03
f9
04
19
09
03
00
0e
f9
f0
03
08
f4
01
12
06
f9
fc
01
01
04
01
0b
f7
06
19
0a
fa
07
02
09
04
02
f1
07
ef
fd
ef
fe
ff
02
f8
e8
d8
03
ec
ff
04
08
09
09
e8
ce
02
0c
f7
01
02
fc
03
d9
06
fb
37
24
fe
e2
0b
1a
0a
07
04
04
fc
f0
f8
f7
00
f2
03
05
01
fd
ff
f8
fa
ff
07
1e
0c
02
13
00
0a
ec
04
10
05
f0
f2
0a
f6
0d
f0
20
0a
fc
03
fe
c8
00
fd
fd
18
01
06
f4
04
14
f5
f8
fd
fc
2b
06
07
fb
0d
fb
fd
f4
00
f3
f9
f8
fd
f3
fe
13
fa
fb
01
f2
06
fe
f1
ec
f8
f0
f3
05
20
04
19
fa
04
00
ee
f7
ff
07
13
ef
16
07
fb
00
0c
0f
07
fc
d8
ed
0a
f4
00
1b
f3
ed
0c
e8
0a
e9
1b
01
eb
f6
f6
ef
0c
12
f6
09
03
ea
0d
04
03
ea
12
fe
ff
0d
17
0a
f0
f8
0d
e8
01
0f
fc
02
07
f7
f7
f7
f8
0b
07
fa
f2
10
fa
12
08
07
f9
fa
01
fc
0d
ef
f8
08
ff
13
09
f1
00
02
eb
f6
01
0c
e9
06
01
19
f2
f9
07
05
e4
02
e2
07
0a
f5
08
09
08
fc
12
f3
00
05
ed
f9
fb
fa
0d
e9
f3
05
f9
f9
e2
14
ed
11
1d
11
00
f5
f0
f1
06
05
0c
f7
f0
ea
16
e9
02
08
0b
f9
dc
f6
fc
13
12
00
e8
f4
09
d0
14
f6
ff
07
ed
06
01
dd
f6
f4
19
f7
0e
ee
13
f7
fb
ff
01
05
05
00
f9
04
f2
10
fc
01
0b
02
f8
ea
07
0a
0c
f0
fd
15
f8
05
fa
fe
f3
03
fb
f6
02
f4
08
01
01
19
06
ed
fd
f5
11
f8
0d
09
0d
fa
04
11
fe
0b
0f
08
01
eb
12
02
fd
08
e6
fe
14
0a
09
f5
03
06
f3
f9
fb
00
f2
ee
0e
17
fe
fd
fc
12
f3
0f
fc
00
01
04
10
0c
11
14
18
fa
f0
16
f4
f3
fd
0e
eb
f8
02
fc
fc
1b
f7
f3
d7
fd
f3
f1
05
f9
e9
d7
15
03
0c
12
11
10
11
f3
f7
ff
0e
09
02
04
18
12
fe
0f
fe
f9
0e
fe
fe
02
11
fd
04
ff
f3
12
15
01
fa
04
ea
0a
13
0b
18
09
18
09
0e
12
fb
fc
0a
f3
03
00
ff
fb
fa
09
12
00
a6
0f
ff
13
0c
02
f1
f7
12
08
13
fa
fb
13
fe
fd
09
e6
0a
08
fe
0c
03
0a
04
fb
ed
f9
01
0d
f3
11
05
f1
fe
ed
f7
f7
f8
fe
0c
ee
f6
fe
ff
00
fa
f9
fa
f0
f1
eb
f1
00
03
f4
0d
f0
00
f1
f7
f9
23
fa
f1
0d
1e
e1
f7
ff
12
0c
16
01
01
0e
12
05
f3
21
07
04
f0
db
fc
ed
f4
ed
11
08
08
11
00
da
e2
0b
fc
14
f7
e8
02
0d
06
e8
10
f6
fa
ec
02
11
ee
ff
01
08
17
e8
06
ff
05
07
fa
ec
01
0b
fe
04
01
fa
02
08
f7
02
f3
06
e7
0c
f9
01
09
f8
1c
06
f2
ef
09
f2
fd
fe
0b
1d
f9
20
18
11
f7
f7
19
fd
ee
f7
0b
ef
fb
fc
23
ee
07
0c
eb
f6
fb
06
21
f6
f9
0a
fb
0f
02
fb
f7
e2
f5
02
fe
00
0d
01
02
0e
db
05
db
fb
f7
00
ff
02
f3
ba
1d
06
f3
fc
fb
ff
02
de
fa
f6
37
10
00
05
10
1a
fc
f9
ea
04
11
12
0b
fc
08
f9
0b
01
fd
00
ec
fb
0a
fa
ff
06
08
fe
ff
19
05
f1
04
12
fc
09
f6
01
03
00
01
18
01
09
fd
f7
c0
01
fa
10
20
f5
03
02
fa
10
11
02
f7
fb
fc
07
04
ff
f2
08
f7
18
02
ed
ed
04
ef
fe
06
04
f0
f7
04
08
ff
f4
f0
03
07
01
ea
0c
f2
ed
0d
03
0c
08
fc
fa
f7
f4
14
fa
01
f3
0a
ff
12
11
f7
ea
dc
05
ee
09
03
01
00
f7
02
a9
02
fd
f2
00
ec
fb
03
cd
f9
0f
1f
09
fb
f6
00
14
e9
ed
03
07
07
fb
02
02
ef
10
fe
f2
ff
06
06
f6
fe
00
06
1c
0c
f9
f6
06
03
f9
f2
19
03
fc
0d
08
fc
01
0e
1c
0a
f5
f8
f9
cf
f7
06
f0
f9
05
01
f5
fc
07
07
02
0a
01
1d
05
03
ff
ea
03
fe
ee
fb
ed
00
07
00
04
e9
04
f6
05
09
0e
fc
fd
00
12
0c
00
00
03
f7
07
f0
e4
05
fa
ea
02
13
ef
0b
01
f1
f8
14
00
0c
fd
f1
e8
19
f9
22
0f
fc
0a
06
00
03
3a
fd
0c
ea
fd
d8
f9
f0
f7
fa
03
f1
ee
04
d7
f6
ed
06
d8
f8
0c
fb
07
0e
fa
00
04
fb
07
03
13
f9
03
f8
ff
05
0c
eb
eb
f5
f2
0a
0a
06
e9
f4
f1
fe
04
06
f8
0d
09
f6
fb
ec
17
57
f2
19
00
f2
f3
08
fd
fc
f9
0f
14
f6
f4
16
0b
02
f8
ee
f0
f9
dc
12
06
03
e4
f9
05
f2
03
f3
fc
e9
0d
09
08
fe
0c
f4
03
dd
00
e0
ff
02
05
f7
f9
0c
fe
fb
05
0e
01
fc
ef
1a
fa
fc
0b
06
f3
f0
fb
f1
07
02
f2
00
02
ff
e7
fe
01
f5
0e
02
01
22
db
00
fc
20
fe
09
d2
f6
f1
03
f6
0d
fb
07
f3
07
fc
f4
fd
03
05
0c
f8
f2
ea
f4
fd
fd
f9
12
f3
0a
f7
19
ee
f4
11
0d
f9
18
f5
02
0d
ff
22
ee
f6
f1
02
f6
19
0e
fc
01
f7
e8
f9
05
fb
06
04
fe
fa
35
0b
fe
ea
02
0c
02
0d
06
02
02
0c
03
f3
09
13
e0
f4
fe
fa
00
09
f7
05
f2
05
05
09
fe
f0
fd
fe
08
ee
fe
0b
f7
ea
dd
0a
fd
f2
fa
f4
ee
0d
fa
01
12
00
f9
ff
1f
ed
07
02
fe
17
1f
01
fb
0a
fc
fb
0b
05
02
f4
0f
f1
08
ef
ff
e5
18
09
05
0d
f2
ec
ee
0e
fa
01
07
fd
f7
10
ec
e2
05
06
13
f8
0a
f9
f7
ea
0b
f3
e1
ea
ea
f0
17
fa
eb
02
eb
10
f9
f0
f4
02
1f
11
11
04
0c
00
0c
08
14
ff
0a
e8
22
fc
1b
f6
01
01
02
f8
f3
21
08
00
ff
f9
ea
06
0f
00
e4
fd
04
03
fe
20
fa
ff
f1
04
f0
01
01
ff
04
0f
06
02
03
03
fd
f8
0b
f8
fb
ef
16
ef
13
07
14
fc
e3
fa
07
fb
13
0a
fa
02
08
ca
f5
ef
fd
03
fe
ff
00
d5
07
f9
2c
07
01
e5
f5
09
09
fc
0a
f8
08
05
fb
fb
0d
06
09
fb
0b
f0
f6
f6
fa
02
00
0e
05
f2
03
f9
00
fd
fc
15
fd
f5
07
f8
fb
07
f1
2c
01
f1
08
fa
0c
06
11
0a
f3
f4
f1
0a
f7
f9
09
02
f0
fe
1f
05
00
08
ed
00
0a
fc
07
ff
f3
f4
0a
f7
f5
05
f0
02
f2
08
00
0d
fb
09
f2
07
19
10
f7
0c
dc
f4
02
ec
eb
f8
12
fd
1c
0c
09
05
04
ff
fd
0a
00
e2
29
06
22
f7
fb
02
12
fc
03
3e
03
ed
11
ec
01
ee
04
17
f6
11
e3
f3
f9
06
f5
ef
07
ed
ea
0c
f2
12
11
13
0a
01
00
06
1a
04
01
fc
ff
fb
06
f7
f9
fb
eb
fe
f9
11
fc
e6
ff
12
ed
04
07
ef
08
c2
fb
04
f4
13
5f
fb
09
e7
ed
ff
07
fc
03
f6
05
06
f7
07
f4
02
f9
06
07
fb
03
f8
0e
0c
02
f4
10
0d
00
fe
ff
10
ed
06
09
08
18
0c
f9
f5
f6
f6
10
05
04
e5
f1
f3
fd
f8
00
f4
f4
05
07
fc
f4
f0
0d
eb
fd
e6
1c
ff
ee
08
09
07
11
f6
28
06
1f
10
0d
03
0b
f7
ee
1f
fe
07
fe
09
f9
1c
e6
21
fb
1b
08
fa
14
0a
07
25
ec
14
23
fd
f6
13
0b
00
1b
e6
f0
f3
f0
eb
f9
0d
ec
fb
09
01
03
21
fa
08
f1
f3
ec
f7
f1
ff
fe
f3
02
ff
e5
01
f7
f3
03
05
05
e8
14
f2
11
01
ec
03
fe
08
00
15
f9
06
11
f7
f7
ef
00
fd
ff
f8
e1
0f
12
23
fa
1b
f0
13
0b
f8
12
fc
16
f9
dd
02
06
02
e8
03
06
ee
fc
fa
0b
24
fe
0e
0b
f0
f6
23
06
18
0c
ff
12
09
ff
17
06
fe
f1
07
fe
fd
1d
1b
ee
06
ff
fb
04
17
0a
08
e4
0a
ea
05
f4
0c
f6
f6
f2
0d
09
f5
01
15
fa
e5
05
07
0e
f6
f3
f6
f2
04
f9
eb
00
0e
19
f1
fc
f1
f0
14
0c
00
02
f0
10
ff
fe
16
e4
f7
e8
ff
fc
f2
0c
f0
f9
02
eb
fd
01
ec
dc
e2
01
0c
16
ee
fc
01
f6
fe
06
05
f7
00
00
ef
12
fd
0e
e7
f6
02
03
f8
08
02
f9
06
05
0a
13
f9
fd
fe
f8
09
f5
ee
ee
f0
f8
e2
05
fe
1a
11
02
fd
ef
00
fc
05
05
06
fa
db
0e
d2
1b
ee
fb
e4
fc
01
fc
f0
f9
03
1f
f4
10
f2
0a
00
f6
07
11
fc
f2
ff
ff
12
05
09
ef
f8
06
05
ea
02
32
12
fe
dd
1a
02
ea
00
04
ea
ed
01
02
1a
f3
00
f5
e9
11
19
fa
fe
f0
df
da
0a
f1
0a
f0
fc
fe
08
e5
0b
06
05
17
ff
13
19
f8
00
f7
f5
fb
fc
ef
e9
f6
13
f4
02
e6
01
e6
ee
f8
07
00
0a
fc
04
0d
00
04
13
00
fc
f3
fd
02
f7
e5
fd
0d
13
16
fe
ef
f0
1f
fc
f8
1f
fd
05
f8
06
2a
0f
0e
0f
13
f4
0d
14
09
ed
02
f9
f0
f0
02
e8
0a
f9
0b
f2
f2
e0
04
e1
fa
e7
0d
fa
f9
ee
04
09
0f
fd
fc
f7
19
04
fb
04
ed
0b
0a
eb
fe
06
e7
02
17
0b
fa
f5
fc
ef
f0
fb
fa
f8
08
ff
01
f4
f7
0b
56
ed
15
f6
fd
fa
08
13
ff
f1
0d
fc
03
f1
25
0f
e4
09
f1
09
f6
09
08
f7
08
f7
05
0b
f2
fe
f2
f3
f9
09
00
07
04
0b
f0
0e
29
16
f8
f8
00
0e
ff
01
04
0b
07
0e
02
ff
0a
f9
f9
f3
fb
05
f7
02
11
ff
16
f6
00
e8
ed
fc
01
2a
08
f5
f6
f5
10
02
f5
10
f8
01
db
e2
11
f8
df
f2
13
21
fd
00
e5
07
ed
02
05
04
e8
ef
11
0c
f7
0b
f5
09
f6
f7
02
00
ed
01
06
0d
04
f9
05
00
fa
fb
11
f9
19
e0
fe
05
fe
e9
fb
08
0a
f4
02
07
0d
01
ed
07
f2
01
0d
11
eb
fe
18
04
11
f8
01
08
f5
25
11
0e
05
2b
05
09
11
08
f8
04
f3
00
10
f0
03
06
e9
fa
ea
1e
e9
09
17
02
0b
0b
f4
ec
08
1c
0e
fd
fb
02
03
f5
ff
0d
0d
fe
03
fc
05
f2
0a
0e
eb
1d
f3
0d
0a
09
e1
13
00
13
11
f6
18
12
f3
06
f7
fa
f9
d9
f4
00
05
e3
10
f5
0e
fb
19
02
da
f2
02
05
f4
f2
fb
f6
0f
08
19
e5
f6
fe
f8
00
04
f3
10
03
fb
10
03
08
17
ea
0a
20
1b
f5
f7
18
09
fe
fc
f1
20
0c
06
06
f0
f1
14
f4
f7
f4
04
fd
0e
f7
ff
0f
05
f9
08
e3
f4
fb
01
06
10
09
17
09
f4
04
ff
f2
f4
08
fe
fd
fe
f0
f9
02
f4
fb
09
f7
10
f2
fa
e5
18
fd
fe
f6
fa
00
e2
fa
f6
13
ef
06
fd
fe
0b
cf
13
de
f0
f1
fa
05
0d
e2
f4
03
32
0b
06
f8
f2
0d
fa
f2
15
00
19
11
fb
12
06
1a
f7
f5
05
0b
03
e8
11
0b
0f
f2
ec
f4
00
ec
03
09
fe
08
fa
ea
fc
0b
00
02
08
2c
14
e4
e7
05
00
e9
02
0c
e6
ec
0b
06
e8
f8
0c
f7
12
00
fe
08
fa
08
e8
00
f8
ef
14
f0
fd
fa
fa
f6
fa
04
00
ff
13
11
07
0f
f1
12
ff
e7
02
f6
f9
02
06
ea
01
f3
f9
03
0a
f9
02
01
10
0c
f8
03
ea
fb
fa
fd
1d
02
10
03
f4
0c
02
fc
0f
46
10
00
0c
e7
f1
f4
03
2b
0f
15
ef
e9
f7
0c
00
f3
09
f2
e6
fe
f6
0f
06
03
08
0a
f0
03
00
1e
f9
12
18
fd
f9
f9
ed
f8
f7
ef
f4
17
fb
e1
0a
0c
02
f9
f5
f0
fd
de
f1
00
ea
fe
45
ed
f3
06
fa
05
01
0b
03
f6
0a
0e
15
fe
e8
0c
f9
00
00
fa
f5
ec
06
08
03
f5
07
12
f7
06
ff
fc
f9
13
0b
07
f4
05
16
06
f0
06
f4
f3
0d
0e
fb
10
21
f1
f7
fd
00
06
fc
f0
ed
ed
01
f7
10
f1
d9
07
d3
0a
fc
e3
07
03
fd
c3
14
18
13
16
eb
fc
f7
d9
0a
f4
25
0a
03
0a
12
0b
0f
1c
07
fd
18
00
f8
f2
f2
1b
18
fe
02
0b
fb
e2
e9
09
f1
0b
08
01
ef
1a
06
f4
eb
0f
f9
09
0f
01
06
f8
fb
13
f8
fe
14
ed
d8
11
fd
0c
1b
fb
f2
fb
ff
ff
0b
07
12
fd
15
10
0e
f7
f1
0c
0b
06
00
fc
fb
0b
fa
f5
f8
07
e8
10
0d
fe
fd
0c
f4
00
fe
f8
fa
14
02
06
03
f5
04
f3
e9
ec
14
f9
14
02
fe
f6
11
f6
07
0b
ef
f3
ff
02
13
07
09
14
f0
f2
10
e8
08
fb
0a
f9
e4
ed
09
dc
0c
fd
17
13
01
f3
f0
00
00
ed
0a
f6
0b
ee
f1
13
05
00
01
06
18
01
ed
07
14
0d
0c
ec
f7
f5
ec
e7
f4
fb
0e
ee
fd
f6
f1
fc
04
01
fb
0b
02
f2
ff
07
1e
e8
0f
14
ed
f4
00
14
f4
fa
15
18
05
f0
17
12
0c
14
f8
15
fa
eb
01
ff
01
f7
07
01
e5
02
e3
f0
12
12
05
03
09
1d
03
fd
e2
1e
df
fc
fa
e5
fd
ee
15
01
15
00
20
00
fd
f7
23
01
06
07
05
d7
ef
eb
15
0b
fe
03
fc
00
1b
f0
f7
00
ed
fc
e8
f5
ff
e6
01
f8
08
eb
03
e4
10
0b
12
f5
fc
f5
0c
26
15
03
f7
1e
f9
03
06
12
00
e8
06
11
09
f9
f7
ec
ec
09
f5
00
f1
1b
05
ef
ef
ef
ff
08
ec
09
fd
f1
fb
04
39
04
17
0b
fc
01
ff
fe
07
dc
0c
f7
01
f8
14
fe
f6
06
dc
08
10
e5
09
fd
fc
f0
03
fb
02
06
e5
0a
fb
33
03
0b
ff
12
fd
09
ff
fb
0e
0c
d8
fb
02
00
f6
f9
fd
f6
de
0c
f3
09
f7
f4
0a
f9
07
1c
0d
0a
ec
04
f7
08
09
13
da
e8
0a
0c
0f
e7
21
f3
f9
06
1a
ee
20
11
fe
14
0e
0f
fe
f7
00
10
13
e9
08
0d
ee
fb
00
f3
ea
fc
15
03
fd
f5
f3
e9
0c
1e
21
fb
f3
f2
0a
fa
f4
ed
08
13
f5
12
fd
03
10
f5
11
05
ec
fa
ff
06
0e
f6
f0
e1
fc
0d
f0
0d
fd
04
f2
f0
ef
00
24
e7
09
07
0e
f5
02
02
fc
f5
00
05
16
01
0b
f4
f1
f9
ef
fd
14
f2
e8
ee
f6
02
db
0d
0d
f8
16
fb
ed
fc
f6
ff
fd
14
fc
1b
17
08
f7
18
f5
e6
0f
f5
05
02
13
0d
ee
08
cc
0d
05
2d
f7
1a
1b
2b
e9
f5
02
f2
fc
05
ff
f2
04
f0
f7
e9
ff
05
18
f3
02
fa
ff
f4
ea
e3
00
ff
ed
e0
fe
0e
f4
0f
1b
f4
ff
08
08
09
11
f6
07
02
f0
0c
0a
2f
07
ee
0a
1a
17
13
f2
f1
12
ff
fc
01
fe
f5
04
f5
12
fa
0d
ec
ff
0c
f3
f7
0d
fd
e7
02
15
ef
f4
e8
0e
fe
11
05
0f
03
fe
ff
f8
fe
05
0f
ff
13
fe
f8
17
fb
f5
ff
f9
f1
fc
f3
fd
f9
f8
fc
19
05
eb
02
00
dd
05
fd
04
f2
17
1d
e9
ef
0e
f6
17
01
03
03
d4
e8
fb
ef
04
0a
25
05
fe
ef
fe
fd
06
17
0d
f5
0c
04
fe
fa
02
0d
0b
01
10
19
ea
0e
10
fc
f9
f7
f4
d7
ee
1a
fc
fd
f5
f3
ff
14
fb
fc
f9
07
f7
f4
12
f7
ed
ec
10
0d
ff
03
ed
0d
f8
f7
06
df
09
fe
00
fc
16
12
03
fd
f2
f5
e8
fc
07
fd
ec
f3
01
fe
f5
f6
d3
fd
01
22
13
04
08
17
f6
f3
e9
e8
0c
12
0f
0c
1e
f2
f3
02
fe
df
f6
0a
13
00
08
f3
0b
07
f6
0b
10
04
ef
0f
fc
0b
14
05
f3
f6
0b
07
00
f2
ef
fd
0f
0b
11
02
0a
11
02
fe
10
04
f5
c6
e9
04
0e
e3
08
01
f8
fe
07
04
fa
0c
ec
16
07
10
f7
11
f3
08
16
d8
06
f1
f6
e5
07
ee
1b
02
03
f7
0a
0d
17
fe
fd
04
15
fc
ed
29
08
e3
e3
ff
fa
1e
10
2c
03
08
19
f1
fe
fb
18
f2
07
05
f6
f0
12
ff
f4
e2
e6
03
00
fe
ee
0e
12
02
f6
07
10
00
e7
15
ef
02
f3
f9
13
f2
f2
05
09
00
0e
fd
04
f6
0d
fa
e9
14
fc
f1
ed
fb
12
08
14
0a
04
f9
1b
fb
e5
ed
fc
f6
e1
ed
03
dd
09
fe
0d
fe
fc
f0
0c
f1
07
d1
00
f4
f5
f9
f0
11
fb
0c
fc
05
09
0d
f4
0c
09
0c
0c
0a
02
eb
fe
ed
03
00
f9
04
fd
e8
01
f3
0a
12
f3
17
15
f7
e8
0a
48
f1
15
fe
09
ff
0d
08
09
03
09
0d
ef
eb
28
1b
f8
03
f1
fe
02
fd
13
f7
0b
ef
13
fd
fe
01
e9
fd
01
15
03
0e
ff
14
fa
f8
f8
05
fe
ff
00
fa
11
f3
ef
00
0d
fb
19
06
fb
f6
38
04
03
0f
03
f2
00
f5
28
01
09
10
f8
f4
14
13
05
e7
ff
08
d6
e9
14
cb
fd
09
fc
fd
fb
e8
18
f6
fa
f1
08
00
02
10
fc
fb
09
06
fd
fe
02
ff
f4
f2
fd
02
0c
f0
ff
f9
f5
f7
07
0b
fe
ff
0c
f8
08
fe
00
f2
03
0c
06
fa
f7
f4
5b
fd
08
0e
f7
00
08
0a
f3
07
f7
01
f7
fd
2a
ff
f2
02
f3
fc
08
01
0d
03
fd
ef
14
01
e5
0b
00
f7
f8
17
05
fe
ff
1f
ef
fb
18
fa
20
fb
db
f9
fe
0f
fe
10
08
04
f4
fe
fc
09
f1
04
ec
e8
fd
04
0c
05
16
06
fe
10
04
0f
0f
20
eb
07
f4
ed
14
fd
e9
27
0a
0a
db
02
f9
0d
df
08
fb
15
0a
01
fb
0e
05
fe
fa
0d
f6
fe
ff
08
06
04
0c
ff
08
fa
f1
f6
0c
f3
fc
10
08
ec
04
08
f5
fe
0e
fd
0f
ea
07
05
f3
13
f9
f5
12
ef
ed
06
00
0a
f0
02
fe
08
df
f6
dd
01
0a
05
14
f7
07
00
06
03
09
fa
15
f9
0e
fc
1d
fd
f8
fe
01
f9
0a
05
09
0c
fb
f5
f3
0d
22
05
08
fb
0d
f5
03
0d
fc
fd
fb
00
0d
ea
1c
10
fb
e0
11
01
0a
08
06
08
f4
ff
fe
f8
08
0b
1c
05
e2
10
13
f6
e0
f2
24
e9
05
08
fd
f6
f7
f8
fc
00
1b
f6
ef
f9
f7
07
fb
f1
00
f3
f3
04
f3
fc
03
ea
e4
08
ec
0a
12
07
fe
0c
f5
02
eb
12
f3
04
0a
e8
0d
f2
0f
f1
20
fd
e1
1e
0b
f9
ff
08
0d
04
f5
06
06
0e
1e
e0
fc
ed
eb
ed
fc
fe
0b
01
00
fb
ee
02
ee
f8
00
fd
0c
07
03
f3
04
0c
14
ee
0e
f0
07
f6
dd
fb
f2
03
fb
f4
00
f6
01
0e
05
00
10
fc
ff
01
f8
00
1f
02
1e
03
fa
04
fc
f3
02
23
f3
02
0f
f8
01
04
00
3c
f7
0a
d8
ef
02
1d
f4
ec
ff
fa
fa
00
f9
0c
f7
0a
07
02
02
f4
12
08
05
1a
0a
08
14
e8
de
fa
f0
f4
fa
09
02
fc
0b
08
fa
fb
01
f4
04
d8
f2
07
f1
09
03
f6
08
f7
e3
03
f6
01
f2
f0
f5
f1
0c
07
e4
f9
ff
07
fd
04
08
fb
06
1d
0d
f8
05
10
fa
01
0e
00
f9
fd
f3
04
0d
02
07
fb
08
05
f9
fd
fc
fc
ff
f2
05
fd
00
03
01
f8
08
0f
fc
15
fb
06
00
f0
1c
01
1c
02
fe
ff
05
03
03
43
02
fe
06
ff
f3
13
08
1a
f7
04
dd
f2
09
13
fb
ff
fd
0d
f2
05
0f
f5
01
03
0c
f7
fc
f3
00
00
00
0f
07
f5
03
f2
02
13
f8
fe
fe
12
f8
fc
00
ef
f6
09
07
f0
0b
cd
ff
fb
0c
0c
06
f7
e3
fe
01
fb
0c
fb
03
09
ee
00
0e
15
ea
ef
04
fd
04
01
fb
f0
05
18
0e
fb
0f
00
fe
07
12
0d
ff
f1
03
01
0f
f1
09
01
ed
14
04
05
ff
fe
08
15
24
00
fb
14
ee
f1
18
0b
fb
fb
fd
e5
07
05
07
0a
19
f3
f3
e5
02
fb
ea
25
07
0e
00
ff
e7
fe
04
07
15
f7
cf
0e
02
ec
14
ed
19
15
f4
04
f6
04
16
ff
fe
e5
f7
ff
fb
15
f2
13
ed
f9
e9
03
1d
05
09
09
ee
e8
e7
dc
17
03
f8
fc
15
20
0a
0c
13
02
09
04
36
10
06
eb
0d
13
fe
fd
09
07
1b
09
f4
fc
14
03
0e
09
f4
11
06
18
e7
eb
f7
e9
f8
fa
19
fb
d9
19
f1
10
f1
0d
fd
ff
fc
f4
ec
03
ec
07
07
fd
10
06
f4
ef
fb
05
0b
08
fa
04
11
e8
03
12
ff
02
d7
fb
08
10
f9
01
06
fc
06
d9
06
02
ff
f9
f7
04
12
e8
fb
ff
24
f9
15
ec
0e
0f
06
e0
07
f9
06
f6
fb
fa
01
06
f9
ff
0c
02
fa
ea
ee
07
07
04
fd
f6
02
f0
f7
07
07
10
f8
fe
1b
f7
07
05
02
28
0a
f5
f4
fd
13
fa
0d
04
02
f1
ff
fc
09
f8
07
0e
01
f6
20
0c
08
08
f1
03
fd
fd
01
03
ec
f5
fa
f6
fc
12
e6
0c
03
10
0a
03
fc
11
fd
0b
19
17
e4
f6
f0
02
ff
e8
1b
fd
12
fd
0e
02
09
f5
1b
fd
02
0a
f4
01
08
f2
13
15
ff
03
fb
0d
13
10
f1
f0
03
fd
0b
fb
1b
0f
e8
f7
f5
e0
f7
05
f9
ed
0e
d5
05
fb
01
09
fb
0c
00
fd
e9
04
0a
00
fd
ff
ff
09
0a
08
e4
fc
fc
0d
09
14
0d
07
fe
ef
f5
05
0d
ff
f3
ff
fd
e8
f9
05
3a
e9
0b
fc
f5
fd
05
03
f6
e7
fb
19
0d
10
f1
e9
fe
fb
f4
eb
fd
ef
15
0d
0f
08
08
0d
e7
06
15
ff
ec
03
0b
fd
01
fd
f4
e5
f3
00
fe
01
00
0a
01
05
02
e9
13
f0
ec
f2
07
e5
0b
e8
09
f9
fc
0e
df
fe
f7
fd
ea
09
0a
f9
21
c9
f4
f0
f1
ef
0e
00
fd
e6
fd
05
f0
fe
0b
e7
0e
0d
f5
08
f9
f1
03
09
07
1e
0e
03
f7
fe
07
06
ec
09
19
03
fe
04
e9
f8
0f
f9
ec
f7
04
0a
fc
09
18
f0
f9
f3
0b
21
09
fd
0b
f3
e3
e7
fb
03
f4
07
12
19
f4
f3
0c
02
05
f0
0a
05
ff
15
00
fa
08
f6
f9
12
fa
fa
05
05
08
f7
ec
fc
fe
0e
00
0a
f4
0f
0f
fa
de
0a
fa
f8
0a
f9
1b
08
0e
ee
08
f4
f4
fc
fe
0b
fc
04
fb
ef
00
16
d1
07
f2
f9
ff
f7
08
f1
f7
e9
ed
f8
08
02
eb
f1
19
d1
fa
f1
00
08
04
dd
0d
0f
fa
01
0c
fc
17
ec
0f
ff
05
fd
fe
06
0d
f2
fd
f9
ff
0e
fe
07
fe
f9
06
f5
05
e9
f9
0b
f2
f4
23
ee
f8
f0
02
2d
03
f9
0b
f5
f9
04
f6
0b
0f
08
05
0b
03
0b
05
fe
ff
f7
1c
03
0f
07
f9
07
06
fc
02
01
07
f9
fc
f4
09
02
de
01
02
02
0c
f8
ed
01
01
f5
08
11
06
1f
fd
ea
14
01
12
09
06
01
f0
fb
09
08
f9
07
08
f0
06
0a
17
fc
1f
f8
f9
fc
06
05
fe
47
ea
f2
08
f7
04
05
fd
0f
16
00
cf
f7
0a
f3
ec
f4
07
0f
f7
f8
e3
f8
0b
07
0e
ed
03
08
06
f4
fd
04
f3
0b
f7
f5
08
fb
07
f6
06
0e
06
da
05
fa
02
ee
03
f9
03
e4
01
0e
fb
ff
2d
10
00
ee
fb
0c
15
04
13
f2
f9
f6
06
06
e5
ed
f5
fa
04
01
fa
fb
02
10
f8
03
06
09
06
f8
02
fa
08
0e
01
01
f7
01
f8
f9
e1
f6
ed
ff
09
09
00
13
09
eb
07
f5
06
fd
07
ec
1c
f3
02
fb
03
f4
e0
fe
ef
06
f8
07
fb
f0
fa
b2
07
00
03
08
f7
fe
f6
e8
fe
03
1d
f2
f9
f0
0a
11
02
ef
14
f8
05
01
f7
fb
fc
0e
03
f6
03
08
fe
ef
ff
05
f9
03
fd
01
00
05
ff
f4
01
1d
f7
f0
fe
03
05
f7
ee
2a
f9
08
fc
ec
fe
10
fa
fb
08
f8
ff
ff
f8
07
ff
01
fb
07
26
0e
f4
fd
ef
fd
04
01
eb
f4
fe
04
f6
f8
01
ff
f2
05
01
fd
06
0b
ff
f9
f7
06
0a
fa
fe
00
fc
05
f3
fd
fa
15
04
fc
fb
01
fe
05
f4
f6
f9
0a
04
fb
27
00
05
fd
0e
ff
02
fc
fc
3c
14
f2
03
ed
0d
0b
f7
2f
00
ed
ee
ed
f8
09
00
f8
fd
fb
f8
0c
02
fe
01
f5
ec
f8
05
f6
fd
04
03
fd
05
f4
fd
00
ee
09
ef
09
fb
08
0a
f9
f5
08
e8
08
0c
fe
fb
da
06
01
fa
12
15
07
f2
ff
f6
f8
f4
f5
f7
fa
f4
04
0e
f9
f2
03
f8
f6
13
01
fc
fa
01
0b
19
10
07
15
fd
0a
1d
16
03
f8
0f
0e
0d
09
0a
0e
0b
fe
fe
01
33
0b
f2
f8
02
f9
09
11
09
08
02
fd
0a
fd
05
16
0e
f4
0e
00
01
0b
08
0a
e5
08
ff
f3
16
0e
f8
15
ee
fc
f0
02
e3
fb
27
f4
eb
1d
f4
0c
fd
ed
0b
07
16
02
f5
dd
e6
09
1a
f6
f8
f6
f9
f1
f5
0e
0e
f8
e6
18
f8
12
10
f3
03
11
f6
00
e9
07
f9
f3
f8
db
f6
02
f2
f1
fc
03
eb
fb
0d
eb
00
ec
fc
fb
fb
fe
fb
0a
14
00
fb
fc
f5
00
ff
12
07
ec
fd
fa
f3
0f
f1
05
07
07
08
f5
fc
f7
f9
fc
15
09
0d
f7
09
f8
11
05
06
18
09
05
f1
f8
db
fb
05
05
e3
0b
02
f6
12
0f
e7
00
e7
f2
fc
eb
04
08
eb
ec
04
13
05
fe
1d
fe
08
ef
16
fb
25
1f
07
05
07
0f
f7
2a
0d
fd
09
f5
ee
ed
fa
f8
ff
0d
f9
fc
02
f8
01
f4
ee
13
21
16
0f
10
fe
fa
08
fa
f9
09
05
f5
02
f6
fc
03
03
16
15
f0
a8
0c
fd
fa
15
04
e9
f3
03
07
ea
eb
05
09
15
f0
05
f6
0f
09
f7
0d
f4
e6
f8
09
f6
0b
ff
f1
09
08
08
e5
04
f5
02
fd
05
16
07
05
0b
00
03
06
01
09
f8
03
f7
00
f7
07
fc
09
00
0b
fb
f7
0c
10
fe
05
dc
f5
f7
fa
11
02
e6
ea
05
11
f8
00
08
09
fe
fe
09
f8
0e
18
e8
09
f8
10
f8
2b
fc
07
04
ef
0f
ff
f1
f4
03
f5
f4
f3
16
fa
fe
ff
fb
03
13
08
00
0a
ed
08
f0
f8
04
16
01
00
0d
05
fc
05
09
f9
ed
ed
d4
01
e4
f7
16
ee
f5
03
fa
15
e9
f1
07
08
e7
fc
07
00
04
06
fc
02
f9
eb
00
12
f0
11
f9
07
0c
f5
fb
ed
f6
fd
0c
e4
fd
0b
f6
0f
0c
16
01
ff
1b
02
f4
02
f8
09
07
0b
fe
fc
0e
0e
05
05
0f
fe
15
0e
00
fb
fd
0d
f5
f6
01
02
fb
f0
04
14
e7
07
fc
cf
1b
fb
f4
13
ee
fd
fd
ec
08
21
f9
07
08
f7
06
04
fc
ef
e3
01
20
e7
0c
e0
07
fd
fa
ef
1c
fd
f8
05
06
15
04
fe
15
01
08
03
04
fa
01
fe
fd
fd
02
ed
32
ff
f4
05
0d
01
fd
10
ff
0a
03
ee
fe
0a
fd
00
f0
00
fb
0e
16
f8
01
f6
f8
fe
fc
0a
07
f5
f9
03
00
03
eb
fa
15
ef
0d
05
19
ff
fb
ef
f1
ea
eb
fc
f7
01
e9
ea
f3
03
26
fd
f6
f9
fa
ff
07
fd
26
03
11
0b
fc
f9
05
09
02
06
ff
1f
01
fb
1d
ed
f5
1c
03
0c
f1
fa
fd
03
ec
04
f7
fa
f6
fe
f9
fd
01
05
13
f6
0a
04
fe
f9
f7
08
f7
03
06
f3
07
09
01
f4
08
23
fc
fa
02
0a
f8
04
02
f2
0a
01
03
00
f7
03
fa
f5
ff
fd
fd
00
0c
f0
04
07
01
05
fa
f9
f1
00
03
f8
fa
f7
ff
f5
0d
09
fc
01
14
0f
fb
0a
f8
fb
f6
01
fd
10
e5
0f
e3
f4
16
0e
03
fb
d4
f5
f9
04
f1
f7
fe
e0
f0
fe
12
e6
0f
09
02
07
f5
0e
14
07
05
04
e5
00
00
05
2d
cf
0a
0e
12
fd
0d
e8
07
1e
f7
1b
fe
ef
0b
fe
e5
05
0d
f4
ea
fe
f5
03
09
0c
0d
05
01
f8
0d
f6
03
fe
12
fe
12
f0
11
f6
fc
ee
f6
23
09
f1
16
fe
03
fb
05
ff
08
0a
05
ff
fe
13
e4
d7
fe
04
f4
03
11
fc
ff
0b
13
0a
0f
f7
e1
f5
04
fc
ff
ed
f8
ef
13
1a
0a
0a
16
13
ee
05
f9
fe
f0
06
f6
fe
ea
15
e4
f0
0c
fa
ef
f9
00
09
00
fb
0c
fd
ea
07
ff
05
07
ff
03
e4
f8
06
04
01
e8
fb
e3
14
fd
eb
fe
0b
00
f3
0d
0e
06
03
ff
f0
fb
f2
ed
fb
30
f9
05
ff
17
00
fb
d0
06
06
f6
f1
f6
fc
08
11
22
02
f2
0c
ef
05
f0
11
0f
0b
0a
05
13
0e
01
de
f5
00
0d
fc
f2
02
f3
01
fa
0a
fd
0a
f8
fe
17
08
fd
05
0d
05
fa
eb
01
f6
0a
01
ee
e6
23
09
04
02
06
ff
fe
0d
fd
f0
e8
0a
ef
f3
02
fc
f9
11
08
fd
fb
fb
f5
f5
f4
fc
12
f6
fe
08
10
11
d5
f7
04
0c
f0
f8
e7
ff
13
0a
ec
08
05
fb
0f
09
f8
0a
df
fe
f4
01
03
00
fa
e2
10
1c
04
fb
23
f7
e9
13
08
fc
1c
1a
04
15
f8
10
f0
fc
fc
f7
f7
f0
f8
0a
04
ee
0b
f6
f1
e7
04
f9
f4
fe
f4
02
19
0c
0f
00
f5
08
fb
0a
04
fb
f6
f9
f6
02
10
11
f6
ff
f6
04
e3
0e
05
fe
16
09
fc
ec
f5
ff
f9
ed
03
f9
f3
f9
11
07
01
00
ea
19
f5
08
04
06
f4
0a
11
fe
12
0a
fa
03
f1
04
f7
ff
f5
f6
10
00
ea
14
08
f8
f0
ee
03
05
f2
f7
07
fb
06
ec
fc
ff
f1
05
08
fb
18
01
1b
12
0d
ff
ed
fe
18
2a
1b
fb
19
fe
05
02
f8
20
fd
02
ef
e5
03
02
ff
e1
01
f4
ff
01
e9
00
08
12
04
f0
fe
fa
00
1a
f3
f2
01
06
04
f8
0f
fc
04
f8
f7
0b
ea
e6
f8
fc
ee
fc
05
fd
10
04
fc
03
ea
0c
28
fa
14
00
ef
fb
0f
fa
0b
03
0b
0d
fe
03
10
04
f3
03
f8
f8
ef
15
09
fb
01
04
f8
00
fd
14
f2
f0
fd
11
fd
10
fa
00
ec
f7
09
eb
0b
ed
07
05
e5
f1
f2
f6
01
ea
0d
f8
07
ed
ff
f8
06
00
f8
ee
e7
ef
01
f8
07
07
f9
00
09
fc
fc
ff
f6
fd
05
00
01
08
ea
11
19
12
09
f0
ea
03
fc
da
f8
e7
07
11
f4
02
14
07
24
f3
fd
0d
fe
11
0e
13
ff
0f
e6
fa
0b
fc
fd
fc
11
fb
fe
04
01
13
f9
00
05
12
03
f9
00
fc
e0
ec
0b
f6
fc
11
0a
fb
f6
ec
03
00
ea
f7
03
01
f5
04
ea
f3
ff
f2
fa
f8
ff
f8
03
f6
0a
f2
06
03
08
ed
02
08
ec
02
f2
fa
0e
fc
e1
f2
15
11
ef
fb
e0
fd
01
f4
e4
08
0c
f4
0f
f9
fc
05
fe
fa
06
f8
01
0a
ff
02
ff
0f
0f
e0
1e
16
fc
0d
0f
e3
ed
f7
0b
03
2b
dd
fe
f8
08
f9
08
e2
0f
09
ed
fc
f7
0a
fd
09
08
f8
fb
0e
e7
eb
f9
02
04
f8
1c
fb
ff
07
f9
02
e7
05
fb
13
08
f9
f7
0f
fe
23
07
fa
f9
fb
1a
f0
09
10
15
f2
23
ee
f1
06
07
12
02
e3
0f
f7
0c
fb
f8
02
ea
07
0e
f3
17
0f
0b
fc
f3
0f
de
f5
f4
08
f4
fe
f0
13
fa
13
e8
f7
0a
05
03
f8
03
05
08
02
ea
0b
e3
f6
f6
1e
f7
19
eb
05
0a
12
1d
03
ec
e5
f7
f1
0c
0a
e3
03
10
21
01
02
f2
18
f6
f2
26
f2
dd
10
f9
f1
fe
f6
1b
1b
fb
09
18
fe
05
f8
0d
f0
f5
01
f2
ec
02
e3
ff
f4
f9
f0
2c
fe
fb
0e
08
06
f5
06
13
0b
0e
fe
fd
03
ec
e8
0b
f6
fd
07
11
f1
e2
0d
19
f4
ec
01
fb
1c
ff
f1
ff
10
0f
ee
06
e2
13
ff
0d
ea
e6
03
ff
f5
00
03
01
f0
f9
15
0f
00
e4
e6
f9
04
f8
0a
ec
0a
0d
08
0d
fd
1b
02
ef
f4
0a
0c
0a
f9
e8
01
13
05
11
04
fd
f7
f0
05
fd
ff
06
0d
06
f6
01
f1
05
0c
f6
1f
ee
f5
01
d3
04
00
15
fc
fc
f3
09
ff
04
0b
0c
0e
06
f9
fa
f4
f5
08
05
fc
ef
ee
ee
e1
0d
0c
f7
fb
02
07
fa
fc
f9
04
fb
01
0c
08
08
fb
ff
01
f0
18
14
01
07
f7
2d
02
f8
02
0b
f8
f4
05
03
fb
11
04
09
fa
14
01
f9
03
f2
17
ff
fd
02
ed
ed
fd
01
0d
f5
0f
f5
f4
fe
07
01
01
f5
06
06
05
d9
ff
fb
0b
1b
fc
1a
ff
ec
16
f7
07
0b
f3
e6
f6
12
fe
f7
08
08
ef
0b
01
04
e8
f2
fa
03
fb
01
f5
03
f9
fd
11
e7
f1
ff
cd
0a
ff
fa
08
f4
e8
13
11
07
11
0a
01
08
fb
04
f6
03
0a
f7
09
07
fc
fd
e3
04
03
f8
f6
13
f9
e5
0c
04
f8
ed
01
09
01
07
ff
f5
02
ef
02
02
ff
f9
ef
2d
0e
fe
f7
f8
fe
f8
14
0d
07
07
f9
00
0d
17
0a
02
00
12
14
fb
0b
0c
fb
fc
f7
fd
03
ed
fc
f1
fa
f8
18
00
fc
fb
ff
fb
f9
04
02
ee
f6
fa
f4
0b
ea
21
f1
0c
fd
fd
fc
06
f7
f3
eb
fe
01
f8
fe
fb
fa
11
f8
01
08
03
f6
01
3d
ff
ee
07
e8
f7
05
09
26
ec
fc
f9
ee
05
01
13
f2
09
d8
fc
04
f7
f8
01
ff
0d
ea
08
06
f6
0b
f9
1d
f2
04
fd
10
f9
fa
00
fb
07
ff
f8
fd
01
e0
08
08
06
fb
0c
ea
11
15
0e
0b
27
fe
1a
09
00
01
fa
fa
14
ec
11
0a
f6
00
0d
00
ed
f6
f1
fc
f0
f5
fb
fd
06
f3
08
03
f8
0a
16
13
f8
06
19
ff
08
f6
fc
03
fc
f3
fb
ee
f4
19
00
09
09
f3
f3
03
06
04
06
06
04
fb
01
f8
fb
00
e6
fc
d6
06
ff
f7
fb
fd
f0
bb
fd
0a
fc
18
01
02
fa
e4
fe
0b
2a
15
09
fd
14
27
f2
e9
02
05
13
ff
04
f0
ff
13
0e
fd
04
f9
03
f8
fd
02
fe
02
f4
00
0e
ee
00
fa
f6
1a
03
fd
f8
fa
fb
fe
fa
23
07
f7
02
02
da
06
f6
ef
23
06
f3
f0
f3
1a
08
f8
fb
fa
10
fa
10
0a
f8
02
08
f6
0c
f8
fe
06
f7
fa
07
02
02
0b
04
f5
ff
f8
e7
f8
eb
f6
0f
05
1c
09
f1
f7
f6
f1
f4
1b
00
ec
f7
f2
f0
fb
0a
05
f5
0f
f1
de
13
0b
06
04
0a
00
14
f8
18
fb
ee
fe
09
0c
0f
ef
fd
f0
16
15
d7
dd
f9
0d
f1
00
18
35
f8
fb
00
05
0a
0c
0a
f3
f3
eb
ed
df
f6
e7
08
f1
12
f0
09
eb
ed
01
11
1d
06
0e
03
1e
0e
fc
0b
07
fa
e8
02
06
e3
f5
10
f7
02
01
e8
00
01
1c
01
04
09
ec
19
09
f4
02
05
f0
13
01
ff
e1
0a
04
f5
05
15
fa
07
0f
ff
f0
08
12
f0
f7
04
07
1b
fd
17
06
06
ff
ec
0a
e9
02
04
fd
e6
f8
fc
07
1a
f8
e9
15
ed
fd
fd
14
0e
eb
fe
07
fb
e5
07
13
fc
0c
03
19
09
ef
08
03
f0
38
fe
fc
15
02
16
12
06
ec
fe
05
03
f7
00
10
1d
f9
fb
fc
08
0e
f1
06
f9
0b
f3
f9
fb
0a
15
0a
0b
fb
f9
fb
f5
e8
ea
0a
f8
01
f6
e9
09
fd
f8
f2
1e
0a
00
f8
fe
09
07
09
04
ea
fe
07
09
00
f6
03
ec
00
0a
f4
01
eb
eb
07
fd
0c
18
00
01
00
0c
ff
0b
fc
f7
00
08
fa
0b
fd
e5
1e
f4
01
07
0d
f8
09
fc
f2
04
15
1c
18
12
fc
ed
e7
f2
0c
fe
fa
08
12
09
07
f3
0e
f8
ff
02
ea
fc
f0
09
fe
12
12
e4
00
0e
ef
01
0b
0b
09
1f
10
03
ee
ee
e7
04
04
17
ed
f4
f7
0c
fa
05
f3
f7
09
eb
eb
0c
f7
fc
fd
09
15
12
01
04
ff
fe
ff
f9
f8
e6
0a
f8
04
f8
19
e4
0b
f8
f2
19
f1
03
03
02
fa
02
f4
07
fa
07
eb
ec
e1
f4
16
0b
f1
e0
0b
f3
08
0f
f7
f4
f2
fe
f8
05
08
f1
f0
02
01
01
fe
13
02
0f
fd
f5
fb
f8
f2
04
0a
f5
02
07
f6
eb
f9
ed
08
0c
07
02
f0
0c
fc
f9
fc
f7
fd
f3
06
fb
01
fc
0d
00
d4
27
0e
e5
05
05
01
06
fe
f0
ea
0d
03
fb
fe
15
08
f6
f2
09
05
f7
fe
ff
f4
fc
1e
0c
02
ee
f8
09
f6
f7
00
02
00
12
02
f8
f8
fb
f1
e7
14
13
04
0e
01
f6
fc
08
15
06
ee
03
fe
e0
fc
fd
09
24
03
ff
f2
05
0b
0b
01
04
08
14
f5
0d
fc
07
03
08
0a
f9
f2
01
07
f2
f5
f4
01
09
09
0c
07
00
00
ed
f7
f0
08
ea
09
f9
09
f5
0c
07
0f
13
eb
13
01
0e
07
01
fe
07
f2
f9
11
06
ec
dc
fe
07
fe
fe
0b
fe
06
f9
0b
0f
f2
0e
13
f8
01
f7
f3
05
0a
04
0d
fb
0a
fd
10
06
dd
04
f5
16
e5
f9
07
f9
0a
11
ff
03
03
04
ed
04
ff
ff
0c
06
04
fb
f7
04
f8
00
f7
11
f4
03
fd
08
00
e5
14
02
f6
f6
fe
22
fa
0e
f3
fd
e8
f8
0b
fb
f4
08
f4
02
fb
10
08
0a
f8
ec
08
f7
e2
02
f1
04
ed
02
01
06
f0
ea
fc
fb
fa
0e
0c
05
08
fa
06
ea
fa
01
fa
14
13
03
05
0c
fd
ed
f6
09
fe
fe
fd
0f
fb
00
f7
07
f9
ed
06
ea
f3
fe
f9
f8
01
f5
e8
16
11
02
23
ed
06
01
e0
fa
fc
0e
0d
00
ff
10
07
f5
eb
0c
f3
07
e4
07
0d
f7
0d
13
fe
02
07
fa
f7
f7
02
0a
f7
19
0e
1c
f8
11
e2
f8
1a
01
fa
00
08
04
08
01
1b
05
f8
03
e4
08
07
03
f6
12
fa
fb
f8
f5
0c
05
f4
fa
fc
22
17
0f
00
f3
05
f6
0a
f5
f7
fc
06
e9
f0
09
fa
db
fe
03
ff
f9
ec
f1
fe
f0
0a
04
f3
11
08
03
02
fd
0c
07
ee
fa
0f
e8
07
f3
fd
ec
09
11
f7
07
0d
e7
01
ec
07
fc
f9
ff
f8
e4
d2
11
14
fc
06
02
07
fd
f8
0e
05
26
18
fc
f3
f3
09
f1
0a
08
02
05
02
f4
fc
ee
f2
09
0c
00
fb
05
ef
12
fe
ef
ff
11
10
ff
00
09
f5
f5
11
fb
0c
05
fd
fd
04
f4
18
fa
0b
fe
f0
ef
01
f5
fb
16
07
fe
01
f3
0b
ef
f8
fc
fe
10
05
0d
f7
11
07
f6
06
f8
e6
f5
02
f5
02
06
04
ed
02
fc
e3
f7
05
f4
09
02
1c
e5
06
1a
15
0f
fa
fa
00
0a
19
e4
0c
ec
fa
f7
fb
e4
1b
ed
f1
13
0f
21
0e
e5
f9
f8
f6
03
02
f9
26
0d
16
0a
0f
e8
fb
fb
f5
0d
f4
01
1a
04
f3
13
e0
ff
17
12
08
0c
fa
fc
f4
f7
e4
ff
08
ed
0b
fa
f7
fa
f1
f4
f7
34
04
05
1d
01
f5
ff
f3
fe
08
f0
0c
e5
f9
0b
0d
f4
05
11
05
25
0e
01
01
02
f8
f3
f5
05
0e
f1
f6
fc
0a
ee
ff
0a
eb
04
ff
f6
12
08
ec
00
f2
02
f7
1b
fe
f4
00
13
fc
17
ea
1b
f1
0c
10
e8
00
f0
06
0e
14
fd
0f
0e
f9
fe
09
f8
f6
f2
fc
f4
e9
06
02
0a
00
00
08
fb
04
f8
fa
fc
f3
f3
f6
0f
13
05
1a
e6
ff
0e
e6
11
02
19
0e
09
ea
1e
f3
fe
e8
12
fe
0e
e6
f7
f6
f9
f8
06
0c
fc
fe
de
ef
f2
0e
09
f8
12
0c
10
0c
0f
f2
e5
07
00
f8
f7
fc
f5
11
f4
0e
03
f3
05
ed
04
f8
fa
04
0e
0e
ee
fc
02
0c
0a
0c
06
00
06
17
0b
f3
f1
fa
fe
1c
06
eb
f0
f7
f8
ec
f8
03
f0
f8
0a
16
04
f7
fc
02
f2
04
0f
03
09
09
02
00
f7
fb
ef
05
0c
fe
ee
0b
05
f0
f7
08
f6
05
f9
07
23
0b
09
fd
ff
09
03
f8
0d
18
fe
e7
f9
fd
10
fc
ff
10
16
05
e9
f2
07
04
ef
f2
00
0d
ff
02
f1
13
07
18
0f
ed
f7
09
02
01
ea
08
1e
02
00
f9
f0
fa
f6
09
f8
04
0e
f7
f9
fd
04
07
fb
fc
01
e8
ff
fe
fc
03
0a
ee
01
00
ec
fe
18
16
01
f7
f9
07
00
15
e3
f8
fd
06
07
01
f2
fe
12
08
11
05
14
09
f1
03
02
fd
fd
0c
19
0b
ff
0b
00
fc
fb
0a
00
09
eb
f9
01
ef
04
fd
0c
f4
18
0a
fe
f7
11
00
f2
06
ff
ea
12
f9
0d
ff
01
0e
fe
00
23
28
f1
f2
fd
fa
f1
f6
0d
1c
f8
04
e3
f8
fc
0d
ed
e6
ff
eb
f1
00
0d
0c
12
0b
12
fe
01
00
0d
07
01
0a
09
fe
0a
fb
e6
f4
f2
f3
07
13
0c
f7
fe
fe
11
07
f1
f4
05
e2
fc
ea
f5
0e
2d
f0
1a
00
f1
14
08
10
fe
fa
0b
0e
06
f5
ec
02
fc
00
f3
03
f3
e8
05
04
0c
e5
0d
f9
f8
09
07
f4
fe
0a
f8
06
05
17
03
15
16
03
07
0a
fb
f9
00
ee
fe
06
13
0a
fe
0b
fd
02
fd
19
f0
fc
f7
f1
0d
ff
16
fb
f8
f9
17
f4
10
27
eb
f0
01
f4
06
0b
fc
16
00
0c
da
e9
f8
0c
e5
fd
06
f5
ec
f9
0a
0a
fc
0d
08
f3
04
06
04
0b
16
01
00
ef
fd
00
e7
fd
ed
01
05
13
22
f5
11
06
ff
02
08
fb
03
f9
fb
fe
ff
13
12
f0
f7
01
f3
f5
09
08
0e
f9
f8
ee
fc
f9
eb
f5
00
fe
06
fe
04
f0
06
15
11
f9
01
0f
fb
f1
0c
05
f4
fa
10
ed
0d
07
00
f7
1e
0a
f6
00
f9
fa
04
ec
02
f9
15
05
07
00
08
f6
0c
02
f1
05
ff
f1
22
f6
1b
0b
00
05
08
ec
ff
49
f7
f6
03
f1
ee
05
12
22
11
03
d6
eb
fb
0d
f1
00
f9
0e
fa
08
f5
0d
fe
0b
0b
f2
ff
ff
fb
01
0d
0a
0c
03
10
06
fa
fd
f2
fe
ff
07
fe
f8
05
fc
fb
f2
fe
f2
03
e8
0a
07
f2
0b
04
04
0c
01
e9
ff
0c
10
f3
ec
f5
01
fd
01
e0
14
02
ff
fa
f2
00
f1
11
fd
fd
fb
0f
05
01
00
0a
07
00
06
05
02
05
0a
04
09
f3
f3
10
f6
fa
03
03
0f
fa
01
f5
04
de
03
fe
16
ec
11
f1
f0
01
04
eb
09
f1
02
fb
f1
03
f8
ec
c0
f9
12
03
01
19
0c
ed
ef
02
f4
1f
0d
0d
08
fc
10
fb
11
fb
0c
04
fc
fd
f5
02
f5
07
fb
ed
01
11
f9
f4
fa
f2
1c
f2
07
0d
0e
fe
04
02
f8
ee
10
ff
02
f5
f7
11
0c
f6
09
07
fb
d1
03
f8
00
0f
08
00
fb
f5
09
f3
0a
13
02
01
fb
02
0a
05
0a
07
fe
05
01
02
15
04
f3
06
05
0a
02
fb
ec
f6
fb
f6
00
06
fc
ea
fa
f5
e4
fa
11
08
04
f6
eb
01
07
0c
fd
09
fa
16
02
0f
ff
fd
11
f7
f4
f3
10
ff
00
fa
0a
f8
d0
f7
e3
e7
01
f7
eb
0c
f0
06
f7
24
0e
ff
db
1d
f9
fc
f5
13
04
fc
00
fc
03
0e
05
fb
0a
05
ff
f2
f3
eb
12
02
fc
01
fe
0a
ef
ff
f9
e2
fa
fc
00
08
fd
ff
12
fe
10
15
06
ed
f6
dc
fc
05
f5
fd
01
01
0e
e6
12
04
19
f9
02
0f
05
07
0c
08
fd
07
f9
01
f6
e9
09
04
f1
fd
09
f5
fa
02
ec
f6
04
f2
fd
f7
0d
e3
0f
fa
01
f8
f9
05
f7
0c
fd
18
00
16
11
fd
f2
06
02
f6
0f
fe
ed
10
ef
10
08
19
0b
fe
fd
10
15
02
fb
00
0a
e8
f9
fd
02
ff
f9
01
f6
07
01
0b
f8
fa
df
e8
08
05
07
f6
11
f3
fb
0d
ff
10
0a
fd
fa
fe
05
03
f8
02
05
07
f3
0d
0c
0b
04
fa
f1
08
f9
04
05
f5
f7
f6
ef
f0
13
18
00
14
06
f2
f0
0a
07
f8
fd
00
05
02
f4
fa
06
00
fd
f3
fe
05
eb
0c
f5
f9
f2
06
ff
f5
0b
fc
0c
fe
04
1c
0e
06
23
fb
07
16
f5
1a
f9
fb
02
f2
08
09
fc
f6
f5
f2
03
01
06
dd
11
05
eb
09
16
ec
09
eb
f0
f1
03
00
0d
f6
f0
fc
fe
ff
f6
19
11
f1
10
fb
00
04
05
02
07
f1
f0
ee
29
04
02
fb
ff
03
0a
05
f2
fe
00
f3
05
0c
05
0f
f4
ff
05
07
14
07
0a
f6
10
0f
f9
f9
11
f8
14
02
f0
08
0c
e0
03
04
05
e3
11
f8
f5
fb
01
fd
06
00
fe
eb
f2
03
0a
ea
fa
ed
fb
13
03
f6
fd
f3
09
0f
fc
02
11
12
ea
05
fb
0a
e4
f1
fc
07
ed
0a
0a
0c
0e
0e
0a
f9
f9
f6
ff
04
0f
f7
08
06
fd
fa
f3
f2
03
0b
ed
05
0f
18
0e
f2
13
fb
0d
05
fc
17
de
0a
f4
08
f7
e7
f9
07
16
0b
01
0c
f0
0e
ff
f7
ce
03
f3
15
09
f7
f9
02
09
0e
e4
f7
0a
08
0b
fc
00
05
f8
fe
e9
09
fd
08
06
fe
13
0b
f7
f4
14
fb
06
f4
00
17
12
f7
f4
02
0d
e8
eb
f8
06
e2
fb
16
ec
f7
05
eb
f9
ec
f8
d8
05
fb
ef
f8
f6
03
11
16
17
19
ed
13
0d
fd
07
16
f9
ff
13
04
0b
11
fa
09
fe
14
f6
fb
10
02
f8
11
f2
01
0e
0d
f2
06
fe
ea
0b
05
09
ef
09
fc
07
22
04
22
f1
fd
f3
06
0d
1b
27
04
f6
03
1a
f8
ed
04
00
fc
13
f3
e8
f8
0b
02
ff
0f
f3
e7
11
00
26
f9
fb
01
ec
01
f9
11
fe
fd
04
02
04
01
ed
f7
ec
ef
f7
0b
0b
12
f0
f1
f0
f7
f8
0e
00
fc
ee
eb
0b
00
00
2d
0c
06
18
02
f4
13
fd
15
f2
28
11
06
fa
eb
0a
04
f7
07
00
fe
f7
0e
11
10
ec
04
fd
f5
00
03
fa
02
0a
09
0c
03
11
03
05
e9
f8
ff
1f
27
12
05
fe
03
f5
f6
eb
fd
fb
fb
fd
11
f0
ff
fd
09
04
06
fd
f3
ff
ef
f1
00
f9
f7
cf
21
00
0b
17
ef
f2
0e
cb
25
eb
23
0c
02
f2
2f
04
fd
ec
11
f6
00
03
f1
00
e2
f7
08
08
fc
f4
f3
05
f3
f9
fe
fe
00
fc
f2
08
11
d7
f8
13
03
f5
0a
05
ed
17
f4
1d
1c
02
02
e9
15
02
04
16
32
fc
ea
00
fc
1b
0e
0d
eb
02
0e
04
1a
00
e9
09
fa
13
05
e6
e3
16
f8
ee
10
fb
ea
ff
03
06
03
f6
e4
06
05
06
06
fb
19
eb
f4
ff
fe
11
17
f5
f3
f8
f7
ff
02
05
e7
16
02
e7
03
07
e7
01
eb
f2
e6
f0
04
f1
e8
db
09
f9
04
06
01
18
07
21
f8
0d
ff
14
08
19
01
03
f5
25
ff
f7
01
0c
22
f0
10
0e
fd
01
fa
fa
fb
f9
03
ff
fe
01
f4
13
0e
ee
ff
11
ed
18
fe
0a
ff
07
06
f9
0d
14
f3
f2
05
fd
af
0e
f0
06
f8
f2
fb
0e
f2
fe
fa
f6
11
0d
02
fa
0b
ff
fd
01
fb
08
e2
03
09
f8
f0
fd
05
f7
ff
fe
fe
fa
fb
fe
fd
f7
0b
15
0a
04
fc
06
20
ec
13
17
e1
19
0c
03
1f
05
fc
ea
19
fd
09
02
07
f1
2e
fb
03
35
f4
eb
f5
03
19
09
0a
0a
e6
0f
00
0d
f5
f2
f3
11
01
fa
00
20
13
05
21
0c
e3
06
fb
05
fd
df
fb
f8
02
02
0d
0a
fa
1b
13
fb
02
f5
f7
d5
ed
29
fa
f5
12
03
db
02
04
fc
f4
f6
f3
f4
e6
15
0e
03
f3
eb
1a
02
01
f5
08
07
03
f0
08
12
e9
ec
e9
07
13
fb
fa
f1
e8
f6
fc
fd
f6
e8
f7
11
ec
f4
06
e1
fc
fd
f4
0f
eb
17
fc
f1
fe
10
03
ee
0e
13
15
2c
f4
02
05
16
ea
f7
07
05
1e
17
eb
fa
03
0a
ce
0f
02
fb
f5
fa
f6
ea
f5
03
e7
f4
ec
03
04
f1
e9
21
0c
e8
b6
05
11
f8
ef
f9
06
0e
1d
05
ed
f1
f6
1f
16
1a
e4
26
fb
fc
fb
f8
e3
0e
fb
f6
fb
f5
14
e0
06
02
f7
f8
31
f8
15
01
03
01
19
01
f8
f9
fe
0a
12
15
11
f0
fe
32
1a
13
e3
05
ec
ee
fd
09
12
ef
fb
05
25
fd
fe
ef
fb
fe
f1
11
df
f4
f9
f7
13
02
f3
fc
e6
ed
0d
d9
f2
15
27
08
1a
ff
10
e9
f4
0a
ef
08
fd
09
f8
1a
10
00
fb
fc
f1
0a
14
09
1c
fd
e6
ff
0c
09
ef
fc
18
10
18
ea
10
e0
09
e6
00
0a
f4
02
04
fd
fa
0d
f6
ff
1a
2c
09
ed
ee
f7
01
0e
f2
0b
e2
07
db
18
f5
09
11
f3
0e
00
07
05
f9
0f
e0
11
f5
00
02
0a
ff
0d
04
01
02
e5
ec
0c
ef
01
c8
e2
fc
02
ef
23
f0
0c
ec
f8
ec
fa
02
06
dd
f6
f6
04
1d
e2
09
fc
ff
1a
06
18
ff
0b
16
05
1e
f1
0c
f1
fd
01
08
ec
04
f5
f3
0d
ea
f9
03
0c
10
0a
2f
e8
e2
0a
0d
ee
11
ee
01
f2
09
0b
1b
0a
c5
f3
17
05
f8
fa
f1
ff
f9
db
fe
08
fd
15
01
04
0c
ff
f2
f4
f7
11
fb
02
2f
ff
f8
ec
0c
f5
e1
07
16
f6
08
0c
06
13
f1
0d
f6
f1
f9
06
0d
0e
01
16
1b
f9
00
fe
f2
15
11
fa
0b
01
f7
f9
0e
3b
00
fd
08
0d
14
06
f1
f8
02
08
ea
ed
fa
ec
f4
06
15
0b
36
f4
04
0c
eb
f0
06
f9
d5
eb
ee
fb
fa
fb
fc
05
e3
00
f7
1b
ea
fe
03
f9
e9
f2
0f
09
f1
03
e5
fc
0c
07
ed
09
fa
ff
0e
14
f9
09
0c
14
02
08
fc
01
fd
06
25
ec
f8
ee
05
fc
0e
2f
e7
f5
ff
f9
fb
ea
18
31
09
11
f4
ed
fa
10
fd
ef
0d
ff
e6
00
f4
f5
fc
0c
11
00
f2
04
04
f8
08
09
00
fd
03
fa
ef
fa
f6
f6
03
1e
08
f6
f7
fd
fb
f5
f8
01
f3
e8
fa
00
f6
0d
1e
fc
f7
fd
d6
06
18
03
0b
e7
fd
05
0f
01
f7
f5
fb
00
08
09
f5
f7
08
21
18
fc
0f
0a
ef
00
fc
f5
11
0e
04
0f
0b
0b
07
fb
e6
01
db
ed
02
0b
13
00
02
0b
f2
07
11
f4
06
fe
17
f9
f1
12
fd
02
e5
fd
29
0d
08
03
f1
fa
01
19
ff
fe
eb
07
f8
00
0f
01
05
eb
0c
e6
07
e8
fe
0c
0f
d9
06
17
e0
f8
09
02
03
0f
f7
0b
00
ff
00
18
f8
15
01
f5
02
05
ff
00
0e
00
f7
03
14
f2
03
f1
f3
0e
fc
0f
00
f1
ef
0d
41
03
fd
ec
01
f0
08
ff
0f
fd
10
0b
ef
13
30
00
0b
ff
f3
09
07
f6
fd
ef
f6
f1
03
ee
df
f5
f4
06
f8
16
f8
ef
fc
02
f9
10
f8
f9
fa
1e
f6
ed
06
d1
ea
f6
1c
07
27
12
f7
06
03
ee
f1
1f
0b
ee
06
05
00
fb
1b
08
08
18
fa
12
07
cf
2e
ec
f6
e8
28
ea
0b
f2
18
f7
ff
f1
12
fe
08
ea
fe
f9
f9
fd
ff
02
f9
f7
ff
ed
11
fd
f2
fc
fc
ff
f5
00
04
01
fa
ff
eb
ff
00
ec
f8
e0
d4
04
20
01
eb
ed
f8
ec
f7
f7
3b
03
07
fc
fc
f8
11
08
0f
ea
17
13
ee
ef
0b
11
e9
ff
f2
ff
01
2a
1c
0e
12
f4
16
f6
fc
0b
fe
f9
08
02
1b
0a
fc
1d
03
fb
12
fa
04
fc
eb
f8
fd
f1
eb
0f
05
e4
15
03
ff
05
f9
0c
0f
e8
00
ed
03
f5
0f
fe
01
fc
0f
04
06
1d
f6
e9
e4
04
0c
fc
06
29
f1
11
fd
eb
fe
00
f8
fb
f4
1e
02
ec
f2
04
f2
ff
16
f9
0e
01
03
f3
09
07
0a
fb
fe
01
e2
ee
0c
f6
00
17
19
fa
fd
e4
04
01
09
02
f7
03
f4
e9
ff
f9
e9
02
09
00
ef
0f
01
fa
0c
f3
00
f7
f7
f8
fe
0e
07
f3
ff
fc
eb
ff
f8
23
1c
f1
03
05
05
e7
e7
f7
12
fb
10
0c
08
12
08
e6
f3
e4
fc
04
0b
1b
ed
fd
25
08
ec
ef
e2
fe
ff
00
ea
12
16
07
f7
0a
e5
03
f6
06
f5
01
15
0e
f2
c1
fe
2b
ff
16
06
1a
e9
02
fd
09
f9
27
ff
fa
fe
08
d6
07
f9
fa
1e
00
f3
f0
00
f1
1b
fc
f7
f6
06
f6
03
f9
f2
0d
00
18
0b
17
07
ea
02
1e
fb
11
f2
00
e9
ef
07
01
f6
01
10
0b
de
0d
fc
12
2c
d9
00
eb
22
2b
ff
f6
ff
fa
f2
f1
f8
fb
02
0a
fb
fe
00
f5
ee
ef
18
fc
10
02
03
0b
18
d9
fe
fb
e1
0d
0a
e1
fb
03
02
11
f2
03
ef
d5
f4
fb
ff
eb
11
03
fe
1a
f9
f9
f6
0b
f0
f5
0a
ff
f4
01
11
0d
1a
15
05
24
0a
05
fc
ef
e9
fc
06
03
11
fa
01
f3
13
02
e2
05
d6
ea
0c
f4
02
08
10
e4
ff
ee
16
f6
0d
10
09
1d
02
01
ed
0f
f8
09
05
f4
01
0f
fd
ec
fe
06
fa
fe
fe
fc
06
e5
12
f0
ed
f9
07
e8
f1
0c
ea
ed
0d
f8
13
fc
f9
15
08
fd
f2
05
df
ff
f6
07
11
0d
20
f4
18
ff
52
fa
f7
f6
fa
fd
0a
0e
0e
ee
02
0c
0c
e2
06
f7
e5
e6
f5
fb
fe
f2
03
f3
e0
e9
02
ef
17
1a
fc
14
06
f4
e3
1c
e8
0e
fd
09
ea
0a
05
1c
0e
f5
fd
0a
f2
e3
3b
0a
f8
27
0a
ef
ef
f0
0d
00
e9
03
f9
16
0e
06
fa
30
0d
06
f8
07
0c
04
ee
f9
13
f9
05
06
f6
07
03
06
0c
e0
f9
13
0f
fd
12
1c
03
00
08
fc
f7
f3
f3
0f
f4
01
00
14
ef
ee
fe
db
ff
0c
ff
04
ee
14
04
fc
d0
ef
e7
0b
1a
fd
fa
f9
de
de
ec
06
fc
0e
f8
fd
10
08
eb
ee
ff
13
f4
f9
18
ef
e5
0b
f0
f1
ed
10
0e
10
1b
e8
ea
0a
0d
09
0d
07
f2
04
1c
0a
04
06
f2
ee
08
fd
01
0a
08
14
f9
f0
06
01
fb
02
ee
e9
14
ea
f3
f9
15
fe
fe
00
1e
06
07
b9
01
e9
01
e6
14
e7
01
03
17
0a
f0
0a
f4
d4
e4
01
13
07
08
ff
1a
fd
f5
16
e5
09
ff
ef
ff
ff
ef
0a
0a
21
0a
0e
ff
0a
2e
fe
e3
f2
00
04
fe
ec
ec
fd
f1
ef
f8
09
20
f0
ee
fc
e1
f9
18
fc
ef
fe
07
f8
f5
03
fd
0a
eb
0c
f8
19
0c
19
05
fa
e9
ef
00
0b
04
10
fe
fd
06
ef
0c
13
17
e2
f7
f6
07
fb
f5
fe
01
14
fa
ed
0d
ff
2c
1d
09
20
05
f3
0c
1d
e8
ef
11
0f
08
12
ee
f7
06
0d
eb
0c
08
08
c1
e5
f3
f2
e5
01
01
2e
14
04
09
d7
00
03
fe
05
f8
0b
15
03
fd
09
f8
03
cc
09
fd
11
0c
f2
0a
12
06
0b
f4
f8
ff
d0
0e
f9
f7
0f
0b
ec
1c
07
c5
f8
02
05
08
e2
e6
07
f6
05
f1
e7
f0
0a
eb
01
e7
df
18
03
03
ff
20
0d
ed
fb
10
0f
f2
17
23
04
fa
0b
f9
13
1f
04
fd
fe
ef
03
06
06
ef
05
fd
10
01
0f
f6
03
09
0e
04
eb
0c
03
03
0c
f7
f2
0a
f9
fb
12
10
e9
fb
f1
06
f6
0f
fb
f9
fd
fb
fe
00
07
fb
1c
ec
08
05
23
f7
06
f8
09
f2
0d
08
0f
fe
0a
0c
15
00
1a
05
08
ff
00
03
01
0c
07
f8
f9
18
ff
06
f8
f3
f4
23
02
ec
0e
f4
00
fd
f4
e4
07
f8
f2
03
10
0c
fe
de
03
f2
06
fb
11
eb
09
00
13
1b
f0
f6
10
0d
f4
fe
03
02
1b
0a
fb
0b
fa
f7
ec
ec
13
0d
fb
03
fd
2d
f3
11
f2
e6
f6
fc
05
ee
ff
09
0e
07
24
04
0a
01
24
15
0d
fb
05
04
f4
11
e5
ea
f8
01
15
10
1b
db
0f
da
e7
0f
08
fc
1a
ef
09
f1
fb
fe
0f
d7
fd
fe
01
ee
01
fd
e8
08
ff
11
10
0a
fb
01
1a
fe
f2
0d
09
01
e7
e2
ff
0c
ec
02
26
13
ff
f1
fe
f5
f4
26
e1
0b
0a
f7
00
ed
10
f4
07
d7
16
fe
f6
15
f7
e6
eb
04
f9
08
08
e9
ee
01
05
0c
08
fa
ec
f3
ec
04
fc
06
20
fe
ff
05
0f
e1
f9
ee
14
0a
e6
0a
ed
25
fd
1e
03
ea
fc
eb
01
ec
fd
0e
e4
e5
fe
12
f8
ed
18
07
13
f5
04
10
0f
0e
06
00
09
0d
03
0b
fb
10
1d
fc
f1
17
07
ee
1b
f1
fb
e9
fc
17
00
cf
f5
f7
20
f5
03
13
10
05
0b
e9
fb
07
f4
0c
f7
08
04
22
f4
ed
f0
f6
01
f1
f1
f6
21
05
f8
f9
1a
fa
09
f7
f9
1d
db
02
07
0b
14
ed
fd
f8
f8
07
e2
0c
01
03
f7
e9
03
13
04
cc
eb
ef
09
f4
06
05
f3
0e
fb
fd
0e
1e
07
f0
fa
04
fb
ef
fa
00
fd
f4
f0
1f
0b
fe
0d
f7
f7
fb
fb
07
00
f2
ff
01
1f
0a
0f
08
01
0c
fe
f3
f7
07
f4
02
01
fa
ef
fa
ee
ff
f4
02
1d
f0
f8
02
0b
e1
f9
05
09
e8
21
f3
fb
f1
0f
0d
03
11
02
f4
11
ea
f9
f8
13
02
19
ea
16
03
f5
02
00
f4
02
0c
f1
e8
ed
ef
03
fc
08
fb
f6
f6
ef
01
f0
18
f0
f0
ed
f4
0d
04
f5
ff
fd
07
0e
f4
0c
0f
16
fc
05
17
00
0c
f5
f4
13
0b
fd
0b
f2
08
fc
fc
12
0b
f0
fe
0b
15
02
0d
f9
0c
fa
f6
00
12
fe
f5
0c
f4
02
10
08
03
ea
04
01
01
08
1d
ff
f2
1d
e7
ec
fa
ff
fc
fd
16
e1
25
f7
f7
18
f4
04
f4
fd
fb
0b
06
ec
ff
0d
fd
01
fd
03
e1
09
0c
13
f0
11
0c
f9
17
fa
ec
07
0c
f7
f9
f0
17
fc
f3
04
f6
fb
05
00
05
f3
14
ff
e9
f8
e0
15
f6
ff
19
0a
fb
fa
fa
08
f8
f8
e7
f2
e7
fb
0e
f8
f3
ed
12
3c
f5
23
00
ff
00
ff
08
02
fd
ed
f3
01
ef
08
f5
f1
d8
ef
00
22
05
f8
f6
0a
f4
0e
05
fc
01
08
0f
1a
0e
03
04
13
f4
09
e6
09
11
eb
07
ff
04
09
15
05
14
0a
fe
f8
13
ee
f0
05
04
e2
0f
f5
1b
0b
12
0e
fd
ff
17
37
11
ea
0f
e9
f9
ed
0a
fa
03
02
01
fa
f5
09
02
ed
1d
e3
fa
01
e0
ee
01
fe
09
f2
01
03
0c
09
ed
fe
fd
f0
ff
0f
0e
fb
f3
07
f5
fe
fb
e0
f8
ed
0b
fb
eb
08
f9
e4
14
ef
ed
0d
2e
f6
0a
f6
eb
fe
03
fc
0e
ea
0d
01
f5
fd
f9
01
f4
ff
ec
fd
09
02
0a
03
0c
fa
0e
10
f0
08
00
04
03
15
09
02
06
0a
fa
fc
14
08
ef
de
ec
10
28
15
f5
f4
df
1a
0a
19
03
0b
f8
07
1b
08
0a
3a
cf
13
11
f1
e9
f7
fb
2f
0c
e8
19
02
e4
03
f2
ef
20
f7
fe
f7
1d
13
e0
ff
e8
2d
03
ea
03
19
e5
fd
f8
de
ec
f7
18
f1
fb
15
e9
f8
f4
f2
03
f0
18
09
1f
06
e5
02
f4
04
04
d9
f3
f0
36
1b
f9
1d
0b
05
fc
0c
0d
1d
c1
fb
18
ee
22
cf
d2
f3
02
0d
fa
13
10
fb
05
27
19
10
1f
f3
ec
df
03
08
eb
11
d3
09
f6
f4
e6
fa
e8
2a
0b
dc
f9
25
f5
f5
08
09
1c
f7
f5
0f
fd
14
08
16
ee
06
ee
f0
10
ee
01
f4
0c
f1
09
ee
ea
04
f4
ef
f7
fd
00
f6
08
03
03
11
fb
08
17
fa
e0
0b
14
13
e8
10
12
fe
0c
0c
0d
0c
01
eb
f8
ec
07
20
18
0a
ea
01
f6
f7
ef
ef
21
f9
fd
07
ee
1e
01
eb
fd
09
e8
f0
06
01
e3
ea
fc
0c
f5
02
04
f1
fd
f0
f8
24
0e
17
f8
fd
f7
05
04
0d
08
03
03
12
ff
0c
08
f8
02
ff
05
10
ff
f6
ec
fd
0f
0e
0c
01
12
06
fb
fe
0d
00
ea
0b
ef
e4
16
ef
0d
19
f8
16
f9
f8
03
05
ef
f8
f0
0a
f6
0d
01
ee
00
12
e1
04
e2
ed
e4
f5
02
f4
f5
f0
f3
05
e9
14
06
17
04
07
ef
27
0b
11
f6
08
10
1b
0f
1e
06
08
09
ea
e1
ee
0b
02
12
f0
01
e4
0c
ff
e3
0a
fe
fd
ed
00
09
07
09
eb
0f
07
ed
05
08
f5
fa
ec
f7
13
de
14
08
e8
d7
0a
f2
11
24
0c
fa
fa
05
13
0c
ef
fe
fa
fc
f8
0c
f2
12
f0
fd
00
ef
16
03
00
ea
01
21
f8
f0
01
16
ee
e1
fe
02
fe
ee
0c
16
06
1c
e7
ee
ea
ee
f2
ee
19
05
03
0f
11
11
f1
f8
0e
01
06
05
f6
0e
f6
fe
10
f9
0c
02
05
06
04
ea
fb
0c
ec
16
05
f7
18
e7
21
e0
f3
e7
09
f2
e8
0b
17
08
f9
03
12
0d
fb
f5
f6
f3
03
f4
05
fa
12
1a
f1
21
0c
02
15
fe
07
e9
ff
17
fb
f7
01
00
ff
fa
ed
05
f1
e1
02
fe
07
f3
df
19
eb
fa
04
f9
07
00
f7
fb
ef
06
03
e5
f1
f5
10
17
d9
f3
f4
fa
1d
fc
0f
fe
13
02
11
28
fb
02
01
0c
1b
1b
05
fb
fb
19
04
0d
0c
1c
f4
f4
ff
ee
fa
f7
f7
ff
16
ff
fb
09
e5
fe
0a
ff
06
fa
fc
f1
0c
0f
00
f2
0a
0d
e2
13
fc
1d
e8
11
01
f3
e2
04
f4
fe
fa
fc
15
ea
0c
e3
07
fd
fb
fe
04
fd
f8
e9
12
f9
fd
08
31
02
06
03
f6
ff
fb
11
15
09
1b
dd
0a
fc
0f
03
1e
ee
ff
0b
f3
0b
04
06
fc
f3
fc
f1
02
e8
f3
05
0f
10
e6
e0
fb
f3
12
fe
1a
ec
f3
f2
18
fc
fa
09
06
f9
e1
fe
0a
08
0e
f9
f3
10
fe
ee
fd
f1
16
0b
fc
00
14
e2
0b
04
fc
1b
14
fa
1a
21
e4
ee
f9
07
f9
f9
f4
fc
f6
0d
f3
fe
0a
fe
14
d7
fb
eb
f9
e3
df
f5
c6
0d
09
01
25
fc
14
f2
f0
f2
10
07
13
0e
17
19
0d
0f
10
0e
03
09
00
e6
0b
fb
13
fb
0b
ed
ea
0b
e2
05
f2
fa
f9
ff
f3
05
1f
05
db
04
1b
e1
18
12
0a
eb
fc
04
1b
f8
02
1c
f0
f0
0d
11
09
23
02
f2
21
f7
fe
1f
f3
fd
0c
fc
07
13
f7
ff
fc
06
01
e9
f6
fc
06
e9
f4
1b
03
f0
fe
0b
f8
f4
ec
f9
06
f9
fd
e5
fb
fc
0a
14
f1
00
f5
0f
0b
0d
0c
05
11
0a
f5
03
09
fa
fc
05
f5
13
fd
f1
0e
fe
fd
0d
09
fd
14
f8
fd
14
08
ee
01
0f
e5
fe
03
02
0a
07
09
ff
fc
05
f2
f6
03
0a
f1
fa
e4
0a
f7
f8
fd
12
0c
04
06
0d
ff
0d
f1
0f
04
f9
f7
10
01
fb
f4
fe
e9
ee
f5
03
0b
ee
ff
fa
00
00
0b
0a
f4
15
12
ff
e4
fa
fa
1f
00
04
04
00
06
02
00
04
08
f3
ff
ef
08
17
f5
f3
f3
f5
ff
f7
fb
fd
fe
fc
12
0a
f9
e2
15
00
fb
fe
f3
fb
02
19
02
fc
ef
26
02
f3
fc
f5
1b
21
f7
f4
e6
0f
12
21
0b
0b
f8
f2
1b
00
10
09
12
09
e6
15
09
10
f5
1d
07
00
dc
fc
f7
1f
14
f1
02
12
ee
04
07
09
ea
09
fe
0e
0a
f2
f4
07
fd
f8
14
e7
e6
23
eb
0a
0a
19
02
0a
08
ec
e0
e9
1a
fa
00
fb
0f
0b
18
09
0a
0b
02
03
ec
f6
e0
fd
02
09
fe
e9
0a
ff
04
e8
fd
02
00
f7
ed
05
13
fb
fc
f3
04
02
f1
e7
0f
fa
07
0a
1e
fd
11
0e
0e
0e
07
f5
fe
ef
16
f2
0d
0d
10
06
ff
f4
f3
f0
fe
ff
f7
04
fd
e9
f3
0d
f8
fc
fa
fd
f3
fd
03
0b
fb
fc
05
e9
f6
0d
26
f4
f4
07
0a
05
0d
f7
fb
0a
ff
f6
f5
02
f7
04
ef
05
13
ff
fe
fe
ed
f1
f5
08
e6
0c
f2
19
ff
04
f3
f5
f7
fa
05
fe
f9
f0
00
17
fb
fe
fc
fc
f6
ef
01
fb
04
f8
02
f8
e8
fd
0a
f7
0a
11
0d
f9
12
08
08
1d
02
00
09
fd
f6
06
0c
15
f1
07
f2
f0
04
13
08
f5
fa
fa
05
04
01
f7
f4
08
f3
f9
f2
01
f6
0a
1a
eb
0d
f2
05
11
00
01
f4
f0
fb
04
1e
03
13
eb
f5
03
1a
f9
f5
ff
ed
00
f0
01
e8
ed
e6
ff
f5
07
14
fe
ec
03
12
f1
fa
19
fd
fa
0c
fd
f1
0d
0a
0d
ee
08
06
02
03
ff
f9
fa
10
27
1b
ec
ec
07
ef
0f
f5
fc
f2
0e
fa
00
f7
fd
02
1d
fb
08
fd
f0
ee
fb
ec
0f
df
f1
03
fc
05
04
fe
0c
f8
10
00
f9
fb
f7
00
01
04
08
00
fe
10
ff
15
0f
f6
0f
03
0d
09
f4
17
fc
04
e5
08
06
f7
0a
04
12
05
e9
fb
fd
11
ec
16
e2
0a
f3
18
1a
f6
f9
e7
21
fd
1c
f1
ff
fb
fe
07
0d
e8
06
12
13
ec
05
f4
fc
07
13
10
14
ff
00
f8
0e
f5
1d
05
f1
f8
ee
d9
0e
ee
16
03
fb
fc
1e
00
04
ef
1c
f2
0c
07
0f
07
e3
ed
0a
fd
04
09
f9
fc
04
e9
06
1b
0d
12
08
0b
f7
e6
fc
01
f6
f9
fb
0f
f2
0d
fc
fc
05
fd
eb
07
13
f9
07
fb
fc
07
e4
0b
0f
12
f5
0d
e7
e6
0a
f3
00
01
dc
ee
13
fd
f6
f4
f0
15
0b
f7
04
09
f9
05
04
13
12
ff
f9
19
fa
1c
fd
f8
15
ff
13
fa
04
fc
e9
08
f9
f2
03
0f
07
f9
04
05
0d
fd
0b
13
ff
f9
f4
11
e8
e9
fc
f0
05
ea
19
18
0d
0d
fe
0d
00
ec
f7
0a
13
04
f4
21
03
1d
06
06
00
fe
06
19
fa
f0
fa
fe
0b
fc
fb
fc
f3
fb
09
00
04
fa
06
f6
ff
0c
f2
05
f3
0e
f1
fd
01
13
00
f0
13
11
eb
05
0c
08
d1
ee
f2
17
09
f8
fd
f6
f1
07
fd
01
08
ff
fe
00
01
0d
0b
05
fe
08
f9
ea
ef
03
e9
f9
01
01
fe
01
00
02
fb
f9
f0
fb
f1
f3
e2
fe
fb
18
1d
07
f6
fb
04
f4
ef
f4
01
e9
0f
1a
ef
fa
06
fb
f2
fc
0c
06
f6
13
13
0d
f9
f1
eb
fa
fc
0d
fe
08
00
0c
de
f9
1d
ef
18
f1
11
eb
0c
f9
e8
0f
10
fc
10
0d
fb
14
f3
0e
0c
03
0d
e7
fe
08
06
14
ec
10
02
fc
01
16
1d
01
07
12
0e
0a
11
0a
e2
0f
03
0c
09
ff
04
f5
0c
04
16
e3
11
04
e1
1c
12
1a
f9
05
ef
f7
10
ff
0d
e8
f1
02
fa
04
04
07
ea
03
0d
e7
ff
ea
e1
01
f8
0d
fe
e0
ed
05
0c
0f
e9
01
f2
07
11
f7
10
17
fc
f3
f9
14
07
f7
eb
fc
07
0a
07
f0
01
0a
fa
ff
ec
fd
ec
ff
02
0d
03
f2
00
07
df
11
fc
00
1e
fb
07
10
00
fa
f1
0e
12
fc
10
06
05
10
fc
fb
f8
fc
0a
0c
04
03
f2
18
04
fa
f1
fb
03
f2
ff
f7
0f
fb
f6
ff
0c
f8
ea
f5
00
f1
0b
f1
d9
09
e9
01
f1
e8
f3
01
f3
17
05
fe
02
fd
f5
f9
10
fc
00
f9
07
09
07
f5
08
f8
05
fb
e7
05
06
fb
f7
06
10
fb
fb
fc
1a
f7
f3
08
fd
05
00
21
fd
f6
f9
fa
23
ef
0d
fe
05
1b
fa
04
fd
29
0d
ea
f9
f4
11
04
16
08
15
fb
fa
0d
f1
fb
ef
ff
06
f2
15
fa
0b
0d
f5
02
21
f3
e1
06
15
07
ed
fc
18
ee
1f
f3
f7
f7
f8
fd
fd
fa
f4
f0
12
0c
ee
14
ea
f4
07
ef
1c
16
0a
f2
01
1b
e3
f6
f1
11
eb
fc
01
0b
01
fa
fd
02
f7
03
f6
05
0f
f7
fb
25
08
01
02
f2
e6
06
f3
0f
10
ff
05
04
03
07
f4
ed
e0
fe
f8
e6
f8
09
01
04
f5
0f
09
02
04
10
ff
08
ff
f6
ed
03
e6
fb
01
0c
15
fd
ff
fc
04
ff
12
eb
f7
ef
fb
fb
00
f1
ed
fe
f8
eb
0a
ff
10
f8
00
09
10
ea
fc
fa
06
00
0a
26
ee
ed
ef
ec
11
fb
01
f5
07
02
17
11
f9
e8
08
fc
f9
02
fc
03
f4
02
01
0c
fb
00
05
0d
fe
fe
f4
ff
ee
ec
ed
06
0f
fe
fa
f2
0a
0e
04
06
f4
12
04
f8
0f
08
02
02
13
fd
0a
09
08
00
04
17
0c
1d
17
00
ec
fd
0d
fe
01
e8
ed
15
f1
fb
07
f4
f6
01
00
ec
ff
f0
fd
0c
15
f7
08
e7
f6
10
fd
01
d8
0f
f6
07
15
ff
f3
01
00
07
fe
fc
fd
f5
f4
f3
fd
fa
ec
f2
05
f3
08
00
01
15
04
00
f5
f4
09
10
f4
e3
fd
02
f8
f1
f6
ed
11
f9
0f
00
fc
f3
19
f5
0a
02
05
00
f6
eb
f3
f8
03
04
f8
05
11
e7
0e
fb
f2
0b
f4
05
fc
f8
01
12
0b
ea
f5
04
00
02
fe
14
f5
13
fd
fe
03
db
fc
ff
20
f6
1d
e8
ff
19
f1
04
09
0c
00
03
f5
ec
17
03
ff
ef
ff
f9
06
01
06
fd
eb
f6
f6
f8
0f
01
06
fb
1b
02
03
ef
08
09
0c
0c
fa
fe
1f
0e
09
07
d9
08
f5
05
0c
12
05
08
0d
ee
06
00
f6
04
08
f0
17
ec
ed
0d
09
05
fb
e2
f9
17
e3
fc
0c
0d
01
0c
00
17
f8
fe
00
02
00
04
fa
f2
05
0b
13
fe
28
ed
f2
17
13
0a
15
fb
0e
f6
14
f7
ea
f1
16
0c
f8
f3
fd
01
05
ec
12
04
f9
04
02
17
ec
04
00
01
f1
f9
f4
05
de
f6
18
f8
f0
3c
e8
10
18
0d
f9
eb
fc
e3
e6
08
fa
e3
ea
e5
eb
04
0c
25
fa
f4
09
e8
1f
0f
f0
1b
23
e8
0a
f9
fe
04
eb
05
0a
e8
15
f6
fd
1a
f0
0c
ff
f3
0b
eb
fb
04
09
f6
fa
0b
0d
fa
f2
17
f3
f9
f0
f7
f3
ff
fb
fb
f8
e3
07
12
fc
00
0e
0a
ee
0f
f2
00
fd
0c
02
06
ff
16
f6
0d
08
ff
03
17
fd
fe
01
09
ee
fe
f7
f6
04
0b
02
07
05
00
f6
07
04
fc
fb
f1
09
17
ff
16
fd
11
ff
f7
13
10
ef
f9
09
fd
e0
11
18
07
0c
ff
02
ff
f3
fd
fd
fd
03
06
f5
f0
fd
f4
06
fc
07
05
fa
e9
e7
12
01
f8
03
04
f0
ee
fd
f9
0a
f8
ff
f8
11
2f
ef
fd
fc
18
29
ec
ee
fc
0d
0d
15
f4
00
0a
03
eb
0b
08
e8
ed
12
ea
26
03
e9
f8
19
0d
fa
e7
fd
19
0e
ed
1a
03
fd
fd
f2
03
fc
01
de
04
01
07
08
ef
06
12
14
f8
f6
f3
00
12
01
07
f6
0f
f8
e1
02
04
13
f8
07
00
0c
f1
e2
24
13
de
f8
f2
ea
12
1a
11
db
f5
f0
0a
f0
11
0f
fb
fc
f8
23
14
e9
2c
e2
2b
0c
0d
16
06
00
ef
e3
f7
1a
f9
ff
ec
df
f2
fc
1d
e6
07
f9
08
10
f6
26
f1
15
f0
0e
01
01
13
0e
15
0b
fb
f9
fa
fc
ff
1b
14
e6
f7
f8
1d
17
03
f4
0a
09
10
f5
ed
fd
0a
ed
f6
fc
de
e6
db
fe
f9
f9
0a
ec
de
f4
14
fd
08
0b
1a
f6
1c
00
f3
f3
01
11
05
16
03
e0
0d
e5
e1
ed
f9
25
09
f5
fd
f9
e2
08
08
e6
07
04
f2
ec
f0
fb
08
11
fe
0b
f8
f2
e7
fb
e4
14
e9
f5
13
eb
0e
01
fe
ff
0b
f6
19
fd
0a
fd
f7
f9
f2
18
f7
05
f8
0f
12
14
f5
1b
fe
ed
fb
f3
22
1f
e7
eb
14
0c
f0
0a
e7
06
f8
f0
01
15
f4
05
fa
fa
fe
11
09
f8
fd
ea
f6
10
0b
fa
f2
fe
ea
0c
f2
fd
f9
09
0d
0b
02
0a
f8
09
13
06
14
05
04
0d
0d
0f
fa
0b
ed
ff
08
f6
06
05
09
fe
f0
03
fe
0a
14
f9
10
f9
e7
01
1b
10
07
f1
03
0c
09
f7
10
f6
0d
1b
ed
fe
1b
16
0c
06
02
ef
0d
04
03
01
1a
fb
09
05
ea
16
e6
0a
02
ff
05
ed
e7
f6
f8
f6
f0
fb
01
f8
0c
e7
fd
08
f6
ef
f1
f7
0c
e9
f4
f4
f7
fb
fc
fd
07
14
05
00
f9
22
0b
fa
fd
17
fe
e6
fd
fe
02
f4
07
10
05
0d
1a
ef
fd
0c
dd
ee
10
f9
ef
f2
02
18
fd
e4
fe
f6
04
ec
f5
fe
f3
06
0a
00
e8
08
07
fa
06
17
08
ef
05
02
fb
0f
f0
05
f4
11
f0
09
fb
ee
05
1d
eb
0a
f5
f0
17
04
03
f9
05
12
ec
02
f5
e6
10
fc
f8
f2
fb
fd
09
12
fc
f7
ff
08
00
04
f8
0b
fd
0c
12
03
fb
fe
fb
f7
19
0e
e8
0b
12
e1
0d
11
0d
fd
f8
06
0f
14
fe
fb
df
f1
fc
f5
10
00
0a
ed
1c
fe
e4
0c
fe
f3
0e
f8
f8
07
f8
02
04
ee
05
f6
01
0f
00
f8
0c
ec
f6
fb
ff
fb
01
f4
f9
eb
fc
eb
11
fb
ea
ff
04
04
1e
ee
0d
fa
07
fb
00
f3
e3
e8
14
ed
fe
17
0a
ef
0e
fb
06
00
fb
0d
fd
ea
fe
0c
1b
05
0e
fa
0f
fa
04
06
12
ff
06
04
fa
10
03
1b
09
e4
f3
f5
09
09
04
15
05
0d
0b
fb
11
14
ff
fb
ff
01
01
07
08
f6
f4
d6
f6
ff
fd
0e
fa
01
ff
fb
04
0a
f1
0a
0b
fa
fe
10
e9
09
00
fc
ef
fd
f6
f5
fe
ec
00
0e
da
0f
f8
17
f0
f1
f9
f0
fb
19
04
14
01
e4
07
ff
fb
fc
03
0c
09
f5
ff
f7
fe
01
07
00
09
f6
fd
f8
f1
ed
0c
0a
03
ff
06
05
0a
03
1a
fd
ff
ff
f4
03
03
f8
08
07
f8
f5
fe
01
fd
f3
07
fd
f8
00
fe
fb
12
07
04
fe
0d
fc
05
f6
07
05
06
11
ff
03
0b
ff
06
fe
f7
f7
12
ff
ef
07
06
06
f3
fa
fd
10
f6
0b
01
f6
06
08
0c
02
f7
07
fa
02
f8
0b
02
f8
fa
07
02
f5
f1
f2
04
01
06
f1
f5
fe
eb
02
02
0e
02
fa
f5
0f
11
04
05
fc
f7
05
f5
0f
ea
04
e7
f9
ed
03
ff
ee
05
05
ff
0f
02
f1
0b
f6
fb
fb
ff
fd
0a
05
f0
f3
08
ea
fd
25
00
00
12
08
f4
fc
ff
03
e9
0d
04
f5
02
fd
08
fd
00
1d
fe
f9
e6
00
1c
08
01
0b
00
eb
07
f4
0b
f2
fb
f8
e3
fe
fe
06
11
f9
f4
fd
03
05
04
00
f9
09
06
0b
1c
01
f3
04
10
04
09
07
d9
02
f2
f4
08
00
ed
16
0e
0c
0f
f8
09
01
f7
f9
ee
fc
f1
ed
10
13
f8
03
01
f2
ff
f7
18
fd
04
09
0a
08
fe
18
e4
fb
fe
12
14
00
07
07
f1
fa
fa
04
ff
10
f5
f9
fa
f2
15
0a
02
03
03
fe
01
00
01
0b
08
f9
12
1f
ed
f5
fa
fe
0f
00
31
02
fb
f6
07
0b
0e
1e
33
ec
1b
f1
01
00
fe
fe
08
1e
f9
f2
15
f2
09
f4
f0
fc
08
fe
fd
f9
fe
f5
ef
f1
01
0a
f4
de
f2
00
ff
03
23
05
0a
04
fa
05
01
fb
f2
04
ec
f6
00
04
09
0b
f8
02
08
fb
0d
0b
11
f9
ec
03
ff
fe
fd
fc
00
fb
0d
10
fb
0a
f8
01
17
08
ed
00
12
ef
e7
f8
f2
07
02
e0
10
05
e4
fe
f7
f5
1a
ff
ed
05
09
fd
12
02
fd
04
fe
fb
f7
fd
0e
0a
03
f9
ed
f6
0f
fb
0e
06
f5
fc
03
0a
f6
f3
fc
ea
f4
ee
05
01
fd
f3
0a
fc
06
fe
ff
0c
f7
0c
0b
10
0c
06
11
fa
f5
f7
07
0c
06
09
15
03
eb
23
18
fd
0e
01
08
0e
ed
00
f5
0a
f2
02
f4
06
fe
08
00
f7
f7
01
0c
f5
05
0e
fc
0a
07
07
f4
f5
35
fc
05
10
08
0b
ea
fc
02
0e
0c
0b
ec
02
f0
ed
07
f5
0c
04
f2
f3
f4
18
f0
f7
0a
04
fa
fc
eb
0e
04
01
fa
d0
f2
f7
0f
19
05
fc
12
16
e9
fd
12
0c
f4
f8
03
f8
ea
fd
05
0f
10
fc
f8
f6
13
09
fb
f8
0b
f2
c4
1d
10
08
0f
f0
08
08
b6
0c
f9
2a
0c
fa
f9
29
13
fd
e2
0c
0a
12
f6
f2
f0
f1
f7
0c
fa
04
fd
f8
ef
e5
10
fa
03
06
03
04
05
02
ec
00
18
0a
fe
ef
03
03
02
e9
22
07
fb
14
e7
28
09
10
f9
10
e7
f1
f9
02
08
0a
06
f0
f4
2c
07
05
fd
e6
06
0e
10
ee
f7
f2
04
01
f8
f5
fc
ea
00
11
f7
08
ed
e2
00
f6
fe
01
0b
f0
f1
ed
eb
06
f9
e4
04
00
05
13
0b
0b
fc
14
f4
e6
f6
03
f9
f6
fd
37
f9
02
04
fb
f2
05
50
e8
e1
0a
f8
f4
ef
0c
25
ff
05
dd
ec
08
ff
fe
f2
04
f2
eb
fa
ea
f5
15
05
0b
f9
fc
f3
04
fb
f5
ff
f7
05
0f
fe
f6
ea
05
f5
01
01
05
e7
04
f2
06
fe
f9
fa
ef
ef
f1
f8
ed
02
1c
f6
11
f9
e8
12
04
05
01
ee
0c
fe
0a
f9
0a
ff
fa
01
1f
fe
fe
fc
06
1a
0f
f4
0e
0a
09
00
00
f4
02
04
0a
00
29
0b
0a
f6
24
0f
09
fe
dc
e9
f0
f7
f7
06
12
e7
f7
00
08
0a
f1
0e
fb
fe
f5
f7
06
ee
15
fd
0e
09
03
f8
13
34
ee
f7
02
e2
13
0d
d6
44
10
0b
cf
ea
ff
f9
e3
f8
f6
0f
ea
fc
10
01
02
1b
31
f8
00
11
03
fa
09
16
1f
fe
f9
13
ef
07
fa
e7
fc
26
12
e6
04
09
fd
0c
03
fa
16
e3
fc
f7
07
22
cf
fe
0a
fd
eb
ff
0d
04
05
00
03
fd
0c
ff
ec
f7
fb
03
05
02
ef
da
0a
0a
18
0e
0c
0d
ed
02
27
f3
ea
02
13
ed
05
00
0a
fb
d8
0f
de
1e
07
0d
08
fc
fa
ea
fe
fb
f6
d9
f2
12
0a
f3
f3
f6
ef
f7
f6
0c
17
0b
06
0f
fa
f6
fd
04
03
0a
f2
09
df
eb
0e
c1
15
ec
1c
f0
0a
f1
11
0e
fc
c9
03
07
05
f9
01
04
f8
11
ef
f0
06
06
07
0c
ef
04
ed
fe
08
fc
0f
1a
ff
05
f3
fe
13
ef
f0
fc
1f
19
00
1d
1b
04
f8
fa
22
0f
f5
04
fe
e2
0b
f6
09
fe
11
10
df
21
2a
12
f8
f8
d9
20
12
11
10
e9
05
fe
0c
eb
de
f3
eb
0f
e9
23
02
e6
0d
fe
f5
17
03
10
09
f7
00
dd
f2
f5
f8
0a
13
08
04
02
0f
04
07
f5
0c
0a
04
f0
2c
f4
ff
2a
14
11
f0
03
11
01
f9
ee
fc
f0
00
08
01
f8
f5
f7
03
ee
f4
03
f6
ed
07
ee
ee
e5
ef
fb
0e
1f
f8
11
fe
ee
fc
0d
f6
f9
03
f5
1b
0e
07
f9
fd
0c
e8
f8
ff
ed
f1
02
f8
1c
05
01
f5
ee
01
0c
fa
08
ed
f4
04
03
ed
f3
e2
09
ed
e3
f9
e8
08
10
ec
f7
f2
07
ee
e7
02
07
06
ff
06
ff
ff
01
f0
10
09
18
e7
19
0c
02
ea
f8
ed
fd
f5
0a
ec
f3
f7
f4
14
fd
fc
0a
05
13
1a
05
10
f2
0c
f1
f4
01
07
f9
f1
00
18
00
09
f3
f1
00
0f
47
fb
df
fc
09
eb
f4
05
fa
03
07
ee
f9
fb
07
fc
f5
14
eb
eb
f7
e1
f7
10
06
05
00
f5
02
ff
09
ef
06
fa
0b
0e
06
03
f7
f6
ef
04
02
f4
ef
fd
de
08
fd
13
00
fe
f6
ff
f1
0c
15
1c
00
13
f7
d5
0d
fe
08
01
de
00
0d
fc
f5
14
10
11
05
f8
02
06
f9
fc
14
ff
eb
02
06
03
06
fd
09
01
1b
fc
10
0b
f6
ff
0e
f3
ef
f7
e9
16
0a
06
ff
fe
f3
03
0f
eb
10
f7
05
fb
e1
fd
02
13
f2
fd
f8
02
fc
0d
f7
11
04
f0
ee
0d
07
f6
0c
e1
f7
02
ce
ff
ff
2c
06
f5
f5
15
03
0b
da
0c
f1
f5
e5
fc
ff
f7
0a
06
04
f6
ff
ff
e8
f5
f7
0a
fe
13
08
1b
00
f4
e9
da
f0
f1
fc
fb
ed
09
03
10
1a
17
08
f2
ff
15
0c
f3
03
03
ff
02
07
f8
10
f4
f9
0e
01
3b
08
fc
0d
08
0c
01
04
e5
e7
f4
04
f0
00
ff
11
f2
ff
13
09
00
08
1e
fa
ee
1e
07
01
06
fd
17
fb
0e
18
e2
fb
06
23
0c
11
fb
02
fd
12
fa
da
15
06
0f
fe
f2
f5
ec
ec
ef
05
f4
06
e7
f5
e0
15
02
ff
0f
21
fa
0e
f1
16
f0
18
14
05
1b
0f
ef
01
dd
f1
01
13
28
05
ed
07
f2
ee
fb
ff
df
fe
0c
dd
fc
f8
06
11
03
f5
f5
0b
ea
e1
0b
02
04
e3
fc
f8
ee
f4
0b
f8
f9
07
06
05
03
2b
01
0c
e5
e7
09
f7
10
0d
0a
20
1d
f0
15
f6
fd
02
ee
0d
0c
e7
f5
19
19
01
05
0a
fe
ee
e5
14
00
f2
f0
fb
d4
13
d6
fb
f8
00
12
00
31
fc
e9
ff
03
f5
fc
fb
09
05
0c
1b
04
f7
e6
f0
26
ef
01
09
f9
04
03
16
f2
f3
f2
05
db
0a
07
c3
05
fd
22
fb
0e
e4
2e
15
17
be
19
f6
f7
f2
fa
fe
07
f2
0b
03
06
f2
f9
f6
fd
fe
08
07
0b
04
07
eb
16
eb
ea
f2
06
de
fd
fc
e9
0c
ff
2c
1f
fe
08
0c
2e
03
10
12
ee
fa
e9
f7
06
1b
15
fe
1c
0b
49
02
02
f6
db
07
01
fb
13
f4
e9
fc
f7
f3
ea
0a
e1
fc
e0
15
18
fb
04
fd
ee
11
ef
20
ed
0f
1e
fb
0d
f0
ef
0e
0d
fd
06
ef
05
d9
15
f8
f4
08
00
df
0a
f5
11
fd
07
fc
f6
ff
0f
28
1d
e9
12
02
e8
fe
10
e4
fb
f4
ee
f6
05
f6
02
fa
12
d9
07
ff
ec
0d
f5
fd
fd
f8
0e
12
fa
02
f0
fe
fc
01
fb
00
0e
fc
e3
05
0a
f2
fd
f4
04
f7
01
08
02
05
f0
f2
19
fb
02
0c
21
f2
15
0f
db
fd
f8
08
10
fe
04
0f
ec
e8
09
0f
f0
fa
e6
ff
eb
f2
20
0b
00
02
0f
f8
f7
07
01
fa
fc
15
0c
02
f8
07
f2
e7
15
fe
14
0e
e2
ef
f9
e3
f8
0f
07
05
f5
f7
02
0d
e9
1b
fc
01
f7
f6
01
fd
25
ee
06
01
11
07
02
44
df
04
e9
ec
16
fb
fa
47
06
04
cc
e7
0d
06
d8
ee
06
12
f6
f7
f9
09
04
13
08
fd
03
01
0d
f9
0c
03
0f
fa
0f
01
e7
00
0e
e5
fa
3d
14
ea
0e
10
fa
f6
f6
fb
08
d4
07
fc
ee
11
00
f5
03
ef
f8
fb
02
0e
0f
f5
f0
f8
f0
f0
d0
fc
e7
f6
10
fb
06
02
05
18
10
f2
28
f7
15
04
18
04
0a
f6
04
04
0b
0f
0c
fd
fe
0c
f6
05
f4
00
0c
06
f7
fb
fa
00
fe
18
fe
f8
15
f6
eb
08
fa
00
12
01
09
f2
08
fa
fe
07
0a
27
06
f4
05
f9
f5
ec
19
06
02
ff
0c
01
f9
04
01
f6
0c
dc
06
0b
ef
f1
f7
ff
00
0d
02
06
f7
f8
00
fc
ee
09
f7
f1
fb
fb
11
f2
01
0a
f7
f0
fb
f3
03
f4
02
0f
0a
ec
12
fa
f3
fd
33
08
ef
fa
03
ff
18
f9
f1
ed
02
00
f5
ff
0b
05
08
fe
fd
03
01
07
03
05
0d
ed
f7
00
02
f4
f0
f9
0d
0d
01
19
0d
f7
f7
f8
19
e9
e3
02
ed
10
18
0d
08
f9
f7
ff
fe
05
fa
0c
16
08
f5
ed
fa
14
f4
fd
20
fc
f2
ea
04
08
ff
0a
02
07
eb
11
fc
ef
09
0a
f8
09
fb
ee
fc
0b
06
13
ff
fe
ec
18
f0
0c
04
05
22
07
0e
07
07
02
0d
fb
e5
13
f8
e2
f0
f9
00
f3
ff
0a
02
01
f6
f0
f8
dd
34
08
02
00
e2
09
0f
ff
0f
11
fd
13
06
0a
17
f0
fd
e0
1c
01
13
06
08
f9
08
f5
17
f9
f9
ed
0b
10
15
ec
f8
0b
0d
07
e7
0a
18
1a
f0
05
10
1b
08
fc
f8
11
e2
20
fe
01
01
e0
f2
05
1b
00
1d
0a
fa
05
19
fb
fe
07
05
ed
2f
06
18
07
06
05
0c
00
02
47
08
d9
10
09
ed
db
0f
0c
07
f5
f1
fa
06
f0
fd
f2
f6
e2
fb
05
ef
f3
f6
16
01
fb
fb
fd
0e
01
fc
0a
fe
03
01
06
05
0a
ee
fc
fb
07
06
ee
08
e7
07
00
fe
0b
f0
e5
13
eb
f6
06
3e
00
fe
03
f3
01
17
08
08
ef
0a
1c
f2
f2
15
10
06
05
f9
ff
08
06
13
0b
04
e9
1a
f7
f9
05
00
00
08
14
0b
ec
05
1d
0b
f0
12
01
1e
e3
ed
03
e2
08
df
02
06
f6
f5
0c
12
13
f4
12
f1
f0
f4
fe
ed
03
f2
fc
ff
11
0f
02
14
fc
eb
0c
f5
ec
23
0b
e8
3e
ef
18
db
e9
02
0c
d5
06
f6
3b
f6
f8
13
14
06
0f
14
ff
e4
f5
fb
ff
16
0a
f2
f5
08
09
e2
16
08
f5
f0
1a
07
05
f7
14
e9
04
01
e7
0d
e4
f4
fc
fa
04
cd
0c
09
f3
e4
01
0c
04
0b
fe
fb
e8
07
ff
cc
f3
f8
fc
0e
fd
07
fd
04
0d
00
03
10
13
08
fe
24
04
fb
e2
ff
01
16
fc
18
ff
09
04
14
20
1f
07
ed
f8
da
04
fe
e6
fb
19
ed
0a
ff
0f
f3
e7
03
f4
09
0f
dc
0a
fc
fb
00
fb
e5
02
f1
04
f7
10
f8
d9
fc
ee
f7
f4
04
f8
06
09
ff
0b
fb
11
09
1a
28
f8
e1
02
10
f3
fb
ef
0c
02
1f
18
f2
fd
04
fd
0a
00
00
01
08
ec
ff
dc
ee
12
f6
f5
06
04
f6
f0
04
0d
f4
ef
f3
0c
04
fb
0c
09
11
0e
2a
28
0e
10
ec
05
fb
08
fb
f9
0a
13
07
1e
16
fe
fa
13
0e
eb
1a
f5
f1
ee
03
f1
fb
de
09
03
18
fe
0b
f7
0b
17
27
fb
fc
0d
f4
fc
06
00
f2
ff
06
f8
f2
07
03
ed
0f
fb
06
02
e1
0e
ef
f0
f8
f4
e0
f3
0a
07
f8
23
11
0f
0a
0d
fa
10
e3
21
f3
09
19
f8
0c
19
0a
0b
ff
07
0a
e6
f9
f8
fb
02
fd
f8
fa
13
05
fd
0b
01
03
fd
fe
fa
f9
f2
00
0f
fa
f6
f3
0c
05
f5
0c
15
d5
ee
10
f1
de
ea
15
0d
ff
17
03
fd
fc
00
03
fc
01
f9
f3
04
0e
0d
fb
ee
f8
11
e8
fd
ed
14
dc
08
12
08
ff
17
0f
fc
f6
04
f9
f7
fa
0b
e5
07
05
0c
f1
ec
0d
ea
07
0e
1f
ea
02
12
f2
02
18
fc
17
1d
10
02
1e
0b
f4
ff
f4
0c
09
0e
01
0a
2b
f0
1c
07
f0
fe
14
ea
f7
08
f5
04
fc
0a
10
ff
ff
e6
e5
0e
1c
fb
f9
ee
ed
01
03
f1
00
f9
fc
ed
02
f4
f2
0c
f4
ef
f1
16
ee
f4
ff
f4
eb
fe
f5
07
fb
0b
f8
f5
06
03
1f
09
10
f1
fa
21
01
da
fe
11
0d
fa
25
1a
e8
f2
f6
ed
f5
08
f8
06
fc
fa
14
f8
14
e8
26
ea
11
f9
ee
f1
ff
00
01
00
02
1f
0a
fd
23
09
03
fe
ed
e2
08
e9
f3
15
07
08
1e
1a
0e
f1
fc
04
01
fd
03
15
08
f9
1d
fc
fb
10
06
11
23
2f
f9
f7
fe
fe
fb
f8
0c
21
eb
13
ec
ea
ed
f1
d2
f5
fa
fd
f6
fc
00
00
f7
ff
08
ff
03
0c
0f
05
f4
05
f8
06
0c
0e
f4
03
12
f4
e3
21
06
dd
07
f7
04
f9
13
fa
10
d9
f4
f4
e8
11
12
f6
d4
09
b9
04
0c
00
f6
f1
f9
f8
fe
f9
f2
f9
f5
1b
0f
e8
ef
e6
05
10
1b
07
0e
1c
fb
05
23
f4
f2
0d
0c
08
13
05
05
ec
16
ee
02
f6
fb
f5
e9
ec
10
0f
ec
e3
e6
05
0e
fe
f1
04
09
0e
f6
0b
fa
ff
ee
06
1a
19
10
fd
fb
f0
19
01
10
e6
1e
0d
e9
06
08
f4
02
01
05
ff
f5
f0
de
1f
ed
eb
12
13
17
08
e0
fc
04
04
ee
f5
ff
ef
20
f9
f2
11
05
0b
0d
05
ef
06
03
14
f2
1c
10
13
17
14
0f
f2
24
f1
12
0f
e1
fb
01
fd
0e
f1
ef
ee
f6
fa
f5
fd
00
f7
fd
e5
f7
0f
fe
fd
f9
fe
08
f8
fb
08
1b
ff
fb
05
05
fe
00
02
14
fa
f7
ef
02
ea
04
f9
d9
f5
ec
f6
0a
0d
f9
f3
0b
08
1a
0a
ef
04
0d
14
0d
e0
fa
14
eb
16
24
f6
e7
eb
f9
03
09
ff
f0
0c
ea
f8
03
ff
0e
13
ec
1c
db
f4
00
f7
07
f6
fd
f8
00
0a
cd
ed
03
ee
1b
19
e1
04
00
ed
08
15
e3
15
ff
eb
f4
ef
04
dd
03
11
0b
ff
12
f2
05
ed
01
ff
f3
29
ea
0a
13
ef
11
14
04
17
01
19
0c
fb
e8
e0
10
ef
23
03
0c
fd
09
09
07
06
19
f6
d7
0c
f2
e8
d8
1d
00
fd
05
03
06
10
e4
1f
f4
ff
14
0b
f6
06
02
06
05
f0
05
f1
e7
20
0a
02
fb
10
05
de
1b
0c
ef
f3
13
d9
23
00
00
05
f8
0b
fe
f5
12
38
ff
e6
0b
10
ec
ed
ff
12
fe
0f
0e
f6
ed
f0
00
f5
13
00
ee
0e
fd
ee
ff
f0
09
fd
f3
04
0d
f7
fb
0e
01
04
18
0c
04
d5
e7
fe
06
f7
06
d9
e0
f2
f9
07
0f
fa
fb
f4
f9
01
f9
13
12
f1
12
2d
d6
03
f7
12
1a
07
17
06
e3
ed
dc
14
12
fa
fe
ee
ef
ed
09
0e
1b
02
0d
ed
0a
03
14
03
03
10
0f
f0
12
1f
08
0d
16
fe
16
01
d7
fd
f6
f9
01
16
0a
f6
f6
f7
f3
15
f6
25
09
fe
f8
fc
03
16
ee
e5
ff
01
09
fa
fd
09
ed
03
fe
ed
27
04
e2
1b
04
00
f9
f0
08
11
f4
fe
f3
45
fc
09
0f
11
fb
09
fa
0b
16
f3
15
f1
25
fd
15
08
f6
f0
de
f7
f4
0f
03
0f
05
ee
02
23
03
04
e6
fd
ff
f3
f9
05
fd
ed
b7
03
f4
00
f6
ff
01
0d
17
00
0c
0b
f0
f2
df
f8
f8
eb
26
03
f7
fb
fc
1c
1a
01
0c
ff
13
ee
14
ea
17
dc
f9
02
1c
0d
1b
00
d7
0a
dc
fc
ea
15
fd
f2
fc
f6
e1
05
17
ee
0c
01
12
e9
ec
0e
fa
f9
e1
01
10
f8
20
14
fb
fb
f8
15
07
01
fe
02
f0
f5
16
e9
22
dd
2d
ec
12
e2
1d
0d
f4
c1
16
04
ff
f8
05
0d
f4
f8
fe
ea
0c
01
fe
01
d8
0e
f6
09
1f
0b
16
02
07
e8
e2
fa
0b
df
f2
03
00
25
f8
07
38
ea
ef
f7
58
09
f7
ee
07
fc
02
ec
1e
06
16
02
ef
04
38
08
00
fe
e3
18
25
13
1d
e7
e2
f7
09
f2
ed
02
f6
08
f8
01
06
f8
08
fb
fb
09
08
11
04
1d
12
f3
ed
ec
e6
1d
22
06
10
0c
04
fd
11
ed
ef
01
13
da
0e
0a
0a
00
18
fb
08
f1
12
1c
f8
e9
07
ee
13
f5
04
ff
0a
1d
d6
f9
f7
14
04
f3
01
ff
01
0d
fd
fd
ef
03
03
fb
f5
fb
07
f9
f8
f8
12
f5
0f
f7
f3
ee
e7
f7
f5
f9
10
ed
fb
f8
02
02
1a
ef
0a
e3
fc
f2
e6
fc
0e
f2
10
ec
c5
0a
0f
0e
e8
f8
04
0b
02
e9
ed
fe
f9
0e
f9
f6
0f
f9
09
0a
11
f7
20
10
00
0a
07
f3
fa
02
fd
16
0d
06
13
ec
05
24
ea
f4
e7
ef
0f
fc
ec
f8
0e
ea
fa
f4
00
13
fd
04
ea
06
de
f7
06
01
2f
04
0d
19
ed
ea
2f
49
eb
e7
f3
03
fe
f5
07
23
05
fc
d2
d2
0a
f4
d4
fb
fd
fa
e8
fb
0a
07
07
1d
0a
f4
ed
0c
0e
12
fc
1c
fa
01
0c
fa
ee
e4
08
e6
10
36
12
dc
03
00
05
f8
06
fc
06
f0
0a
0f
eb
18
1f
0b
15
ff
d3
f2
16
11
25
05
f9
10
f5
0e
09
17
00
f6
00
0c
f7
f0
13
02
20
f0
1b
fe
f2
fa
fa
00
ed
1a
11
eb
0e
f1
0c
0a
e6
e1
f2
ff
26
14
03
13
00
11
fe
0d
f2
21
00
05
00
06
f6
e4
0e
ff
f9
0d
f3
f4
f3
e9
04
16
e2
e4
08
07
e8
31
fd
f3
10
13
f1
0d
09
07
de
02
28
21
11
08
ef
07
e5
f3
f8
df
ff
00
fc
05
f4
f9
f5
ee
e8
fc
15
f5
e3
f8
14
05
f7
f9
fe
20
eb
f4
f1
f0
fb
f0
fc
1b
fb
fb
f9
dc
fb
11
f2
19
1b
13
11
e7
15
13
0a
e9
f8
fa
03
11
23
03
18
09
05
f2
ee
fe
0b
f0
f7
f1
0a
fa
06
fa
fd
f8
f1
0a
fd
f1
03
09
11
f1
06
f7
0a
00
14
14
15
ef
11
fa
10
f4
fa
fc
03
21
07
f5
ec
14
f6
04
1e
f1
d9
f5
dd
f4
09
0d
eb
f9
fd
21
fd
0c
ff
13
fd
05
ee
06
0f
fc
0a
eb
0e
f3
fe
e6
fb
fe
10
20
20
0d
e8
07
04
e5
0f
08
eb
01
03
de
02
f6
f4
de
1c
0c
05
27
13
fd
1c
fc
eb
f7
13
15
ef
04
11
12
0e
ff
fd
02
1f
19
0e
f5
e0
e2
ff
07
05
11
0b
06
0b
ee
02
f7
f9
fe
01
07
01
fe
e9
0e
e9
00
02
f7
e6
0e
fb
e0
f6
0f
f0
ee
07
09
09
0c
0f
03
00
fb
fa
f0
0a
fe
f9
07
00
fe
f3
e8
12
0f
0b
ec
1d
04
fd
0b
11
fe
0e
07
f1
12
11
06
f1
e7
01
e2
ff
f4
08
f4
f9
fc
1b
09
e7
08
0b
ed
02
10
f8
06
ff
06
f9
fe
fe
f9
04
1a
0c
01
fe
03
09
fd
f0
fa
11
02
ee
ff
f4
c6
ff
0a
0c
ef
01
09
11
d9
09
f4
e5
fa
0f
f8
07
fc
dc
e7
12
0f
03
fd
0a
f9
f0
f3
e3
05
eb
fd
f9
17
15
06
0c
f4
f3
03
04
f9
f9
04
f6
f1
04
f9
ee
05
07
06
0e
03
00
df
f6
0e
e2
08
0e
f6
1b
09
0d
1a
10
0c
e0
1f
17
11
fd
08
0b
f1
01
00
f6
de
ed
e8
fa
20
ec
01
f7
f6
fd
fd
05
fd
1b
07
fd
04
db
05
f4
fc
27
fc
10
f0
fb
fd
f3
04
00
00
1a
0c
15
f7
eb
eb
0f
d2
04
03
eb
f5
ec
fd
fa
fd
f7
04
0b
0f
1a
f6
f8
eb
00
04
ed
11
e4
ee
fa
f3
06
ec
00
ee
e2
01
14
f1
e5
c3
fd
ff
0d
e3
01
01
10
fe
21
e8
fe
f7
e2
1f
1d
e1
05
09
1e
f8
f5
fc
1c
f5
f9
1b
0f
25
f8
08
08
fd
05
f5
e3
f0
05
f5
f1
09
02
16
1d
10
fd
06
fa
04
fa
f9
00
0b
03
f8
27
fb
07
12
0f
00
09
51
da
e4
fb
e2
0f
e6
07
39
0f
09
ca
e6
fb
06
e7
f3
f5
0e
ea
05
f6
07
0a
17
1f
04
f6
fe
08
15
08
0a
0d
ff
01
ed
f9
f2
0b
eb
fe
1c
15
f0
03
fd
fb
02
1a
f6
ec
eb
f9
fc
e5
f8
0b
eb
fa
eb
cf
13
23
fe
f9
db
05
08
ff
ee
e4
f9
f0
13
1a
00
f9
fb
05
15
14
e6
0c
0a
14
06
13
01
fa
01
03
12
09
13
0b
f3
28
0c
03
fd
d4
fa
fd
f6
e7
09
04
0a
08
fa
05
03
07
06
ee
fb
f6
f7
03
fd
14
f2
fd
09
02
01
1b
32
d4
ec
ff
e6
00
02
03
2b
00
0e
e8
ee
08
00
d1
f3
f7
18
e5
0b
ff
11
fa
15
0b
02
f7
f1
05
04
06
1b
03
ff
02
fe
e6
fe
f2
ed
fd
1f
13
ef
15
fb
fc
f8
fb
e4
02
e7
09
07
f6
11
0b
03
fc
ec
f2
fb
fd
03
f7
f9
f3
01
0f
1d
eb
04
f0
f9
14
06
f4
04
19
08
14
f5
0d
1a
fc
f8
14
fb
ee
16
fc
f4
0d
f1
0b
0f
fa
d7
1c
09
04
f8
e7
fe
f4
04
fe
0d
11
fc
07
f2
fb
02
00
f3
05
f9
0b
f5
dd
ef
f7
f6
f9
05
f5
f0
f5
09
15
f9
0f
06
0d
14
ec
16
fc
20
f5
0e
0a
f9
0e
2f
06
08
00
08
f8
f4
05
0e
03
00
e7
06
01
02
fc
f5
06
f5
fd
f0
f9
10
00
e9
0d
01
ec
0f
10
01
f5
eb
f7
13
ee
04
f8
fa
d8
f8
ed
12
0c
25
f2
02
fe
04
f8
f7
fb
f1
e9
f8
0b
f2
11
e5
ed
f9
f5
20
04
f5
f5
07
27
fe
19
f5
10
e9
04
0c
f9
f3
02
db
01
08
fd
ff
e7
11
0b
f8
12
ef
fc
f9
02
db
09
15
ed
09
00
1a
eb
ff
e2
0d
0f
ee
03
03
01
f7
fe
07
f9
f7
01
f9
fd
0d
ff
f9
28
de
fe
f9
0c
fe
f5
10
04
f3
fb
ff
05
0c
0f
13
ef
fe
f3
04
fc
f2
08
f5
10
19
f3
f0
ff
0c
ef
f4
0c
15
f0
06
18
f9
08
ec
f5
f0
0d
ea
12
f8
fe
1d
0d
06
fc
ea
f8
e3
fe
fc
f8
fb
e3
fd
06
1a
13
01
f4
f1
f9
27
18
03
0f
f5
fc
fd
01
f2
e6
fc
f7
f4
fb
05
ff
ea
0a
e1
01
fd
16
00
24
f9
02
fc
e9
05
10
0e
ef
ed
e9
06
12
fd
e7
06
ed
f8
fa
09
07
0c
f1
ff
f3
03
05
f1
09
f6
eb
f5
03
11
09
1d
f0
28
f0
0e
f1
07
08
fc
fc
f1
07
3c
fe
f5
0c
0c
19
0d
fe
f1
0c
1d
07
e6
14
fc
24
fd
06
05
ef
f6
e3
f8
0d
fe
01
f8
02
04
0f
05
ec
eb
16
fa
e4
01
1d
0a
c2
fd
05
f6
13
1f
d8
0c
ff
12
ef
ea
13
fc
dd
f4
f9
fb
0c
e2
f3
fa
f7
19
f9
06
f0
05
13
f9
09
f8
09
f6
fc
e4
05
08
10
fb
13
02
05
f5
fd
06
f3
fc
fc
f5
f0
f5
eb
ef
f7
1c
ea
fe
04
06
fa
00
ee
f6
e8
02
ff
17
0e
f3
ee
dd
f0
1d
0c
ed
1f
21
ff
0e
05
fc
f6
08
04
0e
d9
16
f6
0d
ff
fb
18
08
10
fa
fa
0b
fb
0f
06
07
10
02
14
f1
f5
08
f5
18
f7
ef
fa
26
01
00
f4
11
f7
08
06
f2
10
ee
0e
09
0e
10
e4
fd
fd
05
16
eb
fd
09
fc
13
ee
f6
0f
0a
ee
f6
f7
fc
0a
13
0f
f8
0e
fc
fa
13
fa
f9
f2
f9
0b
ee
ee
f5
01
f9
f6
f4
07
01
26
12
06
eb
0b
fe
2b
00
0c
02
f4
fa
f2
1a
0b
09
09
f7
0d
12
0f
0f
ed
06
fb
fe
09
ed
ea
13
fa
f1
0a
fe
f5
04
06
00
02
f2
fe
02
f9
0c
e8
09
e1
05
03
e5
f9
0c
e0
00
0f
ed
f6
03
1e
28
02
1a
ea
e3
ee
13
06
07
ff
10
06
f5
df
0e
e1
0b
04
f5
0a
e5
01
fa
0e
03
ff
fb
09
f8
09
01
e7
f8
f6
13
14
ec
e8
f8
f3
fe
08
fb
fc
f6
06
30
07
17
14
f2
e7
f7
ec
ff
ed
26
ea
09
09
00
cf
17
eb
32
13
e5
f5
dd
01
1a
f7
0d
fb
f9
04
f0
f7
0c
04
f6
24
06
07
fe
05
f9
f4
11
00
f2
14
04
1b
20
21
0a
1c
05
01
2e
00
dd
ff
05
fe
eb
0c
0e
01
fe
f0
f3
03
ff
f4
ec
01
f5
f0
01
f4
f9
08
0b
fc
ec
06
fb
0d
fc
f8
f6
ff
0b
04
0a
f2
f1
01
f9
f7
05
05
f4
fe
fb
03
f3
ee
0a
04
ed
03
f3
fc
09
2a
00
fe
e3
d8
03
fa
0b
11
e5
fc
fc
f3
01
fc
13
ee
fd
f2
f2
02
eb
03
0f
13
f4
0d
f5
07
0d
01
f6
10
13
18
fe
f9
0c
fe
ef
0f
fe
03
01
f9
0c
fa
ec
00
15
1c
f0
fa
02
f5
fe
fa
15
02
fd
ed
f7
fb
03
ff
08
08
fc
f7
f9
01
ff
fa
fd
f3
ff
05
15
f4
0e
f6
10
f0
e1
f8
f3
ed
ee
09
21
fa
fc
21
08
f8
07
06
03
f4
f4
fc
fa
07
09
10
e9
f2
f9
e2
ee
ff
0e
13
1e
16
03
ee
0f
ff
0f
eb
fc
12
01
00
f4
0c
0a
f5
f5
0e
07
f3
f8
0c
03
0f
f1
f0
ff
f2
f8
ef
09
10
0a
06
0d
f1
e9
0e
03
ff
0b
11
00
e2
e7
14
f7
02
fb
fe
f3
f4
ff
17
08
00
13
fe
0c
1f
e8
f6
f7
06
0d
04
ec
08
f2
0c
ec
ea
f4
10
06
0d
e8
23
f6
ff
1b
fa
12
ef
f6
05
29
0f
f5
01
0f
fb
fb
f6
06
ea
02
f6
f9
09
fc
0f
f1
0a
06
04
f1
06
f9
fc
ff
19
fb
08
18
01
fe
fa
0b
15
f1
18
f2
08
f1
ec
f5
12
f4
f7
fc
0f
fa
1b
02
eb
f8
0d
e8
fd
01
1d
1e
0a
f9
13
24
ea
16
e4
03
02
23
f3
01
1c
ee
fe
f7
0f
e4
fd
ea
de
02
0e
fc
01
03
f5
f8
0a
ed
0c
03
08
0b
11
f5
f6
fc
ed
0a
01
1b
0b
02
06
ed
f3
ec
05
0b
04
fd
13
06
00
f9
0d
d7
f7
15
0a
e6
08
e4
0b
fc
19
15
fc
fa
12
18
19
e7
1a
ec
00
fe
06
e2
fc
fa
0f
00
f1
fe
fd
04
fc
d7
fd
02
f5
06
08
05
f5
fe
f5
fd
fd
19
e9
05
08
f2
13
07
1b
00
f3
03
ea
06
ec
f5
ec
f3
f5
06
19
0c
09
e9
11
04
f9
09
21
f7
f8
fa
ee
03
fc
ff
0a
0d
09
08
ff
ef
05
00
f5
06
ea
f6
fd
fb
06
ec
0d
03
06
fe
ea
06
00
0c
f4
1b
09
f9
03
f9
f1
fb
2e
fd
0c
f1
04
fa
f6
fe
f9
01
fe
f4
f9
06
0b
fe
ed
00
02
07
f9
08
f8
01
f5
10
ff
16
fd
16
08
fc
16
0f
fe
e8
18
f4
f9
06
f8
0d
fb
07
fc
04
f6
00
e5
12
ef
f7
0b
19
03
f5
07
ef
0a
fc
fe
1b
fd
fd
23
00
12
07
ff
0f
1f
fe
d6
09
fb
01
07
11
fa
16
0b
02
0a
ee
02
01
05
fc
dd
ec
ea
f2
02
f2
08
e7
eb
05
e6
fb
07
05
e0
ea
e4
21
f4
fa
f4
1c
f5
fa
07
12
04
14
ee
0f
17
fb
f6
00
01
14
f9
f7
12
05
f1
01
ed
0a
12
fd
1f
f6
02
02
f8
f4
0c
fb
fd
05
00
f5
eb
01
f8
f2
0a
fb
1d
fa
f1
0a
ef
04
03
22
06
e1
04
18
dc
f4
0e
fc
08
06
fe
ff
fc
fe
20
fd
04
d8
fc
00
08
fe
fc
fa
10
05
0a
0d
01
f4
fa
05
d8
0f
01
f8
fb
eb
f3
01
0e
12
eb
e6
08
f0
17
f4
ee
0a
fc
09
0a
f6
fb
0c
3b
07
ff
08
f7
0a
01
02
0c
01
21
06
fb
f6
2a
0b
18
f0
fb
f7
0a
10
15
00
f9
e3
0a
f7
f7
fe
e2
f1
00
14
02
01
02
0e
fa
e8
0d
f5
11
04
f9
10
fb
07
fd
f1
f7
fa
05
fc
fe
1b
f7
14
01
eb
f7
0e
fd
02
ed
00
09
f2
08
06
05
dd
f8
0e
d8
fb
21
15
f0
0f
12
f3
00
f3
04
01
eb
f8
ef
23
f6
07
0d
03
fb
05
11
07
f6
fb
f5
01
0d
f5
fd
1b
f0
f8
f2
ff
14
ef
ef
07
04
fb
0d
f4
f7
fe
0a
f9
04
0f
f2
fe
08
fd
d9
0c
fb
04
0b
0e
09
00
02
ff
f9
f2
08
01
01
00
0f
fd
14
0c
0c
02
eb
00
01
fb
01
f6
1a
ef
05
17
fe
e8
f5
f9
f6
f5
05
e7
f3
fa
fa
00
ff
02
06
05
12
e8
f5
0b
07
e3
f9
1a
fe
08
fc
f9
f6
07
da
0f
1c
f3
02
f3
fd
01
fa
07
f7
04
05
0a
f2
14
00
01
01
f5
18
fa
0b
eb
f7
fc
03
00
12
19
ff
0f
f8
f9
01
f9
0d
07
09
f8
12
f6
ed
1b
fb
f4
e4
06
09
f3
27
09
fe
00
26
ff
0a
fa
ee
1a
f6
0e
fb
05
f9
07
0b
11
0f
e1
02
e6
02
f2
0e
05
ff
fe
eb
07
11
0b
fb
ed
04
1a
03
09
f1
fc
ee
fa
f2
fc
f1
f2
ee
03
08
09
f3
ff
03
ea
12
09
e8
f5
f3
04
fc
12
00
00
10
f6
02
07
f3
fa
da
07
08
f1
0a
14
fd
0e
f9
ff
04
fc
04
f2
04
13
ef
ed
0f
15
f9
04
e9
03
12
b2
06
ed
43
1d
f2
08
39
0a
f3
cc
08
05
06
ff
ee
eb
e8
0c
18
00
05
12
ee
fd
ee
02
fa
0f
17
f5
1d
0b
09
e9
e0
03
f3
f2
e4
06
03
21
fa
22
24
07
05
e6
12
05
f0
10
0f
f6
08
ea
02
06
fc
1b
f0
0a
2a
14
0b
11
f3
13
00
0d
01
d9
fb
01
e6
f3
f0
01
e4
18
05
0e
ec
04
f8
10
ee
fa
f9
e4
ea
f1
1e
f9
14
10
09
03
fd
16
12
08
fc
01
12
f2
f8
ee
f3
07
e6
00
16
13
f8
e4
fb
08
13
f7
ff
10
ff
10
f0
fc
0d
f0
00
11
1d
01
f5
ff
18
07
04
e8
eb
f8
f5
05
f8
f0
fd
e9
fd
08
06
04
fc
05
dd
11
03
05
fc
f7
03
02
06
0b
03
16
f6
f4
ff
fb
04
17
f3
10
fe
fb
f0
fb
11
10
ff
2c
02
f5
09
db
fe
ec
07
0b
ff
08
1c
fd
13
07
fd
07
f2
f5
f2
e7
fc
f7
e3
0a
ed
09
06
10
e6
1d
ff
11
fa
ec
03
05
04
f9
14
ff
00
ec
03
ee
ed
ff
03
21
07
25
08
01
fe
09
13
07
1d
11
f4
01
1a
f4
f4
ff
02
18
15
0e
02
10
f6
03
f9
05
0e
08
f5
17
fc
0f
e7
15
f7
f0
0f
0a
09
05
f3
ed
f5
f3
04
f8
05
eb
fb
14
f0
fe
06
ee
0d
ff
fd
02
0e
07
fb
fe
0b
07
f7
f2
f4
06
fd
f9
f6
0c
f3
f9
08
fc
fb
09
df
04
f9
12
0e
f8
f4
f1
0e
f5
15
03
04
01
eb
15
04
f7
09
03
f6
0a
f8
f6
f2
14
0a
11
f5
eb
fe
0a
0e
0c
00
ed
0e
12
fb
04
03
f6
f8
06
fc
08
fd
fb
fe
13
10
fd
09
01
06
03
f8
ec
f6
05
f9
00
f6
f2
f8
f9
f0
eb
fe
f9
fa
f1
03
10
04
f2
fb
13
0a
09
0b
fd
11
f5
06
0f
fa
14
0e
05
08
e6
fd
08
1d
15
fb
fc
07
f2
18
0b
f3
11
08
f2
ed
01
fe
0b
0a
05
0a
f3
00
ee
0a
ed
fd
05
00
14
00
01
04
f6
f0
10
f5
ff
0f
16
fc
06
02
04
09
f6
f9
fa
06
08
0b
e8
0b
06
07
f7
08
04
fc
14
fc
02
08
00
fb
10
fa
f8
f7
06
08
ed
ec
09
f2
fa
fe
f8
07
09
ea
07
01
03
0e
ff
07
f7
f9
ef
06
19
f1
f0
0a
f3
fb
04
0c
ed
fb
f3
ed
ec
07
14
d4
f7
00
0b
fd
19
02
ff
ec
1b
08
f1
07
03
05
f1
04
14
0c
0b
0a
f9
f0
08
13
06
f7
00
0c
ff
13
04
fa
09
04
ec
eb
05
e6
19
25
f3
0c
fd
ed
07
10
f4
de
e8
f4
15
f4
2d
0c
00
e8
10
1e
12
07
10
fa
0b
07
18
0c
f2
05
00
fd
09
17
f7
07
fb
e5
fc
0a
14
f8
0b
e9
f9
12
f6
f6
f5
10
fe
03
f5
f7
fb
df
ee
07
ff
fe
05
e6
ff
07
fb
f2
e5
02
f0
ff
f8
0c
1b
07
02
ef
ee
fa
07
ee
04
09
fa
fc
13
09
0a
07
fc
fd
fc
f3
e9
08
ea
00
0d
0d
02
05
fa
04
fa
f5
08
f5
fa
02
02
ed
19
05
0f
0d
01
10
0c
08
08
13
f2
f9
f9
e3
09
f9
fe
0d
f1
f1
11
10
f0
18
02
0a
f7
eb
05
fe
0a
17
04
02
f6
29
01
fb
d7
fb
03
13
08
11
fc
00
00
f9
0a
05
f4
ec
0c
fe
1a
08
03
14
02
01
06
15
04
01
ed
ed
f9
fc
02
fd
fa
f4
0e
02
f9
e6
fd
f1
06
fa
15
0f
fc
0b
f3
f2
11
0b
f4
05
00
07
f8
f7
00
f9
0e
e0
ff
04
e9
f9
ee
0c
01
f7
fb
f6
fa
03
00
fd
0c
08
03
11
f7
1a
f8
09
02
1c
f7
04
e1
10
05
e2
ef
ef
fe
05
11
00
e3
00
f2
ff
ea
e9
0e
f5
dd
ed
fe
0f
ee
fc
f2
f1
02
09
ed
11
02
f9
13
ee
09
04
ec
ff
01
28
fe
12
fc
09
04
17
f9
07
f9
1a
05
f3
fd
0f
f9
03
ff
f9
11
1b
03
f9
07
fd
fe
f9
00
01
f4
ee
f7
02
18
ec
09
19
05
07
f0
0e
e3
fa
f8
f6
0b
f2
07
02
f0
fe
0a
f6
f5
f5
10
fc
0f
0e
f4
f6
16
e5
0a
02
01
fe
ff
00
07
01
05
fa
10
f6
f6
11
0b
fb
1c
05
01
fa
f8
11
0d
f2
01
f2
1b
f9
0f
04
04
ee
02
15
0c
ff
ed
f8
f6
0c
f2
f9
07
ec
e5
f6
0b
fe
f0
02
1c
ff
fb
17
08
f5
fe
03
ff
f9
03
f6
ff
00
fd
e8
0e
ff
f9
0f
e4
0c
f5
06
f4
03
fd
07
f2
f4
07
f9
f3
14
02
03
07
f3
0a
05
fe
f7
09
19
00
ef
fe
0b
e9
f4
12
01
04
12
09
f9
08
04
15
02
ff
0c
02
ee
f6
08
ff
0f
ff
f3
08
fc
0b
05
fe
00
01
01
fc
ed
0c
08
22
f8
fd
02
07
ea
f7
16
11
fc
fc
f1
00
04
ed
e8
fc
16
0f
f8
09
f5
06
07
12
07
14
03
09
f7
ed
fd
f1
11
fe
10
00
f6
01
0e
fd
01
f6
f1
ff
07
ee
f7
f2
0a
fe
03
12
ea
06
f6
f9
03
f4
fa
08
f8
f8
04
f1
00
fa
f3
11
fd
10
fe
03
ed
f8
fb
02
f5
ef
fe
11
20
f8
08
fe
ec
02
08
ed
06
f6
fe
f2
0f
05
f9
e0
f9
fb
00
00
20
0a
fb
14
fc
0d
05
15
ee
01
0b
19
02
ff
e3
14
0d
03
e8
f1
f1
10
fd
1b
08
f1
fa
da
02
ee
04
0e
f1
00
ed
00
fd
10
07
09
04
14
fb
f4
00
0f
0a
fd
f3
18
f5
1f
f5
fe
e7
17
1c
09
04
08
fe
e7
11
05
fb
11
eb
e7
e4
eb
ee
ff
0c
12
1c
fd
0f
fd
1f
e9
08
e9
f7
fe
f9
f3
0b
09
09
14
0c
ff
ec
0f
18
0b
fb
ee
16
13
11
00
f4
07
12
fd
13
11
f2
fe
fc
21
0f
f4
f5
0d
0f
ec
04
f5
fd
ec
ef
11
16
0e
06
04
0c
15
09
ff
13
03
1c
03
f6
fe
eb
0f
08
18
27
fc
fd
f9
f6
03
01
06
05
06
02
db
03
fb
ef
05
03
f2
06
ec
fb
03
eb
fd
06
03
fa
17
ff
06
e9
ee
03
17
fb
eb
fd
07
fd
d9
f7
f9
e5
12
d6
00
eb
05
f2
0e
02
10
12
ed
06
18
1a
f7
02
fc
02
0d
e9
ec
12
ee
16
06
0e
0b
fb
11
f5
fe
07
04
db
f5
03
17
06
fa
ef
e8
f7
f1
fb
11
03
13
0d
03
17
02
09
fc
f6
02
14
fb
04
15
fc
fb
02
f2
ec
14
ed
13
0d
ed
f9
02
12
f7
07
fd
01
e7
02
0d
fa
0b
11
1b
0c
0b
0b
ff
fd
fc
0a
07
04
fb
11
fc
06
08
0b
f1
fa
f5
fd
1c
e6
03
06
0e
fb
0d
f9
03
f8
fc
f2
f6
fc
04
f5
00
fc
ff
f3
15
0b
fb
ed
f6
0e
f7
fa
f3
05
01
fb
0f
01
fa
fe
05
fa
05
fb
0f
00
0b
08
fa
f0
0a
04
ff
11
f2
f7
e9
ff
04
07
f2
14
f0
f4
fc
f4
01
f1
fc
f8
ef
fc
0a
08
00
f8
07
e7
06
18
fb
fa
e8
f8
fd
0c
fe
05
12
06
07
11
00
f7
f5
fa
06
fe
05
10
fd
18
03
0d
fc
e6
f7
07
0d
ee
16
03
fd
00
0d
ec
08
06
12
0b
03
09
19
09
ff
f7
0f
02
f2
fe
1e
16
14
0c
f7
08
f1
0d
0a
0a
12
f9
0a
ef
04
e6
1b
e3
06
09
05
f5
0b
00
f9
f5
00
08
fb
05
f7
fe
0c
fd
0c
00
ec
0a
fc
03
00
fd
0a
e7
02
ee
f8
f6
0a
f9
04
07
da
fc
01
f3
07
0c
02
15
fe
f7
03
eb
00
16
fb
f0
03
05
f8
15
05
e4
0f
0d
10
08
fd
00
f7
ff
11
ff
02
fd
20
ed
04
09
e2
f2
f9
f6
14
f7
fc
f7
de
04
fc
0e
01
e0
0a
f2
02
08
fa
f8
f5
ef
03
02
0d
d4
f9
e6
06
f1
ec
fb
07
00
09
0a
0c
fe
06
f9
ee
fc
0d
e6
e8
0c
fd
dc
08
0a
f3
04
f9
03
ec
e2
0c
e1
0d
0e
f9
07
0d
06
fd
f7
05
00
13
04
00
0b
f9
01
f8
f5
fe
05
0c
0b
f4
00
05
fb
f5
f9
0b
02
07
15
04
23
01
1e
1a
0a
03
e8
fd
05
03
06
e8
fe
07
0b
15
f2
eb
fd
09
fa
08
de
01
fe
1f
01
04
fb
f6
0c
0f
1b
02
fc
f9
f1
02
f7
f4
09
f0
02
e8
09
09
ed
16
f1
fa
ff
ef
02
fe
01
09
04
0d
06
ff
0b
03
fc
e9
e6
14
07
eb
0b
0d
28
ea
0b
0a
f4
fa
14
15
e0
de
0a
f9
e4
e6
07
19
0e
f7
12
ed
fd
f6
ed
f6
04
e1
fe
02
f3
e9
02
08
fc
07
f2
12
0e
08
01
0f
e7
03
f6
f3
f5
f9
ee
03
0f
0d
0c
ef
00
f5
fc
ed
f5
05
08
fd
20
ff
e8
0e
3d
06
06
e9
f7
03
06
13
23
0e
04
fe
ef
ed
0d
0c
02
f9
f0
fd
fa
ee
08
14
0c
e4
02
f4
fd
04
04
0e
0b
10
14
fd
17
05
e4
2a
fa
f3
16
0d
0e
02
12
12
e7
14
02
0a
02
fb
da
dc
12
0e
14
f1
1a
08
1e
05
fb
fc
fd
e5
ea
fe
04
03
19
fd
fe
0a
fb
04
23
fa
f3
02
09
f9
fa
1e
10
f8
1a
13
00
09
10
fa
f2
ef
fb
25
f6
05
f9
fd
03
fe
ff
ff
01
f7
f6
e8
ea
20
f4
02
fe
03
ec
0a
0c
0e
f9
f4
e6
03
e1
fb
11
fe
d8
ed
ff
ff
f5
04
f9
15
e4
ee
0b
10
f8
f6
f3
18
1a
0f
0a
f3
f6
f2
02
03
0c
ec
f0
02
28
f7
f8
ef
0e
f5
f1
05
fd
1e
fc
eb
f7
f8
ff
f3
e6
14
01
08
0a
fa
f2
fa
f8
ea
fe
0c
04
f6
ff
fa
e3
fe
ef
0b
ff
ea
09
f4
09
04
0c
03
f1
0c
e8
01
f3
fd
ff
12
16
fd
1b
fa
fe
ed
06
15
fd
f5
02
02
f9
f5
01
fc
01
f7
03
f1
f8
fc
fd
02
ef
0e
0a
f9
f9
01
09
eb
06
f6
f0
fb
f6
fb
04
e5
04
0d
11
0d
08
06
f4
fc
08
20
f4
01
28
ff
0c
00
17
fb
07
f6
0c
07
1d
05
02
f8
01
06
01
07
ff
fd
05
08
03
07
0d
f3
e9
f8
11
ff
02
fd
02
fe
ea
13
03
0a
fe
f6
0b
03
18
0c
f3
ff
fd
1c
03
1d
f6
fc
1b
0e
f8
eb
0f
fd
05
17
f9
ed
f1
e3
04
00
f9
02
fa
f0
f4
0b
07
06
15
f7
ff
18
ed
0a
f4
0a
02
f9
f9
00
03
10
f0
e1
f0
e9
12
1b
f6
0b
07
09
fb
10
f1
06
0b
eb
01
02
05
16
02
fb
fc
fb
fa
ee
08
f9
1e
ed
fe
03
ee
fb
00
09
0c
f7
fc
f5
09
1c
14
fe
ed
f3
0c
f6
13
f4
fa
03
0a
11
0d
0c
14
03
f3
18
17
f0
f1
15
12
05
0a
f2
0b
fd
e4
1b
23
03
f6
05
ff
0a
fe
fe
0e
eb
f8
ff
e4
02
12
f5
f8
16
12
03
f8
f8
ff
19
09
01
0e
04
0b
1f
09
0d
13
ff
fc
fe
ff
ff
22
ef
08
f6
f5
0f
16
ed
ec
0a
e8
07
f4
09
fb
f3
fc
f9
02
12
09
02
db
02
04
03
e9
fe
f7
fc
13
f6
f0
0f
04
fd
01
0b
fc
0e
ff
08
fe
04
fb
06
f3
01
0d
e8
16
fc
f4
10
26
fe
01
f4
01
f8
0e
00
01
05
f0
19
01
fc
fd
03
fb
fa
fd
f7
01
f9
ff
ed
f5
01
fd
05
01
08
14
fb
ff
14
0b
fb
f7
f4
07
0b
0f
05
f3
fe
f9
0b
01
07
f3
01
06
13
fa
f6
f8
0c
f7
05
f6
f8
fc
02
ff
01
e6
fb
02
0c
f9
f0
f6
1b
f9
04
ed
f7
fb
fd
05
1a
0a
fe
e1
f9
0a
03
fc
f7
fc
10
f6
10
0f
f9
e2
21
0b
06
f4
01
fd
f2
15
e7
ff
17
01
ed
f4
f0
01
ed
01
07
fb
fb
08
fc
f8
fa
10
00
f9
f9
f1
ff
f9
f5
01
10
f1
f6
fd
0a
0a
16
06
f9
06
0b
e7
f9
fb
0d
1c
f3
14
01
03
f6
fd
0e
13
f3
f3
fd
02
ef
eb
fb
ee
f9
f4
f8
0e
07
10
01
0b
0b
05
ff
fc
03
0c
03
f1
fc
fa
0a
ff
0c
01
06
06
12
f7
04
f9
ff
f5
0f
00
ec
fe
fc
f3
03
06
08
f1
f1
f3
fc
f3
01
10
0e
0b
02
e5
f6
06
03
e5
0d
03
f4
f0
07
f2
f9
fd
06
03
07
09
fb
06
f5
fa
01
f6
08
06
f7
fd
01
fc
f4
10
0d
fd
05
0b
f8
fe
fa
f1
ff
04
ee
ff
f6
00
0b
29
04
f6
e1
f9
f5
0f
03
fb
fa
fe
f1
fc
fe
02
0f
ff
03
0b
09
07
f6
00
06
13
03
07
fd
02
00
01
f9
01
01
f5
05
12
f7
05
0e
f9
14
f2
07
f3
fa
21
f7
07
ee
00
0f
15
f8
eb
04
01
f1
fd
05
02
00
fe
f6
10
d6
f8
f2
e6
fe
00
0d
fe
f6
e9
07
d7
e0
23
e9
11
f4
09
fc
f6
fb
0b
01
11
e0
f7
0e
e2
e4
e9
f7
09
fd
fb
07
16
f8
fe
01
f9
0b
0e
ef
0f
f7
e7
ea
0c
fe
f6
e8
10
e3
1a
da
0c
12
e8
f0
17
0c
ee
f4
0e
0c
02
fd
04
04
09
09
f7
f3
16
14
f1
01
14
0f
15
f7
e7
1f
02
01
05
fb
07
eb
00
02
f8
fd
ed
fa
f7
07
fd
08
0f
07
ee
f7
00
0c
f2
fe
fc
fe
1e
00
ec
f8
f8
20
01
09
fa
f8
0e
01
1a
11
0f
1f
f4
fe
0c
fa
f4
f5
07
2a
f5
fb
07
03
eb
fc
fd
ff
18
f3
01
fb
1d
0d
f6
f9
0b
0d
06
d9
eb
19
e3
dd
03
e4
ff
f6
0f
e1
fb
12
f8
00
e2
11
0a
f0
05
02
25
fd
ef
06
f7
f5
12
f1
e6
f5
21
ff
fb
0c
fa
0e
f8
05
03
0a
d5
f3
09
d8
17
d6
ee
f0
04
03
fd
11
01
07
f7
21
18
0e
1a
02
fc
ed
04
11
0b
07
f9
11
08
02
e6
01
f9
12
07
e8
fd
01
0e
f3
f9
ec
e8
f9
0b
14
ed
09
f9
0e
06
12
0b
09
fd
f6
fc
f1
fa
1a
f1
fa
1f
fb
fb
ed
02
1b
0b
09
eb
f6
09
e4
0c
f7
19
0e
fa
02
fa
fe
f2
07
ec
fa
04
fb
e0
f8
ef
f7
09
16
fe
fe
09
fa
f7
02
f5
04
f0
f3
06
02
fa
ff
12
f2
f3
15
0c
04
05
f7
fe
ee
20
f7
04
e4
0d
05
f0
01
28
02
f4
dd
f2
09
11
de
f5
ef
eb
0c
09
10
f0
03
f3
0f
19
fa
03
f9
f3
18
14
10
05
24
f8
00
17
01
f8
04
ff
1e
0e
f9
07
0b
ff
04
fb
02
0e
f5
f7
f6
f6
00
f9
e6
ef
f9
09
ea
fb
07
0c
0a
08
08
0d
fb
f5
09
f7
ff
f9
fa
f4
f5
0c
fc
f8
02
04
14
fd
f3
fb
f6
04
02
0b
fb
00
f9
f7
03
fb
e1
03
02
fd
04
05
f6
f2
07
fc
0d
fb
0c
0a
ec
09
03
09
0a
ed
05
f4
ed
f9
02
f7
02
fc
0d
f5
0e
05
00
fe
13
08
06
d5
fe
02
05
03
00
eb
f9
f8
09
f3
00
05
02
f5
fe
09
0f
02
ed
fc
03
07
e1
09
16
f8
fd
ed
fe
02
fc
f8
01
09
fa
f4
fe
f9
fa
0f
fb
22
fd
11
00
eb
04
f1
00
ff
0e
ff
fd
04
ec
e5
1a
13
e5
11
f8
09
ff
d0
fa
00
fa
08
f2
fa
0d
01
1b
fa
0a
15
12
f9
2a
f5
10
ee
07
0e
17
02
f7
11
3d
16
f8
0e
f9
f2
03
06
0d
02
f6
f7
ee
14
01
13
f0
0b
ff
07
00
f8
13
04
f7
0b
fa
00
22
08
0e
e4
e4
0c
03
d9
1f
18
f2
d3
01
07
08
05
18
ec
1d
f5
09
fc
f0
0a
f9
db
03
fe
fc
15
e7
ec
f7
fe
2f
fd
10
f3
06
28
00
17
f6
18
f0
fe
fc
f6
f5
0a
06
ee
fe
17
0d
0d
0a
fb
f6
f0
fd
0e
0b
fa
ea
e0
fb
ff
07
05
f9
fe
06
0f
02
f1
fc
f7
05
0c
ea
fa
fd
19
fe
f8
04
01
fe
07
fb
07
fb
0f
fb
0d
f9
1e
fb
ee
18
10
fe
13
f0
05
f8
0d
19
f6
0a
00
ee
0d
fb
ea
0e
03
f9
1d
f9
07
06
11
f9
ec
fd
ef
fd
0b
fb
0b
fe
ff
0c
fa
03
f4
f7
e0
03
fc
04
15
ff
fa
04
05
08
fb
fa
f7
03
07
0e
18
f8
06
03
00
08
00
0c
fd
0e
04
f4
11
fb
e1
fd
0c
f3
f0
fb
00
0f
fb
07
01
ec
2d
0a
0b
0d
f0
0c
f8
f2
f7
fe
fa
f8
fe
10
f9
21
f9
fa
03
00
f9
fd
f9
fb
f7
fe
f8
f3
fb
f5
f3
1c
f8
fa
0f
16
ef
06
fc
f8
fa
fc
05
0e
e3
fc
ed
11
fc
0d
14
07
fd
fc
f9
fe
04
00
00
03
0e
e1
15
01
fa
08
0f
02
10
05
0f
f0
0b
17
fe
0a
0d
0f
11
f0
09
0a
f5
f9
04
02
d9
fe
10
02
09
f0
eb
ff
07
15
f7
fe
ff
f4
fa
06
fd
01
02
08
06
0b
eb
f3
fd
16
03
06
19
0a
07
03
ff
e9
03
e9
00
03
08
04
d6
f8
f8
06
05
01
00
f7
0b
03
04
0b
0d
fb
f4
0e
00
eb
ff
0e
05
f3
fc
fe
03
f5
0d
0a
ff
f8
f4
f9
19
fc
08
13
fb
f6
0f
d7
0c
ec
1b
04
fb
f2
19
fb
0b
f9
13
03
f5
fb
f8
f9
f9
f5
02
0c
07
f8
f4
04
ee
0b
09
16
19
fd
01
0d
fc
eb
ea
ef
fd
f9
fe
ff
f6
0e
f9
0f
0e
09
11
fe
13
00
09
04
f4
06
00
01
04
ff
16
11
f1
fc
26
02
11
09
f4
0f
f6
0d
01
fa
0f
fb
05
e6
f7
f8
02
07
10
0e
0b
fe
fa
1a
00
fd
fb
04
fd
00
f6
f8
e8
fc
11
0d
fd
f3
09
ee
20
fd
01
07
fd
07
f9
ed
11
ef
fc
0b
04
0c
1a
fc
0c
1e
e8
f9
0f
f8
13
03
f0
0f
ee
ff
ee
01
f7
09
e5
f6
f2
f2
f5
03
07
18
09
01
0f
fa
13
0d
05
10
fe
00
0b
e1
08
1d
f4
ff
f6
ff
07
0d
12
08
f0
fa
f8
0f
f6
ec
11
f0
fc
05
fe
1d
17
f3
09
19
ec
10
ed
fd
0a
01
fb
fb
05
02
e8
fc
ff
fe
f3
ea
f2
df
11
17
05
fd
0e
0a
01
08
1d
15
07
08
03
f1
fc
21
fe
f9
05
f9
10
05
f7
fd
f8
f9
f4
f8
11
02
f5
11
ff
05
fc
03
09
f2
fd
04
09
11
01
fe
01
04
06
f7
f1
fc
fb
f5
f6
03
10
0c
03
21
fe
07
e6
01
fd
24
e6
01
fa
16
f1
ff
04
f3
0c
f8
f8
06
00
f9
03
f2
13
f1
04
02
f8
00
f9
f9
f5
08
f1
07
09
f1
f0
f5
04
fe
19
f8
fc
04
e3
02
fd
02
ee
05
ed
f5
0f
01
01
fe
e7
04
fd
02
10
f2
f1
f6
06
13
11
fb
ea
fd
00
0f
0d
fe
0d
11
0d
f8
04
00
0f
f7
02
00
0f
0c
05
0d
db
09
01
05
18
11
15
ff
22
04
f8
18
15
f4
e9
f1
04
01
01
0d
0e
ea
18
f2
eb
0b
06
fb
02
f8
f4
ec
20
f6
06
24
f1
01
1d
c2
00
f1
3b
05
fb
07
35
01
04
f9
08
fe
fa
e2
e7
eb
fa
f9
16
f2
15
f6
e0
e8
e2
08
08
fa
28
fb
00
14
0f
da
d7
f8
f1
f6
f0
f1
f9
2b
f6
12
fa
04
11
fa
ed
03
07
14
19
ff
ff
00
fa
f2
15
0d
f9
eb
30
23
18
f8
ea
19
05
15
08
e9
05
f2
ee
e6
04
07
e1
0e
0e
10
ff
f4
f9
1a
e5
28
09
f8
18
f0
ff
fa
f9
07
f0
0f
ee
14
fd
13
fa
dc
03
fd
02
fd
20
f3
06
e4
fa
fb
f6
f0
f5
13
11
0c
0e
f6
14
09
f2
05
0f
e4
e3
12
10
12
d6
11
0e
f3
10
f9
04
05
fc
eb
fd
f0
f9
fb
f1
0a
fc
29
f9
f6
06
ef
20
f6
06
03
05
24
f3
f5
f0
ff
c4
eb
f1
01
f5
e3
00
f2
f5
04
02
03
e2
f1
02
05
06
17
f9
f0
f9
f2
f5
f1
05
0a
ed
10
1a
28
f8
f4
f5
03
fa
f8
ff
02
f1
19
fd
10
1b
01
fd
fd
00
1e
04
fb
e2
0f
00
fe
01
e8
f6
00
1d
06
fb
0d
fe
f2
ff
f6
f9
ec
f6
0a
fa
fe
f9
ff
fb
f9
1a
f7
e9
e8
f2
f7
07
16
02
fc
f6
11
09
ff
01
0b
f3
25
00
02
02
ff
05
03
33
1b
02
04
e6
e4
f6
10
ff
f8
02
12
10
fa
04
0e
08
04
00
fe
03
f5
02
08
ff
0d
09
ed
05
f1
14
01
f1
1f
f3
fe
e6
0f
08
0d
fd
0c
0b
0b
fa
f1
fe
05
f5
0b
0d
eb
02
f3
08
f7
0e
01
09
06
ea
fd
03
1f
e5
10
e9
0c
f1
03
06
ea
0d
05
fe
fc
fe
ea
f7
07
06
eb
04
ef
e8
0e
00
f2
01
07
0a
fc
ef
f9
f0
10
0b
08
f6
f8
f2
f7
0a
11
04
ef
fb
e8
0d
fb
f5
eb
e7
12
eb
0a
03
f5
fd
0f
16
ee
f4
ec
00
ee
f9
03
f9
06
0c
23
04
0d
e8
0d
ff
05
0b
ed
0b
ee
16
fe
fa
ff
ec
f9
f0
ee
0c
f4
17
f7
12
fa
fe
00
f8
f3
06
0b
02
0c
fe
02
ee
fb
08
15
ff
03
0f
f1
06
04
1b
0d
05
0f
fa
f4
fd
15
0d
f6
0e
11
09
ef
09
0d
f4
17
ff
fa
f6
ed
f8
01
fc
ed
ff
fe
0b
f3
0b
ee
e9
eb
0a
08
0d
12
f4
e6
02
06
0e
fa
0b
07
f9
13
f0
fd
02
06
02
05
f9
01
f9
fc
07
03
21
04
03
f5
f6
06
f6
01
08
fc
fd
0f
11
ff
23
f2
00
fb
05
f1
f7
00
09
05
fd
08
04
f5
03
fd
07
d9
0f
f5
ff
0e
06
f6
fe
0c
ed
06
03
eb
fe
06
04
03
f3
07
f6
07
03
18
f9
ff
02
05
02
f1
09
f2
fe
17
fd
e6
09
f8
10
f4
fd
06
fc
eb
e8
f9
f1
fa
f2
14
0e
0b
f6
10
f8
00
07
ff
ed
04
fc
fb
26
f6
f9
09
07
08
23
0e
00
fb
f1
11
0b
fd
0f
fc
05
08
0d
14
0b
f5
f7
f3
08
01
05
f6
fc
07
fa
fc
17
0f
e7
ee
fe
09
0e
02
03
0a
f6
0a
00
11
07
0f
f8
10
ec
f3
f1
0e
00
f7
ea
fd
ef
17
0b
17
ee
00
11
fe
07
fa
f4
06
f7
fe
f5
fb
f9
fa
ed
fb
f9
08
08
14
09
ff
e6
00
ea
01
0b
f7
f1
ff
e9
18
fc
04
01
01
f8
1d
07
e9
14
e3
14
ee
11
00
f8
f9
ec
f8
0c
ec
03
02
e8
07
f7
f8
07
02
f9
09
ee
02
fb
10
f7
0a
f3
01
dd
16
06
02
00
0a
fc
ff
05
08
fe
0c
0a
05
04
1e
01
f8
00
f5
0d
f9
f1
05
0d
fd
04
fc
01
09
07
0a
f6
04
fe
1c
ed
f6
01
fa
01
f8
0e
03
0d
ff
fc
0d
f1
f8
f6
f7
06
fb
0d
05
