00
2a
e3
3f
0e
d1
12
07
f7
dc
03
fe
20
f8
2d
de
f8
df
18
ea
0e
f0
13
0b
e4
02
19
fb
08
e5
29
17
14
eb
f3
f4
fb
dc
24
fe
b4
06
ec
05
1e
12
1f
e7
1d
ed
09
fe
fb
3a
0c
f7
13
29
06
1f
05
fb
fa
11
da
e7
f3
23
15
01
ed
02
f8
25
0b
1a
11
f7
01
14
dc
05
01
08
11
07
10
26
07
f6
0a
d5
eb
2f
df
fb
fd
09
fe
03
0f
f5
fa
d4
27
3a
19
13
f2
22
2a
ec
e3
fd
24
fa
11
17
15
0e
0a
2c
e2
ec
1b
28
0e
01
23
0f
00
03
17
1a
03
0b
ee
d2
0f
f7
14
35
0f
dc
f6
bb
fb
e9
12
0b
fd
df
06
21
b9
ff
f5
eb
20
e9
0b
d5
f5
da
0f
d5
f2
08
30
03
2b
00
03
dd
38
e8
23
0b
19
0c
07
29
11
17
e9
05
f6
fd
eb
13
23
e6
01
17
10
ef
12
e0
e1
f1
fc
01
07
08
10
12
df
13
f0
f4
3c
16
10
f6
fd
08
08
ed
45
f8
0a
05
df
f1
e9
21
fd
02
f3
c4
0b
01
e7
fe
dc
ef
cd
d2
d8
2b
f7
cb
f0
d1
11
01
f1
d4
1b
16
f3
ef
f9
ff
e1
e2
f5
ec
fa
18
e7
f3
ef
ea
f9
1e
e0
16
bf
02
0f
05
0b
0b
f6
f1
fe
09
3e
ea
26
18
fa
f9
09
e8
f9
0a
ea
ea
0a
05
f3
fb
15
e4
2a
06
05
f0
e7
e6
e7
05
ff
fe
f5
c4
15
f4
ff
07
07
d6
31
15
eb
d4
e9
d4
f7
01
dd
df
fd
fd
db
f3
d3
0f
1e
de
e9
e3
07
fc
f3
46
eb
d8
d2
e2
f3
fd
dc
f0
10
0d
1b
13
0e
f2
fe
15
15
da
0f
e7
f7
d9
df
03
e0
10
01
04
10
04
0a
01
e1
0e
e7
00
f1
0f
e3
e2
0f
0d
01
11
d7
f3
fe
fd
d6
19
0e
29
0d
0c
09
c4
09
07
00
07
e9
d0
ed
06
0f
04
1c
fa
e1
f5
15
05
06
fa
f6
f8
e3
f6
05
07
b0
fb
be
f8
25
03
f7
f4
cd
d5
dc
1f
17
fd
e0
10
2a
09
27
ff
e8
11
0f
f9
df
0d
13
f9
ef
24
fa
02
0b
ea
04
17
0b
18
e1
fc
e4
fc
1c
0d
f8
00
19
0f
de
0a
ed
e2
f6
f2
06
ff
f4
f3
16
0c
e1
f2
0a
0a
f4
f1
1c
f0
ee
d4
18
ff
11
06
0c
e9
d5
2c
26
f4
21
fa
fd
c9
0e
fe
0c
1e
07
ea
51
0b
f2
e7
19
11
14
27
09
fb
37
27
24
1b
e2
e7
f4
e0
de
1c
12
01
2c
ef
37
fa
03
e6
1a
30
e7
04
d4
01
1f
eb
f7
25
e4
e6
f1
1b
0c
04
32
de
08
23
24
39
fa
e8
12
0c
1a
12
29
18
e1
d6
e8
e4
db
f4
eb
05
03
01
16
16
00
f8
fb
35
24
12
ee
0b
d4
e0
10
ed
0e
0e
18
1d
fc
e4
e5
cd
df
e5
ed
26
2b
1c
06
01
03
e6
cf
10
0a
06
fa
f3
01
f9
09
f6
e9
00
fc
02
1a
09
e8
df
0b
16
01
b2
02
29
0d
03
dc
33
db
c4
30
11
e9
00
f4
00
ec
ce
2e
fd
1d
0c
00
04
d5
0f
e7
04
eb
ef
d8
ff
fd
27
15
ea
da
37
21
f7
fc
19
07
fb
04
20
1b
29
11
2c
08
20
38
08
d2
f6
27
1f
04
0e
33
1e
05
07
ea
ec
23
eb
c8
03
f3
f5
f6
10
05
d4
25
e7
05
e6
db
26
0b
e6
f9
ef
e5
f8
1b
fa
ca
0c
f8
00
18
f4
29
24
de
e7
fb
16
e2
ea
f8
e8
1d
32
ee
0a
0e
16
fc
d5
ee
1b
22
fb
29
01
07
ff
d6
08
e4
14
e2
31
fe
49
0c
d7
18
e1
fa
f8
12
e7
2b
05
10
11
15
cd
0d
d6
03
1d
d6
e0
00
00
fd
f4
dd
f2
da
df
22
da
0d
e4
00
f3
06
1b
1e
11
f7
23
fc
19
30
16
1d
e6
30
f6
0a
e9
f1
15
eb
1e
f8
0c
ff
19
dc
12
00
e9
13
00
f6
ee
e6
f2
27
ee
fe
e9
f8
19
e3
e6
f4
fd
0b
e3
db
13
ef
07
16
2d
14
f6
d9
ed
e0
d3
f8
d2
de
05
e3
f0
f0
26
09
44
1a
04
0d
2a
f9
b6
e6
f9
1d
e2
dc
00
fd
22
24
14
f9
1b
ed
e6
ef
f7
11
e8
1f
fd
1d
18
ee
db
12
1a
12
e6
f3
30
21
10
dd
19
f9
17
fb
13
f8
08
f2
26
fe
04
e8
01
0b
27
fb
ff
02
18
0f
d6
f9
e7
11
cc
c5
e5
1f
e9
11
02
19
f9
0b
e3
06
11
f3
eb
eb
ce
0e
e2
e5
20
f7
bc
f2
10
03
f1
10
fd
0e
e4
12
fe
25
19
e1
d7
09
00
f2
ee
13
0b
15
f0
fc
e0
f9
dc
e9
f4
20
ef
ed
04
14
e1
08
fb
da
e9
0b
14
f4
de
ef
15
14
03
f1
f4
0d
1d
e7
dc
18
ab
fc
18
f7
08
fa
d9
e8
eb
fc
06
f4
f3
1e
41
d6
5d
e8
12
08
ea
1c
2b
ee
0d
f7
1e
d5
fb
e8
fc
0e
f9
0b
0c
20
bc
ef
03
ea
d8
ee
13
e8
eb
f5
0a
08
d5
ea
e4
d5
ed
fa
00
ed
39
17
fb
01
0f
e5
ec
03
d7
f2
1c
f5
01
06
32
21
03
f9
d8
10
ff
09
49
da
23
06
f3
de
04
22
1b
02
fa
14
1f
13
0f
0e
bc
0c
07
ff
05
e4
07
03
d8
e9
ec
ec
23
21
1c
06
21
df
1a
0f
f7
01
ed
fd
ea
36
df
07
0a
f1
dc
f4
fc
e9
07
fa
11
e6
0a
eb
15
db
02
fb
22
f6
f8
ee
01
fe
09
3f
17
c4
c8
fc
f2
f1
1a
00
ea
ff
1d
02
08
df
e8
ee
18
09
f1
d7
ef
1d
d9
0d
c8
0a
06
14
39
fc
04
23
f1
fc
06
ff
ef
d3
13
e3
d6
d0
1a
0b
f4
18
e7
1d
e7
e1
f6
07
fb
da
e2
1c
09
f1
2d
e3
36
e8
eb
1f
11
00
d5
ff
f9
16
12
24
1a
0b
e5
2a
0b
ea
0c
05
15
fb
17
f5
ff
1e
ed
2c
e1
11
14
f1
ff
f5
17
fa
18
1b
02
10
15
21
f2
2f
24
18
e6
f7
1c
dd
00
03
fd
f7
1d
ce
ed
08
fa
fd
eb
e1
e5
f7
10
d5
e1
06
db
df
fd
ec
0e
e7
0a
e8
fa
ef
eb
1c
06
33
fa
d3
29
11
12
db
0a
ff
03
01
d7
eb
f0
f6
e5
0b
d9
ff
12
1d
fd
e9
1e
f9
e4
ca
0b
ee
0f
11
05
13
02
23
d1
30
e5
17
e7
20
e8
00
ff
3b
f8
15
0a
f7
00
dc
bc
1a
0e
c6
f5
f5
f5
0a
29
2a
02
c6
fc
eb
2a
0b
1a
30
1a
f6
fc
ec
19
0d
f6
16
e0
f2
f0
fa
0e
28
dd
18
dd
16
08
30
20
f6
ed
22
e4
14
fa
fb
fc
e0
e3
04
26
0d
19
f0
05
25
1b
0c
09
0a
06
15
f3
06
ea
f8
fa
08
07
31
fb
38
f3
25
0b
25
04
16
ee
e7
26
00
16
0f
0c
24
3c
0c
f9
f7
f3
17
fe
fe
06
11
18
07
14
ec
0f
dd
f7
f4
04
19
1f
38
0e
eb
02
dd
f0
0f
f7
e9
18
f8
2d
f2
ef
19
19
ed
06
20
27
09
f0
ee
f5
ef
ee
e5
08
06
09
21
f7
d8
f4
f7
f8
f3
fb
02
f6
1a
f7
fb
fc
0e
12
00
13
eb
02
dd
fe
0d
fa
22
e6
fd
dc
f8
f0
0e
16
fe
03
e2
f8
eb
1b
37
eb
14
df
e5
0f
19
e8
f5
03
0f
d1
f1
11
cb
54
f8
e9
e9
df
ad
2d
b9
ca
ec
10
0e
18
e8
30
02
d7
07
f9
0a
fa
0c
f7
ed
2c
fd
f3
fc
0c
fc
ed
35
0e
01
f3
f5
e2
f3
02
fe
cf
2d
25
e2
e7
05
20
d2
d6
26
0a
ed
0c
dd
08
e0
21
09
d9
20
f0
0e
fc
11
fa
3a
09
ff
24
f9
f5
36
f4
1f
08
2d
ea
04
e1
dc
18
03
04
e4
ef
ff
01
00
f1
09
fc
09
02
2b
e7
0b
ce
02
fe
f9
0e
df
f8
29
00
01
3a
04
16
02
25
0b
f7
fc
1a
05
1b
19
03
f5
1f
d9
fa
e4
f0
13
0a
03
08
14
24
16
19
1f
2b
ff
25
0f
0d
22
1f
ee
10
1c
e9
e6
0e
c1
0a
f9
fa
f4
2a
ff
25
f3
02
0b
1c
fe
02
e1
0a
11
0d
0d
0d
18
f0
1a
0f
f7
ed
02
17
17
f3
1b
e8
0a
28
f6
fa
e6
02
04
29
1c
fd
0b
e7
1e
11
04
fd
d6
15
f8
fa
26
09
e4
fd
16
d7
f7
39
00
04
fd
ec
dc
16
f5
1e
fe
e5
e3
1b
f7
04
1f
25
0a
0c
e9
e1
10
1c
f3
06
e1
e4
37
0b
de
0c
dd
36
06
1b
ed
2a
04
e9
eb
19
04
22
e0
0a
fd
11
00
de
f1
02
36
19
11
1c
20
15
0a
d3
ff
0f
fb
01
f6
2c
06
0a
fa
06
e1
03
f2
ed
11
f2
e4
f0
f9
f6
db
d6
15
2e
ff
0d
ff
0a
ed
eb
31
dc
f9
04
12
c6
ed
fd
0f
13
db
1e
e6
fe
21
1e
eb
e2
c9
12
29
f9
f5
ff
0d
06
22
1c
44
f6
d9
04
0d
fa
0c
25
ed
0d
13
13
f0
0d
03
eb
2e
f1
ff
d6
28
2d
13
ff
f8
dd
e7
f3
11
dd
09
e8
24
f1
e1
11
d0
0d
10
17
0d
18
f3
f9
2a
1b
e1
0b
f8
f5
ef
d9
ee
f8
db
f4
0e
f3
ed
e9
34
e1
0c
2a
e9
0f
1b
15
f2
f8
0f
e8
de
02
ff
0a
26
fc
e9
18
f6
0c
17
03
22
ef
e5
d1
09
ea
ec
f2
09
e8
d8
e5
cb
fe
0c
e0
fd
1e
0d
0a
eb
df
e0
e8
eb
0a
ec
08
18
10
fe
24
f6
20
1c
0d
e7
f7
fe
1a
1a
fe
03
d9
f8
f3
f5
ea
fc
08
0d
d8
ef
ea
1b
f6
fc
3a
e8
1d
f4
f7
28
fd
dc
02
0c
09
08
f0
f1
e4
0e
14
ec
2f
18
d3
fb
1b
01
e7
e8
11
ec
16
fc
10
1d
d8
12
ec
12
1c
f4
01
14
db
f6
de
f6
13
fc
f4
2d
eb
e3
11
f3
18
fb
f4
0a
27
27
e0
15
1a
14
f7
02
20
03
ea
e9
cf
d9
2b
df
d1
29
20
1f
f9
11
16
e1
0a
e5
fa
04
ea
11
2a
fd
d5
06
0e
da
ea
32
e8
38
1b
07
17
00
39
f4
0c
ff
14
e2
05
1b
e0
dc
fd
e6
11
eb
ed
19
e4
1c
09
23
2d
f2
f5
ea
e6
d8
f2
f6
dc
08
05
02
fb
02
0b
ec
de
dd
0e
f3
15
15
e2
fe
f6
35
1e
17
16
2a
ee
fc
05
12
ff
2a
03
04
04
2a
e9
00
1b
03
f3
ea
e2
09
1b
ef
08
37
f3
2e
09
e9
bd
dc
f9
ca
01
f8
26
e7
0b
27
03
f0
19
ff
b0
e2
08
f2
e1
ea
10
f7
e5
e2
2c
02
fc
e4
10
00
25
e5
f9
f3
0f
fd
f5
16
05
fa
0d
d0
d9
0e
ec
f1
37
f3
fe
06
c4
ff
17
ee
00
e9
02
11
d4
f1
ed
e4
ed
eb
0c
0d
04
f2
f0
2b
20
f9
f4
ed
1f
1a
d1
1a
2a
ef
e1
ef
04
fb
bb
0f
38
f9
e0
e3
e2
01
e1
15
fc
dc
e3
41
08
fa
f4
23
fe
f1
0b
12
0e
e7
fa
1b
17
d4
f5
1d
21
ea
07
f3
fe
0f
11
09
d3
f3
2d
e7
15
05
22
0a
29
07
24
f5
15
fd
1a
0b
15
ef
1f
09
e3
09
19
cb
fc
0e
e1
09
e8
d7
eb
0e
1a
e9
f3
11
d4
e5
04
fa
42
f1
dd
fa
e7
f9
ff
12
21
f9
fc
d3
d8
19
28
1e
08
de
da
0c
f4
ff
e7
21
13
2a
25
c6
eb
ff
10
dc
e7
12
19
3e
0e
04
db
33
1b
18
0c
03
f0
f9
08
1a
0f
11
28
ff
02
12
25
0a
f5
0e
ed
04
f5
13
f3
fa
f7
02
22
1a
17
e6
0e
fe
03
f1
21
dd
01
d6
df
03
0c
34
fb
25
0c
ef
e0
03
f3
35
fe
fc
31
10
ee
0d
ff
24
cc
02
ff
03
27
0a
1e
1d
c8
08
20
16
eb
d1
f0
fc
e4
f6
1f
0d
30
0a
c8
0e
ef
f7
e9
0f
fb
34
02
f1
1f
ed
bd
07
22
69
fd
0c
e4
32
f8
f1
1c
15
04
df
ea
18
2d
ee
05
10
d7
e5
02
d4
f3
ef
f1
35
15
fb
0f
f5
06
0e
ea
0b
10
ea
18
f5
f0
2e
d0
01
39
da
e4
05
e2
ec
22
e6
e5
0f
fc
2d
27
28
14
02
f7
f2
2a
f9
05
05
14
f6
ed
e9
0f
12
0f
2d
13
02
05
f4
22
05
15
f2
22
b6
13
10
e8
1c
25
f9
00
16
f4
04
e3
25
2b
12
2b
f5
0f
ef
db
fa
08
f1
fa
17
19
0d
33
e6
1f
00
fb
f9
05
df
24
ee
13
29
fc
f6
ed
25
db
1d
19
d3
c8
24
fb
f2
0a
f5
28
ea
19
f8
f8
fb
0c
f8
ee
f7
07
1a
07
01
0a
1c
f8
27
05
e7
18
fa
03
f9
12
17
eb
da
2b
01
07
d1
19
ef
00
ef
2a
2b
1a
f1
01
ed
e7
03
ce
f8
12
2f
0c
06
f6
e0
ec
0e
0d
1b
ef
35
e5
04
01
1f
22
18
19
48
dc
22
fb
08
f4
fa
0f
10
30
00
f6
1b
05
f6
05
f0
e5
f8
e9
f0
08
a8
1e
fe
f9
1a
cf
de
df
f0
f0
21
f0
ef
f6
e9
fb
05
11
e9
1c
fd
32
f6
de
fb
03
e9
15
13
f3
05
e9
f9
e8
20
22
0a
1b
e7
f6
0c
09
fe
bf
0c
0b
bc
29
01
f0
12
09
f2
e9
e3
ff
2a
e4
f6
2a
19
1e
1f
20
29
15
f9
f6
da
ee
f5
da
f5
1a
fe
0c
fd
17
05
f6
e5
f6
ec
2c
fc
0e
fb
e9
36
06
eb
fd
0d
fd
e4
e2
f4
ef
15
fb
e6
f4
0c
02
f9
0b
c4
f8
f9
19
fd
f0
f9
0e
fa
1f
f7
1e
0d
d7
09
34
10
f1
f2
fa
ea
f6
46
f2
c8
ca
fa
fb
e8
13
f2
fd
e5
1f
05
f2
07
11
ec
47
29
11
fb
08
18
0f
1e
f4
eb
13
06
e9
12
ee
3c
ff
f1
19
fe
21
2f
1c
dc
dd
d2
dd
ee
fe
16
0a
12
1b
11
1d
f6
f0
15
dd
e5
d2
dc
1e
19
fd
ef
f8
03
00
15
00
00
e6
eb
13
f3
db
fe
f3
e0
ff
01
da
d6
f4
e4
24
f2
03
21
08
10
06
38
e7
f9
f5
01
f5
ef
f0
1c
db
0a
18
12
0f
da
f8
f3
03
dc
e1
e3
0d
19
18
f4
05
fd
f2
e4
07
fd
30
21
f7
0b
2a
be
11
1d
f0
f3
1a
0b
08
02
e4
43
c5
03
16
29
f4
0e
1e
00
09
36
e1
dd
04
e5
f7
11
0f
d9
25
25
e4
10
14
e9
2c
c0
09
c6
02
2f
fb
0b
c4
01
35
40
fb
00
46
e9
11
41
ff
e6
ee
17
00
27
17
07
fd
d8
33
f6
e8
ea
ec
07
03
f2
ec
ec
ed
08
02
fb
1e
0d
fd
e8
22
03
fc
19
de
07
00
17
17
05
c6
f3
ee
21
ee
e4
22
0d
2c
1a
2a
0a
d1
22
f1
f6
17
09
f6
2a
f7
ff
02
04
e9
29
e0
f7
b8
c2
95
ee
b8
e0
dc
2f
24
f3
0c
38
d3
07
ee
2d
00
2b
e9
03
fd
d2
e2
1c
db
0c
25
09
10
ff
d4
eb
0d
f2
2f
11
14
e9
1a
03
e8
0f
0c
17
00
e4
04
0e
f0
ee
e5
06
05
41
0a
e8
19
ee
1b
30
2b
18
e8
28
ec
14
08
12
1b
25
09
0e
e1
3d
f4
ff
e3
f8
f6
19
fe
11
e8
1c
da
fd
09
f5
10
d4
23
1b
e9
f3
d1
e0
f5
23
0e
20
d6
01
03
0a
f8
f8
e9
0a
e8
14
08
f7
0b
37
f9
ee
04
e2
18
f8
25
23
14
ec
05
fb
f3
0b
0d
da
e9
0f
c4
0b
0e
db
00
02
dd
da
15
eb
10
0c
28
37
09
05
1f
00
eb
11
f9
d8
3e
04
1b
f5
e4
e9
f9
20
09
ff
f5
da
e2
13
f1
09
16
fe
05
10
d2
ea
c3
fa
f6
0d
00
17
f5
e6
d9
c2
25
0c
00
2d
0c
31
f4
d5
14
0a
e0
ef
ee
f0
f3
f1
fa
1f
fc
28
c7
07
01
1d
ef
ba
f9
13
10
0c
d7
0d
fa
36
20
0a
fa
01
1e
22
ef
d2
ef
08
04
ed
0f
21
11
1f
e4
0a
ef
f0
18
be
fd
11
f9
04
0a
dd
1f
01
fd
0f
fc
f3
c7
de
b6
04
04
e4
e9
f4
0f
db
10
13
0f
f4
d4
b1
d3
f2
18
0d
38
1b
20
13
df
d8
f5
f1
28
28
0a
fd
df
0b
e6
1a
06
04
f3
fe
f9
fb
f8
0a
01
12
fb
f8
ec
df
04
f2
f3
05
17
25
f0
f3
02
15
f1
d3
23
f4
25
f4
f9
f2
11
0e
e5
08
0d
1a
fa
dc
0a
08
ee
e5
34
ed
f6
1a
e8
1d
e9
01
19
f8
01
20
0b
de
18
00
0f
05
05
13
ec
eb
de
03
16
ff
f9
f7
2a
19
14
fd
de
f1
05
0d
fa
e5
0e
08
d8
f0
13
0d
07
f3
11
f3
ec
0b
ce
e8
fc
ef
0e
ea
0e
e1
0e
4e
29
01
e3
24
da
d5
17
ff
f7
04
f9
d0
e2
12
ed
fa
f5
df
d4
11
17
14
1c
13
05
f3
2f
1e
ff
1c
25
01
00
17
ef
ed
f5
03
03
f9
e8
fb
08
fe
10
06
ef
3c
07
25
13
fd
18
0f
ff
f9
2a
f1
e8
01
eb
1d
27
e2
14
ee
f0
dc
15
e6
15
1c
05
05
01
ce
01
0a
05
05
e3
16
ec
1d
fb
ec
eb
f2
e4
eb
f2
03
e0
24
03
08
e7
03
35
dc
03
ea
d8
d1
17
e6
14
14
fe
0b
f1
e9
1e
12
27
02
1f
0e
fa
21
21
f9
e7
e7
f7
f0
ff
0e
0b
27
28
10
08
25
13
1a
01
f2
10
fc
12
09
fb
ef
13
0c
1c
ef
16
ec
f4
21
08
f6
28
ec
fb
ee
06
04
f9
d5
e1
2f
03
1a
1c
dd
02
02
d3
17
df
e1
17
3a
d8
d8
0c
ef
01
1e
ee
23
03
23
f5
e4
1d
f7
ff
fd
2d
1c
08
15
12
0d
0b
e8
0b
e7
06
f8
dc
1b
1b
fc
12
10
f7
16
2b
b8
f9
fd
18
08
fd
14
0d
0e
db
fd
1d
e6
0d
0d
eb
ea
1c
f2
ed
fc
2e
c8
16
d5
e5
03
da
ef
fa
25
0b
1b
f8
00
0c
f9
d6
0a
e6
e6
f9
fc
34
df
05
11
06
0d
23
fc
04
0a
07
35
09
e0
01
42
e9
20
fb
01
12
db
d7
0f
3b
28
04
13
ef
d2
fb
fb
ee
e9
0c
ee
27
20
02
04
ee
f9
14
23
fb
a8
fd
27
01
0d
f5
cc
fe
03
f6
d8
1d
0b
de
26
12
0e
f3
15
e7
0c
f7
20
f3
11
01
14
f4
1b
12
0a
fe
f4
f3
06
fd
0d
e0
0b
ff
01
da
e2
15
e7
db
22
ee
08
27
ef
f5
10
e5
db
ef
00
0f
0f
1a
02
f9
f6
09
1a
da
11
f2
f5
fd
05
fb
eb
17
3d
0f
20
ec
cc
11
e6
eb
04
0f
09
58
e7
f1
0b
d7
f1
00
1e
09
f5
d8
f1
20
e6
db
f3
0f
14
0a
28
00
2a
04
d3
f2
f0
18
f6
e7
f6
08
11
0f
0e
fb
f1
2a
e9
0f
0e
eb
c8
1f
dd
de
0a
ff
ee
e9
0a
27
da
ef
15
fe
1d
fc
f0
0a
11
09
ef
df
02
00
bf
4e
c6
fb
1c
05
f5
eb
da
f8
20
1a
01
1e
ef
f2
f4
e9
0e
f8
03
fd
13
17
37
d6
44
35
fb
17
18
f2
08
ec
f5
08
f0
fa
0c
fe
d9
0c
06
f7
0e
0f
f8
18
0a
0e
e8
dc
09
fc
d3
fc
df
2c
09
df
09
f4
e0
13
14
0a
25
e4
09
fb
0d
ed
2d
eb
39
f6
2c
0b
eb
fa
f7
0d
18
33
0a
f6
32
05
1d
00
fb
e1
fc
0c
e0
0c
eb
fd
06
38
22
24
30
23
d7
0d
f3
05
e7
22
0f
e1
f9
11
f5
10
25
2d
0b
fd
c3
17
15
1b
f1
fb
f3
ed
0a
0b
06
ee
ff
12
fa
ec
07
03
ec
f3
09
0d
1a
ea
19
01
dd
bf
fc
f9
c1
e5
0b
09
09
09
2a
f2
d8
02
10
fe
03
ec
31
0e
10
04
e3
ed
da
e0
31
ec
08
fd
01
e0
c2
0b
0e
e8
fe
22
14
2a
01
0c
ff
17
d8
00
18
0d
0f
e8
f4
01
fc
e5
1c
13
f8
04
15
0f
1b
08
0f
08
10
07
f5
fe
06
03
00
02
f9
12
fc
0d
05
f3
00
03
df
d1
f5
45
15
f4
03
12
ea
1c
dc
14
19
0c
d7
fc
f4
f0
f1
0b
03
f8
1c
f7
fb
f8
13
0b
e0
ff
05
03
f6
13
1d
f1
fb
f4
f8
ef
fb
fa
fb
fb
eb
01
00
08
f5
16
09
f2
01
f6
dd
f8
0a
0f
f3
03
f8
07
1a
f1
f9
10
03
fb
ee
00
08
05
02
fb
1b
09
fe
f4
fb
0d
e6
ea
f8
f8
08
f7
0b
e7
08
12
04
09
f8
fc
01
09
d6
c9
14
0a
fb
0c
fb
04
00
05
ec
fe
d3
f9
03
00
e7
00
fc
d0
22
f7
f1
f2
0a
0b
05
0f
fd
f4
06
fb
e6
fe
d4
db
4b
13
f7
f9
d6
0f
e9
ef
26
d5
f1
f5
fe
29
1a
f1
19
f8
f5
dc
bb
fb
ed
c4
fc
03
b3
0f
e0
d7
02
31
23
33
f0
16
0e
17
fb
18
fd
1a
ef
f2
0f
b7
cf
f8
2d
f9
2c
05
2d
0f
23
f8
12
02
d3
16
e6
16
11
15
18
30
f1
f0
2c
0f
e0
cb
1e
00
fb
03
ea
0c
02
32
0d
0c
63
cb
0d
bd
0c
fd
08
1d
c8
f8
36
12
1a
fc
fd
05
05
17
e2
01
12
d2
13
00
f5
de
f2
f9
de
1a
f7
ea
fc
c8
e2
d9
f5
07
1d
14
f0
d3
e6
2f
1d
e8
08
1e
11
20
f7
ff
1f
04
13
f6
d1
06
fe
26
e8
fd
fd
0c
ea
fd
e2
fe
16
0b
fe
df
fb
f3
02
dc
2a
f7
08
30
e2
de
d8
10
10
0b
c3
f8
14
fb
07
0a
e0
f9
d6
ff
ed
f6
06
38
2e
ef
e5
01
f4
10
e7
e9
e8
fa
0e
ef
f5
02
e9
08
fc
e4
ee
e7
1a
ea
05
fd
15
0c
00
12
f1
2c
cc
e4
1a
13
fb
0e
1b
19
ca
3a
f2
26
1c
dc
fa
00
22
f7
1d
05
2f
1b
f6
f9
f4
ff
03
25
ea
22
f8
e3
11
e8
04
f9
fc
26
0f
02
e8
f4
03
0d
0f
1b
e3
9f
17
05
c6
1a
0b
f1
e7
ef
11
18
d7
23
27
1b
09
f3
f0
00
bf
12
14
20
de
f0
f5
f1
f2
e9
19
f4
f9
25
ed
cf
09
0a
1f
15
d6
ea
e9
1d
16
13
da
0f
e3
44
d9
e3
0e
e8
0d
d9
00
20
f7
09
05
f9
d9
e8
f9
e4
12
04
d4
f7
3a
00
e4
00
25
02
fd
07
1c
18
0f
25
01
0e
d5
26
0d
0d
1a
25
f3
06
00
e9
cc
fc
21
32
23
ee
c1
ed
fe
dd
0c
1e
03
f6
04
e8
f0
01
1c
bb
f0
fc
fd
f6
01
fd
05
f9
e1
da
ff
f5
02
f6
19
39
1c
19
fb
c2
f5
1d
2a
ea
f2
e3
1c
05
05
e1
05
fa
d8
fe
f1
0a
ce
37
f9
0a
09
f8
07
f9
ff
01
f8
f9
fa
c4
09
13
0c
b6
04
ef
10
3a
34
f3
0c
dc
04
02
f9
02
e5
0b
e1
15
ef
18
0c
1e
ef
08
12
42
f9
f9
25
1a
05
e9
0b
e5
0e
0b
29
f3
01
f2
e7
eb
5b
fe
df
03
e8
cb
f0
16
0a
c7
fb
06
ac
f8
fd
fb
c9
fc
da
0a
fc
1c
36
da
d5
d4
ec
04
d7
f2
da
16
0f
38
f7
0d
12
04
f0
d7
eb
f5
29
ce
03
26
20
06
cc
25
d3
1d
ec
da
fa
1c
fd
cc
f4
cf
fc
33
11
e3
e8
1e
cc
07
04
0c
02
2b
d5
3e
07
07
fd
24
f4
fa
4a
d9
f7
bd
fa
1e
fe
e5
0f
0f
c8
e2
2f
e5
32
2a
fc
07
9a
e6
f9
f5
f4
41
07
13
fc
f0
f1
c5
2d
ea
06
f9
06
0b
ee
34
0f
22
cb
15
fd
0a
d2
25
23
0a
eb
13
ec
ec
36
af
f7
cd
0d
2c
d9
0d
ff
ff
40
16
09
1a
0e
f4
f0
c2
e1
e8
da
0d
0f
f5
05
00
0c
01
e4
0a
fa
d5
e3
20
ea
21
1c
fe
f1
08
0b
11
18
21
ca
e8
d0
0d
0d
f2
f7
07
11
21
0a
0b
20
ca
d8
1e
ec
e5
02
fe
fd
de
08
ff
2a
2c
f3
c7
f0
dc
12
f5
01
10
fa
21
19
2a
00
fe
ce
f3
23
df
13
ef
18
13
12
29
ff
ff
34
fd
15
f9
d9
0c
1b
0d
36
11
33
0f
21
3b
fd
22
0d
f8
d4
fd
0b
29
f6
0a
0e
e9
e5
1f
e8
20
ef
d8
fc
f6
00
3a
0d
2b
cd
ed
dd
ed
22
ff
f9
11
f6
04
fe
32
05
e9
46
0f
f2
e9
15
d0
c5
12
3b
d0
f1
fd
f2
25
f8
f5
fa
14
01
0e
03
19
f3
e3
23
03
ff
1f
05
f9
e3
fa
18
0e
10
de
d1
31
12
ef
d6
0b
e5
f2
29
dc
fa
18
f5
15
eb
1c
f1
f2
1f
29
ec
0e
03
e9
fc
14
15
0a
e2
16
ed
ff
0c
d2
2d
19
ce
ef
e1
13
c2
06
de
2b
23
11
1d
06
06
ea
0c
f7
de
1b
cf
c6
ea
19
03
08
f6
2c
01
07
e3
06
20
14
12
01
4a
f3
04
09
3c
fa
c9
18
0a
e4
fd
c0
f1
03
29
1e
f5
ff
ee
0e
12
16
db
0b
e7
fa
fd
0a
04
06
f0
dd
f0
16
19
fc
21
f7
1b
e8
1f
ea
de
f6
12
0a
0b
5b
ec
15
d9
e7
e0
17
0a
fe
dd
b1
fb
fc
05
44
f4
2a
f1
33
03
37
eb
f1
0f
19
ca
28
17
0c
0f
07
ee
e8
0b
f6
03
15
ee
05
07
00
1d
4d
0a
30
33
03
17
35
f6
f9
3a
34
d2
eb
14
e5
0d
d8
05
ff
0a
d5
08
2b
19
0c
10
ea
06
da
21
eb
c3
f5
f0
c7
36
b8
f0
11
eb
18
ca
dd
e0
2f
f5
1c
03
03
1d
0f
03
17
2b
22
00
f7
00
fd
0b
0c
e5
09
1c
fc
05
ee
0b
03
11
ec
01
fe
0a
fa
03
09
ee
fe
11
e1
ef
e1
49
14
12
db
f7
07
f6
0e
d0
0f
08
d4
fa
e7
03
09
2c
f5
03
e3
f8
11
03
ce
f5
fa
fb
ee
eb
f6
30
13
f5
09
f7
ef
07
0b
08
d4
d5
0e
1f
e7
0a
e8
0d
0f
10
da
df
f1
f3
fa
29
f6
03
14
13
e0
27
0e
0a
0c
0a
0f
f9
14
dd
0f
19
eb
0b
e2
d8
e7
15
10
18
1f
ff
d8
28
da
f6
f3
fe
05
f6
e4
f3
d1
16
2e
08
ee
21
d9
2e
26
f7
d6
05
14
f5
2c
1f
10
ff
24
f5
07
2c
10
30
e3
11
0f
05
06
e8
17
01
07
c6
d3
d8
e7
df
dd
e1
40
1b
f3
c7
e7
15
2c
0b
0c
f2
fb
02
e2
f9
fc
f0
f8
03
ff
fa
fc
ef
03
f2
e0
06
22
02
14
00
0c
0d
05
ea
e4
1c
e5
20
f6
f9
05
0b
fa
f9
d4
f4
da
ee
22
17
e7
0e
24
f2
0a
fa
e7
1e
09
f9
fe
e5
e8
10
e5
ed
e8
f3
e6
fa
15
00
28
1e
d9
0e
ff
e7
f7
07
16
34
3c
f3
08
da
21
0d
f1
0f
ea
09
fc
de
e0
13
1e
0f
fa
fc
ea
e9
f8
0c
0b
f9
16
e6
ee
18
fe
08
f5
f8
fe
f2
13
17
e2
13
0e
0b
3b
15
f5
25
2a
01
0f
17
07
e3
ef
0c
d3
3a
08
f8
f0
e8
f8
fe
f9
e2
dd
e2
e6
25
eb
e7
f7
f9
dc
12
07
1c
e9
06
fc
0a
f6
0b
10
f6
08
ef
13
12
0d
05
ec
e6
dc
ec
00
10
fe
e1
16
d3
25
09
32
09
03
07
02
07
0c
f4
10
21
05
e9
06
fd
e9
27
0a
03
f6
c1
22
00
1b
ce
ff
22
f8
00
db
fd
3f
28
20
1f
16
ef
f4
05
f4
ef
fa
11
f9
fb
f3
40
02
f8
06
2a
fb
00
1b
da
32
fc
f7
0f
0c
e1
0e
e6
f7
e7
0e
00
01
0e
e9
d3
c6
1d
fa
07
fc
d3
1e
53
f1
26
05
0b
fd
f2
1c
15
10
d4
fe
ef
f5
28
0a
f0
0c
f6
07
24
e7
e9
e0
e3
26
f2
d8
25
1f
00
16
15
fc
0a
2b
05
1f
d4
f5
f9
ff
e4
2c
14
e9
04
f5
de
1e
fd
0b
eb
1a
10
e2
26
f2
0f
e1
0e
ee
df
f5
53
1b
1b
2e
f8
f6
b7
12
eb
18
fa
ec
39
09
00
33
20
0c
fd
fa
ec
0b
f0
f0
26
fa
12
dc
10
1b
2b
1c
15
38
fc
ee
fc
f3
f4
20
f8
2e
10
fd
fb
0f
01
fc
1a
fe
d5
f2
fb
14
01
01
21
f8
e3
0c
e9
1b
f1
fe
27
ef
df
e0
e1
cd
04
f7
ed
02
f2
14
0e
fc
cf
04
00
09
1c
d8
0e
f6
fc
ed
f9
21
0c
0f
0f
02
07
1a
2a
de
2c
1d
17
c9
0b
e3
eb
15
04
03
ed
1e
00
d0
21
f1
1b
ff
e2
2e
40
cc
f8
e9
22
eb
ea
f1
f5
0e
f7
06
07
fa
ff
1d
fc
0f
fd
13
fa
c6
0c
d2
fd
f1
1c
29
e9
05
3d
dd
dc
cc
eb
0b
e2
f6
d1
dd
07
2a
d2
1c
1e
0e
e7
e6
e4
2b
32
fd
d2
0b
f2
f7
fa
1b
0d
f8
d3
0e
dd
df
08
f3
21
48
eb
0f
c5
17
e3
0b
d9
e5
07
16
fc
fc
13
ea
13
06
11
19
1b
f2
10
31
e3
b9
1b
ce
f8
0c
1e
f6
12
09
f7
11
ed
1a
24
1d
14
f6
f1
d8
e8
fa
04
2e
0f
f7
0d
21
0b
bf
e5
10
02
21
f3
03
18
f8
e1
06
f2
14
03
e1
f2
06
22
fd
fe
dd
11
1e
fb
07
dd
2c
ed
ea
27
3d
11
fe
cf
2e
11
ea
33
c7
19
20
ef
1b
0d
0a
f0
f6
de
eb
03
fd
14
f9
ed
f4
df
e5
f8
eb
fb
15
17
1a
e8
ec
31
f9
19
fb
d6
f2
02
13
29
de
01
de
14
ee
18
0d
0e
21
01
e1
fd
10
1f
cb
e1
09
03
f4
e7
f5
29
e6
15
e7
22
f6
0c
16
be
f4
21
e2
df
f9
e0
da
18
0c
f7
d7
12
f3
d9
0b
13
f1
f2
32
f1
15
fa
06
23
de
f1
14
09
07
2c
f4
fd
cf
cc
de
16
0a
11
01
fb
fa
00
fd
b4
fd
1e
e5
d6
fa
2a
31
19
fc
ea
e5
2c
c6
da
f8
18
d7
32
36
d7
0e
e6
fb
fe
f7
ff
3a
ed
21
10
10
ea
d6
ed
ff
fb
e2
f0
45
10
ed
e4
ee
18
f5
0e
f8
e1
03
fd
ef
da
0d
f0
0c
00
f9
16
1b
31
d6
01
15
22
0f
16
07
ef
f3
e4
fb
ef
e5
d4
ee
0c
dc
ff
e4
dd
d4
3d
05
33
14
47
16
fb
10
00
cc
34
14
3f
03
f7
10
e6
01
ee
f3
f9
0a
1e
13
1b
e9
ea
25
f5
f6
10
24
fd
07
f9
09
0d
12
f6
1a
13
23
f6
f7
f0
11
0a
e8
1d
0d
13
1c
f9
02
0c
fd
f0
f0
e8
da
14
f9
fa
0c
25
f9
2d
0f
ed
f6
05
14
21
e3
f9
01
31
f3
0f
1b
07
f6
1e
f4
18
04
ee
e5
ec
09
0d
30
02
e9
d5
0c
0d
09
f8
30
e6
0f
f3
12
21
16
0e
2e
eb
07
0d
db
09
fe
3b
03
f3
f4
02
16
1f
d8
e4
e0
fc
ff
04
44
06
ec
04
03
ed
e5
ee
0f
e4
00
35
37
b5
0c
09
03
11
f6
04
0e
0e
30
f5
06
0f
d7
03
ff
0d
c6
f7
ef
ed
13
fd
01
f4
ff
eb
f2
eb
fa
1a
e1
e8
1b
26
14
25
ec
16
08
20
03
21
06
10
36
15
28
16
1f
d8
d1
d2
20
e1
17
07
08
08
f0
fd
e6
fa
01
f7
fe
e8
21
13
10
08
e6
e3
01
e7
03
17
07
f4
0a
07
09
17
0c
0a
f2
02
10
09
d6
19
3a
37
cf
00
ff
01
3d
f6
03
d9
36
eb
00
04
f2
06
0a
ff
e6
09
0d
e4
00
10
01
f9
0c
fc
e1
0b
ee
07
f7
e3
f5
08
e8
0e
ea
07
18
ea
fd
00
02
e9
ff
24
01
06
13
00
24
ef
fe
01
08
02
04
14
ef
07
01
f7
f3
11
02
0c
fd
fc
09
f3
f1
0c
12
ee
eb
13
f6
fa
e9
31
13
e7
f2
1e
ef
ff
d6
1b
05
d6
fe
dd
f6
ef
24
19
06
f2
ff
e4
00
08
02
24
0d
e6
f7
04
06
17
16
11
cd
09
1c
eb
f7
e5
1f
1b
ec
ee
e2
ff
f1
1b
e8
11
f1
ed
f1
f1
f5
12
23
40
29
24
0a
f2
05
e3
ed
fd
03
ef
02
18
32
39
fd
fc
27
f8
08
e6
ea
fa
19
e5
02
f4
e5
0c
fc
25
eb
0e
1a
00
df
e7
33
ed
41
f8
f7
e6
18
18
ed
de
f2
fb
e5
f7
d0
11
0b
d0
f4
10
db
1c
01
fd
27
14
e4
cb
ef
ed
f2
2d
ef
cb
f1
1e
f9
df
dc
22
18
e1
e8
d8
dc
1f
ba
08
d2
09
e8
ee
f7
26
fb
f7
05
e3
26
f0
e8
fc
e5
fa
e5
ff
17
e5
01
f5
26
fc
0c
10
b6
11
03
03
30
0e
f4
2f
fb
07
fb
14
35
1f
fb
30
ef
08
1c
f7
e9
19
ed
f2
04
e4
f7
fc
11
cb
f1
f2
0a
f2
17
1a
02
2e
e8
f9
03
fa
14
e7
ee
22
f2
f7
f3
01
1c
26
fa
17
e3
dc
07
fd
05
03
09
00
07
f4
0d
0f
03
f6
19
2e
f9
f0
22
2e
e1
16
e4
f6
f3
21
06
00
f5
28
fb
08
1a
1b
07
e5
e9
0f
fe
f6
21
cd
e6
0c
10
f0
16
c6
d8
f4
f6
f9
09
d6
fc
dd
0c
02
06
f3
fb
fd
ca
02
19
f7
d5
f1
e7
0f
1c
e5
fb
fe
00
eb
f3
da
dc
18
20
14
17
e7
25
12
f2
ee
1f
04
fd
29
1a
25
df
f8
09
e7
04
d8
e9
0a
f6
d0
ef
fe
ee
08
02
e9
dd
16
f2
bf
e6
19
ff
e6
f1
06
19
01
1c
fc
03
0d
f7
3b
38
04
25
1d
31
14
d2
de
01
ce
05
e9
e3
f1
1a
f2
ff
e4
f0
2b
e9
ec
0b
25
2b
f1
14
fb
0a
18
fa
21
01
fa
f4
ff
c3
0f
ea
22
d7
07
11
1b
d8
0a
eb
04
02
0a
fc
ec
ce
ee
e6
09
1c
0f
0a
e3
e0
e1
0e
05
1a
f1
d1
0a
f4
fc
f0
02
ef
0c
10
09
d4
d4
f1
ef
0b
1c
25
18
2c
d9
10
07
01
2f
07
28
d4
28
f7
e4
27
0f
2d
02
0c
11
e3
20
d1
d5
ea
29
06
f2
17
0d
e9
d2
e9
14
fa
f7
28
05
e0
f0
fd
e0
27
f4
f4
fe
14
0a
18
df
2e
1e
28
f1
0f
f8
f9
1f
33
0f
ee
24
1e
11
f9
1d
13
08
e3
ee
f9
01
2b
0b
02
d7
f2
e6
09
0f
15
f2
14
e0
e2
29
f4
1f
05
e5
0a
43
f7
09
38
03
f3
19
f8
ec
f3
e6
04
fe
f2
0b
2a
e6
2b
28
fe
13
fb
14
c8
1c
dc
36
0a
2f
1b
1b
14
11
32
07
2a
e6
19
0f
06
e2
fd
e4
12
15
37
0a
fd
f1
ee
1c
20
d6
fc
26
01
07
e7
22
08
fb
37
ff
fb
0e
06
e1
fd
e1
fc
1e
fe
da
04
0a
02
fa
f4
cf
f2
11
21
bf
f4
e6
04
01
1e
14
fd
f0
df
e3
08
fe
0d
23
0e
f3
17
04
e1
12
ff
0e
fa
ee
fa
07
0f
fc
ef
fe
ec
fb
f7
13
0a
fa
0a
dd
ea
e5
06
1c
0f
ea
26
31
f3
0e
2c
f3
ec
0f
d4
e6
e5
ed
fc
dd
ee
e3
14
ed
06
ef
02
00
e5
f7
ac
f0
db
0c
1c
d5
fb
00
1d
fa
04
03
fc
e4
ff
fc
27
e9
21
2e
1b
ee
05
02
24
f2
e5
17
f7
cb
06
15
1f
f1
07
f4
28
06
ea
0c
ee
fb
07
1a
1d
fb
f8
12
fb
fa
12
03
1b
fe
e2
00
f2
1a
ef
10
d8
df
0f
21
f8
1f
02
02
d8
f8
2e
f1
f6
ef
14
08
01
f0
13
d8
f6
ec
d3
37
f5
0b
f9
d7
fe
f8
fc
2b
e2
eb
0e
f7
f5
0b
eb
42
da
e2
e2
08
e5
0c
f4
fb
fd
36
0f
ec
fa
09
bf
09
06
fe
0e
38
00
01
13
ff
ec
0f
0d
ec
02
0c
19
1d
2d
1a
ed
ff
01
03
24
ed
ee
14
01
e7
dd
0d
05
b9
fd
01
03
2c
0e
04
20
03
2c
03
2d
18
f3
e7
e3
01
fb
0d
ea
01
f8
ec
ef
f8
07
0f
f8
fe
21
de
f9
eb
04
ff
07
fd
fd
e2
ff
07
0c
f4
08
02
f9
11
03
ee
00
de
17
ed
ef
0f
fa
1a
06
07
ef
e7
e7
f3
28
05
11
f4
fe
2c
bd
d5
11
f1
fe
00
00
e9
d9
f5
fc
e9
20
e8
06
fc
fc
f8
0f
1d
1f
f5
05
17
00
06
0a
ed
1f
f9
13
f5
dd
1b
e1
14
fc
de
0c
ff
17
fb
1a
f8
01
d4
2c
cf
fc
03
02
eb
24
10
14
09
0e
f9
ed
10
fb
38
01
02
0d
f2
19
f4
08
e2
f1
ed
ee
1b
18
fa
14
12
d2
f5
18
fd
e4
e1
2e
bf
fb
fd
2c
00
18
fb
fa
13
24
ea
e0
0c
f9
12
e9
04
12
e5
01
0d
d6
e1
17
ee
0b
09
cb
e1
05
e7
f4
f5
f9
0e
fb
f8
07
02
26
0f
de
ea
32
08
14
17
f8
fb
0c
e9
12
d7
fc
0c
09
ec
e8
28
15
0a
54
df
e8
00
dd
04
c3
e3
05
0e
05
23
f1
e6
12
17
00
19
f2
b9
00
ea
11
ed
09
00
e1
fa
e3
f6
01
f0
d1
fe
10
04
01
d6
f8
cc
07
dc
13
20
11
0c
db
f7
f8
fd
e9
e7
e0
06
2d
fb
ef
f4
eb
ee
21
13
0f
f2
0f
f4
20
f5
02
16
d8
12
e3
06
f4
0b
df
01
22
18
e9
ee
e1
dc
d4
08
fe
00
f3
ce
fb
20
28
05
e2
04
02
e9
e4
20
0d
f4
2e
fa
3f
16
ec
fc
02
11
1a
05
f1
f9
29
11
1a
0b
1b
2c
e8
f4
bd
01
fd
fe
18
04
11
20
f7
0a
11
15
db
0d
ed
1a
21
29
d0
3b
13
e6
d7
f5
0a
12
fb
0d
fb
f4
25
fb
01
13
e3
dd
02
f5
ef
0b
df
f4
d7
dc
db
1c
f6
eb
0a
fa
e5
f8
03
0a
f6
e9
15
4b
02
09
45
f2
05
e1
fb
fa
da
24
1c
ea
df
18
1b
22
1d
eb
01
1e
e0
ea
f9
40
05
ed
04
d7
20
20
0f
1b
e2
04
d9
dc
2d
e7
05
0a
10
0e
0b
e8
c7
e8
0b
16
09
f2
09
26
06
11
17
e7
08
2d
04
fb
ee
26
e9
f2
e0
01
c6
ec
ec
19
ea
1c
d7
25
0f
fe
fb
0b
de
f0
04
3c
0b
10
f4
f2
11
12
04
db
22
b6
08
f9
0d
21
fd
03
0f
10
09
06
22
ed
bb
fc
3b
ea
0c
ff
20
27
f2
17
1e
eb
fc
df
15
02
12
d7
00
0d
15
04
f8
07
1e
36
f6
02
e1
da
e1
f4
fe
27
fd
e7
db
d4
db
f2
24
26
10
19
12
0e
fd
10
f1
ef
fa
f6
da
fd
e4
ed
e0
01
17
10
ef
0e
02
ed
17
1c
43
fd
c7
e7
0f
ee
1e
f2
d2
22
fb
07
eb
01
08
15
ee
ef
08
0a
ef
d4
12
10
e3
e3
24
e1
21
4f
07
09
0b
02
39
ee
ec
14
f9
06
fa
b9
23
eb
f0
e9
f0
1c
09
f9
21
1a
15
ed
27
f7
11
02
f4
d8
ea
d0
0f
ff
f0
2d
ee
0d
4f
dc
f9
12
d6
f8
e4
d4
01
c9
f9
06
f9
f0
f8
2d
fd
31
23
dd
26
d2
de
fb
fe
14
0f
ef
fd
e5
2a
f3
19
d7
11
ff
fb
f1
ea
0b
02
08
18
07
e8
31
e5
02
17
30
e3
ed
2d
27
30
23
02
ff
0c
0a
07
f7
23
f4
e2
e8
3e
12
11
ff
0e
db
ef
ea
fb
f6
f9
f4
11
22
28
05
f3
f6
e9
00
fc
17
e9
26
f4
e3
ee
08
00
fc
22
01
ec
1e
16
fb
15
2c
ec
eb
29
01
f0
c9
fd
de
fc
1f
13
1b
f2
f1
09
0f
16
34
08
15
cb
1a
1a
14
d5
f5
ef
d7
25
1a
0c
f1
17
d4
df
01
ec
fa
01
eb
12
02
37
f8
fd
03
19
f3
06
1d
fa
dd
da
09
0b
13
16
0a
da
fe
38
ca
0d
04
c7
04
fb
0a
02
d8
c8
2e
ea
05
0a
d1
1c
e4
eb
1c
ee
24
05
25
e4
20
20
e1
08
d3
37
d8
2a
28
19
00
f7
f6
44
cd
2d
fc
20
23
17
34
dd
0f
11
eb
e3
0c
1c
ba
0a
f2
f4
f4
cb
10
0d
fb
f3
e8
f6
f5
17
ee
2b
e6
ee
2f
0f
06
c4
24
e1
fa
dd
ff
f9
14
fe
d8
27
1a
12
e0
e6
cf
f9
0c
db
da
1a
d9
ef
20
f9
1c
f2
1c
03
f6
26
e6
f3
bf
ea
05
ff
12
fe
35
00
f7
09
21
09
26
de
f8
d6
12
fb
29
eb
e1
05
0f
1b
ff
f8
09
05
e1
00
ff
01
0d
fa
15
2a
12
28
da
e8
f5
f6
29
09
1b
0e
e8
04
f9
f9
10
10
09
29
08
fd
eb
12
e1
0c
01
fd
e4
05
38
16
0b
e0
0f
ee
f1
fa
e5
20
03
18
e2
f0
c4
04
2d
ff
d0
07
ed
34
f2
0c
0d
0c
1c
ed
d9
f3
00
02
dc
e6
0a
f5
17
0d
fc
e2
03
f1
0c
e1
fa
ee
ed
07
1c
24
eb
0f
e0
1f
dc
d1
ed
f9
f8
e0
29
db
05
26
fb
14
ec
e1
08
06
de
d1
28
db
14
e9
d7
03
24
03
15
39
d1
24
14
13
ed
18
24
f6
0e
f5
ee
13
ed
f5
e9
1d
f9
fa
01
12
0a
f9
0a
e1
01
ce
27
f0
ed
08
16
02
f7
eb
fe
f1
12
2e
04
19
02
07
40
18
0b
e6
0d
f5
09
ef
eb
0e
f8
02
dd
e9
fa
f3
f0
0f
23
e5
ec
35
24
24
14
0a
f6
da
e7
00
24
f8
dd
0d
e7
e4
06
0b
f2
ea
03
07
20
fa
0b
ff
01
eb
1b
fd
de
1b
e0
dd
0c
ef
f9
05
0e
1b
03
fa
f6
22
2f
07
ec
29
d3
f6
25
21
10
10
f8
ed
f8
07
17
37
fa
23
fe
43
d8
1c
f7
0d
dc
ed
ed
ec
11
09
b9
10
0c
0b
17
d9
02
26
f2
27
fd
fd
18
f8
35
02
e8
fa
17
c9
24
0f
e6
11
e5
0e
e1
ef
e6
fb
19
e9
1b
f9
e7
e0
f0
1a
03
13
11
10
2c
f1
16
fd
0a
0e
db
ff
fc
0e
1c
24
1a
02
0a
08
1e
1f
f3
14
0e
e5
e8
07
1f
34
e6
f8
3b
42
0b
f2
e8
ff
fd
08
0a
0b
07
e8
e0
20
1b
1a
f8
04
cd
2f
e7
e5
fe
09
1a
fe
0d
fa
f0
e5
03
02
04
24
ef
f2
07
1c
de
f1
14
ee
f0
f6
fe
df
0b
ea
10
f0
18
1e
39
17
f8
18
0e
f2
02
f0
f8
11
fd
0f
2f
c7
2e
14
c7
23
14
ea
f3
e7
13
34
f6
f2
1c
e6
da
fb
0d
eb
fb
f5
06
26
07
18
27
18
17
f5
fc
15
e2
fb
40
0c
00
04
09
fc
47
16
30
f6
e6
f1
f8
ee
1f
18
ea
23
bf
c6
fa
03
17
e0
13
03
f4
fc
ea
f4
08
fa
eb
ff
0f
ef
f0
fe
05
f7
d7
c5
28
e8
33
09
50
03
02
1f
db
db
00
d9
14
09
24
09
04
00
f1
f8
03
2a
0d
03
10
cf
0e
fb
26
e4
13
05
05
ef
26
0b
fe
2f
fe
23
18
fe
26
0f
e9
c6
ed
f0
f3
f8
11
03
e7
1c
2d
27
05
fe
00
ff
e6
fc
df
20
11
0a
24
e1
02
03
39
fe
08
d7
0b
14
e6
1c
07
fb
00
01
02
1c
d7
2d
07
f6
f9
0f
d5
c2
f0
16
fb
12
35
08
1e
f1
fa
08
bd
09
1d
fc
09
f6
1c
d5
f6
f7
02
03
22
16
0e
ec
e9
b7
ec
08
f5
04
27
ee
fa
f1
f3
0c
29
d9
37
0c
f1
e8
f7
f4
e4
c5
69
36
e0
f0
09
09
26
1b
4a
29
1d
f4
05
f3
08
0a
38
1c
dc
24
ed
f9
ff
0b
fc
05
d1
1d
d9
de
c1
13
0b
19
de
e6
ff
e7
ee
26
00
cc
2c
02
e7
fc
04
db
05
fb
ee
a9
0d
d6
25
cf
df
00
eb
00
fe
12
32
f9
24
fb
ef
17
eb
ee
fd
31
f2
d5
fc
38
0c
f1
27
02
11
f1
03
eb
e9
e8
19
0e
da
04
fd
f9
14
f1
08
f7
14
07
dc
e6
f5
0a
fd
12
21
ed
c4
1c
0b
fe
e4
15
2c
05
f8
1c
06
f3
f2
02
27
ff
f4
d1
24
fe
2c
a2
cf
f6
cf
d5
3e
05
0c
ed
f9
e1
0e
0f
07
ec
0f
cd
00
f3
d4
10
f8
ef
09
0a
fd
d8
d4
08
e4
e7
f4
01
02
fe
0f
e9
fe
13
0b
f0
25
e6
e8
05
3a
0a
ec
d4
08
0f
eb
14
f1
dc
21
0a
16
1c
e1
d8
00
e5
f1
f6
05
17
20
e2
fd
ef
2a
e7
ef
05
15
db
02
07
00
0f
e9
c5
f3
2f
09
d9
0f
f3
1d
e8
17
22
f8
de
fe
cf
f3
fb
ee
f3
e1
00
df
fb
1b
03
e9
b9
fb
0f
d2
ec
f5
fc
16
f0
fa
19
d0
e3
ef
f9
e2
f6
1b
0d
0c
06
dd
06
06
fe
12
03
0c
f7
f3
0c
e2
dd
f0
f3
de
29
07
ea
a5
08
f8
09
16
05
f6
f7
d4
f6
0f
00
e8
e7
09
f2
05
f4
02
04
12
05
0f
da
fb
00
e5
ec
f8
39
19
f6
18
3a
c9
e5
f2
ef
fb
f6
0b
fa
ef
0f
04
fe
fe
f6
fd
07
ea
0e
0b
f7
f0
1a
4d
27
ef
fc
0c
14
ee
d9
0d
0a
03
fe
f8
09
fa
e8
f4
08
1f
1d
fd
0b
dc
c1
ef
10
02
24
f5
24
ef
36
0e
ff
18
11
10
03
0f
1f
ef
ff
15
fc
16
d0
de
25
2c
ca
0c
e8
02
eb
1c
ff
28
28
00
09
02
14
00
0e
fc
1d
f1
20
ef
08
f6
eb
08
2e
0d
0e
08
f4
0a
ea
ec
27
0e
24
e8
f4
d4
05
f3
25
12
02
05
f0
ea
04
e6
10
d9
da
d1
02
fa
ea
d9
1a
e5
fe
41
17
19
00
05
ab
f7
09
25
0a
12
23
14
32
de
b7
1f
2c
24
f3
d0
e0
41
e3
08
50
d6
00
0f
e7
f5
2d
dd
fc
e7
00
f1
d2
24
f3
1b
eb
f8
e8
ec
df
12
16
fa
ff
04
36
e6
fe
ed
ea
20
f0
01
f6
f3
fc
e6
3e
09
05
ff
0f
18
03
00
ec
1c
04
01
13
d9
09
f1
0e
f1
f6
ed
16
06
12
d1
f0
ef
07
e3
e7
12
07
f9
ed
10
fe
34
fc
0a
ff
f5
ec
07
04
00
fb
ff
0b
27
23
1c
0e
0d
fd
de
18
f2
17
dd
e7
f8
19
0f
0e
0d
fd
d8
07
0e
0c
22
01
31
d6
07
28
0a
14
ca
f6
00
05
2e
0d
32
18
14
df
43
1c
fb
f6
c0
f1
1a
10
11
f5
fa
fe
11
27
0c
de
ef
02
33
ce
c9
32
04
fc
0f
eb
1a
ef
19
f6
03
1e
e1
f8
f6
02
f0
f8
31
16
fe
c3
b8
07
e1
0e
f7
f5
d8
31
d5
e7
13
10
09
02
1b
e1
c9
19
f0
02
d6
02
ee
31
08
f2
fc
01
e5
f9
e0
f0
17
31
f2
b4
07
15
d9
04
1f
b8
19
d1
d2
01
ee
fa
22
ac
19
e8
09
0e
0d
0c
e3
0e
d2
1e
37
06
da
f8
16
d0
1f
ff
fe
e7
27
f5
0d
fd
13
09
f6
fd
df
f6
07
2a
e3
f0
17
0a
e7
d3
08
1b
df
f5
de
29
04
cb
1a
f8
d6
db
26
fd
03
00
12
2e
d1
08
2b
03
d5
d4
ef
20
09
11
fa
48
f1
dd
f5
1f
30
31
0b
f7
fb
07
e5
e3
dc
24
33
df
0e
2e
cd
fb
c7
f8
f0
31
23
0a
ca
24
f1
0c
35
cc
f7
fd
36
fb
e3
03
ea
e2
1e
06
07
fe
27
27
df
f9
e3
fa
22
0d
fd
1b
10
33
07
d6
01
fc
e9
fa
d3
33
00
f4
f2
fb
fa
f4
fc
eb
17
13
e2
19
26
eb
14
f8
f6
14
ff
f3
f9
de
d6
ee
e5
e7
f0
ec
02
e4
f0
f6
09
06
e8
43
e7
c7
23
1c
fc
09
05
0f
df
d6
03
27
dc
f0
07
1d
26
25
ec
f6
18
17
e4
d6
32
e8
2c
21
f3
15
f2
e9
e7
fd
f5
fd
3a
fd
e4
fe
28
16
0c
e2
d7
f3
16
c5
f2
29
0e
05
eb
17
0c
0c
e3
f9
08
29
07
ed
0b
22
10
eb
d0
cd
0d
f2
45
12
e5
2c
02
f2
11
f1
2e
04
46
ff
fa
07
e8
f6
06
ff
35
dd
16
17
42
34
e5
26
1f
ba
13
cb
e6
0a
15
df
18
18
1d
f2
d1
fb
e6
ea
0e
1b
fc
2d
29
f2
29
0a
0c
0b
e3
05
3b
eb
01
29
0d
e7
06
2d
11
0a
0d
e8
05
0b
ff
e3
e9
e3
f0
ea
ee
0a
07
ff
f6
1a
e2
f9
ff
1b
f6
de
cf
ed
e4
25
26
0c
ff
0d
23
25
09
0b
25
d8
26
e4
1c
d5
15
ee
09
f8
1c
b4
fc
f0
c4
1c
ea
1b
df
01
ed
29
35
0f
26
ee
27
fa
17
06
e9
f7
04
03
e0
28
eb
ca
e0
0b
16
07
0b
fb
da
24
f8
14
e3
0f
04
00
c5
35
e8
14
00
00
fe
1a
fd
eb
02
fc
e6
2a
0c
fe
0d
f8
1a
fe
35
14
11
f9
08
2d
f3
ee
fd
eb
e4
e5
08
13
f6
f0
d1
03
eb
26
03
29
1f
12
16
dd
15
d1
eb
20
d9
17
08
f4
20
0d
04
3c
f9
05
e6
0a
2e
fa
02
ec
06
18
fb
07
e8
e8
12
11
e1
d3
10
f4
d5
1b
02
00
0a
10
3d
10
0e
d4
09
e8
00
06
ff
19
05
da
ea
04
04
d8
28
e7
fe
01
f2
0c
0b
3e
fa
1c
ee
f3
19
e7
03
df
d3
04
df
02
09
09
e6
13
10
1d
04
f3
09
f9
16
3c
09
2a
f9
d5
1b
20
2e
00
40
0e
f1
13
ec
f0
16
29
05
e9
08
21
fc
fd
ee
d8
fc
0c
f2
ec
fc
28
fb
dd
f0
02
25
f7
ec
e2
ef
db
18
0c
fc
c4
18
fb
d0
dd
14
f9
ff
f0
05
12
d1
e1
e2
ff
25
1c
f2
e2
25
f0
2e
e2
f5
f1
fc
00
04
10
0b
15
f7
e0
f5
f7
17
f0
05
45
1f
ee
d2
04
36
c2
0d
14
0a
f3
fb
0a
17
1a
05
27
17
02
09
e2
f3
de
03
ff
e7
0a
06
08
1e
08
f7
01
0b
f5
fe
e2
f5
0e
df
e7
00
db
32
1a
05
2a
f3
0a
23
f0
cf
f9
1f
28
df
fb
21
ed
f7
ec
2f
fc
fa
0c
e0
e9
03
f5
fe
ef
29
fc
f2
fa
12
e2
4b
d1
21
10
03
e6
ea
0e
da
1b
13
f3
02
28
15
ff
fc
e2
f9
f8
f1
08
05
02
03
fc
02
e5
08
00
e8
ff
f0
f9
e2
e5
f3
0b
03
04
0e
f8
ce
05
19
f8
0f
e7
10
c1
fb
ff
ce
ff
11
ed
c6
fd
eb
14
f1
fc
fc
d3
ed
f5
fa
f2
13
f1
d9
da
e5
12
ff
ec
03
f6
fd
19
0b
07
09
e9
f9
f3
37
0f
24
f0
36
13
fb
10
d5
f2
00
fb
16
f4
f5
eb
11
da
e7
0c
0d
03
e5
0a
02
e7
1e
01
e8
fe
da
ff
c3
ef
28
f0
16
f9
19
24
fd
d9
1f
fa
e0
f7
ff
0d
f1
0d
0e
f4
ea
24
f9
e8
14
20
1a
45
f6
03
24
15
e3
13
11
00
12
04
02
06
22
0d
13
f7
25
11
16
10
e0
16
fb
e1
f9
1e
08
f2
06
08
e5
e6
05
fb
ca
02
f0
f5
f4
01
e9
09
05
f3
06
05
32
fb
f8
f7
19
f7
f3
fa
01
f4
ef
dd
eb
ef
f8
ee
ff
12
f7
13
ef
27
e0
ff
2e
05
f8
16
fd
ed
14
19
0e
f9
15
00
1e
fd
0a
14
fb
08
ef
18
0d
fa
0e
ea
ec
eb
ef
d4
06
e3
f8
0c
f9
19
ec
0d
05
17
ff
03
d8
04
fa
f7
fb
da
ef
ec
1d
fb
e9
f2
de
e5
28
ff
f5
01
df
ed
02
00
f7
f1
ca
fc
05
0c
ed
05
01
d3
12
ff
0f
07
0e
0c
17
1c
ff
0e
02
ec
07
10
e9
1a
15
0f
0b
da
f1
fe
b4
18
1e
32
2d
e1
ef
2e
03
08
25
2c
f7
18
0d
1b
d0
13
1b
fe
f6
19
eb
23
e9
15
f2
ec
e4
e9
0f
0e
1d
e5
f4
05
f2
fe
0b
20
e2
f9
df
23
17
32
f0
00
09
10
1e
df
da
1a
fe
e9
34
1a
f1
01
19
f3
13
f3
26
fe
26
12
09
0a
f1
16
ed
cb
d4
f5
0d
ea
1b
27
fe
23
ed
f3
f3
f1
fd
fd
ff
f4
d6
1e
ef
fb
0d
d4
fe
3b
f8
e0
12
05
00
04
de
f2
ee
31
ea
32
03
02
f3
f8
f2
1d
1e
f0
17
02
e2
ed
16
fa
40
ff
1b
19
1a
03
01
cb
02
fc
ff
0f
f5
2c
05
f8
00
17
fe
0b
f4
05
1b
14
06
19
19
e6
f9
fa
00
ee
eb
f5
08
00
f6
fd
f5
13
c3
28
da
3f
f8
23
1b
06
f1
ff
21
ea
0b
01
f4
03
0d
10
e1
f8
ec
fe
f5
01
d5
15
d7
28
13
0c
ff
e0
fe
1a
ef
10
37
06
e3
de
0c
1d
d5
08
00
ce
ff
00
09
2d
0f
fa
e6
1f
fb
26
39
ef
fe
ee
08
07
35
06
1d
05
f5
2e
14
ff
2d
f5
d4
f3
16
02
d8
f3
05
09
d9
22
0a
cd
d0
0e
13
cc
e9
33
fa
fe
02
04
1b
0a
de
2c
ef
d3
cf
fe
0a
e6
fe
22
ed
07
d5
15
e6
db
06
e7
d2
16
12
0a
e8
e5
10
00
f7
f3
c8
fe
16
15
4e
10
2c
f0
cc
04
0c
17
f5
1b
e7
e5
e9
0a
de
14
1e
ef
0a
fc
e0
fe
0a
01
1c
fb
d4
01
eb
2c
fa
05
10
0e
2b
fb
ea
1f
0e
36
06
0e
20
ea
08
ad
39
0a
15
f7
0c
10
12
0e
ef
07
df
0c
36
0d
05
05
0b
eb
1f
ff
02
1a
00
fe
b2
13
fa
0a
1a
06
24
fa
e7
23
dc
ec
02
3e
04
fa
fd
09
05
fe
df
e9
2c
f6
f2
f2
14
3e
ea
fc
05
e4
14
31
fc
27
e6
f6
e6
fb
ef
21
ff
d8
fa
1c
fe
2c
03
de
05
e4
de
13
ff
ff
e3
02
e4
ed
fc
09
22
f6
28
0a
ed
02
1f
0f
f0
0e
fc
0b
fc
f1
4a
04
0b
08
e8
cf
0c
04
fc
09
e8
01
f6
f8
df
dc
01
2e
00
09
f2
0d
ec
06
0c
eb
01
00
05
05
22
d4
12
25
1d
e2
d0
10
0d
f1
05
df
f1
db
10
0f
04
cd
2e
e5
e9
df
2a
45
fc
05
26
ef
f1
21
14
e0
03
1f
e1
27
f3
2b
fc
05
19
f2
10
fb
0e
d5
06
fa
f3
08
06
d6
fd
ea
09
02
fb
3e
f4
26
fe
01
05
0e
f7
01
fa
d9
ea
ff
de
07
e4
eb
19
ea
13
fa
0f
23
03
14
06
12
07
fa
22
e1
eb
1b
f2
11
e1
f1
08
10
0e
17
04
0b
17
00
ce
17
0a
29
f0
0e
f8
e3
24
12
01
16
02
f4
fa
13
f1
00
02
05
0d
e7
fe
0d
e9
0a
e4
fe
f8
dd
d4
f5
22
05
f8
bd
1f
fa
09
02
03
02
01
03
fe
1b
ed
13
e3
1b
08
d4
f0
df
00
1d
00
04
fd
17
04
16
01
e3
ff
29
17
08
02
01
0b
0a
13
f7
0f
f9
f7
f9
13
d0
10
a5
eb
26
14
f9
15
1b
f3
19
01
00
ee
ff
f2
25
2b
fd
34
11
0a
db
09
08
e6
15
07
0f
2d
13
0f
0a
dc
0e
ed
02
fe
df
ed
ee
fb
f5
22
e5
05
fe
16
2e
0c
0f
0f
cc
17
15
f1
ed
fa
12
0a
fc
1d
f5
2e
2a
2a
34
06
d6
fa
f9
dd
16
3d
da
02
09
08
25
1a
06
de
d8
21
2b
eb
02
eb
12
0e
0f
f0
ea
24
00
e2
f1
14
e3
fa
c6
fd
fd
15
f2
18
04
fe
11
d3
df
da
04
12
0d
15
13
03
cb
fd
d8
ef
0c
16
fe
c7
ed
1f
f8
d8
05
f7
03
e7
f3
27
e9
e2
08
e8
ed
f4
07
0b
30
0a
1e
eb
0c
d4
e6
e8
20
e1
f6
12
fd
e0
07
03
0e
15
ff
1d
fd
11
f1
1e
02
14
2c
f3
f7
00
21
fc
e5
08
04
f2
0b
ec
e5
f5
06
1a
f5
f3
08
1b
1d
00
14
db
0d
fb
d6
03
f6
f0
fe
f3
df
1e
20
14
2b
13
1e
e8
03
d3
fb
cb
3a
24
1e
00
fe
c8
ff
d9
ec
23
0c
0e
0e
0d
19
1f
05
0c
06
f3
f5
da
ec
d0
05
0e
1a
12
ef
16
ac
1e
11
ca
0c
e8
7f
0c
0c
42
00
49
0a
c9
23
ec
09
e4
e7
d3
f1
21
e9
05
fb
fe
04
fc
15
fb
e8
05
f4
e0
32
f9
0f
02
04
0a
00
10
1d
c9
e3
e5
15
0c
16
12
f3
0a
fd
2a
ed
24
10
f6
f7
fd
fb
1f
16
10
13
06
d4
1a
35
07
ea
20
b6
2d
e5
02
f6
99
27
d9
1e
bb
32
da
23
bc
bb
f0
c1
06
ed
cd
2e
0d
34
df
0d
0b
ea
de
09
0d
07
08
fb
02
e8
e6
f6
ee
c3
e1
04
29
28
ff
0c
18
06
e6
0b
1b
dc
df
0a
04
f5
ee
0d
02
04
05
15
f6
0c
16
36
26
ee
18
03
fd
db
d9
d6
f6
15
fa
f6
e4
25
2c
dd
dc
1e
ee
f0
fc
06
0b
e8
09
30
0d
2c
f2
eb
0a
15
c9
e1
05
f1
eb
03
0c
0b
eb
f0
22
37
e6
1e
db
fa
05
e9
fe
13
e4
04
0b
11
25
f7
fb
fb
03
ef
f0
2f
35
27
fc
e8
11
03
21
0d
e6
09
28
05
13
fa
fa
19
e1
e9
1b
d9
17
26
21
25
08
d4
f5
17
f3
27
08
fa
f6
33
f8
e2
1a
05
00
00
f9
0c
05
14
16
f3
04
cc
e1
e9
d7
08
11
2e
2a
fa
1a
ff
33
e3
18
ea
e1
25
d2
f5
f7
08
04
f8
22
dd
fa
01
d0
1d
2f
ec
cd
1a
0f
e5
f9
f2
f9
1e
fd
ec
f9
fc
15
e7
10
0d
fc
ee
d7
c8
e9
19
d7
0c
f5
28
f2
e4
0a
1b
f9
eb
f7
02
fe
df
e9
07
01
2d
1d
fc
08
fc
28
fe
0d
1a
1a
00
df
f1
f6
1f
17
d7
fd
02
eb
f0
08
28
fd
f2
0b
ff
ec
0e
1f
06
22
f0
fc
f4
04
23
fc
ce
e3
f2
fa
12
03
0d
02
df
0d
f8
f4
00
eb
ec
03
02
f2
fa
0a
1e
21
06
ea
0f
02
02
ec
fb
f6
11
06
0d
fb
ee
ff
16
13
23
0e
06
2d
19
05
0d
ef
04
02
0c
ef
0c
e5
ff
0b
11
f2
d7
f1
47
d8
e5
0a
f9
0d
f2
10
eb
f7
06
15
37
fa
f9
02
ed
15
f4
05
df
03
fa
09
e7
f8
0a
d7
e7
03
0a
1d
fe
de
f4
17
0d
f3
18
0d
17
14
00
39
03
0c
2c
f1
29
35
ee
33
13
e6
10
ff
13
ec
0b
3b
01
cc
f6
ce
11
16
fd
f1
fc
05
e6
ee
ec
0c
03
2b
03
c4
fa
d1
d7
07
1f
15
c6
0f
d4
0e
12
0b
f7
11
cb
23
22
3c
20
10
0a
45
1d
22
11
24
00
fb
f8
f0
f7
0c
21
08
eb
ad
00
f8
1b
f7
e9
f4
05
f8
e7
ec
dd
f7
07
11
f3
32
2b
07
2c
d7
0a
f1
ed
37
19
e6
0e
20
bf
e6
10
eb
f8
32
01
11
fd
2d
f2
e2
c8
0c
1d
03
04
d0
1b
04
13
09
1d
f5
e4
fc
0b
f9
f7
e0
1a
ef
b4
1d
e4
12
f2
c6
f5
00
e2
f2
01
05
f8
e6
ca
ee
2c
db
fe
eb
cc
04
fa
2e
3a
00
e9
f9
e7
0c
d2
fb
18
de
05
f8
02
f8
11
1b
f4
09
e4
3f
f9
b8
da
eb
f7
ef
c2
e8
0d
18
ff
bc
23
13
1a
fd
12
df
e6
dd
f5
f3
59
0c
e6
01
1d
04
ff
0a
3e
00
ff
1d
12
f5
e0
f5
f7
0e
fb
02
09
12
e0
11
0a
ea
10
f0
dd
00
fb
0e
ec
f1
fb
e2
f4
f5
fa
ce
04
f7
1e
ff
29
17
f7
fd
10
07
d9
03
34
04
fe
1d
e5
10
19
cb
fd
f7
e9
0a
22
35
f8
15
f5
11
0c
09
19
f4
1e
f8
03
f4
1a
1c
06
0d
14
11
0b
f8
f8
dd
fb
10
f1
fc
10
ee
12
22
c0
fe
f5
19
ef
ed
22
f7
f0
f3
f7
f9
e8
54
0f
00
0a
20
e5
fa
21
f0
06
18
e5
19
05
11
b7
15
0f
f7
ea
ff
fb
e8
f1
13
21
16
0b
ff
08
f9
d9
06
09
15
08
0a
10
ee
03
00
1d
2e
0f
fe
f9
0f
cb
12
ef
f8
22
dd
ee
05
d6
1d
e6
22
06
f7
f9
fe
fd
0a
0c
1e
1b
1e
d6
13
eb
e3
f4
ef
d6
da
13
f5
1c
ef
19
18
20
21
0e
f2
11
ea
f7
e7
31
f3
e7
f1
f7
04
1b
c6
11
22
1e
00
03
fe
e3
fc
12
d3
dd
f0
15
10
d5
e6
e5
48
26
da
f8
03
17
03
ee
e4
c2
43
03
f8
02
f1
0b
fa
eb
0c
01
dc
11
30
f7
ea
e9
f0
e5
09
ff
07
15
e1
e0
d0
3c
17
fa
1b
fb
11
f8
16
e0
f4
01
de
06
0d
ef
fc
e4
f6
1d
fb
e8
0e
01
fa
f3
f7
17
dc
f4
08
f1
12
d1
21
ee
00
1a
e2
18
ee
12
0a
07
de
15
fe
f4
08
ed
fa
f9
1f
f9
10
05
ec
fc
05
c3
f2
3f
eb
1e
d1
13
e7
b8
12
02
17
eb
16
f5
eb
fd
f6
ef
0d
2b
14
f1
33
de
1c
1b
14
f6
03
17
f2
ec
f7
ef
0f
15
e8
12
0b
0f
f2
fa
2c
18
37
f2
03
ee
07
26
22
12
00
09
ee
fe
ec
fc
ec
35
16
dd
1b
0b
d0
1b
d9
d7
18
16
02
eb
2c
2d
08
f3
09
e5
06
e5
2b
f1
e8
e2
0c
2b
26
fa
e8
e9
2b
0d
fc
dd
2f
2f
18
1b
04
e8
d3
05
4f
05
d6
f9
e3
00
0a
ee
db
0f
10
f9
f8
0c
19
03
f3
1b
2c
10
0c
e3
f8
cb
0e
fb
ec
d9
12
ec
06
0f
ef
26
0e
ec
0f
0b
07
e6
de
1b
f1
d7
fd
0a
0b
f0
2d
20
1f
dc
03
09
2c
1f
06
fa
00
0c
fd
e7
0c
11
00
fc
e8
14
f4
fa
f7
f2
d1
d7
0c
d7
14
ee
f2
00
c0
fa
19
01
38
ef
00
0b
fb
f2
13
15
f7
ff
04
24
06
e7
24
01
00
f6
e4
f5
da
20
dc
e4
ed
04
e1
00
c7
f3
ed
1f
f4
f7
1c
f3
05
11
00
2b
0b
31
f8
f4
0a
c2
24
19
ee
20
0a
e2
ef
ff
0e
f2
fd
f9
12
f2
f8
d1
0b
e0
14
ee
fc
e9
14
fa
f8
ef
d7
d0
f4
21
12
c8
0e
0d
fd
24
1c
fe
01
05
e0
13
23
23
ea
11
ed
1e
07
0f
0c
f9
e0
07
ed
06
24
09
f2
fe
03
20
0e
23
19
f5
f2
ec
fe
eb
0a
fc
28
e2
f3
fa
10
c5
f3
d8
d6
21
17
08
0b
e5
f2
e8
f8
ea
fc
11
da
ce
00
e7
e3
15
fc
0f
12
fb
d7
e7
f8
02
e6
e3
e0
1c
f1
23
14
e1
db
ec
eb
08
03
d9
1a
c3
04
25
43
0d
14
ea
03
f6
05
2b
08
35
08
c5
fd
06
08
2b
ff
0a
09
22
08
f0
0b
fb
08
1d
07
01
ea
fc
e3
01
b7
25
f8
17
e5
ff
10
00
0a
f0
fd
fb
03
0f
e7
d4
05
07
09
53
0e
ca
e9
fc
fa
05
ee
1e
f3
07
0c
0f
df
31
f5
2e
f0
03
f4
ff
df
fe
cb
e0
11
16
f8
de
24
e5
f8
0f
08
0a
e7
18
13
20
22
e8
d1
0a
df
2a
04
25
07
d1
1e
f5
f0
1c
f8
08
d4
1a
19
1a
fe
14
e9
0c
08
f7
22
fd
e9
ed
e2
13
08
fa
b3
f3
13
e7
10
fa
e2
30
fe
e9
e0
06
fa
03
15
f9
17
fd
ec
d7
10
df
ed
f7
09
00
d1
e1
e1
23
1e
f2
d3
47
02
e7
0a
f2
0b
cf
03
c5
01
df
06
18
20
e9
1d
ed
f2
f2
2b
0e
ef
04
43
02
fc
e8
e9
08
f6
f2
e6
20
fd
2b
ca
f4
02
f3
f2
e1
05
fa
0e
0b
1c
f9
f4
09
f0
01
df
0c
1e
f3
2a
10
35
fe
df
09
14
ed
00
09
ed
d5
fa
ff
d7
e6
e3
0c
fa
f1
13
2c
0b
f9
f8
1b
df
e8
ef
05
10
29
00
f5
f3
e8
f3
17
e9
e1
d3
13
00
eb
d3
16
11
08
17
ff
f7
16
eb
08
d9
18
25
16
ef
fd
d5
e8
e3
0d
04
01
d5
ee
d4
fb
ec
fb
f0
f4
fb
ee
16
ea
07
0e
14
16
15
f7
ea
d4
ef
dd
09
dc
32
de
dc
fd
09
df
04
c1
c5
1a
ee
f2
12
26
fb
2c
2d
f2
fb
16
dd
f4
02
de
01
2a
04
0e
16
ec
19
fa
11
1a
de
10
07
13
eb
f3
f2
fd
09
1f
c9
14
36
1b
07
18
fe
0e
04
fe
0d
1d
05
fa
21
1c
d3
09
07
14
dc
12
02
ee
ec
0d
f2
e0
01
02
09
23
f4
0c
eb
10
09
f4
f6
fa
e4
1b
06
2a
26
ed
ee
1b
18
20
df
f7
f3
14
0f
00
12
02
f9
fe
fc
ff
01
ec
0d
d5
03
e1
1b
ce
10
09
f2
f6
1b
17
ed
c8
ea
e6
07
f0
04
2e
3e
34
0e
12
1e
06
0b
27
05
1f
01
eb
e8
09
fc
06
07
28
f8
e1
06
ce
fd
ff
25
15
d6
2f
4a
e9
34
ed
1c
02
12
e8
ed
b8
fc
01
ed
f2
03
cd
f8
01
23
f3
03
01
06
e1
0d
48
e1
f2
e7
0c
f7
27
05
e3
f7
0a
17
1a
1c
13
e8
f1
e7
01
f7
03
17
d9
38
20
f7
de
1f
2e
e0
e9
24
ed
19
24
14
12
f1
fd
1f
ba
f4
f3
39
c8
1e
14
ed
0e
d5
ee
ff
53
1e
f7
fa
47
24
c6
3e
da
11
22
fa
f0
d7
fc
00
f4
07
f2
c8
ef
11
03
06
0f
0f
06
fb
27
0e
18
0a
0a
f4
e7
01
f5
13
00
f3
04
02
fe
33
07
10
13
03
e9
fb
d1
d5
01
1f
12
04
13
f8
17
ba
05
f4
16
18
05
14
2d
f8
ef
fe
11
f3
f1
f8
d9
f1
2b
b6
e8
fd
1a
fc
fa
12
e5
f9
f5
02
09
15
01
03
f7
ed
02
f9
df
d9
0c
13
ed
f1
ea
37
fa
ec
ea
ed
0e
ff
eb
05
32
08
d1
f9
11
f9
ef
05
f1
1f
fb
1b
0b
fa
e6
0e
06
0c
2b
0f
eb
04
27
ed
f1
fe
fc
f9
10
06
f8
15
1e
f7
04
ed
e6
08
e9
dc
fe
de
13
03
0b
06
f5
e3
db
e9
0a
e8
e8
e4
1d
f8
06
0c
0e
f0
16
24
30
fe
0d
24
20
f6
03
0c
eb
ff
f2
fc
13
05
0a
02
08
e8
03
fb
fd
fa
3d
ed
02
ee
f9
06
2d
0c
fd
e4
d5
08
0e
e7
e9
0a
f3
00
0e
fc
01
f7
dc
f3
e8
db
fa
d0
fe
20
f7
cf
0d
e6
fa
fa
e9
00
1c
08
d0
be
13
fc
ee
f9
d8
ec
eb
f1
1c
f9
f8
30
ff
f8
fa
ec
f0
55
eb
df
db
fe
10
02
2d
3f
ee
ea
f8
13
1f
0a
e2
41
02
e1
ff
06
1a
db
e9
ff
e8
d5
d9
fd
15
31
f3
04
12
fc
f3
17
ea
fe
25
d6
12
e9
da
15
2c
0c
fe
1d
e4
da
df
f0
09
d2
e5
00
0f
25
1f
ea
fb
35
00
15
f2
ec
eb
f4
c9
12
e2
30
ce
e3
f7
f2
e8
0c
e2
11
e2
0e
05
03
e7
fa
f9
f6
28
15
14
04
e8
f6
28
fe
de
e7
f1
db
f3
0e
e4
3b
f6
ff
20
11
03
19
d0
24
dd
f9
18
d8
cd
e1
20
26
fd
d9
e5
d0
16
09
e2
e0
08
f3
16
e4
30
f8
e9
f6
ee
f4
2d
fc
03
0f
10
0e
0a
1b
03
1a
16
fc
e8
f0
f6
d9
f6
35
20
e3
f7
44
f1
26
f7
34
01
e2
11
18
e4
e7
07
f1
06
fa
0d
1e
e6
4e
69
e2
33
22
0d
e4
da
1d
00
f5
1c
f4
1e
0a
34
0b
2e
1a
10
11
1a
08
1b
07
0d
fa
c6
05
dc
ee
ea
01
f7
e4
c9
07
13
02
03
df
0a
0e
1a
09
2c
09
e9
10
fd
15
3c
cd
ec
0c
08
16
e4
c0
fd
0d
fa
06
01
d6
20
e0
06
fa
37
f2
3a
f9
f8
f7
ce
d8
ea
f9
eb
f6
0b
db
e5
f6
11
22
03
d3
ed
0f
34
e4
dd
09
fb
3b
00
e7
e1
15
f1
04
02
f5
ec
04
cf
22
fa
f0
e1
29
ed
33
26
0c
08
fa
e9
e6
f1
e2
13
13
18
0c
e8
0f
38
0e
ee
f5
23
0c
f5
0e
ec
eb
ed
f7
22
00
03
df
f1
e6
02
15
cf
d8
fb
fe
2f
fa
f3
0f
f7
0d
e1
e8
e3
16
0e
d2
08
3c
16
0c
14
19
1f
f4
f8
f5
d7
09
16
2a
0b
fb
39
fc
37
0a
18
fe
05
0e
01
fb
15
e6
e8
ff
1f
ee
06
f3
19
b7
e7
ee
ed
26
fb
da
0c
1c
0d
04
15
0d
13
00
05
fb
e2
f2
0a
2d
ee
15
27
d6
0a
de
0c
e0
03
d9
dd
1f
11
f2
dd
00
02
0c
dc
f5
e6
35
e8
19
f8
1c
07
01
d2
fc
ee
e6
02
01
f1
3b
e8
ec
06
e0
ea
e3
e9
0e
17
ca
04
f2
fe
f9
06
06
f8
fd
fc
11
f0
0f
f3
2f
14
19
03
e6
1a
00
fa
e9
ff
0e
01
f2
de
03
17
06
01
06
24
f8
f5
f8
f0
f5
19
0e
12
04
fd
17
06
e3
de
05
27
f1
f6
04
07
e8
13
01
07
f9
e6
16
f6
a9
f4
19
0d
f7
f9
15
09
fb
2f
18
07
d9
0d
11
24
29
f2
f1
fc
f5
fe
24
d9
fe
06
e6
3d
ff
31
13
e2
1b
2a
fb
ed
e6
ee
f8
f8
0f
eb
09
08
08
fb
e2
00
1f
e0
01
17
df
06
fc
bb
fc
e5
06
15
e8
0e
05
01
fd
28
09
f3
06
f6
f8
27
28
08
0a
13
d0
00
f5
f6
20
10
13
1f
16
ff
00
f8
0d
11
fa
00
f8
ff
0f
fe
e5
10
00
15
e9
22
fe
d6
09
fd
06
13
06
ee
e0
f4
0d
be
3d
0b
d0
e6
09
11
04
27
fb
0e
06
e1
e2
01
03
19
18
17
13
d9
43
c6
fb
2d
21
03
03
eb
f1
ee
1f
f6
05
e7
f3
d7
e3
0f
15
03
d0
02
eb
15
e2
22
fc
20
34
03
24
e3
e8
ec
03
ed
ef
03
f8
11
ed
14
15
f0
fc
e6
f6
18
dd
1d
0e
f6
ec
d7
d1
e1
00
ec
ce
21
14
fb
fc
23
0f
0c
f0
ea
e5
10
cf
e2
04
15
dc
03
ea
25
1a
fd
f8
05
08
d6
0e
05
06
fe
e2
e8
1c
00
f5
f5
f1
fa
0a
17
2f
12
d7
11
f4
16
38
fe
11
1b
ff
0b
eb
eb
fb
f7
05
0d
08
e8
fb
08
f1
cb
fb
f5
0b
f2
0c
f7
f2
10
e6
eb
d9
0e
cf
13
fa
2b
28
f4
e2
e9
29
ec
08
08
0d
13
ff
f4
e6
fb
28
fe
eb
25
25
f5
28
0c
0d
fc
1c
fb
e4
0c
22
f1
08
f8
0c
f9
f1
f1
20
02
e6
eb
ef
17
10
fe
e6
08
e4
f6
29
fe
09
13
02
e7
07
ec
1e
e6
ee
0c
27
07
13
e3
ee
f0
fa
eb
13
23
00
0e
fb
20
0c
07
fd
f3
e9
05
ef
07
ee
e2
fa
f4
ea
ff
f4
05
c4
07
08
e8
07
fa
13
ee
ff
41
12
18
1e
f2
ec
36
1e
ca
f6
01
f4
f9
13
01
3a
dc
31
16
f4
17
0e
0e
f2
01
fb
fb
16
07
f6
08
0b
fe
e1
04
f2
fe
f2
d0
f7
31
1c
d7
ef
1a
e2
28
c4
00
13
ee
cf
17
c4
dd
fa
00
2a
19
0c
e2
fd
eb
e9
f8
ec
20
01
fc
15
f4
dc
0d
26
f5
12
25
2e
0c
2a
0c
05
f4
17
ed
06
ef
d7
f2
ec
1c
01
0b
19
dc
ff
1f
08
e6
fa
05
0e
08
d9
15
e3
fe
28
07
09
e4
19
e1
df
fa
d8
ee
0d
20
ff
18
1d
fd
ec
f4
ff
f7
e7
02
ef
d1
de
0a
07
ed
1c
fd
14
e0
f4
0e
0b
4d
f2
e9
20
d9
ed
13
05
f6
02
fe
1c
ee
1c
0d
f6
25
ee
e7
0b
2c
fd
01
09
02
06
fa
fb
f9
2d
fe
f9
f8
ed
f5
24
01
e8
13
1f
2d
fc
02
0e
f2
f5
05
ff
31
39
ca
c8
00
e1
e0
0f
1a
d6
12
1f
0e
ef
f6
0a
b2
f2
cf
fa
00
26
d4
09
17
0d
1d
f7
e1
02
f1
04
f5
fe
f6
12
17
09
f0
06
28
01
f6
02
e3
09
fe
fe
f4
e5
00
fa
d9
f0
eb
30
04
cf
fd
0e
03
06
05
f1
18
01
fe
ff
1f
39
f9
e8
11
e8
0b
08
f0
f3
11
1d
d8
0f
f6
f9
2c
fd
f2
2e
e1
de
15
eb
cc
c3
d6
03
0f
23
d2
1a
d3
17
e5
eb
e6
06
13
06
2d
10
f4
21
06
22
f8
ea
f9
06
26
2a
0b
1b
e8
08
f8
ca
05
f7
f8
ed
f0
e3
fa
11
13
de
0f
e4
d4
da
16
d3
ef
d5
ff
03
0d
30
06
d7
d6
f5
25
df
15
16
fa
fa
fa
fe
2a
28
fc
0d
c5
f0
dd
0a
ed
fe
e9
01
13
e8
ee
12
f4
07
fb
f2
ea
07
31
ee
f7
0c
07
ee
10
00
e9
ff
10
0e
fc
12
06
f0
fc
21
07
eb
05
e7
e3
0a
fb
38
0a
f2
26
f5
36
14
f2
02
1b
0e
ea
d2
fd
03
f6
18
e8
fb
f4
05
1e
e9
e6
10
33
fd
ff
2f
08
00
16
07
26
f4
bb
d1
f0
16
0c
01
f0
f9
d5
00
1c
04
f1
f9
de
db
e7
fc
1f
01
12
d7
d5
24
22
e7
1c
e9
fa
11
07
e0
e8
e7
0b
1b
0d
0a
f7
e5
de
e3
03
d8
00
2b
f4
11
12
27
e9
ea
23
00
fc
eb
fb
fe
f4
d4
27
ed
34
0f
21
23
12
18
fb
ec
0a
1b
df
f4
27
10
0e
cc
1e
27
ec
c9
32
0f
f1
10
21
ed
ef
10
f5
1a
11
f5
ee
08
13
0f
ff
e7
ed
02
20
05
29
0c
3f
f0
11
ee
e7
db
43
2c
e3
e6
0d
e1
03
ed
ec
d4
18
0c
0f
06
f7
ef
02
20
f9
df
21
0d
00
e6
ee
24
0e
00
f9
16
f9
17
ff
24
e7
0b
dc
24
ea
21
e4
15
04
fe
19
fd
07
e0
17
13
fb
2f
d3
f4
0b
25
fc
00
f2
09
e9
f6
dc
fc
f4
0c
14
0d
f8
11
fa
06
0a
21
2a
e4
21
e7
28
e7
d1
f2
10
df
ed
13
02
eb
2a
ed
fc
ed
dd
de
1f
01
1a
ed
13
fe
22
de
eb
09
dc
1f
f1
0f
ea
ef
ed
10
12
15
ec
43
00
f0
e5
05
01
14
e7
2a
28
d9
14
f8
14
05
e2
d4
03
d9
fa
e9
ef
f0
94
06
ea
e8
fb
31
03
09
ee
2a
09
fe
00
00
27
0e
25
10
d5
14
11
02
c4
0f
d7
f9
0a
1e
c9
d0
0f
fa
e0
05
02
f2
da
0d
1e
24
0c
29
07
f7
e1
04
1e
f3
f6
37
e1
09
12
01
f4
f4
f4
fe
08
d8
ec
f0
ec
23
01
ed
3b
f5
e1
f3
d7
07
28
21
ef
f9
bc
dc
ed
d7
30
ee
d8
eb
de
07
e9
c3
ed
1e
08
27
10
fa
f4
04
07
0c
cb
18
19
1b
15
f8
07
12
0e
d4
fa
01
eb
15
31
1b
0e
13
24
15
42
ea
f9
01
fc
d1
f1
d1
0d
f9
16
d0
db
f9
2a
21
ee
e0
12
03
01
29
e7
ec
07
d2
d7
f5
f7
f3
0c
ef
db
f9
fa
10
1d
fe
12
02
fe
ea
0a
ca
e7
c5
2c
08
f3
12
ed
15
f5
e1
0e
ec
1b
f6
0c
03
f7
12
f3
1b
f5
20
f8
22
19
f0
24
11
11
26
f7
04
f8
09
08
1d
15
e7
de
27
f3
fe
3c
06
07
ed
01
f3
f7
b5
f3
e4
0a
dc
d6
15
28
dc
15
05
15
1e
05
0d
f4
08
ff
f8
1d
f7
00
04
ca
0b
ec
11
cd
e1
05
13
33
0f
17
be
f6
e7
20
15
fc
04
0e
fe
e0
e6
f2
fd
15
e5
2d
05
0c
f3
2e
fa
05
09
0e
00
25
03
e9
2b
f3
f3
18
2f
f6
04
00
ff
04
0d
f9
f8
f6
10
16
dd
d2
30
12
f9
f7
d9
f6
fa
2a
ca
2b
d5
e0
0e
f6
2d
03
e7
13
11
f0
02
0d
f3
11
d5
e8
fc
ff
24
2a
34
eb
d8
12
0c
10
15
1f
f1
14
ec
01
fc
0e
29
19
1f
2a
0b
13
16
c8
fb
e8
0a
31
15
12
0a
d4
e1
14
11
20
27
06
0a
f9
ea
f5
0b
17
08
16
d7
f6
ea
d8
e1
09
0b
15
d4
07
ff
0e
0a
f4
0d
ed
f2
1d
f7
10
e0
f1
14
fd
e4
da
06
1e
e8
ed
fc
1e
f3
e9
f9
f2
e5
f5
b2
07
f3
fe
0f
e3
04
0a
eb
1a
16
0e
fb
17
e5
e5
29
f0
f0
23
15
25
06
1c
fe
f0
14
15
f7
1c
16
1b
25
ef
45
0d
fa
e6
0f
16
15
09
e5
1c
05
05
d9
37
2b
ee
e4
16
ea
f2
20
0c
e6
1c
f0
e6
1e
11
ef
03
de
09
c1
1a
0d
06
03
dc
fc
d9
27
29
ff
1d
04
1f
1b
0e
ec
f9
de
f5
26
f2
0a
2b
e1
41
e3
08
1a
f7
06
05
df
c9
d9
0d
ff
23
e5
d6
de
17
1d
09
1c
0e
fc
05
e8
20
01
f5
fc
fd
f7
f1
30
ff
1c
11
d5
fd
15
1a
08
0a
db
0a
1b
02
f6
fe
f8
d1
19
fc
1b
14
16
23
12
f1
19
04
05
1d
12
21
22
0e
11
f9
00
d0
07
23
f8
4a
06
f5
f8
01
18
13
fe
11
07
3f
e5
d9
07
34
1a
f1
fc
24
ef
fb
d2
e5
d7
15
0c
35
01
f5
04
0a
f9
21
ec
ed
0c
eb
e2
e8
f2
12
1a
d7
13
e9
31
e4
28
01
d5
e9
37
42
d8
e9
f9
e1
fe
d6
f0
09
03
05
02
e7
09
fe
40
ee
e5
f0
2e
1f
fd
e8
1e
04
07
f0
f3
c9
eb
0a
f3
05
25
f6
29
e8
f1
0a
24
e1
21
03
e2
0f
ed
02
0b
08
04
25
e6
14
32
1a
08
1b
e9
fe
ed
dc
12
ff
2f
14
f1
02
2d
e2
01
12
ec
f6
14
fe
1e
f5
da
23
43
ee
21
19
fe
2c
ff
2c
0c
05
0a
00
ee
f0
fe
0f
35
f6
d3
06
d4
0d
ef
ef
dd
f6
ef
f4
05
0d
31
0c
15
e5
09
03
1d
06
fa
0f
07
19
f0
e9
e8
34
f2
e5
26
0c
06
fe
f8
ea
d5
03
e0
f1
f5
f9
e2
14
15
0a
23
ea
de
36
03
0b
f8
19
ea
43
f9
fa
21
07
50
19
f6
f8
12
05
02
f5
1e
0d
c2
1d
0c
10
06
f4
0e
d6
dd
dc
f5
10
fc
03
09
1f
3b
15
cb
0c
fe
e9
05
fe
06
19
e8
e4
fb
04
f7
f7
f9
41
ef
38
03
05
0d
ed
06
c7
e3
f8
fa
d7
2a
03
13
33
0d
13
21
e9
f7
0b
07
f9
f1
e5
12
f2
16
0b
05
df
11
19
d6
fb
e3
e4
26
f4
e7
e9
ef
1c
f0
e9
12
14
ee
10
00
22
0a
0b
13
f1
fd
16
0f
0b
1c
df
f2
f2
e3
db
22
0f
10
0d
d0
04
0d
13
ed
12
f3
e7
f5
f4
ea
e6
ed
ed
1c
06
1a
ea
d2
fa
e7
e0
29
f5
11
01
f1
0a
03
e2
06
ff
e0
32
fa
11
00
f8
04
e3
0e
de
db
20
e2
e6
e6
00
f4
e2
fa
10
e5
f1
df
d9
e3
14
e2
16
f9
08
d1
d5
f7
de
f2
fc
02
0c
fb
1f
fd
01
16
ef
20
23
ff
02
f0
10
f6
fa
08
e9
08
fd
11
17
28
e8
02
dd
eb
20
f6
04
19
06
f6
35
08
14
06
08
f7
13
13
06
27
e7
f9
07
31
e1
ea
f9
38
0a
fc
10
fe
f8
02
0b
1f
2b
f0
f3
0e
19
13
f0
36
da
17
0f
fc
df
07
0a
f0
1f
24
02
db
17
e7
15
dc
13
f2
11
e8
27
f3
fc
e2
45
ec
1e
d6
f2
04
2e
f9
e9
f4
13
00
db
07
01
14
e1
0d
33
fd
17
e8
f7
dd
ee
18
14
01
eb
0a
27
09
02
fe
04
0d
fe
ed
17
15
ef
14
0c
13
e7
f1
0a
ef
f0
23
f9
db
ce
fd
28
15
d5
18
fe
f7
31
0d
c8
ee
fe
0f
1e
07
09
1b
fe
fd
11
fb
f7
f1
eb
1f
f4
e7
16
06
fb
1f
f4
ff
14
1c
e7
d8
0c
02
1d
fd
e0
f3
23
08
e4
11
e8
f7
05
f2
d6
fd
db
0e
e1
15
fc
da
29
fc
fa
1b
fd
e4
04
ea
27
19
d6
ff
c7
f1
fa
1a
01
c8
e3
46
09
e5
eb
f2
34
d8
fe
2e
fc
fa
05
f4
0b
1f
fc
07
f4
1d
02
27
0c
10
0d
f9
e3
f2
39
01
1d
e7
0f
00
05
24
f9
f9
fd
d9
da
ef
fe
fe
e1
12
25
1c
fb
f1
ec
f6
01
36
17
fe
17
e3
15
e3
f9
00
f3
e8
f2
f3
13
ff
18
11
f6
39
1b
e7
16
17
e8
c0
e5
0f
19
05
ff
f8
09
db
fa
e7
21
dd
12
1c
cf
08
01
