72
67
73
7a
75
69
76
79
77
7f
77
72
75
79
74
73
77
77
72
70
78
77
73
67
6e
5c
74
77
76
77
79
7a
59
66
79
77
79
61
6f
78
6c
73
74
56
69
74
69
6d
76
76
61
70
79
70
78
76
77
71
79
6f
78
77
78
73
75
72
7a
78
73
73
76
74
6c
72
70
70
77
7b
76
73
7b
75
7e
79
73
75
75
75
64
59
71
76
77
74
73
77
78
79
76
70
73
7b
7a
61
78
7c
70
7e
74
78
74
79
78
70
76
7a
75
73
77
65
78
77
78
71
75
74
78
73
