f1
ed
fe
de
0b
00
e3
f1
e5
fc
f2
03
03
e5
ef
05
15
fd
01
06
43
e9
f7
d7
c4
01
d1
fd
f8
20
01
07
13
ec
ee
ef
2e
25
09
fc
09
f0
03
17
04
08
d4
e5
f9
46
0f
10
0c
f4
e4
09
0e
c8
b8
d9
25
d6
38
fd
f5
e2
10
23
d5
ef
ed
1e
f4
e8
24
e5
e1
16
d2
fa
e5
d2
fd
1b
2f
06
0c
f4
01
ef
f3
f3
32
01
03
14
0f
e4
0b
1c
fe
02
01
0d
fa
fe
0c
f8
01
e7
23
08
1f
1c
0b
04
1b
e7
09
fd
e8
fe
ff
13
f0
e0
ed
eb
f8
01
10
f2
16
d8
fa
04
28
fc
f7
0e
12
04
0c
29
ff
18
01
1a
08
07
0c
e1
f9
41
ef
08
23
fd
d8
17
1a
fd
1d
fd
e8
17
1b
e4
f6
ec
12
cf
0a
07
e6
0a
1b
01
04
1d
03
d8
13
ed
21
e0
0d
08
1b
f8
07
18
fc
0a
fe
13
0a
06
19
03
f0
ef
f5
07
f7
f6
08
0d
20
db
ed
14
0a
11
0c
ff
d1
e5
06
e5
17
e5
0e
fb
fa
0b
e9
f2
1e
fd
ee
04
07
f8
26
08
d6
14
fb
f7
0e
ef
0c
04
e5
22
07
05
f8
22
11
f6
0a
ff
28
f0
08
1c
e2
01
09
1a
13
e4
06
0c
0b
ef
11
03
27
f1
16
01
ff
1e
e2
fb
f1
04
d0
d2
1e
fe
f5
f4
f4
07
e3
ef
10
fc
1c
12
db
fc
0e
36
ff
12
02
eb
05
09
b2
e2
f6
12
05
01
e5
e1
e7
22
2c
f8
20
26
f1
0d
06
d6
02
fd
10
1f
11
02
f9
22
e9
02
2c
f4
e7
0b
2f
24
38
fa
ed
ef
f3
e4
1b
e2
04
0c
ff
f2
0c
06
09
f0
00
ea
f7
22
f0
e4
08
e2
24
03
fe
02
eb
f3
c8
e8
22
0f
f4
ff
e7
02
17
08
d8
0c
07
ec
ec
12
0b
e7
f1
f2
03
ff
15
e0
fb
19
11
fd
2a
00
f7
02
01
1a
0f
02
fd
f7
fb
11
f2
fc
fb
f0
11
1b
14
42
c1
f3
0c
1a
fe
dd
08
f8
d7
e7
17
06
25
14
0e
f0
ef
ef
02
ff
e8
ff
0f
03
f9
11
2c
f3
14
0d
fd
f4
fe
e6
f9
1a
d7
20
dd
0c
d4
fa
fc
08
ff
0e
f9
eb
09
d3
00
dd
1d
eb
1c
26
ef
e4
12
f9
ff
f3
26
08
1a
0c
f7
e0
05
04
f7
fd
07
f9
0d
19
14
15
0d
fe
d6
e5
ca
42
e3
eb
ed
dc
1e
da
f2
fb
0a
14
19
f6
0b
eb
f4
08
36
04
f4
20
ea
11
21
fd
09
0f
d9
ee
17
eb
ef
11
dd
f4
0f
ec
db
e0
0d
1b
fc
04
39
dc
e2
f8
fe
27
c6
09
06
e1
04
04
ef
06
f3
f1
ee
0a
12
de
e7
02
14
1a
ed
0a
21
08
0f
fc
df
33
ee
fa
fc
0f
12
23
e5
fa
e8
c6
ea
0f
fd
fb
0f
d9
0d
fc
01
02
18
cf
e6
d2
05
f5
12
e2
ec
0c
df
ef
3b
16
f7
ff
06
e5
00
dc
10
01
f8
f0
16
ff
09
fa
ff
f7
e1
c3
fe
05
09
25
1b
f0
f9
c9
04
02
dd
15
2e
ed
ec
ce
37
f3
0f
cc
05
fe
0b
06
f7
06
e9
fc
fb
eb
24
f9
00
06
08
f5
f0
0c
1c
fa
08
17
0d
f9
07
14
14
24
0a
e3
ca
f6
f4
f7
eb
fe
20
ec
22
f1
fb
f2
42
27
12
1f
0a
f1
f3
ee
ee
f5
fc
20
00
0a
dc
04
fb
23
12
ed
f4
01
1a
ed
d6
e4
19
12
09
0e
ef
1d
ff
ed
19
e4
03
16
c0
fa
f8
f7
e5
f1
f6
ec
19
0e
21
17
0a
c7
e1
fe
e1
e4
29
e4
1f
24
e3
e2
f9
e5
2b
0d
f3
23
00
2f
13
08
27
e2
22
0d
f9
fa
1d
ff
03
e1
d2
17
f8
cc
d8
24
02
f8
f5
01
07
16
35
f0
12
e9
de
20
fd
f8
0d
35
ea
dc
20
f3
ef
04
f3
ef
51
f4
cc
e3
07
09
11
ee
1c
17
02
fb
ec
12
fa
0a
f8
0d
f2
f6
0b
08
e2
06
ef
d9
cd
fc
0f
04
e2
04
03
1d
12
2d
ea
f8
df
05
1a
07
0e
0a
32
fb
02
09
d1
e8
0d
2d
22
fe
3b
fe
12
1e
dc
ed
ff
19
01
1e
11
16
f1
f5
0b
e8
08
01
03
08
08
f4
fb
fe
f4
06
f8
fb
3d
e1
0b
09
02
01
fa
00
01
fc
dc
20
31
dd
09
ee
f1
e5
16
26
03
eb
e4
07
fb
c9
cf
fa
ed
0c
f9
ca
b3
37
04
00
d5
23
27
11
e9
10
f4
e4
ec
34
e3
00
03
f0
f1
2d
d1
09
13
03
ea
fc
0a
f5
f1
f0
ea
f2
01
2a
0a
cc
f0
cf
1c
0c
e4
e7
dd
f6
3a
e7
08
27
fb
23
ed
14
ec
da
f3
01
39
e0
1c
0c
f3
f8
1a
f9
fb
13
ee
18
45
13
f9
1d
10
2a
ec
cd
e8
f0
0d
23
11
f1
fe
4c
ea
f7
2a
f1
0e
08
dd
ff
fd
e8
f8
08
fd
e3
0e
05
40
19
fe
14
d6
0c
37
cd
f8
1b
17
e0
d0
13
26
12
04
07
f1
ee
12
ed
fb
fb
03
ea
08
e6
ff
bc
d9
11
0b
21
db
17
f5
fb
f0
01
de
d8
fb
b8
ef
2f
c2
e2
da
0b
17
e9
0f
06
f6
0b
ff
2d
df
c8
f3
e9
e6
16
08
f7
c3
09
1f
ef
e2
f1
36
01
e5
f6
05
e6
db
0f
cd
15
fb
05
da
04
f4
24
50
11
f5
e9
0e
f0
d1
ce
07
1a
fa
ff
17
0e
e5
19
f3
f9
0b
0b
ed
12
06
f1
fe
fc
04
13
f4
fe
0d
e6
e2
05
ad
fa
df
f0
21
29
18
d1
1e
15
f2
16
fb
28
0b
07
21
ed
2b
09
25
d9
e7
2e
0c
ee
10
03
f8
db
e6
fc
ed
e5
e4
09
e6
ec
27
2d
1d
02
01
0f
fd
15
f1
f9
de
fb
11
ec
03
df
ea
1e
02
ef
f3
bd
01
0d
49
1f
fb
ec
09
07
f9
01
06
16
dc
fc
ec
37
d7
fb
fe
03
e4
f8
fd
f1
d5
05
09
31
f5
00
0a
f9
13
01
fe
30
f9
f8
00
23
02
0c
e2
0a
ff
ff
3d
11
fa
fe
ff
e7
0e
eb
f8
08
f9
dd
fb
fd
ec
1d
ef
db
12
15
16
0e
0b
e9
c7
fa
10
4b
f1
fb
e3
10
07
0c
e1
18
24
04
0e
fc
17
fe
21
f2
dc
f8
e8
fc
e1
e5
fb
d6
0b
0b
0e
cd
38
06
0d
04
e2
ea
cf
fc
0c
fc
23
31
ee
26
eb
f0
0a
e1
ee
02
f0
e0
fa
0c
1d
08
38
eb
66
e0
04
0f
f3
06
1a
24
11
06
f6
bf
18
cf
f6
37
f9
fb
20
10
e9
ce
f0
0f
40
f3
e7
b8
e9
ff
fc
07
af
e2
0c
0c
2c
32
ff
f5
f0
25
e2
ec
10
4c
18
f7
f2
f6
e9
d4
f9
10
e8
0c
ed
fd
f5
fe
db
e9
19
12
3a
12
08
29
12
0f
ee
0d
f6
e8
14
d0
fd
1d
06
fa
e3
03
23
24
f5
10
3b
0e
e5
fa
f7
0d
f1
f8
f4
f5
15
f0
f2
1e
19
16
1c
f1
d2
02
04
2c
12
1d
04
26
f3
04
f9
ff
fd
1e
16
f1
f5
1e
e8
39
41
d3
0f
f2
05
09
03
ef
e5
e7
f3
09
02
d0
f7
f9
e8
03
e2
0c
18
ea
0c
24
fc
01
12
06
2d
0c
0b
ef
15
f9
dd
0f
1f
2e
05
39
25
f1
11
d3
25
fb
04
04
ee
e4
f1
2e
0a
cf
0f
15
11
02
1f
0a
fa
05
18
e8
f8
2b
00
13
19
f7
02
08
17
fe
0d
1c
00
01
e5
31
bd
2b
0b
fb
13
08
07
f6
09
f0
e3
26
f7
e1
f0
0c
1c
e4
fc
db
df
14
fc
ed
e9
dc
0b
0c
ff
f7
10
0f
eb
11
0f
e7
ed
f6
10
2f
e2
27
f1
f3
f1
e1
10
f3
fa
05
0e
f4
f4
ec
0f
ef
f6
17
10
24
f3
ea
18
1a
12
e5
e3
0e
1b
2f
0a
e0
fe
00
21
fb
f5
f4
1b
ef
0b
fa
fa
15
2c
0d
0d
0c
26
1d
fd
fb
01
0f
13
cc
2e
0d
44
de
22
09
eb
07
f4
0e
02
00
f6
01
fc
02
04
fd
09
e9
f7
f8
fd
e6
eb
f9
19
f0
15
ea
f0
ec
07
1a
0b
f4
db
18
d5
1d
ee
00
e1
f8
2d
09
1a
f8
fd
e3
ed
15
03
01
19
38
fc
d3
f8
f7
0f
ce
06
fa
02
0f
09
dc
f2
f4
23
0e
05
30
f5
fe
0d
e8
08
1f
e1
fd
e8
e6
c2
f8
ff
0b
1b
e9
05
2d
ef
18
02
2c
fa
ef
0f
f0
f9
e6
f9
de
db
0b
1c
f2
e7
ee
0e
09
cc
f6
f7
fc
f5
ee
cd
12
e1
db
dd
f5
1d
fb
12
f1
02
4a
1d
ea
1b
27
d1
f0
1c
15
02
06
19
fd
f8
09
e3
01
08
1c
ff
f0
15
f7
13
f1
fa
05
10
f6
08
f5
09
f8
25
06
d7
01
06
30
fb
e6
17
25
dc
d8
ec
07
fd
f9
d1
14
ed
dc
ff
f7
e4
12
ec
11
0e
e1
0b
fb
00
33
20
fe
09
23
d4
0d
03
1b
08
f7
11
da
0c
f7
3c
f4
ed
e9
e7
f8
f9
3d
ea
18
da
14
11
e6
07
00
20
e6
c2
01
06
f7
0e
13
f6
09
19
15
13
ed
f4
22
17
fa
f4
e7
14
e8
14
19
05
f0
07
10
45
fa
0f
36
f3
27
28
f0
d5
fa
03
f4
eb
0a
0c
17
fc
0b
ec
0e
fe
04
ff
06
ec
fd
f6
23
d7
0f
05
05
fa
0f
06
11
d5
06
04
f5
2e
08
1c
ee
0f
0a
02
ee
11
02
0a
ff
17
05
0e
fe
fd
10
ed
f0
fb
e1
fa
f0
f4
2c
06
02
07
14
cd
64
05
31
ea
ec
21
0c
01
14
0c
ed
1d
f9
e4
ef
03
00
1f
0f
f9
bc
08
fd
3d
d7
f7
fd
e7
f9
03
1e
07
1d
0f
08
ff
f0
0a
04
f2
06
e6
06
1c
08
22
2f
22
0f
f9
f6
02
27
03
05
fa
20
1a
09
11
cf
ef
f8
ec
0e
04
e9
eb
01
e9
0a
12
00
ff
fe
ff
0b
e7
0a
fb
f0
f6
0a
fe
e5
e1
04
fa
26
fa
04
ea
13
0e
10
ec
00
f9
fe
24
08
0d
05
e5
f0
db
d9
1c
f5
25
fb
fb
23
40
f9
1b
e2
ea
d8
13
03
1f
3b
14
08
1d
07
df
f6
1e
f8
f9
01
38
f1
ca
f9
2a
05
13
db
cf
07
00
fd
29
eb
03
ee
f5
15
c2
09
18
0b
16
e1
1e
ff
2e
39
00
0d
fc
29
24
f2
4b
fd
c2
17
c6
14
e0
1e
0c
f4
e1
fd
da
e0
05
1e
07
04
43
e7
1c
0b
2c
f8
f0
ff
00
f3
e1
07
ec
14
fb
ef
0a
fd
e7
0f
ed
ed
fa
f5
01
34
11
14
c6
ec
fc
23
dc
07
1c
06
09
f6
0d
23
0e
10
d0
df
f2
fa
fb
e6
f0
f5
f5
03
16
f5
d8
f9
16
de
15
1d
21
18
06
00
0c
05
13
e8
0e
f4
ed
d0
11
fd
dc
0b
23
23
e4
e7
08
e1
12
04
19
d9
06
ef
ea
01
04
f8
e3
17
ee
f8
e7
c0
2e
1d
01
1d
0f
0b
f0
37
2b
12
0e
14
11
3b
fa
ff
ee
31
fa
e3
10
f3
21
09
08
d7
05
ce
22
ef
0f
de
e4
ce
25
c7
03
1c
2d
09
07
ef
ec
fc
15
15
f8
ea
f7
fe
ec
ef
08
02
ea
0b
e6
c7
e8
d8
0d
05
05
1e
25
23
ec
ec
23
e6
3c
1b
f2
3d
ec
19
07
ea
f6
05
26
0c
f3
16
fd
0b
04
17
02
06
dd
f2
1a
f2
0d
00
e4
05
e9
01
f9
d0
f5
12
16
1c
f9
d8
11
27
15
ee
f0
f6
f8
0b
15
16
f3
e6
0e
d8
1a
ff
0e
f8
03
17
0c
e3
1c
06
19
fa
29
0f
13
19
00
fc
43
1f
e2
1a
fd
d6
06
f3
13
15
fc
14
f2
ea
0a
1e
2d
f0
00
24
e7
e7
e1
07
ed
d4
dd
09
09
ee
fd
24
0f
f9
f1
07
04
fe
09
ff
0a
2c
0b
ff
1b
eb
34
24
1d
ec
ec
ef
0d
0e
d0
eb
0f
0c
28
f8
da
ed
02
12
f9
03
de
14
08
04
00
f5
f3
f9
e7
f4
fa
07
14
f4
2d
07
16
f8
03
fa
fa
ee
3d
05
f3
0f
31
1e
c8
fa
d9
07
db
f2
15
01
fa
04
31
e8
0e
09
00
d6
26
0e
10
1f
e3
fd
3b
ed
fb
17
e6
f1
01
38
02
d8
e7
00
eb
fc
3a
f2
00
ec
fe
ed
fd
15
27
0f
0e
02
2b
fc
f9
0b
ef
10
ef
14
37
13
f9
06
0e
0a
0b
12
25
eb
e5
0e
09
22
17
f6
11
14
f3
fc
18
d1
03
cd
07
c5
1b
09
f1
05
04
e6
10
f8
e8
d7
f1
0d
d6
f2
17
f9
d9
ff
f5
12
14
fa
ef
26
f2
30
f9
0a
1b
ee
fa
06
e2
f2
fa
08
11
ea
f0
14
09
f7
14
ff
21
0d
17
fa
df
0f
fc
e3
f7
0c
e9
07
f9
f4
0f
11
00
04
1d
0b
0f
df
fe
08
f9
2c
f2
17
16
fb
da
ed
f1
12
f1
e0
0a
1f
03
f9
08
df
ed
0b
15
0d
06
1b
fc
05
f9
07
f2
1e
eb
13
d0
eb
d6
f5
fd
fa
14
eb
d4
0a
13
07
04
fb
10
01
e5
10
e7
f5
0c
e7
12
f8
25
0b
f2
d5
00
f1
0b
1d
e7
20
17
f9
f8
06
f1
f3
e0
f4
04
dc
ea
1b
27
cb
e9
0e
f0
06
f4
ff
e8
d0
15
01
de
0c
fb
02
1c
fc
27
cd
fa
f0
08
fb
eb
e9
fc
22
ed
33
2b
f3
ef
e2
01
08
38
0c
04
fa
f3
0b
fe
20
ed
da
0e
10
ec
fd
0a
32
17
fd
ea
17
ef
36
ef
02
0b
13
33
03
1b
de
fd
1b
3c
f7
11
1e
f4
f8
e3
1b
1c
c4
30
bb
fb
cd
ee
fe
e3
00
22
da
fb
ef
f6
ee
f9
f7
eb
05
19
f1
f2
01
f4
f5
1a
0c
f8
02
04
1d
ec
06
1e
f4
22
15
07
01
ec
1c
23
f8
00
f3
f3
0c
e2
1a
0a
cb
d4
d4
16
0d
09
0d
14
0d
e7
cd
0d
df
05
e1
17
0f
da
fa
e3
dd
04
1a
f3
05
dc
0f
dd
ca
f9
ee
3e
01
fa
d6
fa
c9
2b
28
02
e4
0c
0c
e4
f4
25
1b
05
10
f2
0d
03
17
0c
e1
dc
0b
f6
09
04
c2
18
15
29
1c
f7
05
fe
e3
11
35
0a
0b
ee
da
05
05
ed
f6
ea
04
f0
21
25
1b
dc
27
1b
c9
f5
ed
c4
ef
ef
19
02
30
fa
0b
ff
1b
01
05
43
d8
25
24
ed
e6
dc
ec
20
fe
08
0f
fb
18
23
24
e8
9a
ed
f7
18
10
2a
11
34
e7
c0
f5
dd
39
d7
f0
10
1e
fa
12
18
a1
19
10
1b
d4
dd
d7
14
27
3a
f0
21
13
31
06
e5
fb
f3
d6
fd
f4
25
ef
f3
1a
0a
bb
10
be
14
d1
08
0b
08
de
f1
16
39
cf
0f
e5
10
37
ec
53
3c
0b
58
ed
08
f9
11
f6
0b
fb
b2
fb
f9
0f
c9
ec
ed
42
f0
1f
fe
1b
fe
d7
00
be
e8
12
ea
f5
19
07
29
e0
e4
e1
e9
17
27
17
e5
e6
f3
e9
19
01
03
f6
15
02
26
ec
d5
c4
c3
20
ed
f0
13
e9
d2
1d
be
da
1c
12
0a
e8
0f
05
e0
f1
ed
f6
e0
f7
e9
06
ec
da
25
2a
01
db
e3
20
f6
0d
2a
f1
e5
ee
00
29
18
09
0b
18
31
d6
f6
ed
16
1d
13
ea
08
08
0d
ee
fa
19
2e
fd
11
d8
e2
24
1f
ce
13
e8
d1
d9
09
f5
0f
26
28
09
fd
ec
13
2c
be
09
1e
12
ff
cd
07
15
1d
fa
02
f4
f3
1c
22
ff
fb
ed
e6
f6
fe
de
0d
0b
15
05
23
f6
1d
e8
00
01
1e
0e
f7
fd
f8
04
17
fb
f5
01
e0
0b
ec
f3
19
e5
09
fa
f4
1f
10
0f
fe
00
f5
03
00
0d
fd
1c
e9
25
01
e9
17
ec
36
fd
fc
0c
0b
0a
08
e2
20
07
0f
f8
01
12
09
1b
f9
ec
1c
09
08
04
02
05
0c
13
1a
06
15
f0
2d
07
26
e4
02
fc
14
de
ec
41
01
ee
26
0f
fe
e4
f5
f5
26
17
ff
f3
fc
fe
e1
05
ff
04
0e
fa
14
30
0b
0a
e6
16
ff
19
0e
0b
36
0a
15
ff
15
ea
db
16
fd
10
05
13
f8
02
f7
f5
fe
3a
00
14
f7
05
16
f9
f1
fb
f9
f1
14
17
0a
eb
05
f2
09
ca
ef
0f
14
24
de
22
1d
31
14
e4
23
e2
12
04
e4
0e
f3
05
df
15
fe
fa
30
fc
09
e0
e3
fa
24
21
01
f5
eb
f2
e6
eb
06
07
ea
f0
09
f8
0d
fd
0e
06
fc
0b
0d
d6
1a
f6
2a
e2
f6
e3
f3
e5
0f
15
17
fc
d5
0d
fc
ff
16
f6
0f
f9
f8
ea
15
0e
11
f2
d4
01
1d
19
0b
0b
3b
21
34
29
f7
02
eb
ec
07
e3
ea
00
20
e7
f7
f3
02
f9
fd
fb
f0
ed
fb
eb
f8
05
28
fa
ea
d7
f5
01
11
f8
09
ee
f3
24
e9
03
14
fc
ed
10
08
fd
22
00
13
2a
e2
eb
1c
e7
d9
d6
08
fd
2b
fe
ee
0e
fb
f3
f2
13
e2
0a
dc
f9
f1
14
20
12
e7
07
1c
26
08
23
03
00
ec
dc
fb
f3
05
e7
1d
1f
03
e7
1e
22
04
20
07
0b
1c
08
23
17
1f
08
0c
fe
e3
d2
07
fe
ff
31
ef
03
1f
16
2b
1b
eb
e8
08
fd
ee
0e
10
cb
09
0a
e8
0d
06
03
e8
03
05
d9
d8
08
e8
f8
1c
fb
11
fb
fb
2c
ed
f1
ee
ed
1e
0f
fe
0d
dd
0e
08
f1
fc
09
fc
0d
11
e9
01
06
ed
16
0d
04
01
09
0a
09
e1
ee
0a
b3
f8
24
0a
fe
e7
02
1c
15
f9
f9
cf
ef
df
02
e6
e5
0f
ec
0a
0f
d7
e8
e3
dd
0b
0e
23
f3
d8
ec
e8
fb
08
f2
04
f7
f1
1c
fa
e6
00
f3
5e
ff
17
02
00
23
0a
f5
fd
1d
0f
2c
f4
e9
28
ed
21
01
1c
31
f8
f2
03
05
f2
fd
07
ea
17
03
ff
09
fc
ed
12
07
3f
e4
0a
f9
0c
e9
fb
07
f9
ff
e8
f6
e3
ff
15
f2
b4
35
14
f5
cd
dc
b3
e4
2b
f9
e1
20
1d
fa
f1
01
01
13
f5
16
06
14
ee
05
f3
16
09
fc
04
d8
11
0a
1a
ea
0f
0b
10
f5
02
16
10
01
0f
0d
01
1e
2a
f6
21
1e
1d
0c
2b
fb
d9
0c
ea
01
f4
11
ec
f8
09
06
dd
01
00
df
f1
2b
f3
08
f8
24
fe
ff
07
0b
f4
25
1a
f9
08
ff
c5
f3
f1
d0
f6
09
f7
0a
02
1f
03
ff
26
d7
0f
0c
1c
0c
f2
2f
f3
f7
ec
14
fd
ce
0b
2c
d8
fb
20
e5
12
f4
0c
14
22
00
19
1a
fc
0b
eb
e5
f0
01
f5
f2
0f
0c
dd
e5
09
e2
08
dd
ec
d3
f4
0a
0f
09
21
df
e4
30
e1
f1
35
0d
ea
24
07
18
dd
fe
e8
2f
06
09
da
dc
ee
fc
3c
02
08
06
0f
0c
f7
08
1d
de
e2
10
f6
ed
00
0e
14
25
de
de
e2
07
fe
f6
12
09
d5
fe
f9
f8
fd
c6
01
0b
4d
13
d8
ed
e8
22
eb
fb
f5
2d
0a
e0
e4
eb
1a
01
f3
f8
d5
23
1b
15
db
00
11
1a
12
f6
31
f0
f6
03
0b
c0
04
ee
18
00
ff
07
cc
16
2a
00
e2
ff
d8
38
d0
1d
5d
e9
16
ef
08
1d
f1
fa
01
36
13
2e
1d
3e
32
ec
de
1f
11
01
f3
18
fc
04
00
fb
04
14
ff
e8
03
eb
e7
e4
d4
e4
ed
fd
fa
d7
d1
0d
f2
1e
cb
31
ed
d1
0c
e6
05
f4
11
06
f4
08
fa
f4
ca
e3
e4
fc
d5
f6
fa
ea
ff
0c
06
f7
e5
e4
f8
06
f1
11
e6
00
fe
05
1f
f1
c4
f6
fc
d8
ed
15
01
f0
1a
e7
01
e1
f1
ed
0c
38
0b
fc
e6
21
09
0e
e9
f0
d8
ed
ce
01
15
f4
f2
28
0c
12
0b
f5
15
c4
0a
3d
f6
0d
df
22
f5
2b
0d
e5
f5
fd
0d
16
f8
f1
22
0e
ef
ee
34
02
e7
f2
e0
ff
f6
e3
e9
fe
ef
11
e8
04
14
06
0d
f2
0d
e8
06
38
f7
e4
26
16
08
ec
fe
de
07
26
d4
00
2a
02
07
ec
eb
06
16
f9
f6
f1
09
ee
13
28
08
f8
f6
f8
03
10
06
12
05
34
12
33
1b
05
fa
fe
11
0a
0e
04
f5
e4
27
1c
22
fc
02
23
20
e2
0e
ee
10
1a
ee
36
03
de
f0
fc
01
f3
ef
ed
1b
f7
18
f0
e9
fa
ca
00
ec
26
1f
f2
01
18
1c
1c
03
0c
00
fb
18
14
27
e7
06
fa
10
0b
03
fb
0d
0a
fe
0e
07
f3
f1
02
18
f1
f4
fe
10
02
0f
07
f6
00
09
14
02
0d
f2
0e
fd
05
e5
fc
fb
f6
1d
16
f1
01
e3
28
28
e3
08
fa
05
eb
0a
ff
2a
01
e8
ec
ed
f6
dd
f6
00
f3
f2
2f
2b
16
26
fe
3a
19
02
d6
09
eb
f1
23
07
07
23
25
dc
ee
0f
fc
f3
f1
d6
e2
16
f1
07
33
fd
d2
0b
d2
f1
dc
13
21
09
f5
e5
ea
03
e8
e4
fd
16
24
04
05
fa
0f
0c
ed
e3
11
e1
08
1a
ed
db
fd
d8
fa
df
d0
14
2a
fc
0d
f3
f0
f9
20
11
02
ed
0b
01
db
19
0d
22
0e
04
fc
06
fa
f1
10
f7
07
28
e8
15
14
ef
15
0e
f3
01
2b
12
d6
ce
02
fb
1e
32
04
13
14
ec
ff
06
0a
26
0f
0c
0b
fc
e6
14
13
f9
ff
0a
23
33
27
f9
17
fe
f8
f2
1a
ec
08
10
00
08
23
07
10
21
e2
35
07
cb
21
00
f2
fe
fd
1e
2d
10
15
d6
00
02
1f
e9
f0
d7
f9
f6
f0
f0
fe
fb
e9
07
ff
f1
23
14
f3
07
e6
03
f5
eb
15
f0
07
dc
f8
e7
46
24
f5
fd
f5
1c
fd
e3
1b
d8
fe
16
02
06
0b
14
1e
f9
33
c1
03
df
1c
11
fb
16
03
29
eb
f9
01
22
e5
31
10
f7
12
ff
16
f1
f5
df
00
be
ea
e1
07
e1
0e
f2
e3
fc
15
d5
de
f9
d0
17
f4
1a
0f
14
18
0c
e9
c7
0a
0b
f6
1a
0e
08
05
05
f3
cc
07
f4
ec
00
35
f3
e7
eb
c3
22
02
eb
f1
ef
03
ff
fc
20
10
d3
d9
e5
15
da
01
f7
fa
f0
20
fe
f0
fc
15
09
1c
ee
09
f8
01
1a
05
13
fa
20
fd
18
c4
fe
fa
fd
ce
21
1d
f0
0f
13
02
fe
0b
cd
cb
c3
17
e5
ed
16
24
f0
fc
f8
1b
08
31
f8
05
e6
1a
0d
0e
ee
df
e3
f9
fc
f8
1a
00
fd
ee
1a
11
13
18
0a
03
04
05
15
32
f7
f0
00
16
34
14
cb
f1
1f
fe
da
f6
d2
ff
e4
e1
f2
0e
02
ff
09
27
14
d0
ff
00
c8
fd
21
03
06
ef
10
10
e6
33
07
fc
10
01
fd
ff
e2
d5
02
36
eb
09
32
ee
fa
0a
07
0a
fd
ea
f8
f0
0c
21
f8
1c
e8
09
46
fc
1f
da
f9
1d
ee
ce
f5
20
f5
27
18
e8
24
10
15
02
29
e9
d1
ff
e6
d7
e7
fd
1c
e6
d9
0d
29
bb
fc
e9
11
2d
fc
fa
14
ec
fc
ea
fe
00
08
19
15
06
18
01
14
03
fe
fe
1e
f0
e0
25
02
e9
fd
d9
ec
f5
00
fa
fa
f7
c7
d9
01
00
1a
0d
f5
fa
f7
00
06
06
04
0c
cf
02
13
17
08
0e
ea
13
eb
f1
04
ed
f9
fe
f0
ec
22
e9
02
dd
0a
fb
f6
17
15
16
1b
e9
fd
19
f5
0e
13
de
f8
11
f6
eb
fb
14
ec
fc
f1
14
26
14
0d
03
f5
e7
ed
0f
f6
f3
05
35
04
e3
1e
f3
d8
05
fe
1f
03
08
06
f3
d3
fe
01
e3
ec
fa
08
e8
07
f4
db
f5
00
10
fd
02
0d
0d
ff
dc
ef
13
05
e3
06
f1
d8
24
e5
e3
32
09
e0
1c
0a
33
0b
0a
f5
fe
06
fe
f3
13
f0
25
00
1e
05
00
0c
14
0c
06
03
fc
d7
3d
00
ec
ec
08
20
16
06
ea
f6
13
0a
ed
34
fb
0a
dd
c1
0b
05
ed
f6
f0
f9
f2
e6
09
d1
f8
06
34
19
0d
cf
e9
f4
04
ea
ff
0b
13
f2
ee
fb
06
fa
ff
19
0d
13
10
f4
25
e8
02
df
f1
15
fd
07
ed
fb
e8
d5
ff
20
de
e7
13
04
04
f9
03
df
d6
08
dc
33
16
09
00
08
17
07
15
fc
f3
35
f5
ed
df
ea
1f
e8
ef
19
f1
f6
1b
e9
ef
0d
19
34
2b
03
d7
ff
00
e4
fb
e6
05
df
fb
fd
0a
e8
12
09
e7
09
ef
1a
0b
f6
fe
0e
09
26
fa
f9
14
f1
ff
02
0c
10
fe
d5
10
20
e7
0d
13
08
b9
0e
eb
3e
0e
f1
d3
e9
12
ff
10
30
c4
fb
04
20
11
17
da
fb
f8
d2
12
f9
26
16
f9
fd
f4
e4
ff
f1
11
23
0d
09
f9
ea
0b
d6
cd
19
e7
e2
fb
fe
e8
d2
4e
58
1d
f5
ea
f6
ff
f2
0c
e9
0b
04
db
a6
b2
e2
f8
1f
17
29
e7
08
ef
ed
05
fe
06
08
07
f9
f6
10
06
ff
03
f9
ed
f3
0e
01
4a
ef
e1
fe
3e
06
fe
d3
14
e5
f3
ec
e2
cf
e3
15
40
08
3e
eb
ed
fa
1c
a7
0c
df
f2
1d
01
1f
d9
fc
fa
12
03
55
e6
22
ff
59
41
2b
ed
c8
da
cc
0c
07
0d
a2
16
1b
28
3a
1e
0d
47
d2
e5
f7
ec
04
1e
ed
f5
11
06
d6
2a
2a
cf
08
16
bc
d0
22
1a
24
10
31
12
c9
21
18
83
00
26
1b
10
05
22
ea
05
18
17
08
2e
38
f4
04
12
12
d2
1b
ea
f4
e9
13
08
0a
ef
f5
e4
09
1a
04
e7
fa
e0
d7
04
15
06
e6
1a
24
01
15
d1
25
cf
e5
ec
c8
16
00
0b
e0
43
e5
3c
1d
f9
fc
fb
08
07
32
1d
ed
04
d1
05
14
fd
f1
2d
22
fd
10
10
e5
fe
07
e8
21
f8
06
09
ef
e3
dd
eb
e1
08
13
08
0f
08
e6
1f
0d
e1
f3
22
0a
ef
07
05
ef
e7
0d
ff
fb
fd
fd
fc
07
fe
03
05
15
1b
d7
1e
33
0b
19
f7
f9
31
e3
f7
e2
f6
f8
d3
18
f2
21
ee
f5
d0
f3
1b
f2
da
1a
10
f7
05
f6
f9
19
1d
fb
ea
12
eb
0b
05
fe
03
03
0e
0a
06
13
e9
1b
0e
f1
11
f0
f3
e8
0c
13
ed
de
0a
0a
31
08
da
f1
f5
2c
e2
24
04
0b
ff
f0
f4
f1
f3
19
df
d5
0d
d8
00
ff
13
fc
f0
f5
3c
13
e5
43
ee
fa
f7
df
e0
1f
fe
09
14
ab
13
f8
eb
d5
ca
25
05
fa
0b
ea
ea
14
fc
0f
f5
f1
0d
da
0c
19
1b
cc
01
fa
e2
ef
f3
f5
ef
02
e7
0b
fb
18
0d
fd
32
17
23
17
f5
1e
32
e3
0b
e6
0c
17
f2
22
c6
34
08
24
b8
11
f3
25
1c
de
e3
01
ef
1f
2c
db
00
da
ff
1a
04
f4
16
08
01
0d
05
10
02
0d
f1
f1
10
f7
19
ff
d2
0c
21
1e
ea
03
14
1c
f0
3e
09
f4
0d
0b
f2
0a
e5
fc
12
16
13
ea
d5
26
ef
fe
05
e6
ff
09
fe
0a
f2
f4
e1
2c
fb
3a
0e
f5
e7
1f
f6
fc
23
ec
e9
0e
f7
f2
e8
fc
44
cd
da
22
c5
fa
e4
06
f8
1c
0f
22
0e
fb
f5
23
04
ee
1e
0b
23
fc
02
25
02
f8
1f
f7
f8
08
fc
00
15
10
15
04
fb
f0
2a
f5
f3
0f
0e
08
1b
f1
00
06
01
ff
04
01
08
0b
1a
03
dc
f1
18
1f
ea
16
ee
f3
02
ed
e2
09
fd
e6
06
43
ee
0f
f6
e7
03
f7
e4
f6
f5
fe
1a
08
e3
15
10
d0
21
f0
00
14
20
06
f5
21
1b
00
02
10
e1
da
04
01
11
09
07
03
f4
ff
e5
18
f7
d9
fd
0f
ef
d0
01
2d
1d
fb
04
23
12
dc
07
e5
e2
09
03
0f
0f
f1
04
0e
08
fb
f8
0b
0b
1b
02
1a
f3
07
ef
f9
e3
31
ef
eb
f5
dc
26
f3
09
29
dc
04
ea
04
d5
f3
07
ef
ea
0e
d1
03
dd
0a
12
f8
1f
f8
fe
21
f1
03
24
cb
1f
0e
07
17
03
02
fc
09
13
fb
23
e2
0e
1d
00
00
09
1a
f2
03
0f
21
d8
fe
e7
01
f3
f2
ea
3f
eb
1f
14
04
00
26
09
f6
cb
e6
03
d7
e3
f8
26
ff
0a
24
1e
fc
0b
5a
2b
05
16
00
f7
ec
02
1a
18
ee
05
eb
1a
0d
0a
03
e7
ee
15
13
e4
e4
2f
f9
ff
f5
15
00
2a
24
21
d1
ef
01
e6
e9
da
ed
18
04
0b
15
06
05
29
0d
fc
0c
d9
ff
d6
2f
e0
0e
de
fe
08
13
df
19
fb
03
15
0e
03
07
f1
d8
01
ea
f1
03
dd
e5
dc
fd
18
f3
02
fc
1b
db
cf
17
fb
05
0b
f1
d0
eb
10
1f
25
0d
d5
23
09
d9
0d
00
4f
20
09
34
ef
18
19
0d
f7
10
12
3d
00
06
17
16
f6
f1
09
04
0a
00
0e
f6
fe
18
eb
e8
20
2e
fa
ff
ef
2d
12
0b
02
0c
fa
04
fe
b8
24
e8
e3
ef
03
16
17
ed
f6
2a
0a
ff
e7
f4
07
f0
d8
1d
10
01
f0
ff
f2
25
36
df
1b
de
f6
08
fa
1e
d5
f1
db
2e
0f
f5
f8
ca
ed
38
0f
1d
0a
43
0f
ff
e5
1f
f0
e3
2a
0b
f9
1b
24
e0
da
e3
14
00
df
e5
eb
f4
18
ef
0f
04
ea
ef
26
03
12
0f
f7
16
04
05
dd
c5
04
03
fa
ec
35
23
f5
f0
0d
e2
db
e3
0d
00
38
07
11
2e
0c
25
ed
0a
fc
23
0f
14
f2
1d
fc
1e
f4
1b
f2
f2
0d
fd
18
dc
0e
f2
ce
16
f8
02
fe
fb
fb
18
0c
15
f9
f7
1b
f5
15
d7
17
0e
00
e0
01
e8
d9
01
e4
11
10
cf
d5
ff
ee
2b
fc
06
f0
ee
f0
e3
f4
e9
1e
e7
0d
fa
10
ff
25
e3
02
17
18
ef
fa
0b
fb
12
ed
f6
cd
19
12
0a
f2
19
07
f9
f8
25
03
fb
07
0f
12
0e
ed
07
fb
f0
fd
00
f7
11
fa
f8
08
ea
fb
1a
31
f4
1c
d9
d3
fd
06
d9
ef
1f
fb
f7
fe
29
14
0c
18
0b
0d
eb
08
09
d7
10
31
10
16
1c
fe
fc
21
ee
0e
0e
12
31
0b
dc
07
e6
ff
ed
ef
de
18
ed
00
27
0b
f3
1a
18
13
17
e2
13
14
ea
2f
ff
45
1c
ef
0d
19
c7
da
05
18
0e
2e
ea
0b
fd
db
0b
08
f6
14
00
13
e5
2c
eb
37
12
e2
e6
ea
fe
1e
22
f8
d8
d3
11
f4
f7
3a
f0
07
fe
e8
25
06
f2
ef
15
fe
0a
24
df
fe
e9
0c
f8
22
1a
14
05
07
e6
09
0e
0f
f9
0c
f1
10
1e
f8
ed
31
1b
3b
f5
ee
1f
38
1d
ed
25
2b
03
13
be
50
02
e8
ec
04
05
f3
05
05
fd
02
f1
eb
1e
f0
2c
f3
09
e5
d5
de
e4
df
0a
f8
dd
01
eb
19
fa
1f
1f
f6
0d
07
18
f3
08
28
ff
f8
17
d4
eb
1a
e3
fb
06
fe
1d
19
0e
16
1e
cb
13
23
1e
37
20
fb
14
d6
17
e6
ee
0b
fe
de
fa
dd
ba
f9
02
f6
1d
2e
32
39
f9
f0
35
06
db
0a
f6
f1
32
de
d7
e0
f3
03
ed
ee
1b
e8
0d
06
ff
ee
1c
12
f5
f9
e3
fc
1e
19
fd
dc
15
ba
ef
ff
09
1b
fa
f5
06
20
dd
0b
01
08
e8
cb
fb
f7
1c
32
0b
40
18
09
dd
ed
fe
0b
d0
2b
24
11
e8
ca
da
01
f1
cd
e6
48
14
fa
1a
d2
f4
3a
07
f2
ef
e1
96
d6
d6
f5
1c
d0
8a
54
0d
c0
11
05
c8
30
21
27
d5
04
0c
10
10
2e
12
04
04
00
d7
fd
f2
06
09
2c
fe
de
1f
e3
19
c1
ef
a6
fb
25
f5
f5
11
ea
fa
05
f5
fa
f8
13
05
0f
0b
fb
0a
19
0e
0f
10
f1
00
05
f8
01
26
ee
03
17
fa
ee
fd
fb
19
08
08
37
00
fb
4f
00
e5
ed
eb
cc
e3
01
04
58
f6
fb
28
f6
17
1d
09
fa
24
eb
34
f8
f2
28
09
0a
f6
e7
28
21
df
1d
ed
ef
fb
19
16
08
0c
02
d2
ef
f4
10
19
f1
e9
b4
1c
c9
12
00
0f
1b
05
08
c3
fb
1f
2a
e2
b0
1d
e7
35
18
27
ee
18
f7
f3
f4
20
0f
ea
fd
eb
0c
16
1d
2f
05
e0
06
f5
f0
2a
04
f3
fb
f2
2b
e6
f2
19
21
3f
0e
0e
33
18
c5
0a
ed
da
1c
00
f3
e5
13
f0
f1
f8
ef
02
f3
05
18
13
e2
d8
02
11
1a
00
fe
f9
1a
08
ff
24
e2
f3
d7
02
ed
ee
e1
e8
f7
0f
12
0a
dc
d3
10
0b
f6
17
0c
06
08
1c
ec
01
df
ee
03
d6
f2
18
05
00
13
06
1c
e4
2a
fe
ff
ef
d9
e9
e7
09
0a
11
f3
13
f4
db
f4
0e
f3
1d
fe
fc
ed
ff
f9
ed
f8
14
06
10
ea
f7
e9
0c
10
14
ee
f8
07
f6
1e
dc
eb
fb
1f
ee
f5
e6
10
ea
ea
f5
f7
01
fd
f8
e7
f0
0d
c4
e3
eb
f0
10
f5
fc
14
dd
f6
0f
0f
08
f7
0b
fa
02
10
14
e3
ff
10
ea
f5
1b
f5
fb
0b
0a
e4
f2
13
d8
e0
f6
09
1b
08
ec
07
24
08
1a
f9
29
eb
17
f6
f8
f1
0c
11
fe
0f
ff
f5
02
ef
e5
ef
f9
07
dd
f4
15
00
f9
08
11
15
0d
f8
40
ec
0d
1e
2f
0d
01
fe
fd
0e
f5
1a
07
e1
f7
17
02
00
1a
1b
e0
14
07
f1
fb
e9
fd
0a
21
13
08
26
e2
ed
e1
f0
0b
0f
0f
da
10
0b
d8
e7
05
db
05
ed
f7
1b
1e
36
06
f2
ef
ef
de
17
da
02
28
22
d8
06
16
f4
09
e7
f5
0e
fe
e8
0a
09
ec
18
f4
f7
0f
11
f6
24
15
19
f5
15
f5
0b
f1
fc
05
ee
e1
e1
f9
14
0d
f5
36
20
19
2c
0d
d1
25
1b
00
e2
ff
eb
02
eb
f8
1d
24
ed
43
d6
10
11
ed
11
08
29
f4
12
12
ce
f8
05
2b
04
1d
00
da
ea
00
36
c3
20
f9
04
19
ef
ef
0a
fd
e5
13
e6
10
12
17
e5
d4
fa
0a
fa
f9
ca
0d
de
ea
02
d7
dd
23
fa
10
00
e9
11
ed
fa
f4
2b
07
2b
0b
06
e2
0b
cb
e7
fd
27
16
cd
e1
04
f6
2b
f9
0d
0d
35
1e
d0
e0
e6
e3
e1
0d
ef
18
30
df
f6
ea
ec
2a
e1
18
22
f6
37
01
ef
1a
1f
fb
0d
0f
3b
ff
f6
ab
e7
0e
d1
f4
f9
2d
f4
f4
0e
ef
01
fe
e2
e6
15
12
03
23
ed
ff
f4
f1
17
ae
29
12
da
03
ef
c6
f3
20
17
08
10
ef
e4
09
fd
ea
03
df
06
e7
ed
e1
fe
1f
26
01
04
11
25
f7
13
1a
30
f9
e9
1d
1d
f0
fc
f3
15
f6
dc
03
cf
e7
f9
00
f5
ba
09
11
01
d3
04
c7
08
08
10
02
e8
ee
0b
d3
2d
d8
2b
fb
dd
dc
11
f1
0b
03
06
f1
dd
03
e2
e6
fa
20
0b
ff
eb
d6
07
11
1b
2c
07
ff
e6
25
01
fe
db
1e
23
1a
15
a8
03
eb
fc
f4
f4
fa
ea
33
17
f2
ec
d9
04
f5
27
0a
ff
0f
15
22
d9
f6
f6
f6
20
00
f6
27
11
eb
06
11
f2
1c
ff
f5
0c
0f
e8
03
0e
08
13
24
14
f5
fa
08
f4
08
0a
17
e7
f1
09
cd
1c
fe
31
ef
22
ce
27
02
fb
f7
f5
ed
11
11
09
ec
f3
f0
f0
e6
18
e5
ee
22
e2
02
05
03
e6
25
d8
e2
fb
04
f8
e8
27
00
07
34
00
00
1f
07
f5
f9
d8
fb
f2
02
06
0b
09
fa
f4
ee
ed
f6
f7
f6
ff
ff
13
11
26
09
c4
fa
03
fd
08
e0
d7
fd
ed
fe
f2
dd
0a
ea
f7
10
f9
fe
f4
f5
e5
fc
13
fe
fb
12
03
33
fd
fd
10
f4
eb
ee
f9
10
fe
07
06
06
ea
d9
ff
18
01
fa
01
fa
f2
f8
01
e5
06
25
15
f7
07
02
07
0f
06
ea
06
0c
e4
f0
02
18
e7
e8
13
e4
29
e2
1b
e1
ee
01
fd
27
1b
f5
19
e6
ff
e8
d8
11
0f
d7
fa
0f
02
e0
f5
11
fc
fb
fc
01
f1
f6
15
e6
f5
09
28
02
f5
18
e3
d9
18
ee
e9
36
00
01
2a
02
1c
14
0f
10
03
e1
e6
f8
e7
2b
f5
f2
0d
16
10
ec
0c
e7
fc
10
ff
f0
eb
0d
00
d5
11
fe
21
10
fb
f8
d9
07
0e
ff
16
03
1a
c2
18
03
2d
fc
ee
2f
33
e1
ea
0c
cd
e2
3a
0b
fc
f4
e3
de
fc
f2
e0
d3
1c
d8
2c
f2
16
ff
d4
df
e2
01
fe
0c
13
f9
17
fc
ea
06
2a
0a
fc
bf
16
fd
fe
0c
dd
01
22
19
ed
18
05
0b
f3
08
15
0c
00
07
0c
da
06
f0
28
ba
f8
ef
fe
0a
28
11
df
13
f9
f2
00
22
f0
09
15
d9
1b
f7
ec
16
f5
06
05
fd
17
f8
f1
ee
1c
fc
f5
fc
f2
08
e3
f3
00
e8
16
e9
d0
17
0f
df
06
ea
f6
04
f6
1f
f2
fc
ed
f7
ff
fb
e6
0c
1f
fe
ee
2b
dd
09
09
fd
cc
07
00
15
ea
1d
04
08
f6
fc
16
09
ed
d6
e8
07
fe
fb
01
fd
ee
0b
1c
df
fd
00
ff
10
05
07
1d
03
08
fd
d8
1d
c8
08
cb
04
e9
03
f7
2b
23
0d
f0
17
1e
d9
08
1a
10
e8
b9
fb
d3
e6
0d
dd
f5
f5
ef
fa
d9
07
02
fc
05
07
eb
fa
fe
fb
06
10
09
e8
f3
0c
f4
0b
d6
14
e9
01
0d
f5
1b
03
1e
02
12
e1
ef
d0
0f
09
fb
0a
f7
e5
fb
e0
f5
16
f7
32
e6
f4
f4
0e
ed
ef
fc
2e
00
03
0d
18
f0
30
01
e3
d4
df
25
24
23
d5
f4
01
09
15
e5
03
01
f9
10
ee
e9
14
0c
10
07
bf
0d
00
f6
0e
e3
f9
e3
c7
e1
19
1d
0c
fa
08
06
0d
ef
fd
1f
f5
0f
0b
0d
06
0b
e4
f8
0e
07
1a
f8
02
02
ec
f2
2d
c1
1e
13
3f
e3
1c
ea
10
09
10
cc
f7
fe
ef
00
08
fb
f9
0a
03
ed
f8
dd
07
07
0a
ef
e7
ff
ec
03
ee
06
f0
ec
fa
f8
ea
f9
00
0a
e7
fc
15
20
fc
e3
15
f2
21
01
0b
fa
15
e5
14
f6
f4
23
fe
f3
f4
df
e8
ed
14
23
21
01
e9
f2
14
09
fb
09
0e
24
16
0d
f7
d9
f2
f5
1c
22
e1
10
13
f4
fe
fb
01
f0
1b
01
00
f2
0d
25
e7
2b
11
1a
ec
05
12
f5
f3
18
d3
11
14
0b
d0
e4
e4
dc
d5
ec
0b
0b
13
f0
3b
f8
d8
09
e9
0e
04
13
fe
21
0f
0f
13
ea
42
fe
00
f8
10
f0
fa
c3
f6
fd
fc
eb
fb
1f
0e
de
f3
f7
14
04
e3
16
e7
f4
07
ce
04
00
0c
e3
16
07
ef
1a
e8
0d
fb
1a
fc
2f
dd
1a
eb
07
f8
ef
ea
f1
01
0e
e8
17
ff
08
d3
fd
01
f0
fb
ec
29
fb
18
ef
1a
f2
07
08
e7
f8
f7
04
05
eb
0b
18
f9
08
fd
10
ed
d0
10
f4
01
de
fa
29
de
16
fc
cb
fa
f4
1b
0f
30
04
21
d5
04
07
e4
1f
10
0d
0f
ff
f3
e0
0f
ef
f2
0f
02
04
06
2b
fe
ef
00
f5
17
0f
0d
22
1d
1a
27
3f
01
f2
04
16
f1
14
0d
0e
f1
22
df
dc
00
05
07
10
e3
f7
46
f3
05
e3
f8
0e
0a
d7
c3
fd
ff
e2
e5
08
3f
02
07
12
45
ee
01
f7
fb
e2
c2
12
f1
2d
1f
f6
e5
11
05
16
1d
25
f9
e2
e8
f2
23
fd
ee
e4
1b
0f
f8
24
ee
16
d6
09
1e
36
e6
f6
37
0f
1f
1c
16
40
34
fa
d8
d9
01
0a
07
e3
f6
f8
dc
12
cb
32
c6
15
29
2f
37
b5
f9
ce
18
f9
08
01
25
f6
18
0f
11
12
cc
12
38
07
04
0e
c9
20
ed
2d
13
f2
20
12
3b
1a
db
01
da
13
ea
e7
17
e5
f0
0d
fa
e1
15
13
2e
13
06
0b
f2
fd
19
17
06
31
19
e7
0a
18
28
3d
fa
e9
2b
25
0b
fa
fd
05
35
f0
ec
e8
18
e7
e6
20
06
f1
f4
ef
db
0a
e0
fc
29
fa
fc
fc
f9
df
01
e2
19
0c
f6
da
0e
fb
f7
00
1d
17
ea
10
f8
03
02
09
ca
06
07
0e
f7
e1
e7
ec
04
de
09
12
20
fb
ed
ff
22
e4
09
ee
0f
f3
10
e3
f2
e6
13
24
1f
0c
40
08
0e
11
04
2c
1c
00
12
e8
35
04
09
f7
12
e0
04
fa
1e
03
ec
1a
f7
fa
db
08
16
f4
dc
02
fb
00
e6
04
03
0d
f6
d6
f1
10
00
1d
02
1c
fc
f4
eb
08
fd
0c
db
ef
fe
e9
09
07
32
23
fd
fe
17
07
f6
e9
e8
0e
09
11
ed
f5
1a
fa
fd
f2
ef
f8
00
de
16
fe
ec
0a
df
02
da
d7
17
01
ee
0f
f7
e6
d7
0a
01
01
fa
f2
f5
14
ef
2d
fa
fb
0c
ed
21
e5
ef
f2
07
f6
f6
d2
06
ef
07
f0
ee
d7
f0
03
e2
ff
1d
fc
f1
0d
09
f4
d1
ef
f1
fe
19
0d
02
26
17
2f
18
0a
1c
de
03
fb
dc
0f
f9
34
fa
e3
ea
13
da
0c
22
ee
14
17
ef
06
f6
f4
db
0e
01
ea
ea
20
19
f2
ff
ec
e1
11
21
f5
fc
07
03
f3
08
02
c1
ec
ed
f4
ef
f7
01
07
f5
e7
fd
01
00
eb
24
f4
00
ef
26
fe
db
21
cd
eb
2f
f5
14
ea
36
ff
fa
e8
e9
f8
fc
16
23
e8
d7
27
ed
ee
29
ee
04
17
fc
07
f6
0b
08
12
f4
d5
fe
12
09
0d
cb
e6
fe
1b
f0
eb
fb
e0
39
03
04
dd
fe
ed
f6
e3
01
d9
d0
fb
0e
23
ff
16
0f
14
c9
4f
f4
de
20
2a
1a
d2
04
0f
1a
0a
f0
0c
17
e7
e8
0e
d8
dd
01
f4
dd
12
ff
28
0d
df
00
f0
02
e2
0b
de
16
e5
eb
1d
e5
f5
f3
eb
f2
07
fe
f7
fe
fb
d8
fc
ef
f8
de
e7
f0
01
fa
f4
17
d8
11
0d
20
28
fc
ed
0f
33
21
d3
ee
16
20
1f
ee
d0
11
f6
07
06
f3
ef
19
03
0a
f8
23
0b
01
e7
18
fe
f3
2f
fd
fd
dc
ea
fc
11
d2
d7
06
ff
0e
22
03
f6
63
26
ff
50
0d
f0
fc
ff
fb
1c
09
10
2e
ef
18
fd
02
be
cb
2d
fe
02
ef
0d
e8
13
09
1a
f2
0f
04
fd
ff
0c
f5
1d
12
f1
1f
17
07
f7
ff
e4
02
d4
f5
f2
2c
f4
11
f4
08
fa
df
fc
f5
28
12
e5
f1
ec
ef
f7
ef
e5
40
01
1c
f3
08
f6
19
e0
d9
0e
22
d4
ed
06
07
42
04
02
32
05
e9
44
d7
d8
d8
ef
11
0e
32
eb
18
1a
d3
e5
01
e7
f2
25
06
04
15
39
14
d6
eb
25
31
16
02
fd
04
10
e4
c6
cf
ef
c7
0f
cc
06
20
0c
28
ff
1a
02
04
e1
f5
2a
2e
33
ea
f8
e9
ec
fa
f3
d8
05
03
08
3d
cd
1e
05
fe
af
e3
f7
11
15
f3
e9
da
e8
00
fd
15
1b
f3
03
0b
0d
ef
e8
13
f1
d8
28
0e
fa
f2
f7
f4
fb
4b
0b
1c
0b
fa
fc
b6
c3
f9
d7
25
11
fc
02
fb
fe
1b
e7
f8
f9
ef
0e
fc
ed
ea
f6
1e
01
e0
fe
0b
f2
df
f1
3d
0f
f2
25
f4
eb
f3
f4
e4
20
ba
e6
d4
f6
07
0e
2c
f4
c9
f3
01
1e
ff
22
29
00
07
ef
da
db
24
00
d9
29
fd
f5
0c
08
07
f8
13
40
1d
e8
04
ce
1c
11
e5
25
e1
fe
45
ce
14
01
da
d7
ff
fb
c3
d5
e4
f3
f2
04
22
b9
fe
d0
f3
fa
15
1b
1b
0c
f9
13
06
01
16
cd
03
d8
ed
11
20
e1
fe
ea
2b
c1
f8
f9
f9
0f
fc
d4
2d
ec
09
e8
12
04
07
0a
33
f5
e0
fd
02
f4
ec
f4
20
e4
f1
2e
ff
11
0e
e9
04
30
1d
eb
1b
f0
3c
0f
d9
02
17
08
03
16
03
2c
f7
0b
f6
02
3e
c9
e0
ee
cc
0e
47
02
ec
07
f1
0d
e2
d5
2d
20
20
e9
07
e8
3a
e1
dd
e9
ef
0a
1d
12
f0
d4
e4
d2
0e
0f
f8
08
2a
13
23
22
ca
e8
c5
0e
39
e7
da
1f
f2
1e
ef
ca
24
1b
e9
ec
f0
1c
17
f1
fe
20
e6
2a
fb
00
39
f8
14
3e
ed
d2
ec
e1
fe
13
10
4e
f9
2c
f5
19
19
d7
f0
18
f4
f5
cd
0d
f5
05
f1
17
e5
fa
10
de
00
ff
12
eb
0b
07
e0
fa
f4
05
0e
d9
1c
f1
1d
2f
c7
09
ea
c2
23
f3
d6
3a
00
3b
08
eb
1a
21
f8
e9
08
1c
01
00
e1
02
f2
12
e8
28
18
e6
fd
0f
04
03
1d
f1
cd
f9
ee
17
2c
2b
03
c9
0b
03
02
0c
e2
0a
bb
00
fc
0d
08
0e
09
ce
dd
ef
f1
d6
21
ed
03
04
d2
35
c2
f9
e1
f5
f5
20
f6
02
1e
0b
fc
2c
f6
e1
ff
10
fe
14
cc
f7
30
ed
f3
ee
e5
d6
04
f1
13
0d
f1
43
46
08
09
d2
f6
1a
b5
e1
11
01
0f
0b
1b
f3
e9
e9
1e
ef
22
0c
f5
04
ef
ee
31
18
1e
d1
ec
ea
18
0c
ec
ed
15
d7
ee
df
0d
f1
fa
eb
06
04
0e
29
ee
23
30
f9
08
06
05
ea
fe
0b
e6
22
f5
ef
0d
f5
2d
00
0e
17
d5
c9
f7
16
d5
ef
01
ee
0b
2d
fd
ee
04
05
dc
ea
bf
1c
10
f3
02
08
08
09
e8
ef
29
17
f8
04
d5
df
2a
27
11
e1
da
03
fb
0f
10
fb
0c
0e
ee
00
03
eb
ee
2b
0a
fc
0f
06
09
0b
12
e8
fe
ed
fe
fe
de
03
17
fc
16
fe
f7
d7
e4
fb
f6
fb
01
13
dc
0e
1f
04
14
f2
0d
14
35
ff
06
09
f5
04
f5
d9
e8
f8
00
e4
ed
12
0b
d7
d1
da
f3
1f
0d
0a
0b
00
1b
0e
f4
01
0a
f5
e1
01
db
f7
29
02
f9
ee
fd
0a
18
ee
fc
ff
02
32
03
10
11
fb
e2
10
f4
07
fd
ef
fd
04
01
0b
f4
01
dd
ea
06
ec
e7
eb
c3
d9
3f
c8
f7
1b
00
28
0b
06
e8
02
e7
fc
f4
fb
23
f6
f5
04
f0
fc
eb
ff
0a
15
0b
fb
f6
ff
0f
11
30
22
f7
eb
ed
25
2a
f3
0d
11
ff
1f
12
eb
06
42
f6
fc
08
eb
00
18
f9
e3
00
02
1a
1a
ef
fc
16
0d
ff
33
07
17
da
09
0a
13
e9
ed
ca
f8
d0
db
0f
25
f8
f2
e6
e4
fb
fd
10
f1
06
02
ed
f9
d0
24
fe
01
fc
0e
be
13
01
09
f0
b4
fd
2c
d6
15
df
ec
f8
f5
e3
09
01
09
03
ef
0f
e9
cd
f1
d3
06
39
2e
14
11
09
0b
0f
2e
c7
1f
1f
f6
ec
e9
05
24
10
da
f9
0a
ef
25
e2
13
0d
f0
fb
37
02
25
09
0a
f0
0c
fd
09
09
fe
f7
2a
00
2a
fc
f9
fa
0b
12
fb
16
ef
e2
01
cd
fb
09
4e
44
f0
35
d2
f7
13
de
37
e9
f7
f8
12
e7
23
f1
d6
f0
ea
f1
11
fc
e2
1b
18
1a
49
16
04
c4
e4
16
e5
01
23
14
0e
15
ec
06
fd
fa
c7
da
00
fd
09
01
ff
1d
20
21
ff
26
07
30
3d
02
00
ef
f7
1a
1e
08
eb
3c
e6
24
fb
f3
04
f8
ed
18
e4
3e
f7
c3
05
03
f7
f9
dd
38
ef
f8
ef
06
07
f6
18
12
fe
fe
14
f6
fe
16
fe
27
11
f7
da
26
21
eb
fa
e6
34
c7
16
16
01
09
cd
17
ec
12
ee
14
ef
30
20
1a
1e
e9
b5
2b
11
01
13
d9
09
fd
f8
46
3a
e9
3d
36
e8
2c
d7
e5
db
1a
08
f6
e7
0c
0f
fa
4f
df
d6
0b
f0
03
e8
20
14
15
3a
1d
43
0c
fc
f1
ff
e5
eb
1e
01
f3
26
09
f6
f0
c9
0d
03
eb
ee
04
ff
4c
d8
13
e8
ee
f3
e8
c3
22
1d
46
cd
06
fe
e0
fb
cf
e5
c8
f1
1b
1d
00
ec
eb
c5
15
c9
03
08
06
03
f0
e0
e9
e8
2b
00
0c
eb
fe
0f
0f
02
bc
01
d6
08
13
f3
e5
10
06
da
33
f4
12
4e
0f
f2
f3
e7
ea
17
db
20
32
10
fc
f6
ea
ed
dc
02
25
f0
23
2f
2a
f4
f5
f9
d7
23
12
14
0f
1c
e1
f5
1c
17
06
ee
0e
e8
00
ff
ee
1d
0a
0a
f7
1e
e5
de
05
15
02
ef
12
01
05
12
e1
eb
cf
f8
e7
ef
26
e9
e9
0a
18
22
d9
d4
ff
13
f5
e8
14
26
f1
fb
1e
ee
08
df
f1
14
2d
11
f4
ee
18
25
0a
07
f2
0f
f5
2f
f0
19
ea
f3
f2
0d
05
0a
03
01
02
02
f2
f2
10
09
01
08
e9
f3
3d
eb
20
21
06
11
1f
09
e8
02
f9
14
cc
ff
02
0c
33
fc
cd
1b
10
e5
27
12
f9
f2
ec
d9
f1
f4
e5
18
1f
fd
01
f8
ed
04
46
06
fb
e1
df
03
25
1d
10
ef
0e
f4
3c
ac
fc
07
ee
0b
f5
eb
ee
fc
32
fb
f1
db
06
1d
17
10
12
0c
08
04
01
0a
1f
08
db
f5
f5
ed
d4
e8
f1
e7
15
1a
0d
01
08
eb
24
fd
e2
fd
0c
21
f3
1c
18
0b
f8
f3
42
fc
11
fc
2c
21
35
e7
14
21
0c
d7
e8
05
e4
15
fb
e5
22
25
e1
f2
fe
ec
0b
10
fe
21
09
03
e1
d0
24
f3
fd
fe
00
f5
c8
39
1c
f2
fe
d3
de
27
0d
e9
e6
cc
fa
06
12
06
1b
05
07
2e
f7
d6
ed
23
f8
04
ed
06
06
f8
f6
1a
1a
f9
ed
df
01
1a
0b
04
f9
2f
12
01
01
2e
fd
19
32
0f
e3
22
e9
f0
1c
c1
0a
2e
d0
21
e1
eb
fd
06
0d
29
00
cc
19
d6
07
0c
e2
02
05
0a
e9
0a
c7
ff
24
cc
01
30
dc
f9
fd
0c
07
17
18
e5
d4
2d
27
21
f0
ec
0f
0b
ea
07
f4
ff
f3
0b
1c
0e
08
eb
fb
0b
04
f4
cb
39
ee
0a
f9
c9
f5
09
f8
1e
11
06
12
0f
c6
f7
0a
11
20
fa
0e
08
00
ea
08
fd
03
03
f2
f9
fe
e3
da
f0
07
0a
db
2c
f4
c9
e5
f7
1f
01
f7
0e
2c
fb
e1
f3
f5
1f
1c
f1
24
f3
f9
00
fb
f6
0c
20
f8
fd
f6
0d
cd
e1
e9
f2
20
f3
f1
ed
3b
1e
fe
0a
ed
00
20
f8
1e
25
09
d7
e3
ee
08
2f
f2
e9
ea
05
04
e0
10
34
28
17
f9
1a
12
18
eb
2e
21
ee
d2
1e
ea
0a
e6
0a
fb
f3
fc
0e
fd
fd
f9
e7
0c
06
04
01
05
05
e5
f4
d1
31
df
ef
e5
fc
ed
d6
05
05
08
fb
27
f3
11
2d
02
02
fc
eb
00
e4
bf
fe
16
07
f7
12
ff
fa
14
01
15
1f
17
e8
e0
23
e6
ed
07
fb
09
d9
04
17
02
10
f6
d8
de
f9
f3
1b
e7
13
15
13
fb
f7
ec
05
1c
10
e8
ee
07
01
f5
da
03
13
14
ef
1a
08
08
00
0d
17
e9
e8
e1
02
e1
f4
0a
de
14
e8
0b
07
e9
fe
e6
33
26
df
0c
2f
18
2f
07
0d
db
19
12
ea
25
17
08
08
f7
e8
20
09
f6
0a
05
05
f2
f0
ed
f5
f3
1d
0f
fc
05
16
f2
f8
11
13
12
11
09
f8
ea
ef
e1
ea
fe
e3
ef
08
14
fe
f0
fb
11
08
fc
07
08
eb
0f
3f
10
2f
05
07
06
ff
e7
0f
18
15
02
da
09
fc
f4
e0
0a
ef
1c
07
0a
fd
e2
1d
1d
12
de
e9
14
01
0f
09
1b
eb
fc
11
f2
04
eb
e8
fa
f7
06
f5
15
1a
aa
02
f3
0c
02
01
f4
ed
25
17
f9
0d
f3
f2
16
0b
f7
0c
ea
cc
df
f6
e9
d6
ee
db
14
d8
28
32
04
ec
34
f7
0d
10
fc
f9
ec
fe
f3
e1
0f
e1
10
1b
f9
e2
fe
f5
f5
25
10
d8
f5
fd
fb
e5
eb
19
06
f7
26
f3
fe
15
f9
20
06
0d
06
f7
29
02
17
01
14
07
06
03
f3
e7
2c
f2
fe
cf
f9
ee
25
ec
e8
09
e6
f9
f2
04
10
f0
1b
f4
fe
1b
d5
db
31
0c
dc
e8
e8
2b
f5
0f
eb
ec
0f
f5
1b
d3
00
13
f4
14
07
f2
1f
1d
03
0c
07
06
fd
09
03
0a
dc
ff
ce
d8
03
02
d1
10
08
24
10
0d
ee
0b
ee
dd
f8
12
0c
27
08
ec
06
fc
17
1a
1b
18
fc
2d
27
ed
e8
ff
01
0b
08
e1
20
15
e7
db
0b
df
0b
d2
1e
fd
1c
2c
f5
ff
06
d4
00
e6
06
f1
d7
fe
10
ec
d6
cd
f2
1c
c9
f1
03
ff
2d
19
fc
f7
e7
08
df
26
da
05
39
2f
0b
ea
e7
f9
c9
4b
ff
12
33
f9
be
ed
e0
ee
ff
2e
db
ff
1b
e8
09
2b
fa
49
b8
e4
df
0f
da
1b
13
dc
db
25
38
ec
fe
f5
cb
ed
e5
e2
e5
2d
31
f5
ec
39
e1
eb
34
dd
1a
f5
d3
03
19
d0
e3
e5
e9
e7
08
f2
02
e3
36
09
24
31
d7
e2
d6
f6
f2
e2
f4
31
23
f7
08
1e
23
25
ed
c1
35
ff
f2
36
dc
17
02
0b
29
de
0b
f5
c0
07
11
ce
be
d1
0d
f3
ec
fa
0e
e0
fb
fb
f5
01
d9
e3
d3
0a
f2
14
ec
0b
0f
13
e6
0d
01
eb
02
fa
e9
e8
1b
35
f7
08
e4
1f
e1
0c
27
f5
15
2f
10
19
fd
09
0d
f5
fb
e0
f3
f7
07
02
06
0e
e7
ef
1b
01
fa
1d
13
0f
24
14
b3
ec
0d
3a
05
fc
fd
01
15
ff
e8
e9
f4
f9
eb
e9
de
e4
f5
f8
07
f6
1f
18
e0
fd
31
ea
e8
22
ee
f9
2a
17
01
0d
0c
f0
0e
1d
eb
2d
15
f2
0f
15
e4
e6
f9
f1
0e
2a
ff
f3
ff
e8
fd
25
00
13
0c
12
09
09
18
f7
01
00
e2
0c
06
ed
e3
fa
08
1b
16
09
1d
13
0c
d0
33
e5
06
f0
1c
ed
18
fd
09
ed
e2
e8
f0
ff
27
dc
f6
fd
e5
1b
17
f6
01
18
05
07
fe
21
0d
fe
1e
db
e4
18
ef
f7
f8
fd
fc
10
32
fc
fa
f1
0c
10
04
04
f8
0d
04
00
fa
f3
ed
1d
e2
15
fc
02
e3
f6
d2
eb
ee
03
db
f3
f9
f6
0e
db
02
ee
f9
e9
f3
ea
eb
fd
28
1d
08
cd
05
21
12
01
01
ef
2d
19
fb
06
08
df
fa
17
0b
fd
0f
fb
e6
ef
fc
0c
df
03
fb
f2
0b
fa
e8
09
2d
f1
e3
28
e3
e1
18
04
18
33
11
2b
09
ce
eb
1b
c6
f4
f2
16
ea
07
17
41
00
d9
30
df
00
f7
eb
fc
fe
d9
02
0d
06
eb
e8
e5
06
eb
14
23
c5
08
0b
09
11
12
1f
e2
1c
16
4a
11
15
00
f2
f5
e3
16
f8
fd
1c
2a
28
e6
d9
0a
ee
03
3f
06
2d
0d
e8
e0
1c
ec
e2
2c
1b
f4
1e
f0
c6
06
d2
f5
f8
f7
f8
ea
1d
14
f5
ec
09
03
05
0c
13
fb
18
0f
ef
e7
19
ed
17
1a
d6
06
ed
e2
f4
04
e8
e2
17
e4
08
e9
0b
df
24
f6
0a
04
e9
0a
09
17
13
dd
ea
04
f7
0b
f7
0f
fa
fd
e5
1a
fc
1a
ea
f5
02
06
f1
08
d7
23
ec
d5
26
11
f3
36
0c
fb
07
26
19
f8
01
09
fa
1e
fc
fc
0f
1d
f6
f9
ed
f2
05
27
f1
27
df
f2
f7
f0
fe
e7
d6
e7
39
d6
1b
de
fd
ee
f6
00
04
f3
ee
13
01
13
f3
fd
e9
15
dd
17
e5
e0
2d
0b
d0
fd
12
18
1a
fc
33
ed
03
0b
f4
e7
00
19
fb
02
f5
00
07
fc
fb
13
ff
2f
0a
ea
11
ed
f3
f9
e4
05
16
01
03
40
e5
f9
da
fe
da
e1
fc
10
15
18
06
01
f9
fa
ec
dd
e6
26
e7
19
f8
ee
09
fd
eb
f2
de
c8
08
29
ee
e1
10
d2
23
17
06
16
12
1c
eb
03
1c
e6
0b
03
ea
1f
e0
ec
17
14
f5
23
0f
14
d3
1d
03
f4
05
12
f2
17
1f
09
d7
04
09
09
ec
00
fa
f0
1b
f9
0f
e5
ed
ef
ef
fd
e8
d7
0a
ea
0a
11
f5
ee
e6
06
00
0f
1c
f8
f2
17
0f
e1
0f
fc
01
fe
04
0e
03
e1
f0
12
fa
dc
e7
fd
0f
25
22
1a
39
db
20
ee
f1
f3
f0
f2
1f
03
1a
1b
ff
03
01
0e
ca
ff
d6
32
03
fd
14
ef
14
dc
f3
0e
dc
0c
f8
03
ec
e2
21
33
20
1c
f2
e8
0e
fd
db
04
ee
1a
02
ff
f5
0a
fd
01
08
19
ec
ef
fa
16
35
e7
38
d3
df
e8
f4
0f
29
43
22
ec
fe
05
0c
2b
ff
eb
01
f8
0a
fd
f5
c0
ca
25
ee
10
f8
dd
12
d2
e6
f5
f1
28
0e
1f
0e
22
0a
1c
f7
ee
ef
11
f0
d6
f7
05
f1
ea
f2
0a
fc
e8
0e
df
e8
0e
e1
e4
04
fb
e7
2a
0b
1c
1a
04
03
e6
ed
df
ff
f0
02
fd
e8
17
d2
0f
0d
e8
f0
ea
59
10
1d
e7
3a
0c
06
e2
f8
14
19
fa
07
01
0a
15
21
03
ef
1f
e7
fa
f4
ec
1b
ee
e7
1f
da
fd
f0
05
05
d0
d4
23
f3
0f
ef
06
0c
f5
c0
25
de
25
f8
f3
13
f8
f6
d5
eb
1e
12
ed
48
c4
db
ea
df
f8
e2
e9
d2
10
0e
0c
0d
39
12
15
11
1a
ea
14
cc
05
e0
da
ea
ee
f5
12
fe
22
0b
f3
13
ef
da
23
f8
09
00
10
d8
15
13
0e
f0
0c
ee
e8
0d
f5
f4
08
f9
1e
06
1e
f8
2d
1e
dc
19
1d
f5
08
1f
05
1e
fe
09
ee
0a
f3
f5
07
31
fd
fd
f1
26
d8
04
03
0e
03
07
f9
ef
ed
05
01
07
d5
cc
13
eb
f6
ec
da
10
04
09
e3
f9
0a
d7
35
17
f1
cf
fc
13
09
15
06
f0
f0
07
02
fe
fc
08
e4
16
f6
e0
17
06
f8
e1
06
1e
f5
09
ea
08
21
0c
db
05
04
1b
ed
1c
08
0b
1e
0b
02
f7
14
e5
e5
c2
d2
f9
1b
b0
e0
32
16
ea
0d
ec
db
f8
00
06
f2
f0
0b
05
05
08
ff
21
12
f2
01
08
ee
f4
cf
e8
eb
e0
f2
0a
06
e7
f1
08
06
0e
fd
f1
ed
f3
ec
ee
04
f4
15
27
34
f1
ee
1c
02
1d
13
16
e8
29
e8
08
f6
13
fe
50
2b
c9
3c
e9
37
fd
40
ee
f0
f3
e9
29
eb
f0
38
1e
20
0f
14
eb
1f
dd
0a
fd
ff
e5
ee
ec
ef
17
d8
06
2c
18
24
e4
f4
1d
14
fe
c3
ec
f8
f7
dd
d9
00
e9
37
c0
b0
d6
0a
06
ab
40
da
04
0e
fc
2e
b7
23
1c
ee
05
ea
b6
08
e0
04
3d
fa
20
f0
26
1d
22
e5
1a
e0
12
14
ef
06
05
20
11
0e
d0
1b
00
f9
e0
fb
e2
e7
03
15
06
eb
fe
13
d0
07
f9
e9
db
f2
fd
00
f1
ed
f8
f3
00
e9
04
f9
fa
0b
fa
f7
11
e9
f0
0d
ec
07
f4
f9
04
e6
be
2c
f0
09
d5
dd
0b
16
37
11
01
14
e8
14
d9
2b
05
06
ff
df
d0
39
03
10
f9
06
11
21
e4
09
2d
dd
11
18
e8
00
fc
e1
20
d9
20
f2
fa
13
07
1b
fd
ff
02
09
d4
e7
0b
f4
2c
2d
0c
f1
10
1f
3d
f8
e3
ee
fb
f6
d5
f9
0d
06
16
00
08
19
0b
00
12
15
fc
11
02
0f
ea
ed
dc
01
02
0d
03
ea
02
db
04
f6
02
06
11
17
d7
fc
ec
0b
06
00
e2
0d
0d
ef
e9
fe
0e
03
1f
f0
e0
14
dd
fc
f1
cd
d3
03
23
0f
f7
0c
0d
21
fb
f6
e2
25
ec
00
17
0b
1c
fb
05
02
f8
0d
d7
0f
1b
e2
13
13
da
ed
1f
2d
16
ce
23
15
fc
25
e4
fe
1a
ed
2b
29
07
c1
fc
f6
07
0a
02
01
15
08
02
28
03
ea
17
f7
03
fa
ea
39
20
ec
f0
f0
fc
d1
e4
17
15
ee
03
dd
fb
f5
f4
01
fd
03
d7
f8
e5
f9
e9
1d
fa
ee
f3
fb
fc
d4
d6
09
e6
ea
0a
e4
f8
1b
13
0c
2c
f1
d3
0f
14
03
08
d9
0a
0e
14
e3
d5
ee
47
fb
1c
f4
23
f8
de
00
06
0b
1e
fd
f7
fe
e3
ef
01
0e
04
10
12
02
c7
de
ef
06
ff
f4
ea
07
00
1b
1b
25
de
fb
33
29
08
e3
da
f1
fc
f7
fb
dc
0b
3b
e9
e7
ec
1b
f1
f2
0d
f9
e9
be
ed
1c
fb
eb
0a
f0
1b
f5
fd
fa
29
e2
d9
06
11
0c
eb
dc
f5
11
07
35
f0
ff
fb
e9
24
fb
0a
fc
03
fc
f8
0c
08
f4
f5
0d
ff
f4
11
0b
f9
0a
d8
0c
01
0b
ef
f5
10
03
08
1b
25
0b
e9
e3
c2
0a
00
23
00
12
fc
17
f8
1a
56
0c
1a
ec
1e
f8
02
21
c4
0f
09
da
fa
04
19
fb
08
e9
19
1c
0f
d4
08
ff
d3
20
d7
fe
23
c0
14
e0
f5
0b
b5
00
f9
0c
13
2e
f9
f2
dc
d1
11
03
24
10
16
fa
f6
fc
24
01
e2
fd
10
0c
e2
f3
52
fa
02
1c
2a
36
09
1d
0a
d7
fe
e2
ee
ff
e6
25
12
c6
dd
34
15
17
14
da
ff
e1
0d
1c
f4
10
14
0e
da
02
f3
f8
10
f6
01
fe
00
1b
01
f9
0e
f3
fd
fa
f3
15
dc
c0
c5
f6
e3
f7
19
05
b3
17
f1
de
0c
e9
cc
11
da
ee
f0
f9
e7
0b
fb
f3
12
04
ec
ed
f5
01
f6
19
c3
46
25
2d
2d
05
e5
19
ed
fa
0d
ed
ed
02
19
03
fe
0a
ec
10
df
11
f4
07
0e
0b
19
01
12
ff
0e
e6
ec
12
11
ef
f9
10
08
2a
ec
14
0c
df
30
e3
1b
ef
f7
08
01
df
10
2b
1d
03
0d
0d
20
26
0c
15
fd
30
07
eb
fb
23
ef
fa
fb
2d
e6
de
12
fd
04
ef
f5
ea
f8
e6
0b
ee
11
fd
04
e5
f4
fa
06
08
12
db
0e
eb
01
1e
e4
ed
30
0f
f4
ff
c9
07
03
0d
fc
f8
0c
02
fd
f5
d7
02
02
1f
18
05
26
f9
1c
0f
07
36
ff
e4
04
1d
e2
01
02
0d
ec
f6
d5
ff
d3
0f
11
e6
f8
29
f6
28
fc
f2
10
12
e1
ef
ec
f3
fd
20
ff
0f
e1
f4
c9
e1
09
32
00
2d
0d
03
07
fc
19
30
f1
05
9b
11
cf
da
01
f1
f0
fb
0b
e1
41
06
31
0f
04
ef
0f
4d
f1
e7
05
fe
0c
10
0f
08
40
07
fc
ee
fe
1d
fd
f3
1c
27
04
00
fc
f4
f9
19
23
0e
f5
17
23
f1
e4
00
02
33
06
11
22
ff
f3
e9
01
fe
f2
15
fe
df
c8
0a
0b
e8
cc
eb
de
1a
f7
3c
01
17
0b
e3
f3
22
e8
fb
fb
1c
0b
f3
08
e0
eb
2c
cf
eb
07
13
34
13
0f
fa
22
16
0e
fc
29
e5
12
fe
ff
d4
06
3b
0a
05
db
f0
25
18
0e
18
0d
fe
05
eb
fe
0a
e4
cf
25
04
1d
fd
e0
f1
c6
e8
eb
ec
0a
14
f4
0b
1d
db
ed
2a
16
0f
14
07
ef
fb
c2
ea
f9
f7
1f
22
11
f4
07
05
19
19
e4
f7
1a
08
09
07
ef
12
e9
0d
fc
02
b3
f3
f0
cb
f9
29
0c
e0
06
dc
01
0e
d9
f0
10
d7
07
1f
02
db
11
ff
1a
12
04
01
f7
d4
0c
0b
e4
e7
ef
19
13
00
11
19
e9
f5
10
06
f3
10
b6
f9
0a
f9
08
f7
15
07
db
e9
28
0f
fa
e9
03
ec
10
1c
3e
d8
f0
f9
00
00
0c
f9
eb
ce
12
e4
17
08
00
f8
fd
e7
23
fc
cd
e2
09
29
11
f5
02
ff
0a
fd
ef
0d
d5
0e
0e
25
ed
10
02
f2
21
ee
4a
ea
16
e9
13
14
f6
0e
ff
fc
0a
19
09
0c
00
e2
0e
10
05
f6
f2
ef
fd
f8
0d
ef
fb
0c
f5
fc
f4
26
28
05
0c
f9
0b
12
1e
e8
05
1b
d7
04
c7
03
d0
00
02
10
e7
16
14
f8
25
1a
e6
0b
fb
f1
fa
f3
40
f0
00
ef
e7
2a
32
e1
2f
f8
fc
2f
02
00
04
1a
10
10
23
ca
02
09
3f
ee
3a
05
f9
19
d4
fc
00
fa
ce
f5
c2
f5
f4
10
08
21
06
ea
24
cf
de
e6
0e
f8
fc
21
19
db
e7
04
f6
0e
db
eb
0c
da
0b
01
e8
02
fd
d6
f6
0f
f7
0f
fc
ee
04
0b
f7
fb
0b
00
fe
0a
02
dc
2b
0e
f3
f9
1d
fa
e5
f3
d7
db
18
0b
ff
36
10
f6
ea
0a
f3
31
f3
0d
e5
07
f9
f3
1e
0b
0c
19
10
0a
24
df
fc
e8
e9
10
d8
07
ef
f8
ff
ed
df
14
07
f2
f5
ed
14
e0
21
e9
03
38
d5
0b
06
fa
d8
f0
f9
02
e8
f4
07
f3
ee
f0
ea
e6
e9
11
36
03
f9
fa
21
fc
f0
07
f5
f3
0a
02
fb
e1
e6
07
28
1f
02
fb
14
0f
40
e4
ff
06
0a
1e
02
dc
ec
ea
e4
d7
0e
03
06
3e
f6
f1
18
05
1b
ed
10
17
21
f7
00
0f
fa
0c
1f
de
fd
1a
e4
07
e2
d4
1f
f1
f5
fa
08
e0
0f
cc
e4
01
db
f9
22
02
19
14
f1
f8
0c
02
0b
f1
0a
ed
18
03
34
ff
ee
ef
1c
09
15
27
e9
08
09
0a
df
fe
16
29
f1
ec
05
e8
d9
ec
36
ee
07
f3
02
0d
f0
fb
0b
f9
db
ee
09
0b
f4
f0
10
fd
f9
04
08
eb
0f
ff
fd
db
23
0a
fb
00
1d
19
f0
f1
21
31
e1
ec
ff
e5
05
e3
e3
ee
13
13
e9
11
0f
19
eb
d5
ee
1f
0d
f3
01
e7
23
07
1d
17
f1
f1
04
e0
f2
03
e4
f4
00
f7
f1
16
ec
eb
fd
0d
f7
17
f7
05
30
13
db
1c
fd
fe
f2
f7
2a
eb
2b
f0
2f
fb
14
ef
e9
0c
e1
ca
17
df
18
fc
eb
0b
17
fa
13
da
14
1c
cd
00
a7
29
f1
0f
fc
1f
1e
0f
31
00
40
25
f2
c3
21
d0
31
e7
02
14
23
e7
10
18
11
0c
e4
f5
f4
0e
25
de
05
fd
a7
f7
fa
d8
1c
fd
0b
13
0b
19
fd
fb
2d
21
11
1a
26
14
ed
34
0f
2a
fd
ee
f9
e1
3b
0c
20
08
07
cd
25
f0
e9
ea
e3
23
10
18
f3
38
f0
e8
fd
06
ee
eb
03
03
04
09
f6
06
1c
1b
28
f7
e3
00
fa
17
01
1b
f0
e1
0c
e7
fe
e4
d4
dd
ee
d5
e5
01
da
f3
25
08
0f
c4
24
0e
16
e0
0c
ef
05
52
eb
12
eb
bf
f8
fe
e8
fe
fe
cd
02
d2
fa
3f
e4
2a
09
fb
1e
fc
0c
0e
dd
cc
00
e8
e2
10
17
e1
19
04
fe
dc
26
43
ee
eb
fc
da
08
18
28
ec
08
d6
1f
08
04
df
f5
f3
22
2b
fe
07
0d
dd
e6
0c
e9
23
e5
f8
06
ff
31
05
f8
19
15
fb
fa
2d
09
22
fa
c0
c9
df
fb
07
e7
02
e8
25
02
f9
f5
fe
db
ed
1a
f3
10
09
f5
fe
08
0b
ff
ea
1b
db
1f
27
06
14
3c
e5
02
0f
e2
08
f7
fb
13
0c
f8
09
0d
de
ea
fa
f2
1c
f8
01
eb
1a
e0
e9
eb
fe
fc
39
05
0a
1c
ee
27
fa
fa
2d
f9
e2
02
3e
e0
ed
05
17
fd
0f
25
ee
03
e8
f8
2f
3a
15
06
f3
1a
04
ee
f5
06
23
f0
f5
eb
13
da
d3
00
50
10
d9
dc
f0
f2
d0
e7
25
0c
14
f6
0a
fd
f8
05
37
fb
f6
2c
02
e1
20
e3
03
09
1d
df
12
f5
e0
f1
f7
01
00
16
fc
23
db
e5
11
e7
f9
01
fa
04
0b
06
27
f5
e8
ff
42
0e
fa
ed
0c
04
fb
3b
e8
e3
f0
03
0f
21
0b
e2
eb
d5
3a
0b
f5
19
10
fa
f9
fc
e2
f0
fb
ed
f2
2e
f3
0e
09
1d
1e
ef
0c
04
0d
01
df
36
f2
da
d8
e7
f5
ee
11
04
10
f8
e8
01
0a
05
08
0e
eb
0a
0f
15
05
de
07
0d
e4
bb
fb
24
01
f4
ca
fc
3e
e7
e4
29
fc
19
07
08
d5
1d
11
00
d6
1e
e8
f3
fa
d4
0b
ed
27
ed
d1
01
2c
c9
e8
fd
2a
ec
03
db
01
fd
ef
0e
f1
1e
02
1a
01
0c
fb
ff
f4
0d
0b
16
10
37
c9
12
29
03
18
df
0c
0e
06
e2
fd
ce
11
15
f5
01
f4
e4
18
e5
df
fc
e4
07
ee
e1
1c
12
29
05
d5
28
18
fa
26
d7
05
04
00
f2
cc
e4
e7
36
ed
25
c8
fb
0f
c7
e6
03
05
fe
ff
f4
08
28
15
f3
e6
08
15
ed
e6
1c
ec
16
0f
f5
d2
d0
ed
d1
fb
f8
f1
04
12
39
01
c2
04
0f
01
16
09
06
02
25
1a
d8
11
2b
23
e4
f0
07
14
09
17
23
e3
0b
0b
16
2c
1f
06
fb
11
fd
f0
12
1d
fa
cc
f8
f5
ef
ea
06
f6
ed
fd
ee
1b
0c
df
07
09
09
e6
0f
dd
16
de
0d
fb
e4
f1
f9
07
17
f3
0d
fc
dc
10
1b
f6
12
0b
01
29
ef
2d
20
bc
fe
2c
d3
e1
10
0c
ed
e0
cc
fd
e8
eb
19
25
d7
0c
2d
0f
d8
eb
0c
c9
dc
ff
06
f1
03
fa
ec
f1
05
1e
ff
e5
30
03
11
0e
1c
fe
1a
0d
eb
04
ce
fe
1f
49
f4
f6
ee
37
00
d2
f4
03
f2
d6
28
00
d4
f4
24
02
e5
0b
22
fd
f4
2e
db
cf
ec
e3
ea
df
dc
fe
fa
ff
1c
e8
11
eb
09
13
0c
f5
11
f4
ff
f5
18
ec
16
23
f2
fe
e0
12
13
f4
0f
10
fd
da
2a
fa
1f
00
e0
02
f8
02
4d
00
e2
f7
f8
13
34
ff
02
e9
fa
ea
f0
f0
08
10
07
17
cf
f5
03
14
33
0d
20
13
e4
ce
1d
f5
ec
d9
ef
d9
0b
ff
12
ed
f5
d7
15
0a
ce
04
f2
dd
00
b9
13
1d
fc
0f
38
eb
19
14
f9
f9
01
08
ee
ff
09
1e
15
07
06
09
e7
0d
de
f4
ee
00
f7
1b
17
17
0d
fe
00
fb
ff
e3
12
31
13
ef
d9
0c
d2
37
f0
ed
15
1a
fe
16
00
09
18
f9
03
06
f3
10
26
ed
f8
d8
31
13
02
04
01
f1
03
f7
f8
f7
f7
c3
1f
f6
01
f9
0f
09
26
0b
ff
f8
ef
0a
c6
f2
dd
c9
f7
04
1d
f2
01
f1
03
0f
ec
ec
05
09
00
1f
ec
f1
40
26
f2
f8
00
05
13
1e
01
37
f4
03
33
fb
10
da
21
d9
04
fa
fe
24
ea
1d
f3
ee
dd
df
d8
f3
e1
19
04
14
2b
06
26
b1
05
10
0e
ec
e2
0f
11
fc
f7
13
0e
1c
f6
d6
3b
0c
f0
16
36
e4
28
f4
08
f9
fd
26
f6
d5
09
f6
f4
01
09
ff
07
05
d0
02
01
fc
0c
e3
08
17
0c
1d
e7
0f
19
0c
02
21
0d
fa
f5
2d
fd
df
f9
0c
f1
0a
f2
f9
4b
07
d6
fa
e1
04
fb
14
fe
fb
ef
f1
fd
ea
f2
f8
0b
f9
ff
fa
dc
f5
02
1d
f9
05
d3
ee
06
0f
e4
f3
0d
08
e5
0c
00
fa
12
02
ff
f8
fd
fc
f7
02
1a
14
f7
fc
f8
0d
09
fb
00
06
ea
ef
39
f4
f0
fb
15
05
f4
08
df
fa
f7
06
00
1b
dc
05
0b
1c
1d
16
e8
ed
f9
26
da
10
04
1f
0a
04
f6
cc
ec
f8
f1
ea
f1
16
f4
0b
02
02
f0
fe
f7
fb
1a
fa
0c
f9
00
f7
06
f4
0e
07
26
0d
f2
2a
ef
1b
19
ed
0f
f6
21
fb
00
2a
f3
c5
e6
df
09
ff
00
17
fe
0d
04
eb
19
f3
ef
18
23
21
f2
f6
e0
19
fc
f3
2e
e2
2c
f9
f8
ed
0a
b7
f1
ee
06
1e
31
f6
1d
1f
0a
08
0f
19
0a
e8
22
0b
e0
01
d5
f9
05
f9
c6
0a
f2
f5
e2
02
ee
f7
fa
ed
c0
fc
14
3a
d6
02
20
ff
fe
23
0c
04
d9
d8
0a
1e
03
1e
e0
e6
d7
32
24
17
06
0d
eb
20
28
13
00
ea
20
2d
ed
e6
0c
fa
24
12
e9
f9
04
0e
1e
0f
04
0b
2a
e8
e5
15
2f
25
16
02
ba
0a
0e
cc
25
2e
f7
15
ef
d7
17
07
e8
fd
39
ef
16
01
10
01
1a
0f
f9
28
d6
e7
00
e9
2f
eb
f4
ff
d9
ef
0d
13
ec
02
07
1a
f6
e5
04
d0
07
33
1e
1a
e7
eb
fe
fd
fa
f4
ff
dc
09
e9
fb
f0
00
1d
04
e9
11
02
34
df
0c
e1
dd
f2
c3
fe
f4
01
fc
1b
10
e7
fc
05
f1
f5
dd
08
1f
f6
f2
db
21
2f
fc
e6
e8
e3
e8
ee
f2
1f
fa
f6
1e
13
06
ec
00
e5
ea
0d
ee
ed
12
f3
08
1e
0a
ce
f9
07
eb
e6
02
01
18
3d
f6
ff
e7
f8
d7
10
01
1f
15
fc
df
00
94
05
34
fb
1b
15
0c
fb
27
02
b4
0b
1e
f4
d0
18
0e
dc
18
0d
2a
14
fc
e8
20
01
19
ed
e7
03
13
f6
0a
d9
06
03
e9
eb
0f
07
1d
0b
f2
fc
0a
29
ea
e1
01
14
04
c9
f2
f2
42
02
12
f0
e9
02
fb
1c
24
dc
3b
0c
f5
07
e8
02
f9
c5
fa
03
04
1b
fc
1d
2b
17
cf
e4
ee
1d
20
e6
ec
e6
cc
eb
03
18
09
05
03
fb
0c
07
f6
02
f6
f9
02
fd
05
1b
12
3c
27
0b
e8
f1
c5
fc
ed
05
11
fd
36
07
0f
23
f2
09
02
ee
0e
0f
23
01
0b
ff
e7
ff
fa
02
09
ee
16
e3
11
ea
e5
19
c2
fd
f3
12
21
1d
1d
fb
0b
d5
1c
fd
e8
00
13
01
e0
00
ee
e4
16
08
10
fb
14
fa
f2
04
0e
fe
f4
1f
fd
0f
d7
23
e3
e9
07
f5
f3
40
ea
f7
12
11
10
05
0e
f9
c8
0f
ed
0a
cf
fa
0d
13
1b
f7
f3
2b
ca
09
05
14
db
18
04
08
04
fc
cc
38
13
fc
04
01
f2
15
03
03
fb
f6
e6
fb
21
fe
11
00
06
14
f5
f9
1d
f7
14
1d
15
e4
f4
00
2b
f0
f5
10
f2
d6
fa
01
f3
0e
ff
e7
ff
0a
30
e8
18
e3
f0
39
f6
15
f9
fe
eb
08
05
cb
fc
f6
fb
dd
24
26
e9
f9
1c
ee
f9
0a
1d
f0
f5
be
1c
18
fe
f7
10
fb
ce
11
cf
03
df
08
10
ee
10
d9
0e
d5
df
00
ef
e7
03
3a
0b
0c
ea
0b
d2
24
56
e6
07
25
e6
ff
e4
0c
0b
e5
20
f2
e8
1a
29
d2
f6
f7
07
d7
3f
fb
1d
08
ec
eb
14
01
01
15
fa
fc
f1
f3
07
08
e8
03
fd
eb
03
f5
d9
06
1c
fb
f1
0a
07
d2
29
f8
2d
fb
fb
f5
33
14
04
0b
06
05
0f
0e
fe
17
0d
ec
0a
06
f6
eb
08
19
f7
f5
07
05
00
08
d8
15
f1
1e
f6
fd
e2
f7
ef
ea
28
f9
14
11
28
1a
e8
14
f2
e9
f3
d2
ea
0f
f1
24
fa
f2
05
f6
0b
db
0f
1c
f5
ea
d8
15
ee
ea
07
00
fb
eb
14
00
e9
ff
18
1e
35
19
06
f4
0f
02
fd
26
0f
f3
f6
1d
f7
04
f0
0d
12
e2
fd
e6
e5
1b
fe
11
d1
e4
e9
17
0e
f3
08
de
dc
2a
e8
ea
07
fe
ec
1e
fb
e4
07
0c
08
fe
fc
f1
e0
fa
00
f3
16
18
17
0a
ee
23
26
08
f7
0a
3b
09
de
eb
09
14
f4
fa
e0
10
27
0f
2c
07
1f
0d
0b
02
20
de
0c
16
e6
fc
25
03
2b
fb
24
e6
12
dc
1d
1c
f1
11
ff
27
f2
00
0b
0e
fe
0e
1d
f0
19
f7
04
1a
12
00
03
09
28
e0
fe
e9
ff
f8
ea
ee
1f
f9
16
02
f8
0e
1a
f9
2d
f8
0e
ec
1c
11
ef
00
01
e6
f2
ef
12
e7
ba
f3
f2
16
1a
2d
e5
08
00
0b
d9
e9
ed
d2
e5
18
d8
eb
fa
08
07
15
13
ea
07
33
09
26
fd
ff
0b
e5
07
00
02
19
cd
f1
f5
ed
ed
03
d6
0a
06
fb
f3
04
ec
13
19
ec
f9
f3
14
0c
fb
e9
35
f6
e8
fa
e2
16
c6
ec
df
00
1b
f4
10
f8
11
fe
27
f0
07
38
f3
f5
1b
14
03
19
1a
db
c7
fd
04
e9
f0
e1
ec
27
ee
3e
e4
2d
f2
f8
2f
37
07
eb
e5
ff
e8
26
e0
25
20
0a
15
e8
d1
10
2b
fa
fe
fd
f1
d8
3c
01
e7
09
03
ca
dd
0d
ee
31
d8
e5
0c
ed
fd
fe
17
14
1a
ea
ec
35
d5
f2
18
fd
f9
1d
ff
ea
fd
33
2e
cf
fa
ee
1e
04
ea
f1
e8
f7
f6
f0
07
e6
fd
f2
0c
fc
21
fb
1a
fb
d9
e2
ed
0f
ff
08
1e
29
db
e8
c7
e2
f4
0b
38
2c
ec
1d
11
1b
eb
1b
1a
e2
00
ef
f4
bd
ff
05
f0
fa
ef
16
eb
ec
e5
ed
1a
29
10
ff
0b
25
14
04
e0
06
36
e5
1b
e8
d7
eb
be
fd
da
0b
05
d6
0b
e3
f1
05
f8
1d
f1
ef
df
02
cd
01
10
bd
f7
0b
16
19
f1
09
08
de
3b
45
d4
e8
ef
03
fc
f8
0c
fb
de
e0
07
f8
db
ef
25
0c
f0
05
16
0a
06
f7
0a
16
13
dd
1e
06
09
f9
fa
01
f4
08
1f
d9
1d
e1
0a
0e
39
0d
f5
e2
e9
d7
f5
e5
11
39
d1
0d
d7
d3
08
fd
15
fd
d5
09
07
f2
f8
fe
1d
02
f3
f1
00
0a
df
2f
fc
25
ed
f3
e1
0c
01
f4
3a
ea
0b
00
09
02
f8
de
0a
0c
81
05
1a
00
04
17
0b
f8
01
fd
10
de
1d
fc
da
d3
17
04
f2
fa
13
10
d5
12
cc
fd
fb
0e
0a
01
f7
13
e1
f7
f3
04
06
1a
05
c9
09
02
ea
e2
04
09
e6
f5
fc
f7
0f
fc
f4
09
11
ef
05
1a
fd
06
0d
13
11
0d
f7
eb
ee
23
15
2f
ec
01
ec
0e
01
f6
05
0f
0a
e6
05
07
01
1a
0d
4f
ec
10
0f
1b
0b
fe
32
02
ef
f0
fb
ec
0d
0f
ef
36
de
17
c1
02
df
2b
25
ed
f3
01
11
07
05
f9
13
f6
cd
eb
f2
42
0a
ea
11
09
00
1d
14
43
cf
dc
18
ed
02
00
0d
21
fd
16
f0
06
f1
f2
20
00
07
10
c3
0a
e7
d7
13
10
dc
f0
29
0b
01
f3
2f
ec
da
08
28
fa
ef
25
08
00
0a
eb
07
19
f1
29
07
f2
14
0e
d1
16
f8
dd
06
0d
f5
c9
e7
e7
00
fb
dd
16
07
f7
00
f2
fb
e6
f8
08
fe
11
df
fb
d8
e7
e4
0c
2a
05
02
1a
17
be
10
0b
d8
f2
f7
ed
01
de
e9
1a
0d
f5
04
32
fa
ef
f7
c4
d3
d6
1e
f5
25
e1
f9
0d
09
f9
07
00
d1
f6
f2
20
e3
e8
12
f7
ec
e3
1b
ed
e6
e3
09
fb
38
08
16
ee
0f
e7
fc
08
02
1b
f6
fc
15
12
e1
e6
ec
f5
f6
0a
00
ea
16
ba
02
d9
e2
f9
e4
ea
02
0f
e7
fc
05
1c
ec
07
07
12
f4
01
08
ef
1b
19
f7
fe
10
f6
f8
13
2a
ff
02
06
e3
f9
fe
07
e4
03
d9
d5
02
ef
e0
f4
0a
e8
03
04
13
16
2b
e5
e0
01
df
18
e5
e0
f2
e3
fb
f0
f7
0c
1e
0a
02
ee
fe
1e
ee
0c
05
00
f8
24
dc
0d
2c
12
00
fa
df
e9
f7
00
17
04
f5
0b
fa
1e
0a
e7
0c
02
f1
09
0d
09
0f
37
f1
e0
db
1f
fd
fb
14
29
1e
25
0d
e4
19
0e
00
12
07
11
21
05
fc
f1
25
e8
16
de
f3
1e
f5
13
04
e9
e9
fb
04
1b
01
1b
0f
f7
fa
0b
0e
33
05
e7
01
0d
09
0f
08
df
1b
df
fb
f8
20
04
fb
13
ec
d8
fb
d5
02
eb
0f
e1
10
e9
07
f1
10
f6
da
21
ee
e8
fe
f9
1f
0f
e2
0d
f6
1c
06
bc
00
df
0a
07
15
fd
01
06
13
39
0b
05
fb
03
d8
14
e1
04
fa
0b
09
e7
f1
f4
f8
00
3c
14
dd
e2
fd
17
26
2a
33
07
02
05
fd
e6
bc
13
e7
1c
07
0b
f8
dd
f8
1b
fd
d8
e9
04
e9
07
bf
ef
0d
f9
f2
dd
d9
f1
05
0c
1b
1d
fc
19
00
fd
23
e9
d7
c8
1e
0a
11
19
f2
1e
fc
fb
06
13
e9
e7
f8
05
2a
f7
fe
14
f1
d5
f1
18
f3
f9
ed
f2
21
06
e6
0c
f6
05
