26
f3
f4
eb
0f
d1
33
c9
0d
05
09
f4
fc
e4
e8
02
d8
33
e6
00
0f
1a
e5
fc
08
2b
53
2e
22
e0
ef
0a
ec
02
f5
e7
e8
e4
07
f5
0a
20
ef
f5
f6
2b
2d
d6
04
be
30
fc
05
e1
ec
d5
17
ef
e7
ed
f8
08
f7
0e
02
3d
e7
f1
e6
09
21
1c
de
16
f4
c6
fa
0b
d3
f0
fa
26
00
17
fb
22
00
f4
2c
ff
fc
da
0b
07
f7
fb
ed
28
12
08
28
1a
e5
1c
29
17
2b
08
1e
c5
0d
30
d3
13
18
ee
fd
f4
ec
15
13
1f
fb
ec
ea
e6
f4
ec
07
0a
09
31
1d
26
16
d5
02
f8
f6
0a
cc
3a
23
e4
fc
f8
f2
12
17
00
1d
e3
fb
f0
29
d5
08
e9
2c
fe
19
2a
0b
fb
f7
c6
1b
16
f4
e4
f5
f1
1c
f6
f3
fa
08
fe
06
e7
15
03
f3
10
d5
1e
06
13
f1
2a
f5
fb
d7
ff
30
b9
d8
e8
ea
e8
eb
1a
03
eb
09
fe
d3
0b
f4
12
f8
f3
16
23
d3
0e
fe
f2
fd
0c
08
08
fa
00
de
20
12
11
e3
03
09
ed
f0
e9
f0
df
ed
dd
0b
2e
16
00
f8
d0
de
eb
0f
d6
46
fd
fc
0d
1d
1b
1d
eb
f8
0e
2e
ee
ea
e8
eb
fd
bd
fa
f8
32
e3
0d
10
ea
34
1d
04
eb
fc
08
fd
d2
ca
fb
f8
3f
03
0c
e9
2d
05
e7
fb
4b
d4
e6
0b
ef
ec
ff
39
df
1c
f4
1d
0b
29
df
21
e5
08
11
ef
02
06
ce
f6
ef
d1
d0
f5
df
13
f9
35
ff
0a
f9
25
e2
f1
be
1a
e9
fc
e4
db
ff
11
4a
14
0b
27
13
da
fb
0d
f3
d3
2b
f0
f8
e7
10
f8
30
d7
16
08
00
ef
00
12
0a
06
1b
22
df
0a
fe
d1
04
0d
37
bd
0f
05
cc
2a
dd
e7
0b
fd
03
5f
fc
dd
0f
ea
28
fc
ee
d4
d3
02
1d
0d
f6
07
f1
04
1e
ec
ef
ba
10
19
f9
02
e0
c9
41
54
22
f6
f5
10
23
d1
e7
fc
fc
e1
d0
0d
d2
e4
20
df
0f
38
1c
fe
d6
08
01
28
db
25
e6
19
14
1f
ff
02
07
09
fd
06
20
fc
1a
de
32
ed
06
0f
fc
1a
05
04
f2
f7
0b
d7
e9
f4
1e
f9
19
9a
0b
f9
11
ec
dd
ce
fa
20
09
ed
f4
fd
33
14
f7
f8
bd
29
e1
06
ea
ed
e6
ff
f1
f8
cb
fc
21
19
33
2f
18
19
3c
17
fb
07
0e
01
f7
2c
f5
1b
04
0f
23
24
10
0c
1b
44
e0
ed
fe
35
cf
16
bc
4d
f4
f0
ea
e8
08
fb
f0
e4
ed
d0
1d
e4
1e
ee
f5
f5
1c
e0
e8
fe
00
ea
01
08
06
f6
04
f5
f8
17
f5
f2
e8
f3
fd
06
0a
09
f9
e8
35
0c
f8
26
02
05
f3
f8
08
09
0c
f7
16
aa
0e
f9
04
15
03
dc
f4
0d
e9
11
32
20
fe
11
14
d3
ec
27
f0
df
92
d5
19
17
17
01
f1
d0
19
f9
14
08
0a
25
db
f4
0d
08
fe
f8
4a
fe
05
21
d6
e8
19
07
08
1b
14
07
e8
f6
d8
16
01
fe
fd
ec
f3
e4
04
1b
01
e7
fb
e6
0b
bd
2d
e5
0d
18
07
06
ed
ea
ea
0c
22
ef
03
06
0b
ee
03
32
09
fb
0b
1d
fa
e3
16
29
c6
06
f1
fe
ee
f8
c3
19
04
fa
06
22
e2
48
16
26
f9
ea
e4
d0
1b
04
f3
20
09
0c
56
2d
06
11
04
17
f6
f3
04
1c
ea
e8
e9
e5
f9
f3
1b
13
03
f0
04
10
9b
be
2b
e8
db
d0
f1
29
0d
1a
f8
31
12
f3
e7
cd
fe
f7
03
02
ff
15
1f
25
c9
cb
f7
de
f1
0d
08
07
0b
d7
3e
f1
05
13
e2
bb
ef
36
e0
dc
d4
20
e6
ec
eb
15
f8
f2
24
cb
28
0f
da
1c
f7
e0
05
f2
eb
fd
27
e8
31
52
e5
f4
fb
14
f0
e9
f0
e7
1a
04
01
36
d6
f3
f9
f0
cc
e4
ff
fc
15
46
d1
ef
c6
fa
42
07
d2
3c
cc
1f
0b
17
f0
ec
f4
f3
e1
17
fe
cd
d5
43
03
2c
15
e8
08
3f
c6
17
be
19
fe
ef
fb
db
0a
0e
1a
00
f0
16
18
01
fb
c7
1e
f6
11
1a
02
08
32
2a
05
f3
ed
f5
0f
fb
1f
fd
fe
3b
ff
05
e8
dd
e9
e0
e4
2f
12
c1
37
ef
e2
27
f1
ea
f0
02
26
1b
de
fb
e1
10
e9
fb
18
f4
d6
0e
1c
d0
0d
f2
13
0e
0f
e0
0c
07
15
56
07
45
db
eb
33
d1
35
30
05
e7
05
0e
0f
fa
2d
1a
e4
11
ea
ee
fe
14
04
00
01
51
e0
11
e9
d0
e1
ef
12
18
ef
e9
d6
07
e1
f2
30
1b
a6
1a
f0
02
1b
f2
f2
f0
e8
ea
ec
f1
dd
1f
10
21
0c
e8
c9
0c
da
f1
0e
ec
de
f2
0b
27
34
06
10
06
04
d7
db
16
fd
fe
f5
03
04
f3
03
e0
e6
ea
da
fb
0f
0f
07
12
15
ea
12
f5
1a
2c
ff
f6
0e
f9
15
fc
1c
10
f3
e7
ec
2b
fb
bf
f4
1d
db
fb
08
2b
1c
f8
fa
ee
0c
2a
f8
fa
df
cb
23
3f
c5
f8
f4
f6
07
f7
f6
e8
f3
03
fd
d4
d8
3a
21
ed
fd
02
f5
0e
18
fa
fc
05
b4
c0
e7
13
fb
06
1e
c9
04
10
13
d6
e5
2a
11
dd
09
f0
1c
0c
ed
25
e1
0d
f0
28
03
15
f8
1d
0b
03
12
ec
da
f4
00
0f
03
1e
05
f5
03
0d
e3
fd
00
05
01
f4
e2
fc
1b
fe
0c
ed
f6
24
1c
02
20
0a
e5
d6
13
f2
17
0a
07
db
fb
e5
1c
26
ef
e8
1f
e4
d5
f0
fe
e0
01
df
ec
15
e3
11
fb
f7
0e
e6
d4
ff
f9
ec
ee
f0
e9
0e
fd
10
07
0c
14
f5
fa
32
eb
34
16
ec
f9
2a
27
03
ff
0e
dc
18
14
00
09
04
03
1e
02
e2
f3
f8
d4
1a
fa
fb
f5
06
4b
ec
f6
ee
01
e6
17
16
ef
12
ea
26
d8
2a
05
ef
e9
0a
39
f9
fa
12
15
09
10
e5
27
19
23
06
20
0f
f2
d6
1f
18
fb
13
9f
da
fc
2d
20
1d
04
18
db
02
0b
c5
0f
f8
01
f0
1a
f4
f1
13
f0
07
f6
20
13
ec
17
ed
1d
e4
f2
32
55
0f
17
d6
f9
f5
d7
13
f3
01
04
2d
34
09
18
fc
e2
f5
13
24
ee
09
4b
1e
0b
04
cb
01
f4
e7
2c
01
06
ba
f0
fb
06
f1
17
02
15
31
e0
ea
31
ed
13
41
e7
f9
f3
24
d4
0f
00
d1
d7
1d
d2
35
07
fa
ab
33
e6
e0
ff
25
0a
33
2e
f2
f2
ef
f0
05
ea
fe
e8
1c
11
f5
fe
21
13
f9
f7
e2
ee
f3
03
f8
00
09
ff
11
b6
0d
d9
c1
ec
07
1b
18
ee
26
05
d6
d6
03
de
e7
14
0e
f0
e6
17
b3
12
f7
29
25
f0
ea
0e
f1
e0
04
fb
de
f7
07
02
0a
25
d8
f2
0b
f4
04
e9
fe
12
02
16
11
09
1b
08
0a
01
1d
d0
f3
fd
01
0d
f7
0a
de
01
d9
d9
29
f5
30
1e
23
0c
f9
01
1e
13
0e
d8
0c
dc
e8
e0
20
07
c5
d6
20
09
1c
de
06
19
ee
f3
25
0a
14
ec
38
b8
df
ff
c2
bd
0f
ba
2a
ff
1d
f6
2f
f0
07
02
d2
03
15
ed
02
f5
14
12
d3
cd
ef
1a
22
00
db
11
f3
0d
17
0a
06
f9
ce
13
c5
33
fc
e1
f9
0b
0f
ed
13
e7
d4
eb
d9
58
27
34
da
0d
33
cb
03
ee
0f
fa
2d
f6
e8
51
eb
eb
1f
03
00
1b
ef
ec
00
0d
09
fa
ff
fc
0f
00
fc
32
fa
01
02
31
2b
37
f1
f5
00
10
30
f7
1f
e4
ef
ec
e2
e4
2e
fd
0e
f0
f9
0e
11
eb
21
d4
de
28
f6
07
d6
17
2c
0b
1a
c4
20
ff
19
f5
0d
f7
e5
26
eb
e1
d5
9d
18
dd
17
14
ee
1e
1a
d5
db
f7
d7
2b
35
07
dc
36
0b
21
0b
0b
25
18
ed
dd
f7
27
ff
dc
09
06
dc
1a
05
1a
fa
e3
0a
23
fa
ea
f6
c0
42
b7
f5
ef
ff
3a
2e
0c
f3
d4
25
3b
c3
e7
f0
09
e1
19
c8
03
ed
b7
f2
02
f0
20
49
f9
0f
f8
19
ff
0b
ff
1f
02
3e
fc
cd
1b
ea
1a
f4
de
d9
f7
c6
f8
0d
c0
17
1c
0f
d0
2f
ef
e5
cb
f9
e9
fb
d8
e8
0c
e8
fd
d0
02
03
14
1a
ff
1b
fd
ec
bb
14
0c
1a
04
14
d4
da
1b
25
df
dc
0c
0d
fa
05
19
b8
1a
22
d0
04
ee
3f
02
00
0c
f3
18
eb
0a
fb
2c
e7
fc
e2
f8
0a
59
1d
eb
f5
03
f8
2b
cd
ff
f3
ff
1d
3e
1d
d1
f9
e2
25
12
38
07
09
f8
16
e5
05
ed
0c
cd
f6
07
ee
42
14
e0
fb
00
ff
fd
1a
fa
15
07
14
0c
10
e7
14
2e
15
d7
fd
0a
d7
ec
13
17
e9
15
0c
d4
12
09
12
07
07
0f
16
ed
2b
d4
f1
df
e0
09
0e
fd
ea
ff
fd
ec
fb
01
15
ff
dd
1d
0f
d2
f6
eb
ee
d1
0f
1b
0d
f3
38
ec
10
00
19
1b
01
ee
f6
06
48
0e
bc
48
02
03
d2
1a
03
f3
da
10
ef
d5
e6
0b
e4
f5
01
ef
f1
0f
f5
e4
e7
f7
26
f4
eb
32
26
05
11
f5
43
18
02
fd
2c
f8
23
ea
08
f4
d8
24
fa
38
fa
e4
f1
e0
0a
ef
ec
c7
1d
e6
17
da
fa
e4
00
fa
f9
f0
ff
04
ee
d6
f6
3a
cd
ce
fb
fa
d2
05
0f
23
d7
f0
29
1e
07
e4
24
d9
04
15
14
f2
08
df
fa
fe
db
04
01
f2
fc
e5
b3
de
15
25
05
f8
ce
fe
0e
e2
07
16
0d
1e
2f
e1
f7
15
26
f6
04
17
fb
14
00
1a
1a
1d
1b
ff
fc
10
13
0f
ec
ea
eb
24
01
34
fc
0f
00
08
f7
07
05
1d
35
19
21
d6
e6
fb
f4
23
d7
0c
2e
05
08
f6
04
e4
14
0e
30
00
f4
23
f8
02
39
ed
cb
fe
c2
ed
08
2c
f4
da
e6
e4
f9
08
d3
dd
22
09
0f
e1
27
00
1e
30
20
17
12
0d
05
05
f6
17
e0
e2
fc
d3
af
da
29
fc
db
fc
f0
dc
15
f0
13
03
08
ee
01
fd
16
d0
0a
f8
08
f5
0a
f4
f9
21
06
01
ef
0a
26
2e
fc
0f
31
08
2e
f7
2e
04
10
eb
43
ee
0c
00
f6
26
14
d7
3f
fa
f9
f3
12
f0
e1
21
0d
14
e0
22
d2
f7
03
d6
d2
11
e4
e3
d6
5e
c7
f1
11
f3
f7
32
e6
f1
f0
15
17
a0
f7
f1
48
17
07
04
03
e6
d8
07
e1
39
e9
11
26
e1
ee
d2
07
b7
01
f5
0a
d8
f4
1c
0f
eb
10
eb
2b
19
f5
34
12
f7
27
c1
d0
f9
ed
fd
0d
ec
d8
11
1f
19
fe
d0
00
1e
0c
0e
0d
e3
f8
28
22
11
30
28
1b
0a
be
08
16
0d
2e
f9
12
fb
0c
f3
c2
01
41
d7
05
41
f8
0f
f7
04
21
f8
05
eb
d6
25
ee
1e
00
e2
f6
12
df
18
f1
27
3a
0c
33
05
f5
e6
1c
f8
d4
e3
18
09
f1
e7
da
0d
0c
e1
f4
07
e1
05
12
b5
c6
0d
da
e9
2e
fe
07
f4
19
ee
f9
04
12
e6
f8
fd
fe
fb
f3
6e
f7
27
12
fa
ec
1e
c3
19
d8
2e
d5
ef
f9
fa
18
1b
25
d7
d7
1f
2f
34
35
30
28
0a
fb
2b
fa
ff
d8
0a
00
f0
24
f2
23
c9
17
02
f6
33
fe
f7
12
ff
04
4a
f0
c2
fa
3c
e2
d7
09
fd
30
b7
44
b8
ec
d1
24
fe
f3
1a
ff
c2
03
05
38
fd
e5
14
fb
0e
22
02
e3
2d
18
0d
e0
ef
02
09
37
b3
f8
e8
03
c0
49
ee
17
d8
1b
1b
db
02
3d
fe
f0
03
b2
f2
11
c9
2c
e1
b9
27
fb
0f
ea
f2
c6
f9
d1
fd
48
11
bf
07
f9
d6
1f
34
f9
fb
1d
19
f3
0f
d2
d0
fc
09
f6
ed
0f
0c
f4
1d
fe
30
03
0f
07
20
01
14
2c
e1
0a
e8
15
34
19
ef
d5
04
fb
10
f6
0a
30
11
13
c7
14
00
16
e4
e6
0e
eb
de
02
f2
ef
ec
19
ab
de
f0
f1
fd
28
0e
12
fc
1b
13
1b
f9
de
31
fc
01
cb
fc
f8
9c
1c
16
06
19
1c
fe
07
09
f1
1d
08
fb
45
e5
e1
02
22
d8
01
20
53
f5
08
ec
d8
e0
fe
41
ee
1d
dd
08
b2
dc
08
fb
09
14
e2
42
f1
dd
08
3b
14
0e
fb
fb
f4
29
22
0a
03
df
22
26
0e
fb
1d
ef
1a
26
d9
1f
eb
23
1b
0f
dd
e0
e7
ea
d5
00
2f
16
c5
01
3e
c2
22
0d
0a
ed
0a
df
2f
cc
0d
ca
03
da
e6
f2
34
e3
fc
d0
f2
03
fc
dd
fe
e4
17
e3
fe
ec
1a
f1
06
de
f2
d6
f2
00
13
d6
0b
2c
be
0d
f5
ed
00
e1
fa
07
f8
ee
0e
f9
28
00
fb
0e
fb
ea
d6
31
dc
12
e1
e5
10
da
e6
0f
18
19
f0
17
1f
fb
fc
30
ee
ff
d9
0d
de
24
19
19
2a
20
10
fc
ca
05
f0
07
1a
05
d2
2e
05
e0
fe
d7
1a
f7
13
e6
c9
e2
0d
e4
18
ed
fa
cb
15
f8
dd
ce
02
e6
e2
f9
17
08
00
2b
19
13
c6
fe
f7
10
17
23
0f
fa
e7
f8
11
03
21
0f
17
32
04
d9
f0
15
fa
ed
f7
e6
f2
f6
cf
f8
3f
ef
f7
ee
0b
1a
1b
ff
06
ec
07
28
1d
18
01
e3
16
f6
27
f3
0d
e2
ff
e1
e0
c0
25
25
01
f6
e0
37
26
05
2a
03
18
e1
d0
05
1e
e4
fc
09
cc
fa
20
01
19
e2
0a
14
07
0e
1a
07
d2
f5
f0
09
17
16
31
3b
f4
1e
dd
0d
0f
01
fe
0d
01
f9
ef
ea
df
e6
ce
1e
11
00
05
c7
2b
0b
16
ee
26
fa
33
24
ec
d6
2b
f1
16
ec
d3
00
29
13
c0
11
de
3e
f9
14
37
e7
06
d2
2f
fa
29
30
e5
d2
fb
02
12
fd
34
fc
0e
f8
eb
fc
e9
d7
ff
c4
db
13
03
ef
f2
26
db
cd
e2
15
25
cc
ef
02
20
23
f4
0b
ec
11
bb
03
e1
e2
f0
21
01
e1
40
f0
f4
16
08
c2
f5
32
06
12
f8
d0
33
4f
05
ff
17
e8
21
cf
df
06
f0
07
ff
f1
4e
fe
1d
00
fe
e3
d8
fa
34
04
fb
eb
01
14
22
08
f0
e2
f4
fb
ef
b9
fe
ff
db
fd
01
1a
d5
f5
1c
05
e1
1b
e6
15
12
ea
1e
03
06
08
0a
02
da
04
ee
1c
14
ed
fb
07
09
ea
04
c4
32
f0
f9
f1
01
06
e7
33
04
0e
c7
d2
24
13
fc
e5
17
0c
12
eb
e3
0d
10
f0
f1
e1
15
d9
39
1a
08
10
ed
0c
f3
02
fb
eb
f6
2a
30
f3
ff
16
ec
f2
1a
dc
1e
23
fb
07
1d
fe
11
00
f8
f8
1d
2a
eb
0f
fe
1b
0c
e6
ec
ce
2d
ee
2b
e3
fe
ee
d9
dc
d9
2b
cb
06
2c
2e
1c
e7
ea
19
ea
0d
13
cb
41
d4
27
f6
d4
16
1b
13
11
0f
f7
f8
f1
17
1b
e9
22
fb
1b
04
f1
33
1e
04
2d
e3
f6
0b
23
fa
08
c0
db
c5
30
2f
13
df
07
dd
ea
e1
0e
17
f5
c5
d5
e8
15
15
c5
fd
24
ea
f3
db
f2
d3
38
d1
20
ef
f8
04
15
02
e5
19
18
f2
f9
0e
02
05
1d
28
0a
02
10
ec
ec
ef
e0
ea
41
05
fb
15
db
dd
0c
ec
10
3c
f1
ed
cf
d7
d3
19
0b
fd
ff
00
26
df
31
fd
0f
36
17
0b
ca
20
04
06
d0
f3
09
25
d4
f6
04
d4
f2
13
0e
03
28
33
0c
f9
cf
f3
d1
0d
d6
e6
21
16
27
f9
d3
04
07
31
0e
1a
f3
e9
0d
1c
11
1e
1d
07
56
dd
1e
ed
03
dc
08
f1
02
09
ef
e6
d1
db
0b
f2
16
3c
01
20
27
d2
0b
0b
be
1a
ea
05
12
fb
ee
07
08
20
c0
03
e0
d7
e0
1f
08
d2
e4
19
0f
21
0d
ed
27
df
ee
f4
f9
fd
da
e6
ed
e4
f6
cb
1a
23
36
13
13
1c
07
0f
0d
f8
e7
fe
08
f0
f2
05
e1
fa
01
f3
f7
09
f6
0c
eb
20
0b
18
ef
ef
e7
57
00
02
2a
05
fb
0d
00
23
fd
06
f4
df
de
fd
cf
f3
fe
c7
fb
04
2c
ff
cf
10
e1
d3
eb
0d
fd
0b
1c
1c
a8
fb
bb
11
6c
fb
28
d6
05
e0
ff
01
25
a3
ff
e6
fb
11
f9
09
e6
ff
0a
f4
22
ea
e3
f1
0b
fe
13
11
ec
f6
01
fb
f8
48
e0
e0
2d
f6
2a
53
0e
cd
fa
c5
33
15
b9
2d
13
24
e9
08
ea
fc
1b
d2
fc
c7
f1
d4
f1
f0
ec
f9
fe
18
e7
ae
0f
1b
d7
02
fe
f6
34
f8
0b
19
13
01
2e
09
25
27
26
14
10
10
0b
13
fd
24
dd
06
d4
e2
f0
db
42
00
ea
f2
ee
15
ed
c0
25
d0
05
17
c2
02
e4
e0
dd
29
1c
06
de
00
2b
f2
e9
32
2d
e6
06
3c
f2
14
2e
fc
04
16
26
3b
19
e4
08
07
1a
0e
0c
18
2a
35
05
e6
14
18
09
12
ee
b0
f2
ff
d2
cd
e4
f3
0d
00
e5
f0
05
f4
d6
f4
f4
c1
33
28
f8
d7
08
06
f9
d5
28
1c
0f
d5
d6
0b
12
ea
43
25
ee
e4
e8
ec
15
ec
31
01
17
ed
06
ed
38
b6
08
19
db
11
18
e4
ca
f5
e4
08
1f
fd
dc
e6
01
10
d7
ea
0c
fc
00
07
0d
eb
de
08
32
26
f4
fa
12
05
f4
f0
e8
ed
23
10
22
01
01
12
2b
0f
de
1a
04
25
fe
06
10
0f
fd
27
df
0a
0d
f8
19
ed
e1
00
e5
df
0d
02
21
0c
10
f9
e4
1a
14
fc
07
01
ee
fa
f2
eb
1a
19
1d
ea
12
02
02
17
2c
e9
1b
03
17
db
0e
17
cb
fe
11
f9
26
d0
ef
24
0b
0c
e4
fe
f9
36
0f
f7
eb
eb
0c
d5
e4
cf
db
f4
13
07
00
10
17
dc
21
13
d3
ff
09
30
0a
ee
1d
34
f2
eb
17
16
fb
12
04
24
fd
e1
db
0d
fa
d4
c3
e5
11
11
e3
26
07
e5
08
00
11
d1
fd
f9
1b
2b
2c
ef
04
f7
09
eb
f1
0a
15
d9
d7
2c
ee
d8
03
22
0f
2d
0d
27
e5
0f
00
31
18
18
03
e7
db
fc
f6
fc
19
1b
ee
e9
ed
cd
0b
dd
11
ca
14
be
d8
0d
0d
f7
f6
f7
a1
31
1a
02
22
0b
1f
27
ed
41
31
e3
fd
14
0c
0b
c8
33
e7
1f
1d
4b
e9
03
25
03
2b
f8
11
16
24
01
f4
b6
08
ee
d3
29
17
ed
0a
0b
ef
19
fd
1d
d5
c6
06
fe
5e
ec
11
14
0c
17
ff
fd
30
0c
07
de
f0
31
12
0e
42
bb
ec
eb
0f
1e
04
09
07
01
e5
dd
17
05
ff
0a
23
d8
0e
fa
f4
05
06
fc
f8
fe
24
f7
06
ee
07
15
23
fe
2c
e1
eb
1e
2a
e5
fb
ea
c5
e6
03
1e
1b
be
08
f3
03
10
10
04
26
21
09
f6
12
13
02
0a
10
ee
ff
da
1e
32
fa
16
12
07
dc
0d
05
04
fb
f4
f7
fa
05
24
f6
24
ef
ea
e8
0a
c4
d1
de
3d
fc
fa
0c
10
dd
ea
f3
0d
ec
04
dc
08
ec
ee
e4
1d
e6
f5
f8
fc
1f
1b
fe
16
05
ec
cd
35
02
ff
04
01
0c
0b
09
ef
09
10
b9
bd
e2
05
e9
16
d9
14
ec
13
04
0e
21
f0
04
22
dc
0f
f0
2f
bc
22
d4
e5
18
c4
fd
df
2c
02
1a
d2
e8
ea
26
cf
19
f4
f3
08
22
f0
d4
e9
ec
c5
01
ff
0a
1d
2f
f0
05
09
00
2c
13
fa
07
16
d4
33
e5
d3
16
aa
1b
02
f7
0f
e4
21
0f
e0
1c
13
f6
f8
08
05
21
0d
e2
0d
22
d8
de
00
12
1c
0f
04
29
09
fe
10
a5
fd
3a
1f
26
f9
f2
20
22
e8
2a
e6
02
0b
16
01
21
f1
0a
24
32
1e
f3
15
e2
ea
f3
e8
f3
ee
2d
fc
21
0d
09
ff
1e
55
ec
0b
b9
f1
ea
ca
41
06
0a
da
12
1a
0d
ff
07
09
1e
ca
f0
ca
fa
14
16
f7
1f
fd
04
c2
fe
14
22
09
27
16
e8
e0
c9
24
e3
d0
f8
16
2f
fd
ec
03
f6
2e
19
d7
01
04
17
e5
10
ef
1a
f8
d6
05
0f
fd
f1
f9
fa
e7
e2
e4
d2
ef
1f
33
fb
ec
1a
e1
f7
03
f3
2a
f1
cb
2f
ee
06
00
14
ec
dc
19
f7
22
d6
e2
0c
fa
e3
10
28
e1
d8
fc
f2
d5
f2
f7
49
0c
e5
d2
12
f0
dc
03
fd
09
16
25
ec
f8
fa
f9
10
fe
cc
e6
26
2e
e9
01
10
f6
11
fa
f1
da
eb
ef
0e
03
cf
fc
d1
ea
f7
f4
fa
10
11
12
ea
fb
f4
00
f2
0b
fc
fb
fa
07
fe
16
1d
dd
fd
ff
f9
fe
c3
ff
fd
fe
0e
fe
0b
ee
3a
ec
ff
0a
10
32
1c
0a
06
fb
12
01
47
e7
ea
24
07
18
0a
e1
2a
12
f2
0a
0d
09
03
36
09
df
24
01
04
cc
c9
23
d8
e2
f7
f1
cd
04
35
00
ef
0f
1a
00
f5
cf
cc
0b
1f
f8
cf
00
fd
11
08
0e
ef
0a
d6
16
17
c6
d0
f8
2a
33
df
e2
0c
03
47
f9
2e
1b
fe
d5
2c
1b
19
16
0a
03
40
0e
f2
1f
eb
1f
f3
07
1d
1a
ee
0b
d6
ff
cc
f3
02
de
ed
e3
0d
fb
fe
03
fc
23
0e
e5
dd
1f
fd
f6
ea
0d
12
f0
22
0b
2e
f7
e5
1d
da
f8
0d
e2
04
fa
e5
03
31
e8
ff
1b
22
e3
0a
1e
10
16
e6
0d
08
e4
dc
1b
fc
11
1f
fb
24
00
d6
e4
2b
d2
f2
c9
e4
f9
f5
10
07
34
22
c2
10
0e
00
e2
f6
26
e7
e5
f0
0d
12
05
fb
07
09
45
15
fd
11
16
fd
08
26
f1
03
e5
f9
06
03
ee
ef
f0
12
ff
e4
f4
27
2e
32
eb
e7
e1
0f
ae
fa
fe
f5
25
ff
1e
1b
d7
ff
d4
fe
22
1d
de
f3
1e
01
f9
fb
01
0e
e2
f7
f4
12
19
f7
f9
12
fc
22
00
f9
fd
28
12
f4
f1
fa
15
d8
de
13
f8
11
ed
ff
06
29
39
14
db
ff
20
f0
25
0b
ee
12
f4
f5
17
16
23
eb
1c
ff
14
21
ee
15
f9
14
06
01
08
e1
f6
07
cf
21
fc
f1
12
0e
f6
ea
f2
d9
f5
d9
ba
f1
dc
1c
0b
16
f2
f6
f0
ee
e2
ef
f5
f1
fe
17
f4
2c
22
20
e3
2d
32
41
1b
e9
0f
17
24
f4
19
e8
0a
f1
03
14
04
08
35
33
20
da
e2
13
2a
e3
f8
13
04
09
06
e6
0d
e9
f0
24
ce
22
17
30
f4
08
e7
ec
0a
fe
24
24
11
ef
ee
d2
f9
ef
fd
33
09
d8
18
19
fd
fe
e0
04
f9
0b
c3
f6
22
0f
ea
1f
1b
00
db
1a
c6
18
ea
ed
e7
00
f6
19
1f
f8
18
09
f3
09
fe
d9
ed
01
04
fb
c8
15
2b
d3
f1
e5
c1
2f
e5
11
1b
10
28
f7
fe
e5
df
14
f0
0a
1d
01
22
16
18
e6
27
06
23
25
f9
09
d6
e4
01
25
eb
f0
ed
ef
08
fe
35
09
0d
d3
e3
f8
22
16
da
2e
f1
d7
d8
29
0a
16
05
c2
fe
05
f3
3e
07
02
e0
ec
15
de
08
e4
e8
ee
04
d6
e5
ed
1c
f7
02
2e
2f
d6
0f
de
0d
21
e0
e6
38
0b
12
e7
ec
0e
ff
14
0f
ee
17
18
dd
01
dd
d9
de
02
f7
dd
0b
f3
0e
17
25
25
0a
f7
07
cb
28
07
11
fe
21
2d
14
e7
cb
e1
d7
02
1b
10
14
f0
01
02
3c
0a
ee
1a
e8
2d
15
f9
e1
e8
29
1c
36
ee
01
22
17
fc
00
1f
0b
20
ec
20
fa
21
0e
00
e7
b2
de
ec
12
fd
dd
f9
d8
1f
0c
db
e8
07
ed
fd
24
39
12
e3
f3
ee
fb
fa
f9
df
f2
12
f4
f2
fc
e9
07
02
06
ff
d5
0a
f0
f3
ea
00
04
26
fb
f4
0b
06
a9
14
2f
d4
0e
fd
06
ed
2a
db
df
e1
fc
21
f5
ef
11
31
27
16
00
e4
22
e2
f3
e8
e6
ed
ed
d4
25
f7
f8
14
d8
fd
f1
21
08
3c
07
20
dd
f9
05
07
14
1f
e9
37
f4
e7
d8
e5
08
bd
fb
fb
45
1a
fb
0d
da
fb
11
10
fd
fb
f7
06
da
f5
08
e9
2b
1f
d4
06
f0
ff
05
fa
fa
f0
07
e6
fa
0b
0e
be
12
e8
e1
1c
f5
05
f0
fb
02
e5
f9
e2
42
30
f9
e2
d8
d3
1d
d7
15
f7
09
ff
e4
f2
1a
f4
2b
f4
07
d3
09
f4
15
16
0c
30
d9
d9
18
e8
0f
ee
17
f6
fd
f9
1d
d7
fa
29
d1
0a
07
f6
22
15
d8
d2
01
1a
e6
e9
1a
f6
1f
f9
ec
09
14
15
07
f4
ee
fa
f8
11
3c
ee
f1
06
d5
0e
2b
f0
25
ea
fd
f7
09
f9
08
e4
f3
ee
fd
e8
3d
0c
d3
eb
43
f7
f0
00
fa
f3
0b
03
ef
e1
0b
25
06
29
bc
ef
0d
ea
f9
c2
13
c4
c4
4c
1b
fa
ea
20
17
06
0d
09
00
fd
23
ff
da
0e
1d
13
d8
11
db
e5
e2
f0
33
03
05
eb
00
e8
c6
da
09
37
f0
da
c7
46
17
12
11
f7
f1
f9
01
fa
d9
01
f4
2e
f4
df
02
0a
fa
d7
fa
e8
07
e4
0b
36
e8
08
20
cc
27
1e
06
07
f8
12
fe
07
e6
cb
e9
1a
1b
0c
e8
1e
df
19
12
1a
24
e1
10
11
02
f3
f0
e5
f2
00
06
1e
30
05
0a
d7
4f
fe
c0
f9
39
f8
19
27
19
22
09
f2
10
f0
c4
27
eb
1d
f4
b8
23
09
2b
ed
02
ef
d1
07
d9
de
fa
2a
04
0b
eb
18
43
19
f1
2a
0a
c7
ef
24
0e
f4
0d
f8
d9
f9
09
1a
ea
04
fb
f2
1e
2a
fd
e7
01
fe
06
1f
e5
09
2d
18
27
f8
e7
ea
f7
02
c3
10
18
fc
1a
e0
30
ea
13
f4
04
f3
04
fd
d2
31
0a
0d
e4
e6
02
b0
21
0c
10
db
eb
f2
f8
19
06
ec
d9
03
f5
fd
00
22
0d
38
0b
04
e9
35
05
3b
0a
28
f6
32
ed
ee
ed
f9
12
c4
f8
e9
2d
4e
37
dd
0c
df
b3
4e
ff
09
fc
0c
fb
14
07
fd
f9
13
b4
fa
e9
15
fe
1c
00
38
0e
21
cc
09
13
e1
18
e2
59
f6
eb
0b
2a
05
e1
13
dd
00
f6
2d
1a
f8
ec
27
04
ce
14
be
36
14
fc
1a
e7
14
e2
15
16
19
d6
12
ed
c6
e3
4b
e3
fd
21
23
3b
f6
c6
21
fb
ed
fa
ff
0a
d8
f3
da
f4
e3
24
1b
0a
a5
f8
ac
44
d6
09
37
16
f1
e6
d9
11
2f
f8
19
ce
ea
e4
83
1d
18
09
ee
2f
fb
2f
e7
f7
e2
e7
22
10
04
40
14
30
f1
1c
21
1a
fc
d4
02
e3
19
e9
fd
f8
f4
25
ed
0b
0e
07
13
3f
db
ec
fa
15
e9
21
00
0f
1b
f6
05
04
00
14
ea
ed
09
0a
0d
2f
2e
05
1c
ec
3d
cc
d2
e8
f9
eb
fe
e3
d8
ff
ed
ec
27
0d
d9
19
fe
11
11
fc
29
ca
15
17
06
d1
09
e6
eb
1e
d4
10
e6
26
09
fd
1f
00
0e
12
1a
f4
f5
e9
e7
2e
0e
0e
db
af
bb
f5
01
e8
07
1c
f3
ec
32
09
ef
fa
21
36
e3
ee
e6
2c
2d
16
04
dc
e6
eb
d9
20
de
e0
07
17
ec
e3
0d
c9
dc
ff
f6
ce
10
e3
09
ef
f7
05
d7
f1
23
dd
0f
d9
05
19
0c
03
04
eb
f4
0f
15
fe
0f
f7
3e
f7
d7
d0
fe
2c
03
04
14
f0
dd
cf
0d
1b
fa
1d
30
16
08
d6
0a
22
ed
4c
25
e3
df
fe
1d
0c
1f
0d
2e
ef
09
fb
03
07
55
e0
da
f7
25
19
2f
fa
39
eb
20
ec
e1
e0
09
de
fb
f6
09
ce
df
22
29
24
ea
1d
ec
1f
f0
fc
df
19
19
15
1b
f0
c2
e4
fe
e9
0b
24
fa
ea
f7
0f
f4
f7
e8
f0
f1
0a
12
ee
e8
d7
ef
04
33
1b
19
ea
e0
dd
09
13
06
ee
ed
c1
fb
ec
f7
0b
24
e3
00
fe
ee
1b
0e
fa
03
cc
eb
10
2a
12
fc
06
ff
00
08
09
2e
e2
f2
ed
e7
05
10
06
28
0d
f4
c0
02
33
08
e8
0b
12
1e
ef
04
1d
e6
22
df
f2
e0
0f
e7
0b
1a
f7
db
03
fd
f8
13
f3
20
03
3e
46
17
fb
31
31
e9
29
14
f0
f1
0a
0f
e8
0e
ee
ef
2e
22
2b
f6
0d
2b
32
08
2c
de
1b
ef
24
e0
e2
d7
01
ec
f3
fe
f1
08
f4
fd
05
f6
df
f0
c7
14
db
04
e5
2c
ac
10
10
95
e5
ce
0b
2c
f6
d3
fb
02
c7
f9
11
19
c0
00
f4
05
13
17
11
0d
23
fb
08
2d
14
f6
32
1e
b3
0b
d7
f3
36
06
0b
e2
f2
2e
05
fe
ec
35
06
eb
eb
14
e3
22
13
0a
13
bb
d1
08
f8
0d
01
d3
e9
f3
03
f3
ef
07
e2
fd
04
f9
0f
07
1d
17
ed
18
08
04
cd
03
03
e9
d5
ee
d9
ff
e9
1e
0f
0e
f6
ec
10
1a
42
da
11
fd
1f
f9
2f
14
cf
26
f6
0f
e4
ed
13
f6
d0
0a
0d
29
25
f4
17
2b
e0
e7
1b
0a
f9
23
e9
08
1a
15
24
0d
17
ff
f4
0d
58
1d
12
f8
f9
22
db
1a
03
05
f2
0f
d2
df
e4
03
08
c4
ff
e0
00
f2
2c
d3
0a
f9
03
15
f2
0f
32
1b
ed
29
07
28
17
ed
03
eb
f5
0b
e7
45
e5
ed
00
f7
05
29
e0
ec
16
ea
07
f1
01
06
eb
01
12
42
08
db
0a
15
f9
39
13
1a
00
fa
ed
ef
ff
de
fc
d7
16
df
e8
08
bf
e0
0a
d9
eb
ee
f8
06
15
08
08
35
eb
2f
ea
f7
dc
f8
d4
26
02
1a
16
e0
e0
ea
11
2c
0a
fe
01
26
31
23
1d
ad
23
fc
ab
e9
0b
16
05
1e
04
08
3e
ea
e5
f7
0d
24
23
a8
f9
22
11
06
2e
06
d4
03
20
01
35
ed
07
47
15
04
20
ff
f9
2e
24
f0
07
0d
29
1c
fb
11
16
12
2a
0f
f4
fe
eb
02
fa
09
cc
f0
e1
19
d0
4d
e6
ad
ff
18
1a
d7
e2
f1
27
fe
12
f4
f4
f7
0f
ed
fc
f1
ee
d3
d8
12
1f
f6
11
ff
de
d8
17
10
d7
e6
fd
d2
b2
f1
f7
1b
1c
fc
1c
32
00
be
fe
d0
c1
f6
d4
1b
25
05
08
df
fa
2b
e5
1b
fb
e3
f6
d9
fe
d9
27
1c
2d
55
d5
18
eb
f5
e3
24
23
e8
06
f5
2e
ee
11
11
dc
be
0e
11
de
f8
0a
e9
e1
39
1d
00
05
fb
03
e3
f9
ff
f1
e9
f2
dc
08
0a
10
f3
fc
0e
10
f0
f3
41
f0
02
12
f6
d3
d9
af
f1
fd
22
10
02
09
f1
03
fe
28
22
01
cb
eb
0c
fa
32
cb
ef
ec
f4
03
1d
0c
04
2e
f9
e3
18
f2
01
be
0a
19
e9
30
e1
0d
e0
1b
e7
f0
f3
05
dd
d4
20
ff
10
e3
31
1c
fc
ee
00
e4
11
01
13
e2
f2
d3
fe
f8
24
f2
4d
fa
01
1b
29
04
2f
ea
f9
f1
07
04
39
e9
09
1b
07
01
0d
fc
28
19
3c
e3
f6
f1
e5
d8
fe
1d
df
f9
30
e9
e1
eb
e9
04
15
37
1a
dd
e6
ed
0e
f6
01
ea
06
2c
11
ed
c3
42
fd
22
e5
e6
fc
02
04
00
28
1b
1e
03
fa
d8
e9
20
0f
e7
da
02
0b
0d
d4
1b
0f
11
f4
09
e7
f0
04
01
db
ec
f2
04
10
e9
dd
de
f9
12
f6
1b
11
ff
0c
0e
cd
00
f5
1a
f2
ed
11
f4
35
cf
0a
f2
07
c4
03
02
42
fc
11
ed
16
10
d3
25
f7
fa
cd
0e
00
16
12
f5
f6
0e
f5
f0
0c
0e
2d
11
f9
26
27
fb
2d
ff
34
01
1c
f5
c4
d8
10
cf
fe
1f
e7
d3
e7
fb
d5
28
fa
fc
49
f4
f4
15
f2
0d
ec
0a
02
fa
d6
f9
fe
bf
f7
0e
e9
db
22
e7
21
d4
ef
18
d2
20
30
ee
09
2e
05
da
11
cd
e5
f4
2d
11
e4
dd
f3
df
d8
b7
db
c9
f2
f7
07
03
d5
23
25
ed
ed
3f
18
fe
f3
2d
fc
fd
e3
e7
de
13
1e
1d
23
cf
f9
e5
16
0d
fa
1c
3e
f9
45
dd
14
30
00
03
06
08
eb
30
29
2a
ea
44
cf
0c
1e
fe
eb
f3
15
c3
ea
02
ff
13
40
ff
10
e3
07
f8
e2
f1
27
e0
e8
08
0c
ee
0c
e9
0c
f5
ce
0f
00
fe
09
0a
36
1e
0f
fc
e3
0b
db
0c
f7
19
04
0d
03
e4
f3
1b
f8
07
18
ec
da
11
2a
f8
0b
e0
f3
fa
f9
1e
ff
ef
e0
f3
00
2e
db
3c
1d
da
0d
09
26
dd
e8
e4
db
dd
fa
c6
d5
ec
1c
bf
07
28
1a
fd
eb
0c
ee
15
2b
1f
d3
19
f8
0c
0f
25
fc
0c
23
f6
08
d6
17
ef
fa
f5
fc
fc
10
f7
e8
03
ec
16
e4
d2
0a
00
09
fa
ee
e9
f7
28
1a
e1
0a
0d
12
ed
e5
1b
13
01
0c
fe
ea
be
01
01
0b
1d
31
00
00
fb
e1
ee
e5
2a
f9
e0
b1
cb
16
37
b3
0c
dd
ea
27
e1
fe
20
27
de
e7
11
e5
21
36
04
03
fb
1c
f1
e8
09
06
17
02
1c
09
e6
1b
e7
21
2f
0e
05
f5
04
fc
0a
ee
38
0c
fd
00
17
0c
01
ef
1b
1a
08
e1
db
30
f1
11
f8
08
fb
12
0e
ed
fd
01
20
e0
03
d9
f1
da
e9
0b
f0
37
cd
fe
00
f9
f1
f6
06
01
f4
25
16
ef
30
f0
de
fe
0e
06
ea
ca
0f
03
07
22
e2
f1
eb
ec
4a
20
f4
e6
42
0b
10
d2
0a
0e
02
eb
bd
e4
24
d7
f9
0e
39
d7
f6
09
26
1c
e1
04
0e
09
f6
2c
fe
04
12
f7
e1
d0
0a
dd
eb
fc
d7
01
1c
e6
0f
bf
df
0b
f7
13
11
ed
25
f4
d3
11
24
1b
f3
f0
f9
03
02
f8
38
d4
d7
21
f7
28
00
28
1c
34
f2
01
ec
04
d3
f6
d0
2e
fe
0b
15
e4
fb
f6
07
df
e0
f5
20
e4
20
30
fa
e0
eb
0c
ef
bf
e0
fe
e8
0c
e2
0f
2d
e4
f7
1d
13
20
d9
ed
ee
15
28
c9
12
eb
20
f9
32
08
05
22
f8
c9
fc
07
fa
e5
e5
07
ce
02
fc
17
c6
d6
f0
04
57
ab
0e
07
13
ff
06
eb
c8
d7
fa
fc
fb
d8
fd
15
09
0b
0c
0c
1d
f2
0d
11
f2
11
ff
0d
03
13
ef
eb
f5
fc
fe
34
10
1c
f0
e4
f9
d7
c8
18
e3
fa
e7
06
e6
29
1e
c8
eb
3f
13
26
26
13
d2
f5
08
16
a7
1b
1d
de
fe
f8
24
de
e4
13
f5
23
15
2d
0d
1f
05
26
0a
1a
eb
fe
f0
1f
1d
aa
16
3c
18
04
ff
0a
06
bf
f7
14
da
fb
c3
14
1f
28
df
b0
14
f3
18
f8
16
21
16
cb
ee
eb
40
d7
06
ef
02
e9
ed
d7
01
07
0a
30
c5
ec
be
c3
03
d7
eb
cd
ed
08
de
13
ea
30
24
28
3d
f3
e1
fb
0d
f4
f1
fc
08
1f
13
1c
f4
f8
f4
08
f6
11
e2
e3
ee
15
01
05
41
05
dc
d9
f3
39
ed
df
46
b9
e4
e1
df
0f
3c
18
eb
0a
22
0c
ea
c4
18
0f
3d
f1
07
16
11
dc
e6
fd
ee
de
2e
04
0e
ef
49
21
bd
ff
14
39
c5
fd
f4
da
15
23
05
fc
28
29
0d
e6
13
ff
df
e2
e5
f3
dd
f4
17
1a
3b
01
17
12
dd
e0
ee
c8
ec
cb
fb
19
cf
4c
db
e9
12
f8
0f
0f
e6
0a
00
e6
0e
16
1b
fb
42
ff
13
12
1e
03
f7
0f
fc
fe
04
31
ea
12
da
fe
21
e2
21
13
f3
0d
15
3c
15
e2
f3
16
1b
e2
ec
e1
29
f7
e0
e8
15
f5
0b
e2
e5
06
f0
12
e3
e0
f4
e1
04
e3
01
01
17
ef
e8
10
1e
0e
09
41
02
08
1e
d9
04
f7
f6
e8
02
2d
00
f7
15
27
c5
1d
eb
12
02
0e
fd
d1
16
f6
04
18
ee
fb
f3
1b
20
e9
d2
f9
04
fb
da
d9
16
13
13
ef
dc
21
da
fb
f2
db
f2
2f
f6
e3
c8
f0
f9
fd
0c
0b
1b
4d
09
09
f9
e2
fc
f8
fd
13
09
dc
2b
31
26
f1
3c
07
02
e7
fc
1d
d2
04
21
e3
02
f4
29
d4
ff
10
11
0b
ec
df
0e
ec
fc
e9
45
ea
00
15
3b
05
d9
c4
1f
15
ea
d5
ce
eb
da
e2
fd
28
05
0a
07
14
20
d4
0b
f2
b5
eb
26
f7
f4
ff
04
fc
d4
e1
ed
06
fc
f2
19
25
23
1b
05
17
25
e3
18
d4
e2
02
ef
0d
ea
13
fe
fd
e6
18
0a
de
0a
0f
0f
ef
20
27
4f
12
06
e3
04
0d
3a
f0
dd
3a
0a
3b
f9
29
e5
fa
e4
f3
1e
f6
f3
f3
03
fd
f5
e6
d9
2b
01
01
0e
e2
05
10
23
0f
28
1b
05
15
ec
0d
01
16
eb
e2
f0
35
24
d4
31
1c
e2
05
ee
2a
01
03
ef
28
ff
fc
db
10
c0
1a
e4
1f
e2
fa
09
2a
ec
08
10
09
18
41
c6
fc
d9
09
03
01
11
f1
02
f3
e6
02
b8
0c
09
06
16
fc
15
07
19
f7
10
01
e3
e8
dd
17
18
fd
ef
f8
f6
f7
0a
10
c2
fd
e4
f8
3d
06
db
d9
e5
05
11
12
e6
f4
fa
f5
2b
1d
13
01
1a
0a
e2
ec
ff
0b
01
00
0d
28
18
3f
29
24
0e
06
e5
e3
f1
ee
e4
f3
12
10
ea
e1
0f
1c
fb
c3
f4
ee
f7
ea
f7
26
ed
fc
d7
15
02
eb
02
24
f4
0d
ff
31
27
19
ec
10
fe
1b
e1
1d
03
f8
ed
0e
1e
0a
dd
d5
d6
1b
21
06
e9
fc
ff
0e
0f
eb
f8
ec
f0
10
00
25
e4
1c
db
dc
c9
06
fe
0d
00
0a
f4
00
0b
f6
11
f9
f1
0d
e9
3a
e0
14
f5
28
eb
2f
10
12
09
28
2d
f2
e2
06
0c
dd
ec
49
de
1b
28
fe
dd
1c
38
02
f7
dd
29
3d
0b
1e
f5
16
38
ea
18
0b
39
09
fd
c8
f8
f2
01
f4
cc
ec
17
f2
d6
eb
25
ca
db
26
f8
03
1e
ff
00
f0
f3
fa
02
d5
f7
d0
0c
ff
03
c9
06
f9
2d
27
d6
07
06
f7
06
16
e9
f1
df
21
ed
2d
fd
c9
e8
f7
f1
2a
03
0c
e9
0f
02
fb
e5
09
df
fc
0d
db
ea
e9
1e
f0
fa
34
18
07
fe
09
e9
01
22
b8
ab
f8
09
0a
f2
1f
1f
08
e4
dc
13
02
d9
0b
cb
12
07
07
bb
35
1a
f9
2e
fa
e6
02
27
18
1a
37
07
27
fd
0f
12
18
20
d9
de
f0
0c
1c
33
17
3d
2b
11
0f
2b
e9
df
19
09
b0
30
e5
dd
2c
f2
e7
ff
fa
ff
e5
1f
d5
e6
1e
e9
02
0e
ff
12
fa
1c
f5
ff
fb
0f
fe
e3
2b
27
e9
41
43
d5
02
f0
07
d1
e4
de
06
11
f5
07
fa
f6
0c
0e
12
0d
f7
d4
f5
fa
04
21
e8
06
e1
fd
e4
00
f8
fc
f8
1f
0b
f0
f6
23
f0
2b
f1
03
ee
e9
d2
04
f2
17
f9
f7
2b
ee
f6
ef
a7
29
ee
21
0a
03
0f
e1
f1
16
09
1e
06
00
12
dd
d7
40
29
f8
0d
ff
2b
1f
f1
0a
ec
3a
5c
da
23
13
f8
05
23
17
f7
d0
d9
eb
24
09
07
f0
39
f9
ed
f1
e2
09
01
e8
0c
16
d0
23
23
11
05
18
e8
f6
0d
00
e0
bd
e6
12
07
33
cc
f7
04
15
36
c3
1c
07
bb
00
26
fb
e0
05
f9
b4
07
09
e8
0f
0d
08
ea
1f
03
ef
00
2c
19
ca
f9
20
26
e3
ef
f3
0f
02
0f
e3
e3
01
1e
b4
bf
28
13
19
01
0d
ec
2a
0e
03
ef
31
0e
f5
10
f0
de
bc
ea
ea
fc
ee
20
0b
13
06
35
fb
e5
df
fb
0d
0d
fe
f5
d7
0f
f5
27
0f
22
00
ee
28
f8
24
ec
c6
ec
16
18
22
d6
19
fe
d4
ef
15
18
1c
04
ea
cc
20
e7
fb
09
db
05
2e
f6
f4
1f
18
e8
06
fd
3c
36
d8
13
01
f4
f7
f2
01
f0
0c
dd
c9
00
16
00
f9
03
ee
39
20
f6
2b
f2
02
ea
27
08
35
d1
1b
0e
03
1b
dc
e6
fc
db
0d
0d
15
f0
f7
20
b2
27
16
bc
2c
04
df
f7
f3
dd
e2
1d
10
17
dc
f2
fc
42
25
19
13
e0
f6
cb
f5
0c
09
fd
ca
fd
14
04
f5
34
fe
11
e5
dd
0b
fb
f8
20
07
e7
e0
ed
f2
c3
e8
ed
39
01
10
03
b7
f4
e8
04
f3
e6
08
f5
04
17
fa
fa
bc
eb
ee
d4
e1
08
f0
2a
f1
19
db
1d
1b
14
23
5a
d4
f8
e9
fd
07
10
2c
2e
de
e6
fd
e8
0e
e7
29
00
28
34
32
6c
e2
d8
09
fa
fd
1e
01
00
29
f7
11
07
a4
e8
df
06
f3
1d
f0
2f
eb
d0
fc
19
f2
c7
10
17
f5
ff
06
f4
a9
10
d0
fb
f9
12
e7
da
fd
ec
32
47
32
1c
fa
f6
f2
28
2b
0a
13
73
00
16
04
06
18
15
0f
e2
ce
fe
06
e8
02
ea
d8
d1
f3
21
41
30
ef
f5
06
d0
fd
1f
da
01
09
17
eb
ec
28
f4
fb
11
1c
f3
fd
dd
ea
de
f1
07
25
0e
f4
46
fc
d2
f9
0e
20
f3
03
0a
11
d5
f1
20
e6
07
e5
09
02
f8
f2
1c
29
08
13
f8
f4
df
ed
31
ef
d9
1a
e2
f2
48
05
f6
f1
04
f7
fb
1a
e2
40
42
d4
df
fc
f8
17
10
0c
07
11
20
cd
13
e4
16
12
f0
e4
2e
14
03
fd
f6
c0
d9
f6
26
19
ce
13
02
07
e0
17
1b
0e
fb
f0
17
4e
f0
f8
07
e9
03
16
e3
14
10
fa
dc
f6
eb
10
fd
28
34
18
f7
33
c4
f4
fb
0f
1d
fa
2c
de
1e
03
08
eb
fe
d4
c8
21
11
d9
d6
f4
d7
09
1c
e8
1c
df
e1
f7
f3
e4
12
2b
c5
f4
05
c5
f7
21
09
15
0e
12
0b
f7
05
04
11
fd
0b
f2
0e
0b
15
11
1e
c9
dd
d7
da
fb
61
16
f6
b9
10
17
0c
f4
0d
fa
15
20
f6
0a
0f
e7
f2
06
fd
eb
06
02
2c
cd
24
0a
f9
0b
f0
14
a9
fe
1a
0a
2f
16
da
30
17
d2
ea
ff
e7
03
1c
0b
fd
ec
20
15
d1
23
e9
cd
fd
16
13
e8
0e
3d
f3
fb
fe
2a
c5
0d
1d
e7
e6
f5
1b
e5
a8
f7
f3
00
0f
d7
27
28
cd
29
f7
a4
00
ee
ed
ec
38
05
e5
15
1e
e2
14
e8
e1
f5
ee
05
bd
0f
f8
f6
07
2b
f6
e6
05
bd
0b
1c
15
e1
17
cf
46
f8
e5
eb
1e
ee
11
2b
f2
15
d6
e5
e5
f7
26
0a
21
f3
fa
e4
ec
a1
20
f7
d0
19
25
2a
fd
21
05
0c
30
fc
0c
0f
ce
0d
35
24
39
06
d9
ec
cd
2d
08
19
0c
ea
e1
ec
d4
15
14
0f
2c
11
e3
f2
d2
3c
1f
10
e9
1f
fc
fb
e9
fe
15
0d
fe
c4
0d
0c
fc
06
09
19
1c
e7
05
ee
d2
f8
f2
10
f1
0e
f3
37
07
0b
cc
ee
ed
04
e3
12
cc
08
1d
f6
08
09
43
e1
dd
25
31
43
e1
12
fe
f1
fa
5b
06
e8
01
08
ff
0b
17
18
fe
0c
3b
ff
07
3d
d4
ad
0f
c4
fa
f0
4b
08
13
e3
26
e8
ea
bf
0a
00
e0
0b
f3
f2
da
09
19
e6
dd
1c
ec
e4
0f
e5
05
07
23
e2
f6
10
e5
fb
f3
e8
e7
16
ff
33
12
22
ef
f8
e8
04
e0
fc
32
fa
fe
0c
0c
fb
e8
bd
11
0b
fe
f4
31
ef
17
20
27
12
24
05
ee
da
09
04
00
fe
f3
02
0f
04
04
07
d1
07
12
f4
06
0e
2e
f2
f2
d9
e2
cf
ef
d7
e8
f9
1a
19
31
eb
fa
e8
f1
10
09
17
d7
ea
eb
29
d2
ed
17
06
1e
01
d7
d6
0a
24
ce
0a
25
04
be
06
fb
f5
fd
32
22
2e
19
f4
29
07
f0
f3
29
e8
f3
f2
14
af
e7
29
ff
30
0b
28
31
e8
2b
17
03
f1
0f
10
ef
07
03
1e
c0
0a
e8
15
f3
04
29
0c
22
c0
3d
d5
fd
22
11
06
38
2d
07
e0
f5
04
d2
1b
f1
e5
d5
0e
e1
e8
08
0f
12
0a
f8
17
d6
10
04
be
f8
2f
f3
15
22
f8
d9
1e
dc
ee
e9
ee
c4
03
17
d4
0a
ea
19
fb
3b
06
38
eb
0e
e6
e6
08
20
34
e9
0c
e4
c7
ea
e1
0a
2b
f0
1a
f0
ea
0b
ee
31
11
f1
c4
b5
10
13
25
ec
0b
f0
e5
31
0c
fb
22
2d
09
15
11
1a
ac
03
f3
01
17
00
dc
c6
19
27
de
f4
22
15
17
e5
25
ea
24
e9
0a
0c
0c
e7
0d
03
dc
33
02
d9
d9
12
dd
de
f1
07
01
1f
d4
e5
52
f0
ff
f9
d6
22
dc
28
fb
d5
34
f4
fd
05
f5
48
fe
ff
cc
f5
ff
1e
10
f4
05
05
11
18
30
d1
d8
09
26
f1
06
0d
28
ec
26
2a
f0
16
df
18
eb
fd
e7
f8
02
fe
09
13
da
f9
fb
05
c7
18
17
0f
0f
15
ec
01
e3
0a
fc
06
f7
eb
e9
16
2f
1a
00
2a
e0
ba
b6
f3
dd
fa
ec
24
3b
0c
04
f2
f3
1b
c2
fd
13
e6
d3
45
13
ef
1b
26
cc
26
fc
fc
e4
fb
41
cc
bd
0d
f8
e3
08
ec
cf
e1
2e
0d
d1
15
e5
d3
08
fe
25
2e
29
f8
db
29
2c
d3
0d
1d
1a
11
0d
00
12
25
d4
ff
ee
14
30
06
e6
fe
3b
04
fd
cb
df
f4
11
00
f7
25
fe
d6
e7
f2
ab
dc
fa
14
01
aa
f2
23
0d
ff
11
e2
c9
d4
fb
34
2c
e7
17
23
0b
1d
ee
15
fa
1d
23
14
fb
23
d8
06
12
1f
f1
2a
1d
23
f7
fd
0b
c1
fe
27
23
fe
22
f6
10
e4
fa
ef
0b
1b
12
30
06
36
0c
15
bc
17
f7
21
03
0f
f6
d9
e6
e8
f3
2f
b6
0e
e7
f6
05
ed
f2
eb
29
2a
12
04
c1
20
0f
25
e3
0b
2b
1b
37
db
e9
12
e8
35
e1
0a
e1
04
fb
44
3a
14
d8
ec
0d
e6
f7
18
0f
fa
fb
ed
19
49
08
00
27
f9
db
30
b1
42
1a
cd
1e
0d
d3
10
e7
c4
23
28
05
d7
fd
c9
14
1c
29
e1
0e
0d
2b
fa
02
16
da
ce
cf
20
03
1c
e8
1c
f8
03
13
f7
ef
d6
3e
1b
15
08
1c
e3
f9
00
e9
07
2c
e6
1e
01
f8
0e
e7
25
03
f9
e4
2d
00
fb
2d
e2
0f
05
27
1b
e7
d1
0d
15
00
fe
14
f5
d8
b6
fd
10
f3
ea
15
ef
ff
e0
ee
f4
03
06
e2
e6
df
39
ee
fc
08
d7
ed
fd
11
f2
d5
12
f7
14
07
ec
fc
16
d8
04
12
fa
05
ff
fe
0d
f8
19
19
0c
0a
03
f6
c8
e2
e8
c9
0b
2d
05
0c
44
e6
19
13
01
bb
13
1a
fe
19
19
14
e5
04
01
20
ea
f1
04
24
0b
e7
2b
01
0c
1a
ef
1c
02
ed
fe
e9
ed
1b
29
ea
f3
03
f1
4c
dd
de
f7
e5
09
2e
e9
f0
1d
f0
12
f7
fe
eb
15
16
d1
e4
18
e3
ee
27
10
09
f7
44
e1
ed
e6
34
1c
cd
14
1d
09
0d
16
f0
27
f8
e0
06
ce
f3
d8
01
e9
fc
de
17
fa
28
cb
08
e1
e6
06
11
24
ec
0a
0b
f5
f9
ef
1d
1c
27
e5
fc
c5
f3
3b
36
f6
ff
e6
19
06
da
e5
0f
d5
23
b3
f6
2c
fe
e8
ef
e4
2b
06
fb
0e
ff
fc
17
17
de
d1
13
24
eb
ed
43
20
08
0a
fc
e2
da
0b
1f
e3
1a
31
f8
e1
13
ef
1b
fb
fb
fc
ff
0c
17
f1
b9
ec
29
4c
11
0a
d7
e4
c9
e9
da
43
23
f4
42
eb
02
17
dc
22
19
26
1f
f4
4e
fc
d9
ff
f7
ea
d8
28
ea
da
2b
d2
01
fd
0c
00
e7
f6
e7
dd
c4
06
46
33
ff
f5
af
3d
5b
37
2d
e1
f9
24
fc
d2
e6
e8
05
f2
d5
fb
0d
04
f4
16
0f
f4
2f
c2
d2
f0
1d
15
0c
04
07
1c
07
18
f5
0e
17
f5
05
cf
19
12
fd
d6
fe
bf
f4
08
09
ca
ce
11
19
f8
f3
f1
13
2d
17
f8
ba
eb
04
42
0f
ea
0c
e7
29
19
f0
3e
fc
d8
09
13
22
07
e9
18
15
34
e1
03
c3
f3
fd
0d
f4
f8
fd
0d
0e
43
21
fd
d4
09
ef
11
ce
f7
d6
fc
fd
15
d1
e1
e0
15
f6
0b
15
f0
0e
f5
df
1c
f0
dd
da
e5
df
e5
3f
f2
09
e1
48
0d
0e
0f
0c
12
31
e8
fd
f0
20
e5
22
0b
e3
e7
0c
24
26
f2
df
e7
02
b9
cc
f6
01
f9
ed
f7
02
1d
1f
49
c4
25
e5
f7
28
e6
23
3a
d4
bc
19
f8
0a
f4
e7
0e
ea
1a
06
31
ff
0b
08
06
3b
ed
e6
10
09
2a
e3
e5
e9
0e
ea
23
27
08
cc
ef
e6
f3
21
ac
ef
f0
ed
ea
fb
18
01
0b
e2
f1
17
18
ee
2a
00
26
f2
01
d5
f1
f9
f5
e3
d8
f5
ef
1b
d5
e2
13
e5
cc
fd
1c
1a
3d
17
fd
05
db
15
1b
34
ff
f4
ca
f8
2c
da
41
00
14
ee
fc
12
3b
c5
0b
cf
e6
df
03
10
44
ee
1d
25
f8
fb
0c
04
e6
e4
b9
10
df
ed
10
19
1c
1f
ea
ec
08
36
de
e8
02
00
11
24
14
1e
06
dd
11
e1
02
1e
22
0d
02
d1
01
2f
06
df
cb
05
0c
e8
26
db
e3
02
0e
21
25
03
42
09
12
e9
2a
f5
19
12
03
10
09
2a
e6
04
1f
f3
fc
0e
1d
15
14
e7
1d
03
00
09
df
08
e1
fb
42
b6
e6
35
2f
0d
d5
f2
e9
ee
14
fb
ea
e0
fb
ff
1b
d5
ef
da
12
f7
06
eb
01
f2
04
00
bb
07
0e
03
05
d0
15
d8
27
07
f8
fb
dc
02
c1
44
0b
02
26
cb
0f
ef
33
10
cc
25
4a
0b
13
2e
f2
0c
f5
f8
e7
f9
20
bb
fa
1b
e8
03
0e
14
18
f7
06
f8
0b
e1
f9
14
f1
45
1f
06
07
0a
df
fd
10
e1
0b
24
05
14
1c
e0
07
b7
0b
ed
e9
dc
d8
0d
bd
29
d7
06
da
ed
f0
ea
1e
e9
c8
0d
fc
e1
15
0e
de
24
17
ce
25
05
e8
0d
26
d8
fc
f4
d6
ca
1f
ce
f0
cd
fe
18
15
e4
f4
0a
00
1a
14
06
f6
15
1d
13
20
f0
27
f9
c3
df
ff
ed
07
10
4b
fd
ee
21
ff
d5
19
06
21
14
f0
3c
36
e4
fa
02
fd
29
1a
fd
f6
05
03
25
1d
dc
08
04
f1
ea
d2
c4
d5
13
ea
16
0b
04
3a
eb
10
05
ef
dc
eb
0b
df
f7
06
dd
ee
f1
00
10
17
05
fc
19
02
d7
f6
09
1f
ca
d5
ef
d2
35
fc
e4
b3
be
f0
15
0b
39
f1
1e
06
32
01
e9
3d
21
23
d2
d5
cf
14
1f
fa
25
f8
fd
fd
0d
13
14
00
07
ea
e3
f2
13
2f
0f
21
09
17
10
ff
14
01
e2
ed
02
24
e2
04
27
30
fc
0b
14
f4
19
1c
eb
f9
1f
e4
16
fc
e8
1d
1c
e9
f8
d2
0e
08
ef
07
c3
fc
14
c2
f0
06
09
45
39
fb
0d
36
26
e7
0c
01
f5
f4
0b
de
06
17
02
e6
04
fc
16
15
06
11
ef
fd
08
07
1c
f2
0b
1c
ec
31
e1
ed
fe
cd
e1
f0
f2
05
1b
16
0c
e4
09
14
fa
df
e4
e2
f0
b2
18
e6
19
ed
00
19
0d
04
0d
cd
d7
00
01
1c
d3
0c
0e
f5
2c
f9
f8
20
09
fc
ce
ec
15
fe
d0
23
08
1a
d7
1a
1d
1d
20
e5
fc
f7
ec
f1
db
f5
15
08
e3
d9
fe
e7
d4
09
e7
09
2c
22
d9
1e
ec
01
17
23
e9
34
15
f8
05
ed
35
27
e6
07
d9
26
0d
14
ea
d8
13
13
f9
0c
fb
20
34
ed
01
ef
27
f1
09
0d
05
ef
f4
19
15
f4
0b
d2
fb
12
f5
21
d7
d0
0c
08
13
11
f2
f6
d0
f9
d4
ff
ea
1a
10
0f
af
f8
c9
cd
f4
33
16
18
00
35
d9
0a
df
19
21
0f
15
29
0b
e0
0f
17
f2
28
08
02
05
e6
d2
f0
ee
10
18
d0
0e
da
af
33
fe
f1
26
01
e1
08
33
30
35
f2
13
fd
de
16
f7
f3
d5
e2
11
17
45
ff
d5
1a
16
ea
0e
cb
46
d7
e2
1b
12
13
02
14
16
15
c4
15
da
e3
ff
cc
22
19
e1
fe
08
66
00
e6
0c
f3
c9
fe
cc
f4
f5
f4
da
d5
15
1d
16
03
24
fc
fb
00
2c
fe
04
12
05
d7
42
51
dd
ec
bc
44
e2
08
d1
e6
ff
ef
03
2e
05
ff
16
0b
2f
05
02
f0
0a
f7
30
20
2f
d3
e8
08
d8
d7
fa
21
1b
f4
e5
e1
1d
1f
62
f8
d2
eb
f8
c7
d4
19
00
0e
e0
28
f5
2c
e7
f8
f5
29
15
18
e4
29
0e
ed
e1
ea
26
41
d4
0a
01
09
09
32
fa
e1
e9
e4
cf
ff
1f
0b
e1
1d
df
dc
fc
ff
1e
02
05
0c
3e
bf
e3
15
f0
f4
f3
f7
27
03
ee
18
00
29
ea
06
fd
f1
dd
23
ec
08
07
f5
da
d5
0d
28
18
0f
f0
15
ee
08
eb
ea
16
2f
0a
27
05
0a
18
24
f9
1e
0d
f6
00
e3
16
a5
f8
d8
18
0c
dc
cc
f3
2b
ef
1b
b9
e5
de
e4
d9
f8
f2
ee
2b
19
1d
50
ea
ff
f7
1e
d3
0a
0c
10
e4
20
e4
11
ff
d1
fa
03
58
e8
2e
f7
0a
15
e0
00
0f
02
f4
35
fa
04
fb
11
fa
d2
0c
f2
10
f6
0b
d8
05
fd
2d
13
c7
fb
d5
29
37
2a
ef
13
b4
d4
d3
00
f9
16
fa
07
e9
0c
fb
f2
f8
18
ce
d7
1a
d1
f0
03
1a
01
20
f2
e2
0c
1f
21
fe
25
e3
d8
e3
0c
f8
bd
2a
ed
2a
e1
27
fd
09
fb
ff
fe
2a
fc
04
e6
db
e9
f9
e2
fb
ea
e7
d5
01
0f
e1
00
f5
ed
ef
23
d7
00
fc
2a
f3
06
fc
d6
f5
11
f9
05
03
22
ea
00
fa
29
f5
dd
e5
02
35
f7
24
fd
0a
2b
0c
09
1a
f5
11
04
0b
eb
0a
03
21
18
c0
05
f0
ff
f7
13
0e
10
23
21
0a
fe
e9
da
f2
18
f6
33
cb
bc
db
da
32
03
f1
fc
f1
e0
03
f1
01
1c
26
f8
1a
01
0a
e0
12
01
0d
f0
1c
18
da
18
e2
13
0e
09
f9
ff
f6
e9
da
09
ec
ff
ca
16
17
02
df
06
de
17
f5
ff
17
f1
1b
1e
11
19
06
de
24
e8
27
14
f9
ee
e6
e7
1a
e6
ea
0a
1c
d5
1a
23
1d
08
06
e5
02
fe
f1
ca
d8
12
03
13
f6
19
d7
ed
07
07
e6
11
04
ea
21
21
34
2e
db
ff
d6
22
05
db
e6
0c
19
e2
f7
21
e6
ed
1d
0d
25
03
cf
ec
ed
26
27
15
0f
34
0c
cb
1b
1c
ea
11
ec
2b
24
ac
e4
fd
db
02
14
07
1b
e3
1f
08
f6
01
fb
fe
ed
02
fa
f5
32
e5
e7
0f
fc
40
23
e1
00
1e
06
17
e1
dd
f7
df
c0
34
11
12
e0
3e
11
10
fa
2f
08
ca
19
df
fa
f9
e8
dd
04
29
0e
ea
03
31
2e
d1
14
cf
e6
fd
07
f6
e9
ff
0d
c4
fd
ff
ea
ee
1a
20
bf
fd
19
01
0b
b1
de
fd
e9
fb
0d
03
e6
c8
15
12
ef
db
e2
fa
e7
26
1a
2b
3b
f7
00
01
f6
e2
13
e7
d9
13
1a
0a
2a
ec
fe
1a
f8
2a
f3
1a
f3
c9
ef
e4
09
fd
33
15
ed
2c
f5
02
5c
d7
09
46
ab
e9
d7
15
15
ff
05
11
4c
09
22
24
2b
1c
12
f0
10
09
e2
12
f7
ec
19
22
c5
e2
0b
22
df
24
e2
df
ed
35
d9
f8
06
ef
23
dc
d8
20
f8
be
14
0a
ee
4a
c1
29
df
14
f4
48
e6
ed
fb
12
eb
10
f1
32
ea
1c
f1
d9
14
0e
27
07
e4
5b
1e
c0
ce
20
dd
19
e7
f0
04
0e
31
14
01
29
ce
de
14
f7
d3
e6
f3
33
cf
c3
cc
f3
1c
30
fb
32
c5
02
0d
39
10
de
1a
fd
27
15
14
f4
dc
ed
09
01
1c
0e
0f
0d
27
11
2b
0e
ef
13
15
f3
e4
f4
01
f7
20
20
f0
e5
02
32
14
0c
d3
11
07
e7
e4
01
0a
1c
18
dd
ee
c0
0f
e4
08
04
e0
08
15
f7
0d
0e
eb
f9
0d
02
e1
ed
eb
0b
1e
f1
04
2c
09
3d
21
da
41
0b
09
f9
1b
08
06
f4
34
13
ee
02
f1
0a
0e
11
f2
0a
d6
ed
b1
09
00
ec
f0
e8
f3
0d
ce
01
f7
e2
fc
04
e7
dd
17
31
e0
e0
f5
fd
fd
f3
e3
f1
1c
e4
f0
1f
ff
d4
0d
a6
e9
0e
09
06
0d
dc
0d
3e
ff
22
0e
db
10
08
f9
22
25
0d
da
fa
f3
23
1e
e6
10
20
3f
f5
13
f1
0a
15
e6
1c
21
0f
fb
12
00
05
e7
e1
3a
17
29
eb
f6
09
db
38
11
fa
07
3d
d1
09
0c
f6
df
2f
fe
ea
f6
e9
0f
01
27
0d
02
ee
e2
f9
07
05
e3
12
ce
d9
fb
0f
f6
ed
18
05
ec
14
fd
0d
ef
04
c5
ef
fe
33
e8
ea
f1
e9
09
e9
f5
d4
ed
03
ec
e5
3b
d0
f6
e2
fe
e4
f4
0e
db
e9
24
18
ed
f0
eb
0c
f2
01
1b
f1
f9
e9
12
cc
e8
4f
e0
05
26
fa
11
02
f7
11
ed
f9
e4
f2
01
07
22
e8
08
1a
e4
06
d2
10
dc
02
fa
d3
04
1c
21
2d
ea
1d
d0
ef
0a
e3
f2
14
fc
00
02
08
45
fb
10
fa
07
1d
0b
01
02
fe
2b
08
00
2a
1d
e6
0d
03
ec
fd
e6
f7
fc
f9
1d
0d
11
fa
27
f8
f0
f3
e2
0e
18
e5
11
d0
dd
0c
ed
28
03
f2
d7
15
e1
c1
ca
f5
10
d4
ed
d7
1a
fa
12
df
ff
ec
fd
11
ef
05
f4
01
22
fe
f6
fe
f7
e9
1d
08
09
00
10
db
e0
20
27
df
e2
f4
01
06
00
08
ff
f6
36
08
16
3d
1d
0a
c5
fb
fe
16
f5
03
fd
10
01
15
20
ff
0d
f7
0b
0d
17
1a
20
04
cb
06
21
05
2e
ec
cd
03
e1
17
e6
fb
00
ff
11
02
1d
08
e6
08
fc
e4
f9
f0
01
06
0b
ea
e0
be
ea
d5
1a
1b
01
01
da
23
fb
da
e0
14
eb
ff
f0
15
26
f9
19
c9
fd
f7
24
25
fd
13
f0
18
1e
24
0e
d8
ef
eb
ce
03
ee
04
f4
29
ec
33
00
0c
0b
04
05
04
02
09
fa
fb
fb
17
fb
e2
f9
1a
0e
f8
cd
1d
40
05
e4
25
e8
e7
d7
28
2d
f6
11
e8
10
1b
24
c8
fc
f2
d2
07
00
09
e3
1b
02
f7
03
f4
19
28
15
01
2a
f4
06
0a
11
d0
eb
0b
36
c6
10
0a
db
f5
fd
1e
d3
f9
2a
f9
f3
e7
01
04
ee
28
b7
05
f5
f4
f9
12
c1
11
18
10
e6
ca
f5
02
e7
12
39
ff
df
fe
17
f7
16
05
0d
f6
12
05
0b
f7
f3
00
01
01
17
2c
e9
31
e4
04
26
e6
fb
13
ee
ee
fa
1c
16
22
ec
10
dd
06
fc
17
fa
dd
f5
f9
d6
e4
07
2f
3c
c3
49
20
fc
00
0e
f2
ea
e8
06
36
03
02
e7
20
f0
f5
e7
19
f8
dd
e6
ec
c8
fa
19
11
01
13
e6
f2
fa
e0
13
0d
ef
12
fa
1a
15
eb
03
18
26
e9
12
ed
14
24
f5
ef
ea
f1
dc
04
f9
f0
f9
15
24
df
00
c7
cd
2a
2e
ff
0b
14
eb
fb
00
e8
fe
00
03
cd
22
4b
19
0e
f3
05
00
10
01
27
27
e6
f4
e3
14
04
e2
2a
dc
03
d6
14
43
03
0e
ef
d8
0b
cb
eb
0a
0c
ed
f3
d0
23
b8
1e
d7
21
e9
0e
dd
fd
ff
fa
d2
27
41
f5
ff
fe
0b
11
03
28
fb
2a
0a
0d
26
13
fa
1b
f8
68
13
3e
4b
12
35
d1
f9
e4
c7
e8
02
2f
d7
20
06
ee
ce
d6
00
01
12
fe
3f
c3
f2
33
1f
b9
2c
e7
1d
f8
1e
0f
db
2c
0c
f9
03
ff
d3
4c
0b
38
19
2e
fc
0c
1a
13
ca
f6
0d
b8
f0
30
1c
2c
22
b3
bc
15
0e
09
07
11
41
16
e7
02
ea
f9
f4
10
45
e7
b9
fd
3c
15
f7
e9
1d
d5
ef
f3
08
01
08
b6
f7
48
e2
fc
0a
f6
c2
f2
f4
fe
ff
d5
f4
13
f1
1a
23
04
f9
d9
02
ee
10
d7
c8
4d
cb
23
e9
ee
0b
09
ee
44
0b
09
e4
fd
e5
a6
ee
11
07
17
b9
f8
06
f2
df
fd
0b
f5
fb
0f
11
f4
ef
06
0f
13
01
f0
f5
01
4a
f4
18
21
e1
2c
11
43
0a
d8
11
ef
2b
0d
d3
2f
f0
fe
24
10
ea
0a
cc
08
00
05
f0
fa
01
cf
f3
f0
02
e5
e4
07
15
d6
1a
f6
21
f7
10
c5
03
2a
e1
da
d4
04
da
fd
f2
ea
3c
10
05
22
fd
1a
14
ad
f2
fa
ed
07
e0
f9
20
e8
0a
ff
0f
ed
bd
41
23
b5
2b
db
23
24
10
ff
fe
00
e2
1d
f7
f2
00
fc
16
f0
06
ff
1b
ec
27
60
2b
01
fd
10
1c
0e
f7
ec
03
18
e7
28
02
e4
e5
e3
2a
17
fc
fe
03
fd
e1
01
0c
e1
31
f3
42
0d
f6
fc
24
e4
f0
10
ee
f8
1a
00
d0
fb
ef
16
f6
ff
ff
2c
1c
3a
06
12
f2
12
1e
13
e7
ff
28
ef
06
0f
a3
2a
fa
06
01
1f
fc
e6
0b
0c
f9
2d
c9
e2
28
e3
e9
00
ff
0f
e7
e1
f7
f6
04
23
e0
cb
ff
fc
09
ee
ef
d1
17
d6
09
17
e7
d3
1c
cc
0d
e6
f4
18
eb
ee
be
ef
ff
19
19
0f
1c
fc
d1
00
fd
f1
09
29
1a
dc
09
13
20
f4
e3
e9
d0
18
24
ee
da
f7
d7
33
63
eb
e9
c0
09
24
d0
f1
04
17
36
07
02
e8
d4
1d
35
1d
cf
25
cd
0c
eb
2e
d5
20
fe
c2
18
fe
f8
07
ee
fc
3d
ea
07
e5
00
17
f8
f6
32
e6
f9
bd
da
ec
11
da
10
fe
d9
27
1a
2e
0a
1a
e8
e4
db
07
8b
01
e9
00
23
1e
1a
01
f3
f4
ea
fd
d3
09
ec
11
dd
fa
f5
f7
1c
fc
02
59
23
09
fd
fc
1e
e7
f4
05
d4
22
23
0f
0a
f2
fe
eb
3b
fe
04
dd
ff
2f
ef
42
02
14
09
24
0d
da
e3
07
e5
18
f1
24
0a
f4
0b
e7
f5
fe
2c
15
02
08
00
03
12
f8
eb
04
db
2c
fa
fd
3a
0e
0b
f1
dd
dc
d9
f3
00
02
e6
dc
d2
f6
b4
15
2f
04
e1
02
ee
10
1e
15
0d
15
b7
fd
14
f2
f6
07
04
d9
f3
05
00
f9
1e
f3
35
ed
f7
ee
19
d9
15
fc
18
e2
e5
00
fd
f0
00
05
28
25
1d
e2
f2
02
df
e1
09
0b
c6
f3
22
0c
f7
05
26
24
0b
1f
f2
e8
05
f7
fb
e8
f3
1e
0e
1a
ee
ff
24
25
26
e4
f5
34
3a
fc
e2
f2
f9
fd
19
03
16
1d
d6
0c
ec
02
05
0f
e9
11
f9
e0
42
fb
02
f2
e5
f3
eb
fd
27
12
d4
24
fe
11
0a
28
01
d5
f6
02
01
fd
10
fb
f2
1a
0f
ff
05
18
0e
07
df
01
2d
ea
11
21
b8
e6
04
18
dc
e6
fe
e7
0b
e2
16
f6
08
37
f8
53
e0
1a
e4
e0
02
01
22
05
f5
f8
0d
0e
d1
0e
f0
0e
2d
f6
f5
fa
f8
f9
0d
c3
ff
05
37
e1
04
f1
02
08
15
e9
e9
07
f1
f7
e6
3a
09
fa
ea
0c
f1
26
07
e5
05
0a
03
f2
15
ed
1e
16
db
eb
f4
07
ed
31
11
21
f2
dc
ee
12
eb
e7
0f
d1
ee
e5
1f
14
2f
11
f0
15
d2
f4
ee
de
ff
08
fb
f3
1d
1d
fa
22
18
12
bc
f7
26
1b
03
b0
dc
f7
04
f8
cd
08
05
ec
17
0f
0a
29
24
f9
01
10
0a
f7
33
fa
f0
d8
ea
0f
f8
2c
f1
fd
fc
fa
04
f4
f5
e8
fd
21
1e
0c
08
0b
01
ee
f3
27
08
24
0e
04
1c
11
e4
ff
fd
d9
fe
fe
f9
f7
e5
fa
e0
25
10
f5
19
f8
13
04
f5
e6
00
07
fe
02
e2
30
f2
11
f0
fb
02
0d
09
2e
04
f4
07
2c
cf
17
fe
14
0f
f9
f9
1c
eb
f3
18
10
ff
f3
c8
eb
ff
f0
ff
21
11
d0
d4
00
f1
18
0c
f3
eb
ee
04
ff
20
2e
ee
f8
18
43
02
16
e0
2a
cc
ff
4a
38
16
15
f8
0a
0d
cf
b7
0a
39
d3
39
09
fa
e3
f1
cd
09
f4
21
02
ec
20
0e
ed
fb
0a
f5
17
34
09
ee
09
f6
1f
0e
f3
19
f2
0a
f3
e7
bf
fb
18
11
e1
eb
0f
09
08
52
19
1e
1a
01
f1
e1
05
d1
04
03
fe
0d
ca
fe
ee
de
f8
bf
dc
e5
0f
fd
fb
cb
00
f8
1c
25
f6
10
15
dc
03
03
17
f4
e3
f6
3e
02
04
f1
e3
14
1f
12
0e
08
f6
30
f8
dd
f6
00
1f
1f
e2
12
02
08
cd
fe
ee
de
23
0d
11
27
ee
db
d4
16
f5
da
08
1d
12
fe
03
f0
f0
05
11
ce
20
17
16
f2
03
2b
e8
f1
e5
ff
e4
fb
00
f2
f5
00
13
d9
0a
f7
1a
f6
22
04
ff
e6
1f
05
19
0a
24
da
21
fb
11
36
fc
07
ce
e9
05
02
05
f3
29
da
ef
00
21
07
68
cd
05
e9
0d
e1
e5
fb
01
ec
db
de
12
1d
15
d8
3d
fe
ee
fe
19
13
1e
0d
e9
cc
e1
1a
18
ef
0c
38
02
ea
c1
03
1e
00
e0
38
ff
ff
d5
0c
19
e2
03
0b
cc
05
f4
f4
ec
ac
39
16
02
f4
2e
ff
0f
1e
fd
36
f8
e3
50
ed
cf
dd
02
ef
f6
05
01
f2
ed
e2
f7
07
17
23
0d
36
d8
c9
bd
14
f2
dc
fc
3d
f1
2e
00
fb
19
0c
1e
05
27
09
20
d4
fe
d6
20
f7
fa
34
19
26
cd
03
06
cf
f6
09
14
fe
da
f5
c3
f7
0c
ea
07
d1
19
03
08
dc
07
f3
0d
1a
ff
f7
cf
2c
fd
24
da
ca
e1
f3
14
e9
02
f5
0e
5c
eb
fe
f0
29
f2
db
20
db
21
0a
e9
d9
33
05
cd
1c
b6
cc
07
e9
58
02
e2
06
07
e5
14
0d
de
14
0e
0d
f4
26
1b
22
f0
26
0c
16
bc
35
0a
0c
16
0a
06
d5
ff
ee
0e
e5
1f
05
02
d7
0c
fb
00
05
0b
f6
ed
df
1a
fc
39
f5
f4
13
39
e5
21
07
ed
10
f8
d8
03
12
03
e8
06
ae
e8
0f
f6
17
15
e1
07
f3
0f
0e
e4
04
01
ec
e1
05
09
17
12
f7
fe
fa
0e
05
ea
12
f1
12
ea
fb
14
fc
10
fc
fb
3d
0a
1a
fb
cd
eb
dd
1b
25
14
11
f8
1f
1f
dc
fc
0a
15
2c
df
09
16
0b
f3
e5
f2
f3
40
e4
0c
14
f9
38
12
0e
e4
44
06
fe
ee
de
bb
fc
1b
1a
f0
e8
1b
e5
08
e7
e8
00
de
1c
2f
e8
47
fa
3a
0a
2e
f5
0c
19
d8
bb
20
fd
d5
0b
10
38
db
f0
45
0c
e8
1b
01
0a
07
dd
17
1a
dc
ee
1f
11
b3
e3
e6
f9
13
08
26
fe
e7
05
0d
0a
10
fb
fe
d4
1d
f1
ff
e9
08
bf
4c
07
06
1a
fa
02
29
fb
05
24
ef
07
fa
d1
d5
18
de
ff
00
08
03
f3
0f
e0
fc
06
04
fc
f1
e9
43
f5
cc
21
e9
d9
e8
13
e8
04
12
38
fb
25
ea
e6
fe
e1
d2
14
2c
fd
d9
fa
d8
0c
f3
17
ef
e1
0d
f9
ec
4a
28
e7
eb
35
ea
0a
ea
00
eb
f9
1e
06
04
01
fc
20
22
08
fb
fd
f4
27
30
cd
bf
20
27
0a
fe
fc
e9
02
1e
02
fa
f8
e2
14
29
f9
02
00
e4
04
15
ff
db
ed
11
c0
2a
04
c1
dd
07
12
ec
12
09
ee
12
f9
1a
19
22
fc
eb
0d
0f
fb
0c
f1
0c
13
e0
f4
d1
ec
2f
fb
56
02
24
fd
d3
f0
f7
16
00
fd
0a
02
ff
f6
05
f0
0d
4c
1c
e2
ed
07
f9
fe
f0
17
06
04
f3
f6
f9
07
f5
1a
df
17
04
27
12
e9
3d
25
f5
ab
17
e8
f1
25
1e
07
fc
f9
3e
d7
1b
e4
d1
ff
f9
e4
01
f5
02
12
d5
d2
15
e5
2f
ff
f6
0c
e8
10
d3
e9
41
f3
f1
46
00
ea
c5
e0
10
0f
20
d5
06
fb
b6
1c
13
1f
f3
dc
25
09
df
d4
02
fc
03
16
e4
de
d2
ec
fb
e7
1d
fe
09
e9
0c
1c
18
02
10
ff
f5
f8
01
ec
d9
19
32
2d
ff
12
25
19
16
26
e6
1a
e3
dc
0a
07
e1
f1
03
ed
fa
00
e9
09
fe
19
04
e5
11
0f
38
df
e5
20
0d
e9
07
de
fe
01
cc
27
2b
19
15
1b
0a
ef
f3
14
0b
f4
02
ea
25
08
14
e2
e5
f6
17
05
d0
de
33
1a
1e
fb
0e
f7
33
fd
f7
dd
2b
e8
1c
f5
f1
14
31
ea
f1
f6
11
e8
f6
f2
15
e4
15
e4
fc
10
e4
2a
f1
e3
0b
d6
f9
e2
fc
f6
ef
1d
00
e2
f7
ed
37
ed
06
09
fe
e8
de
fc
f9
da
25
23
f6
03
fb
e2
e2
2e
d7
43
11
d4
01
0b
06
d4
e8
1e
01
e6
cb
f9
d5
f8
0b
03
30
21
02
16
13
31
cd
0d
4a
f3
1a
18
1e
f3
05
fb
f6
16
f6
1a
1c
f6
f2
18
f8
12
02
03
12
3e
ec
e7
ff
f5
06
0d
09
09
2b
d5
02
06
ed
f9
d6
e0
0b
ec
01
14
f0
c5
02
1b
05
da
f9
e5
f5
da
fd
f4
07
03
0a
01
2d
ea
27
fa
f9
06
09
0c
0f
fd
e3
e9
27
e2
0e
de
fb
05
fa
05
26
f1
f0
df
03
e1
23
ec
f1
e0
cd
c9
cd
f0
f3
f9
e2
f7
12
f9
f1
de
09
32
1d
1e
06
00
00
db
14
f6
ff
28
f9
db
14
0c
0f
dd
e0
21
22
08
fc
fc
13
1e
f2
02
df
fa
1d
07
eb
f8
e9
0e
13
de
e2
cc
01
ff
ca
10
cd
ff
f5
f1
f8
0a
e3
e1
0b
2f
e2
12
ea
ed
ae
f6
29
0e
e6
fe
15
eb
0b
c8
0c
29
ee
03
f3
fe
07
06
04
de
fe
11
87
15
14
1c
fe
06
fb
f2
4f
fa
ee
d9
15
f9
ea
23
ce
ea
ed
e2
26
2b
30
34
9e
30
0b
c6
29
09
14
f9
ef
ec
0a
08
26
01
ee
0f
2d
e9
e9
de
36
0a
0d
31
4a
c4
1b
ed
da
12
41
01
e2
35
ec
18
0f
e4
29
f2
de
db
22
0b
05
fd
a6
42
00
28
f4
e1
27
0a
de
29
f0
20
fc
34
02
41
ea
f0
19
f9
02
d8
ff
d7
f8
f8
05
26
d2
0b
f1
1a
0d
de
ee
c2
fe
08
ec
3b
ff
e6
27
f2
19
05
0a
02
09
f1
eb
1d
13
01
fe
03
02
f5
29
de
fc
fb
08
10
f1
19
0f
e6
d3
05
07
ba
0b
d8
ee
20
27
eb
05
36
20
e3
2a
02
df
11
c5
e9
27
fc
12
03
a9
f5
13
13
09
fd
1d
18
da
f9
bb
c7
25
29
13
20
0d
15
eb
20
f0
d5
20
f4
fb
48
fb
0e
05
03
15
13
1d
e6
f1
34
11
04
05
06
f4
24
c5
0b
ef
e7
eb
f7
05
ff
ee
09
0f
09
ef
ef
ff
36
ff
1e
34
03
15
ec
2e
0f
e4
1d
07
d5
f4
07
1c
e5
1b
14
db
d7
27
f7
00
05
1f
17
f7
e8
f9
e4
ea
19
fa
cd
dc
f9
ec
00
df
01
0f
e7
ef
d5
e9
f5
17
09
0a
c6
d8
f7
e9
2e
4c
06
ff
ff
2e
f4
f3
ea
21
d3
f6
02
12
e5
e6
12
16
ee
e7
23
07
f5
10
15
cd
ef
f4
fc
04
0c
fd
ed
13
b6
e9
24
29
3d
09
08
ef
ff
16
07
05
19
1b
f0
05
27
06
f1
0c
f3
04
10
30
f0
03
06
e7
0d
e7
ee
cb
cd
0e
da
01
02
0e
29
f5
1d
09
ec
35
07
26
15
1d
14
05
1e
14
02
16
0a
f4
28
f4
ec
f5
fd
4a
d3
e7
06
22
09
fb
e7
e8
2d
da
fd
df
eb
e7
06
eb
2a
f7
48
df
eb
cf
da
c9
ff
d0
f1
03
e4
fc
e9
14
f8
16
eb
0c
04
e7
e8
d8
06
ee
ff
09
1d
d8
0d
03
fe
03
d8
ed
1b
1a
ef
14
eb
fe
03
0b
15
fb
20
2a
ed
fa
3d
01
1e
0e
dc
fc
3a
fd
10
fa
ea
f9
c0
1e
ea
10
18
18
f2
11
fd
09
03
33
14
e9
e6
10
03
05
cf
05
d9
0b
fb
c6
b8
e1
34
e7
e0
f1
f1
f4
17
bf
17
e2
ee
20
03
ff
e2
22
fa
f7
f9
fc
10
07
35
28
09
32
ef
10
3a
10
c2
fc
f5
4f
09
0c
0f
f0
e9
e5
ec
ff
08
02
ce
0a
e1
f0
17
e3
df
1e
03
ef
f4
e6
bd
24
fd
cf
09
de
e3
ce
e1
db
e5
f2
05
f9
05
fe
08
04
26
e2
f2
cc
1b
26
20
f1
1b
0d
38
1c
24
2d
00
c8
10
e6
07
1b
0c
f0
0e
16
01
ff
fd
28
c7
08
15
30
08
1b
04
e4
05
37
15
15
f7
1e
e4
e5
24
f0
b0
ff
d3
04
c1
f6
2d
c5
f1
02
16
05
2e
07
04
fb
2a
fb
d8
ff
f3
17
d6
13
cf
13
fc
20
29
ec
24
03
0b
1e
fb
35
4b
08
de
1a
06
e3
11
f6
f4
0c
02
e6
e9
2e
1a
fa
eb
fd
06
1a
16
23
2b
3d
e1
13
fa
01
ce
1d
da
22
fd
ef
2a
d9
12
eb
e1
f1
fc
f5
da
ee
eb
f8
08
06
07
f9
ed
f2
ff
e8
d4
06
0d
fd
04
e0
03
c8
05
16
08
dd
2b
ec
24
02
e3
13
f5
c5
d8
04
03
02
e2
ff
1a
f1
02
08
21
f5
eb
12
f4
05
05
1b
e7
fd
d6
15
34
df
e7
0b
f9
ee
1d
ea
10
f6
07
00
f9
ef
00
06
03
ec
d6
e0
03
cc
da
e5
39
e7
f1
1e
08
ff
08
fe
1f
08
09
eb
fa
e1
e6
f9
0b
15
de
01
20
03
16
23
25
23
0e
fa
fa
ca
3f
02
ed
e6
dc
1c
ef
11
e7
01
e6
5f
b9
f7
25
fa
03
39
f4
e5
f7
0c
06
e9
f7
f6
fe
24
12
36
f4
13
12
f6
e3
2a
2c
11
b8
06
ee
13
2c
f3
0d
e6
25
f1
1c
ea
ec
fb
eb
c8
f5
fe
59
1a
21
3b
f2
fe
11
14
e6
f3
a6
04
16
df
e6
15
cd
d3
13
f5
ec
0b
35
21
11
ed
e6
1a
0e
cd
d6
10
f5
f8
fe
2e
d8
01
f7
dc
e7
22
13
0b
03
1c
04
ca
08
0c
00
20
e3
d3
da
ea
d8
2d
1a
1f
d5
f8
19
fc
15
0d
01
16
de
da
f8
0f
05
08
e5
20
ea
fd
ec
18
1c
31
0c
06
04
e0
08
31
e9
d9
fe
36
f9
0e
0e
f5
f4
eb
f7
26
da
e4
33
dd
08
c3
fd
e9
14
0d
22
e0
06
1e
25
00
02
07
23
f4
fb
1b
e9
14
f3
02
14
fa
2f
00
30
e0
20
f1
05
00
f3
02
05
0b
1e
f8
f6
32
f1
15
e6
1f
e6
ea
fb
e6
f7
ee
f7
0f
fb
fb
12
dc
1e
f7
0b
fa
45
05
13
11
f3
f1
12
fe
03
24
f4
dd
dc
02
02
d2
01
f4
26
f9
36
e7
06
e9
3f
1e
e0
07
da
f0
22
dd
ee
e8
c6
19
eb
05
f9
eb
db
28
fe
1d
00
0e
fb
17
fe
f9
08
f2
f4
f7
e3
00
26
0f
2d
e7
01
0f
d2
fb
0f
08
f2
e8
ef
dd
0f
f6
e9
18
2d
0f
f6
c9
cc
09
d6
f7
06
04
50
08
47
12
db
09
d8
df
03
02
2f
ee
ea
1c
26
f8
d8
04
16
28
f4
d4
eb
10
2a
da
fd
0f
d9
16
0a
d5
d4
0b
e0
02
eb
dd
3b
17
ff
06
0c
f5
1e
0e
05
21
d5
11
bc
fc
ca
e8
f3
d1
0a
fa
bc
f8
f8
0f
e5
00
f8
09
e9
2c
fc
da
db
eb
f7
e5
11
0e
f8
e3
23
00
10
02
c0
fd
37
fc
ef
14
f2
13
f3
36
c2
07
0d
fe
e6
01
db
11
e8
08
fb
0a
db
d0
1b
15
28
14
2a
04
db
f8
eb
27
da
54
ef
e6
f1
ef
0a
4d
26
e0
27
e1
e1
ea
09
1a
11
e8
c2
ee
2a
27
37
06
25
f2
20
a6
db
13
f9
08
0a
0f
c0
dc
05
4f
03
ed
fd
29
fd
d9
f7
f6
e4
26
e6
26
02
da
fb
10
04
09
ec
de
fb
d7
c3
fa
4e
e9
2b
1a
ee
50
f2
34
f7
0c
0a
24
ec
13
0d
08
11
00
d1
d5
e5
1a
e8
2c
05
49
ee
18
ff
08
03
06
f8
20
ff
03
d6
23
12
4e
d0
1c
30
de
32
0e
e7
50
f6
fc
db
cd
ec
ed
dd
06
de
e5
ec
02
1c
f2
cd
bc
e5
36
16
05
11
12
e6
e1
fd
01
0a
fe
d9
d9
f4
26
01
02
bb
f0
e1
04
30
16
22
12
34
2a
08
c4
ff
f9
1e
d4
f8
f7
03
e8
fa
ff
e4
f8
20
08
f0
1a
33
f1
04
d5
08
20
15
d7
f9
fd
f4
02
eb
d3
f2
00
01
0c
00
18
f7
d5
2d
36
f0
0c
d8
e1
fc
23
0f
ec
f9
db
ef
f5
2e
f9
cd
29
f6
d9
f9
15
19
23
e9
f3
e8
14
06
e9
fa
04
f1
01
1b
1e
33
ea
08
07
e3
33
e9
fa
e2
2d
f9
1c
1a
dc
fc
eb
23
1c
12
22
11
c1
ea
cc
d6
21
f2
30
d7
ea
e4
e3
0d
20
20
1c
f1
ae
2b
15
14
de
f0
1f
d5
21
14
19
fe
04
0f
cd
2a
06
ea
0c
fc
f1
00
e8
ff
e8
05
26
ea
f2
01
0e
39
fd
0e
fa
ff
fe
29
24
d7
1e
e9
0f
06
17
1c
e6
f6
35
f6
17
fd
01
09
d8
e3
04
29
21
d9
fe
d4
f5
18
e7
06
07
0e
f3
28
f5
0d
f8
e6
20
1d
fb
1c
fa
0b
1e
f0
14
e8
05
fc
03
03
fd
f7
12
ea
0d
e0
15
0f
23
18
28
b9
f1
0f
0b
15
01
16
14
df
16
0e
d6
27
ef
e8
df
e5
0f
f0
06
08
dd
f2
f7
04
f4
0c
ed
f7
ea
08
fe
02
2e
d7
cd
05
e3
fd
12
ea
0c
2c
ed
fc
e8
09
3a
ec
0b
0e
0f
ec
1d
f0
e5
ea
fb
d7
d1
0f
01
ef
fd
e6
da
34
21
c2
11
2b
10
07
fd
d4
11
0a
f8
f0
df
fc
fb
1d
fe
e1
fa
fe
1f
fe
17
10
f8
07
0e
fa
2d
03
dd
f7
ff
28
f1
e0
f5
04
fe
0e
f0
fa
eb
dc
10
08
10
c0
e3
2b
10
00
1d
0d
01
d4
2d
02
4f
f7
e4
10
0e
1f
ea
16
1d
da
e1
ef
19
fe
1d
f3
cc
f1
00
e8
2c
1c
11
07
ff
04
2f
ff
f8
26
d8
d0
f8
25
f5
f4
24
e8
15
ff
02
32
e2
fb
f8
ff
1d
00
f4
02
a8
e8
f2
18
30
d4
45
ea
11
1b
0d
cf
27
eb
da
c9
24
03
21
e5
24
d2
e3
08
f4
fc
4e
1f
f8
17
04
e1
28
24
2a
db
28
d2
dc
08
1e
d2
3f
f2
fe
1f
0b
06
ed
de
f0
f4
18
02
03
eb
ee
f4
da
f0
19
e9
bc
32
e9
fd
0a
ff
08
22
1b
d2
fb
f0
35
1c
22
24
fe
a4
d1
0d
05
21
d9
28
d8
e4
fd
28
cb
02
d1
e2
ef
03
f9
2e
1a
11
e0
40
1b
0a
e3
0a
1c
e9
05
dd
0d
d3
ed
f4
e1
ff
f5
2e
11
47
0d
0d
fc
06
f7
f7
13
1f
09
10
12
ef
d0
13
14
f9
11
e9
ff
c5
d7
e6
f7
19
d1
e0
fc
f8
e7
14
d7
05
e3
01
45
32
36
18
e8
01
f3
0c
f5
f4
e6
e0
fc
1a
dd
ed
0b
cb
14
e7
2f
29
de
10
00
32
14
06
1e
cf
19
fb
00
0a
ff
10
1f
fc
09
f0
22
cb
0e
2e
0d
19
01
42
00
11
f1
fd
f5
08
fe
d9
10
ee
11
23
d9
fc
15
30
f4
f5
db
28
f2
ed
38
fe
0d
e6
03
dd
03
f7
0c
ef
dd
01
01
03
18
0d
e7
21
2a
fc
0a
bc
f9
14
0d
22
f1
dc
fc
f8
16
e7
19
f9
00
0f
1f
fb
1f
a6
13
ec
01
de
15
06
b5
f6
1a
e0
d7
f2
c3
10
de
e2
e9
06
12
32
13
fc
fd
cd
ff
32
2f
08
12
1c
11
e3
1f
14
07
12
ec
1d
35
dc
f5
06
e4
4a
ed
cc
0a
1e
fc
0f
2b
e6
fe
11
eb
fc
09
ea
fd
02
2a
10
17
28
eb
1e
0c
04
cc
05
ce
d7
cb
11
f1
00
f1
fb
0c
59
09
f8
07
de
43
e1
17
90
fd
d3
28
20
13
07
02
11
e7
1f
01
ed
05
28
e0
db
fc
33
a0
0a
0d
09
22
1a
ee
f9
e7
fc
ee
ea
0d
26
03
f5
07
00
db
0d
23
05
fa
02
ff
04
14
4c
0e
28
e1
17
f7
19
04
e7
dc
fb
34
f7
20
0d
15
23
f6
e3
ce
1d
e6
0a
ee
12
fa
e5
06
f5
1e
cd
3d
fc
e7
fd
ec
d1
14
15
ec
0c
dd
16
37
1f
07
05
0f
36
46
f9
f1
31
de
03
ed
e6
48
f0
e0
29
e0
ea
15
23
20
e6
d9
f8
fe
01
0d
14
05
22
2d
02
08
ee
ed
eb
d8
19
b5
c6
e3
1a
0e
f9
0e
ee
f8
fb
e0
fe
1c
13
e8
e0
01
16
06
ce
ff
f8
e2
2a
05
e6
f7
f5
eb
ff
ed
e6
10
d1
d3
07
f6
18
e1
ec
fd
0b
f0
07
03
1b
02
23
0a
49
2c
f9
24
f5
f8
f5
f6
d5
f8
e5
e6
f7
00
0a
01
38
f0
ed
f1
f3
20
b9
fd
ef
0a
2d
eb
23
f8
ff
f5
ca
14
0c
fa
d4
07
09
05
12
f3
11
06
ee
fd
f4
f8
16
ed
38
ef
20
d2
ec
5a
19
f1
f2
11
ed
13
05
03
00
15
0c
20
21
df
2c
10
1b
0b
05
fc
bd
f7
ff
fa
3c
12
10
1d
d4
f9
f4
24
16
fd
f9
f6
f1
ec
d6
ec
e3
fe
0b
26
30
12
f4
c9
24
e1
17
43
1a
ec
15
14
10
12
30
ec
e5
2f
ec
fc
e6
bd
18
fb
27
df
78
46
32
07
23
c1
34
ef
0c
25
04
f1
ef
35
e8
1a
fb
e9
06
45
dc
36
10
17
ab
1f
d9
ec
f4
1e
05
ff
bb
b3
0a
ef
09
de
e4
c5
fe
ea
28
3e
d8
26
fd
c1
22
13
c1
32
13
fb
ba
2d
d5
24
2d
32
d8
13
0a
06
0a
01
e6
e2
ee
00
f7
c0
e8
dd
09
27
cf
10
cd
e3
e9
18
e8
0f
f2
2d
f0
fe
da
1e
f9
0c
14
08
1b
dc
f4
09
c8
e1
0a
17
ea
1f
17
e8
e9
1d
d2
00
ce
0b
f2
e6
f6
03
2c
e5
cf
fc
e1
fc
02
12
ef
e8
23
11
2c
01
f1
49
0b
2e
c0
ff
f8
0c
0f
23
e7
fc
f1
27
df
ec
0f
e9
f3
33
1b
f4
17
24
06
04
d0
24
db
f0
13
e4
05
00
fa
0c
ab
05
e2
d6
2a
02
e5
e7
da
c7
e7
0a
cc
ea
19
fd
06
34
f9
29
f3
1e
fa
0e
f7
fc
d9
cf
12
cd
28
f7
f7
08
20
25
fa
14
e4
00
2a
fa
e3
00
20
eb
01
fc
01
e4
eb
24
03
ff
37
25
1e
03
0b
fe
1b
ed
d2
49
32
dc
17
16
e4
12
04
25
07
0e
04
24
f7
d9
dd
0d
11
07
0b
18
fb
0a
ea
14
03
e8
23
23
09
1f
f6
eb
2a
d1
01
09
f1
0d
e1
f5
d0
03
0f
06
25
fb
f5
fa
0a
ef
27
1a
20
0b
f5
06
0f
0d
fd
d9
d4
f7
08
eb
23
f9
2e
0c
ec
1f
f0
2b
e0
14
03
2a
ec
10
f7
03
14
12
08
fe
f2
39
2b
d5
f8
fa
f3
e7
e2
ed
f0
cc
ff
e4
e5
11
17
b8
de
24
1a
ce
03
0f
d4
07
f6
fa
ee
f4
23
07
1e
15
e9
ec
d6
1f
ea
2e
05
f0
ed
e3
cd
30
2b
4d
f5
e7
ef
03
2a
ed
04
1e
19
f3
17
12
07
27
ca
f5
de
06
f2
26
fb
2f
fa
13
da
e7
e6
de
05
29
f9
02
13
e1
f1
e3
e8
ff
ea
0f
ea
00
02
19
0e
f2
fe
17
c6
02
2d
f0
08
fa
e9
09
13
e0
e9
00
00
0d
e9
34
de
1b
fc
01
0c
00
07
f8
1a
f4
0c
ef
19
18
ed
09
ee
05
00
e8
f8
dd
e9
15
d9
e7
ef
e8
fc
ec
36
0a
20
f7
01
0d
03
19
fd
02
06
d8
ef
0e
d7
fd
d8
e9
22
06
26
1f
08
eb
ef
da
14
c7
13
fb
fa
2d
17
f9
d9
ef
19
0c
fb
d2
eb
28
ed
23
ec
f7
c7
fd
0a
f9
0b
fc
d3
07
15
e6
04
fa
d3
de
1f
01
39
34
e3
f2
19
f4
37
fe
2c
0c
0a
e7
f3
65
f2
f2
07
17
f4
f3
d9
eb
15
cc
e2
19
e7
e1
fc
fa
09
15
0e
01
e7
ff
26
df
00
ff
fc
07
04
f3
03
ea
f6
23
ec
32
e3
19
d0
ea
fa
04
1a
30
d4
09
f9
d6
ee
00
18
ee
3d
30
e4
06
29
36
d7
ff
09
fd
1c
0f
0a
f9
fe
e4
f1
f2
08
e4
53
05
d8
09
25
fc
0a
0d
fa
de
0c
34
1e
10
09
1d
17
0a
2e
e5
07
da
fb
21
30
1c
16
1d
ff
3e
2c
ea
f2
28
fc
ee
0c
2a
d0
08
04
e9
fc
db
e5
e4
f0
1c
d1
2a
03
c6
c3
f5
04
ef
14
f9
d7
4b
1a
c1
f6
1a
22
19
db
0c
dd
17
03
01
25
e7
1f
f8
c9
fe
03
0f
d2
fd
16
07
ed
ee
eb
3a
1d
e1
27
e3
37
dc
04
e0
31
09
08
ef
e0
44
eb
f0
cf
00
26
09
e2
09
0e
fa
db
e3
fc
16
e1
08
df
24
36
17
d8
3b
14
d3
f0
0b
f5
e9
c7
f4
15
2d
d5
ce
00
0e
18
f0
03
f1
fb
00
04
0e
1c
09
e0
ff
d4
00
08
f4
cb
de
f1
f7
18
09
db
df
11
18
00
d9
e6
fe
05
05
38
1a
db
22
28
10
ec
e2
07
f8
20
f9
e2
f8
d5
1f
03
fe
25
37
f9
f6
ee
29
0e
dc
18
04
05
0f
09
e7
1d
2c
31
ee
00
f9
d5
fc
e6
f8
e5
da
03
f8
05
ee
04
02
ec
ff
02
e7
f0
25
f2
19
0c
f7
d8
fb
0b
f5
f8
04
eb
f9
ec
1d
33
e0
e2
1e
18
f5
1a
f5
42
58
07
e2
f2
fd
2e
36
ef
21
1b
2a
10
dc
dd
f1
2e
1f
06
eb
f1
eb
d8
1f
16
d2
c9
0a
eb
20
f8
0d
f1
e0
1d
09
ca
df
18
db
0d
20
1c
e2
1e
f6
f4
08
04
13
c7
f7
03
00
d7
43
25
37
16
02
e1
0c
f7
0a
ea
01
ba
05
dd
f9
f4
fe
23
1b
03
e6
e4
fb
f2
d4
35
dd
f1
e3
e6
df
e4
f7
f0
f4
fe
0c
03
ff
e7
f3
03
d4
33
1c
10
0a
12
24
f5
ef
eb
fa
fb
0f
fb
26
eb
4c
ff
09
05
02
ca
f1
fe
ef
16
22
01
ea
1d
2d
06
34
f6
2b
23
ea
10
29
42
1f
fb
ea
fb
ed
fd
f4
c7
00
15
39
1c
14
1b
e8
27
03
12
13
ee
e3
df
19
f2
07
07
e5
16
14
3f
1c
11
fc
20
0f
15
0e
f6
0f
13
32
00
f4
f3
06
df
f6
f5
f8
34
2d
ee
e0
fc
ed
00
02
14
eb
01
10
e0
f0
18
f2
f7
11
da
fa
ed
ee
0d
0a
1a
e6
f7
01
f6
e0
03
c8
eb
26
28
fd
11
f7
0a
12
1b
0c
1a
db
15
f9
ff
0e
09
e5
e2
f2
f5
de
e8
e2
ff
cb
e8
e8
e7
ee
e1
ee
f1
44
0a
ea
07
e7
fc
20
dd
01
0a
d5
0a
3d
10
d9
f5
ff
3a
26
eb
f5
16
06
e0
11
0e
06
00
fd
c4
20
2b
e9
14
df
19
03
ef
24
0a
eb
f3
e5
fe
da
e6
ca
d4
f9
09
fe
f2
07
05
0b
04
ec
fb
f4
08
c8
10
0f
fd
1a
34
0a
fa
29
13
d3
02
26
02
33
12
fa
05
2b
03
ed
0d
f4
c6
12
14
dc
c8
10
13
21
e9
f1
d6
2d
01
f5
14
1b
e1
d7
12
16
fc
36
ea
46
08
23
ab
f4
10
2d
09
23
22
1a
01
18
28
cb
f9
fc
32
f8
e9
11
ec
0c
c5
ac
22
f1
e8
f8
0f
e4
08
2d
01
bc
d9
15
fb
28
f6
07
0f
e8
1b
e9
0b
07
20
25
fb
ef
15
c0
f9
e2
1b
f7
e7
f1
0d
dc
26
0f
d5
f3
f5
f3
f4
d3
dd
e5
e0
14
18
46
34
03
25
0d
1d
f9
02
0c
dd
17
05
fb
e2
d2
63
2f
fa
fd
0e
d8
ec
27
d5
fc
de
e3
07
37
fd
e4
0d
f0
16
00
eb
fd
d2
0d
16
ff
04
cd
b9
05
09
0c
0a
e0
25
f8
dd
fc
02
03
14
29
fd
0a
0b
f2
f0
fb
ea
ce
2c
d1
fa
da
fa
ed
fb
df
29
f2
15
48
16
ec
eb
fc
1b
1d
0c
16
f2
24
30
10
2c
cc
e1
0a
35
0b
e9
04
f1
02
e6
12
e7
19
40
fb
31
14
23
eb
0d
0b
f7
e1
04
f8
08
ff
01
e2
fc
f4
f9
d8
df
01
0e
f2
be
f7
16
fa
22
ee
2a
dd
15
29
17
24
22
fa
00
fb
d5
ed
28
08
ad
ef
1f
04
f4
ef
e6
19
34
fb
0a
c2
b6
f1
2e
dc
b7
05
0f
11
ca
0e
cf
03
db
ec
e1
1b
0b
eb
2e
1e
25
28
2a
e4
f5
01
1a
c2
17
1f
f4
0a
24
f2
d0
f2
18
c8
0e
e6
0f
03
d4
01
16
f7
d2
ce
f9
16
fd
25
dd
ea
c3
f6
d0
f2
33
21
09
f1
47
39
31
21
e2
0d
08
0e
04
fc
43
05
c7
fc
03
0c
d6
d3
f5
02
f1
05
12
eb
e8
0b
fc
0e
1f
04
f3
f0
e0
02
0f
cc
2f
11
f0
fa
fd
12
00
df
fa
0e
10
de
ff
ff
01
f5
08
f5
fb
d5
05
03
bf
0d
2c
01
1e
04
07
fd
1d
03
e9
1f
07
16
0d
fd
11
0a
1a
00
fc
0d
01
fb
09
02
e8
03
37
fd
fd
15
1d
0b
f3
1c
37
f9
11
01
f1
2e
fd
fd
fc
e1
e8
ef
f6
47
d3
17
e2
05
07
f3
df
e3
12
20
0a
f9
17
06
da
00
ea
ef
dd
f4
15
f0
fb
cf
1d
ed
15
0e
18
d3
f5
f1
f5
da
0a
ff
cd
20
09
2d
e7
f5
0e
e9
ec
fd
fb
f7
ec
fd
23
2c
df
0c
d8
0b
04
19
de
05
fd
f5
2b
36
fb
26
1b
0e
f0
db
ef
f7
ef
ef
1e
ff
02
1d
f2
2b
dc
1b
23
e0
fc
08
08
03
2d
fc
d6
08
27
f7
10
e3
d4
d9
f9
e3
0f
da
0b
00
fa
f3
e6
1b
e9
06
d8
fb
0a
05
20
ec
ef
dc
34
fd
1d
10
18
0e
21
ec
ce
e5
01
2a
1e
ff
00
01
00
fd
31
f3
2f
0d
ec
09
08
10
0e
09
14
16
fe
d7
07
dd
dd
f7
ff
fe
fa
df
03
e9
db
01
0a
fc
e8
c5
17
d5
1c
fb
e6
f2
06
11
26
ff
06
15
e5
fa
0f
1f
30
17
09
24
12
f4
f2
ea
e8
e3
07
0e
1e
06
e8
e5
f3
29
fe
f8
ec
ee
1c
00
d5
09
f9
1c
2c
08
aa
03
d7
e3
1e
2d
ea
f6
ea
16
48
0f
fc
36
df
22
c3
df
f7
14
07
e3
f7
fe
d2
c0
1e
e9
24
e8
fa
fa
fc
fb
2c
21
f9
0c
0b
24
e6
21
f9
27
09
26
18
f5
ee
f4
03
fc
2e
ea
db
1b
fe
09
f6
07
28
07
05
0b
17
33
d5
9f
e9
16
f3
0b
11
f3
3e
08
e4
de
26
cc
22
32
de
de
0e
1f
06
e4
e4
1f
d7
e9
0c
ac
16
11
f9
2c
02
23
23
0a
ea
20
e3
0d
15
ee
d2
30
de
fd
eb
e0
18
28
1c
20
38
1e
c9
e0
f4
10
19
04
17
cb
ef
e8
09
ec
16
ee
e5
40
14
f5
17
0a
03
f4
0d
30
f7
1d
dd
03
e9
c3
0c
c4
04
19
14
fb
0a
1d
24
0d
04
f6
0b
17
0a
32
0e
f5
fe
2f
e6
04
f8
06
c1
09
fe
fe
ff
14
f7
05
07
ff
ce
0b
26
ea
12
fb
03
10
e1
eb
f0
e1
f9
00
0b
05
01
de
28
f5
09
eb
f3
c6
e1
1a
f8
25
19
e6
fe
45
f9
ee
f6
f8
f5
0a
d6
07
e1
0d
1b
44
ee
0c
f2
ef
df
e5
0e
f6
02
f4
00
fa
d7
e9
e1
df
df
d9
04
32
11
e6
e6
2c
e0
0d
e8
04
0c
fe
f9
1b
03
f8
1f
ff
f7
14
1b
04
26
e7
2b
e7
14
0e
12
05
ec
f9
d9
f2
d8
16
3c
0a
e0
ea
f3
07
f4
e9
01
21
12
f4
07
13
15
06
dd
0f
1b
e4
09
e0
03
f4
13
de
f1
19
41
f4
05
04
1d
18
38
13
1a
10
f6
e2
e7
c0
e7
0b
e1
f7
16
fa
f2
11
fc
0a
eb
bd
12
e9
08
11
15
04
17
d6
bf
ef
03
e4
17
11
f6
02
f8
3b
00
18
ee
f7
08
f7
ec
2e
11
ef
2f
fc
0a
0f
07
08
d8
2a
2c
04
d8
fb
eb
07
f9
1c
fd
fe
fc
1c
fe
03
c2
f7
09
e8
02
c6
00
06
f9
e7
ea
fe
ca
0e
c5
0b
fd
2e
dd
04
09
f5
0f
2f
00
f9
de
11
18
fb
fc
f5
ef
d8
26
1f
fa
03
04
03
20
28
f0
f4
10
ce
f1
fb
31
fd
dd
06
21
02
2d
20
c8
f4
e1
f0
0a
d4
11
fa
05
19
ed
e4
bb
34
27
46
0d
1f
05
18
14
14
e0
29
ea
e1
06
07
2b
07
05
24
0d
18
1d
ec
14
0c
0d
15
de
cd
0c
ea
22
1b
11
12
20
ee
16
da
e2
f5
06
21
0a
05
12
03
da
2d
ed
1f
d7
01
fd
ea
ed
1b
13
03
c8
ec
38
f8
fe
ff
12
19
fa
e9
20
0c
20
22
ad
eb
ec
f1
e1
ff
09
0f
f1
f2
33
40
de
dd
15
fd
cc
f2
eb
ec
f3
11
1a
d8
27
05
07
90
10
04
fb
d7
0c
df
dc
0f
ea
ed
26
f4
f5
f5
01
e5
e1
f7
26
db
f5
f3
22
d1
f5
0d
ce
2e
38
22
1d
2d
16
09
fa
eb
09
1c
ec
fd
05
b6
08
0d
e1
25
1b
10
f5
00
d2
f8
2b
1e
12
00
f4
f5
d3
ec
48
f7
ea
24
09
30
f2
d1
dc
d9
10
01
05
14
1b
22
fd
02
0d
30
e1
24
1c
2c
de
db
07
fe
e3
f6
e6
26
fa
f0
e2
1e
01
26
e3
09
2c
e2
fb
43
06
38
d8
de
15
00
0c
12
f1
d0
fa
07
0e
e0
1b
f4
dc
f0
1c
f0
da
f3
d0
ea
dc
f4
f8
e8
19
d2
0d
f2
eb
10
f3
c9
fe
07
fa
d5
16
e5
f3
13
f5
26
57
ff
0b
0c
08
ee
0c
d0
ea
f0
ed
1c
f5
e4
f5
de
f7
f5
15
1f
0c
21
c8
02
2b
07
e3
15
f1
fb
c3
20
c0
f8
ec
fe
12
eb
d9
0e
15
1b
02
22
16
cc
d2
02
f2
ee
ff
fd
f0
04
0b
24
27
05
e0
28
15
31
02
e1
fe
2d
db
0f
10
d0
4c
fa
11
0b
e8
e3
eb
1d
ee
06
dc
38
e2
0c
fc
2a
e7
00
17
f8
c0
fe
46
08
ed
ee
e9
ce
a7
64
f5
ef
4b
10
21
f2
2f
1e
ee
25
eb
cc
f1
f4
35
27
3c
e0
0f
fc
0c
de
0d
e1
09
16
0a
d1
f5
12
f4
03
f3
1a
17
15
fa
04
f5
35
24
d2
14
e7
12
12
0e
0a
ef
c5
0a
13
2d
0a
e7
31
f5
03
ff
bf
0a
11
2f
fa
d7
f5
06
d0
0e
e7
eb
f6
0a
2b
de
29
09
f7
11
32
04
fa
0a
09
dd
0c
e8
fe
0f
17
fb
22
d8
f4
17
e6
fc
1c
e9
f7
ef
1a
f4
f6
10
b2
e8
33
fd
e7
0e
fa
06
f5
1c
21
05
01
02
c9
f6
ee
dd
22
2a
25
d9
d9
1a
05
e0
ff
b3
16
06
f7
03
24
f5
ef
31
24
fb
0e
c1
f1
ef
dd
f5
f3
32
fa
ee
f4
18
16
14
14
de
fd
03
17
2e
ee
20
e7
0d
dd
04
ed
ec
54
d8
0f
04
01
d9
15
2d
00
fd
f0
f6
ea
fd
d4
14
b4
34
2d
00
f2
f8
fb
ee
f9
f3
2f
2c
d1
fe
d4
1f
05
2d
13
e3
32
cb
37
ce
db
29
18
fd
60
ed
f6
1f
df
1c
fd
14
ea
1e
2b
fa
06
fe
16
35
21
0d
f6
f8
e2
e9
02
f4
01
ca
c6
0b
06
fd
e4
06
06
05
2d
f9
07
f3
cb
c2
c2
06
04
33
03
d9
fc
26
0e
e2
0a
f9
05
0f
48
3e
14
01
fc
e3
e9
10
fe
dc
f5
10
10
e8
2b
27
1b
ed
fe
d0
00
35
e0
08
f3
0b
2f
46
dd
23
d8
18
2c
03
ed
0a
eb
f5
17
f0
00
bc
e8
ea
09
d5
d7
1c
f4
34
20
f8
ea
2e
ec
f6
22
04
f0
e5
cd
e7
ef
4d
12
2d
e8
fe
02
f2
45
ea
18
ed
f0
e6
17
f3
09
d9
0b
17
d4
0d
19
f3
5b
19
2b
ed
d3
f8
44
12
1a
14
ed
07
00
e0
04
00
21
e6
ef
f5
ec
2c
e5
bc
04
1f
01
e1
e2
0d
f9
02
dc
25
e9
10
3e
e2
fb
f3
05
d7
15
05
fe
21
33
0c
f6
e0
de
03
1e
12
f9
14
1a
16
27
e9
39
0d
f7
f5
04
f3
df
f4
e0
cd
11
15
37
de
f9
21
09
f5
15
17
d7
d2
f0
f2
f5
fe
f5
05
f7
28
1d
24
0f
09
31
f3
15
f9
0b
f5
ed
35
e8
ec
ed
16
23
fb
de
0c
ff
08
04
ee
0a
d2
05
dd
34
ef
27
e0
fb
fc
16
f5
e8
16
2f
f9
3a
0c
c4
e9
26
f2
fd
36
02
f2
e5
01
16
03
eb
0c
42
13
e2
eb
ee
cf
db
f1
0d
de
f3
0b
d0
15
59
29
ee
0e
d8
10
12
27
25
fb
e1
1a
ef
aa
19
e2
fa
e1
06
10
09
0c
bf
06
04
1a
37
11
06
f7
07
e0
1b
25
e2
c9
1a
eb
02
f6
ef
23
e4
0f
1b
e2
0a
12
f7
fd
ec
01
06
da
fd
fb
d2
dd
f1
f3
0b
f4
e3
c4
0c
13
f4
05
ea
fc
01
0e
15
02
0a
23
ec
13
46
eb
21
f3
d9
f1
e7
d3
1a
0e
21
3d
2e
f3
02
10
18
35
0f
0f
06
1f
1a
e6
1c
e4
fe
eb
3d
3d
e5
e8
fb
26
11
2d
f2
f5
01
e8
27
ec
11
f9
ce
ea
12
23
d5
f6
12
f4
fd
10
08
fb
00
bc
ee
08
0c
ef
2a
e3
02
05
0b
ff
ee
06
f5
20
0e
b4
13
09
e5
ef
36
f2
2f
05
e5
18
df
bb
2b
15
f9
ee
4a
f2
11
ed
f6
0a
f7
f7
ff
e1
f9
13
f0
10
f4
f3
ea
1d
fc
05
f5
20
36
e5
f6
fc
11
fc
ec
0b
05
b7
03
fc
53
1f
07
ac
09
0c
f2
0c
db
06
0a
e8
ec
09
a8
25
e8
06
fb
c1
0d
09
39
24
f7
db
f1
d5
2c
de
15
f2
1a
1b
07
0a
0e
02
f1
f6
01
07
bc
fb
1a
f8
05
d1
d6
fd
20
24
ea
0b
1e
d9
fa
04
23
e4
27
0b
08
ff
ed
cd
19
02
d1
07
2e
f3
f3
07
d3
af
30
25
f9
0b
e7
cd
e6
f1
4b
17
1b
19
e0
f6
30
00
d9
3e
14
f8
e5
06
c6
d3
11
31
dc
18
dc
17
1d
00
ed
15
ff
05
58
f3
e7
fe
f9
c3
ed
2b
f6
15
dd
f7
f7
20
fc
e3
36
f9
e7
e7
39
e2
00
f3
02
2f
0c
fc
07
0c
23
02
f6
37
2d
04
d8
00
11
08
e9
04
d2
f2
c7
34
ef
14
37
fe
c1
2b
eb
07
19
27
22
d9
17
10
34
fd
e7
09
03
12
07
ec
f0
05
d3
e1
ea
13
dd
29
d9
0e
17
11
f1
da
ea
b7
ff
03
d6
0a
2b
d9
0c
d5
f2
3b
10
16
26
d6
4e
02
27
fe
22
1d
0d
1e
f9
e6
f2
29
ee
d2
f5
0d
d1
0d
18
fd
e6
23
22
2b
02
0e
fd
07
13
fe
0b
fd
fc
0d
14
ed
f3
0e
0d
3d
22
fc
fe
e5
d1
2b
f7
f0
f6
02
35
10
04
f6
fe
00
24
e8
1a
2b
e9
01
f5
f6
0c
0d
11
03
17
2c
06
f0
01
02
1a
ef
da
13
e8
08
e9
cc
dd
dd
fa
df
33
fa
18
3c
e5
d9
f6
db
c7
04
ef
24
f2
f2
f5
ff
08
0c
07
1e
0a
22
02
11
16
ed
e8
0c
fb
d3
fe
f7
fd
e0
0f
10
f2
ef
12
fa
e2
fa
f6
0d
f8
27
18
ed
07
31
01
ed
ea
f7
e3
d8
0c
00
ea
c8
04
f5
04
08
0e
0d
dc
2b
eb
20
0e
1d
2a
09
08
ef
e8
2d
0f
dd
ef
e8
24
fd
11
e9
d4
05
f6
11
06
0a
fe
c3
07
ca
ee
f2
0c
30
e6
ee
fd
2a
05
fa
07
09
f0
db
0a
f7
d5
f8
14
f8
44
fa
e7
19
fb
e4
fe
f5
1d
e4
40
d2
20
24
13
f8
11
fd
11
ee
16
13
39
26
e4
09
e9
00
f7
02
03
3c
00
03
f2
eb
e4
cf
10
fb
05
29
0a
00
fa
1c
2f
de
0b
eb
f0
ff
0f
e8
fa
03
29
da
20
e7
be
23
01
04
f4
07
e1
0e
db
0d
f7
0e
ef
bc
e1
36
0e
24
ff
0b
13
1e
09
d7
1d
17
2e
f9
27
e6
f1
f7
0f
f2
be
23
f9
fc
06
fe
14
de
e7
df
d5
ff
09
08
04
e9
00
e7
07
f0
fe
08
08
2a
07
f8
f6
20
1a
2f
0f
fa
ec
27
ee
ee
ff
2d
01
10
eb
10
e1
ef
ec
fe
29
11
31
ed
fe
17
e9
f9
00
08
10
1b
e4
f1
ea
f0
17
fe
19
11
f1
13
eb
0d
ff
e1
fd
ea
e7
0a
d0
2c
ee
f0
0f
16
0a
07
1a
05
01
01
07
fa
10
e8
4f
e3
2e
fe
13
f3
21
01
01
f4
20
03
18
e4
19
19
27
ea
c1
e4
11
10
c7
fe
d8
ed
f7
1e
14
19
17
0a
04
21
15
f3
04
0f
ed
fe
fe
25
fe
e4
08
cf
f3
47
f6
e1
00
ed
d9
fa
18
02
24
ef
ea
18
20
de
e2
e6
d7
16
f8
ed
0c
be
e8
19
0c
02
e9
ee
22
f8
0d
09
cb
28
06
1e
f7
e5
ef
cc
e4
d9
11
0f
db
27
11
13
eb
16
f2
13
38
10
d3
f1
18
0a
f0
e6
11
1f
1e
1b
e8
0c
ec
f8
1a
07
e4
d6
ef
f6
fd
ff
07
f6
1d
1a
01
e8
db
31
15
f7
16
0b
ce
f4
f9
25
fe
00
07
08
25
05
0a
f4
0f
01
cd
24
15
c1
de
10
0f
da
17
fa
f9
0c
08
16
09
ff
ff
20
26
f8
15
d9
eb
20
f9
fa
ec
09
dc
d3
fa
1f
ea
f1
f9
ad
15
02
f4
f9
fe
15
11
05
fc
07
12
17
f8
0e
00
ed
f1
19
0f
f4
e6
fc
20
e7
04
09
c5
14
f5
dd
03
04
22
ef
11
22
f7
17
43
02
05
f2
f5
28
25
fc
ee
e5
10
1b
f5
c9
f3
16
ec
e0
07
25
0b
e6
f7
18
eb
04
f7
f1
12
12
48
32
ef
2c
15
f0
19
14
10
ba
0e
e4
01
0b
c3
c3
2c
e9
c7
14
06
fa
11
a8
cf
40
07
11
3d
f3
ed
f4
f3
f4
f8
22
09
1c
f3
f0
22
f7
1e
e9
ee
35
e7
01
d0
01
25
d0
f6
23
13
f2
ef
d6
14
0c
e6
0e
f6
08
04
00
1e
f3
26
e6
cd
f1
2c
e0
0f
07
1d
19
ef
ec
0e
de
f8
26
f1
ff
16
16
27
11
d0
fa
d2
ed
22
04
ee
38
e3
fe
13
2c
22
3a
e0
e7
f4
f4
fb
02
f6
f1
22
f7
15
5e
1e
f1
04
f3
df
55
d9
02
e1
15
fe
df
00
e5
30
ff
c4
d2
07
fd
17
06
2c
10
0f
fe
f4
06
fd
1e
16
10
f6
18
05
fc
de
09
f3
ce
30
00
b5
24
ef
f5
01
2f
29
04
2d
ed
bb
f7
10
08
de
e2
e3
e7
22
fa
14
f3
e9
f8
0d
11
04
f5
ec
ef
0f
41
dd
e5
1e
e9
ff
16
e4
d3
de
12
cf
eb
0a
c3
ec
e0
f1
f1
eb
cb
01
e9
32
f6
f9
f4
09
01
ef
33
05
f5
e9
fa
1a
17
fe
16
d9
ef
1d
e6
e3
14
17
e3
2f
ea
23
27
c2
f3
22
03
33
2d
f4
12
f3
06
0a
30
fe
16
dd
d8
fe
4d
22
f9
0a
f6
00
14
df
da
f5
09
f5
1a
ef
ff
f3
1b
0d
0e
d6
1b
f8
17
ee
f3
02
05
1d
38
0d
03
05
ff
1e
33
f7
f2
ee
da
ef
1d
16
18
fe
06
f8
19
f4
ee
22
ec
10
fb
e7
f6
e8
22
05
dd
1c
e3
f0
e0
d7
fe
11
16
0a
0c
25
06
1d
08
ef
f5
03
ee
0e
eb
e5
ec
04
00
11
ca
0f
04
08
3b
23
f0
0e
fc
1d
f3
32
17
1e
e0
02
07
07
bd
0c
d6
e4
f5
07
28
07
18
ff
d8
f0
10
db
eb
e0
26
f8
17
f8
19
04
fe
f4
d7
12
05
2d
13
f7
eb
09
01
ee
06
ee
ec
f0
39
09
0b
1c
1b
0a
05
fb
4d
07
23
1b
1e
2d
dd
26
fd
df
f2
e8
f5
d7
03
f5
e0
dc
fd
d7
1a
0c
30
e8
37
53
dc
1e
f4
2b
cb
23
ee
f1
c2
ed
e0
26
0b
13
f3
ed
1c
e1
21
1a
09
bf
00
34
03
e3
ec
f3
18
ed
23
0d
ca
2d
fc
f4
07
00
c2
17
e5
f2
d6
e3
2a
b6
16
20
2b
c4
1c
1f
e6
d6
16
06
e8
fb
c1
d7
15
12
e7
18
f5
0f
03
0e
26
02
29
05
13
0c
12
fd
e7
0c
e4
34
ec
1e
d4
1d
13
c4
bf
f3
f1
f2
d5
ff
f5
f4
09
ee
26
fe
25
ef
e6
19
01
db
ff
e4
fa
1c
15
e0
e6
06
cb
e2
e9
11
0d
ea
ff
f9
1b
bd
c7
01
11
14
0c
01
de
06
1e
09
d0
f8
22
ed
17
11
cd
ea
00
c4
14
d1
07
0e
0f
f3
43
0a
f9
eb
d0
f8
f1
0f
0d
04
05
2a
02
19
fa
dd
09
f1
da
15
da
20
e6
f9
0c
08
e9
65
17
24
14
12
3e
25
0f
0c
f7
fe
04
ec
22
01
10
07
d5
d1
ea
10
ea
00
0a
16
fb
02
1b
1c
14
05
f9
1b
01
fa
f0
fd
e4
fc
18
06
1a
e6
f9
f8
07
e3
1c
bb
f8
1c
19
d3
f1
04
c3
0a
03
14
27
3e
15
f0
e2
ea
f5
f9
2f
0a
30
fd
c8
ef
f8
ff
d1
33
21
f5
06
1b
ea
17
f9
1e
9d
0c
0a
16
09
f0
03
f5
bc
08
ff
f5
f5
ed
ed
44
ed
df
d0
12
02
d4
0a
f2
f0
2b
02
08
ef
31
10
09
35
f5
f8
09
d6
11
12
e6
13
08
e2
d3
f9
18
e4
dd
1e
2a
3e
0e
ef
1b
fd
05
d1
2e
17
e4
0a
ee
f5
1a
0f
02
64
16
09
d7
f5
22
31
bb
ed
38
f5
0c
f9
02
fc
03
1c
f3
0f
ba
cb
e7
01
05
06
f8
0a
d9
2a
fc
f8
0f
e0
08
02
e9
e3
31
ef
2c
ff
4b
ec
1d
2d
e4
04
c5
35
ef
f1
09
df
d9
1d
fa
1b
f0
0f
fa
e8
2a
fd
ff
25
e0
f5
02
19
13
27
ea
25
ff
00
17
f8
56
06
33
17
07
fe
0a
19
39
f8
09
f9
01
36
e7
02
e5
f2
07
f3
e4
2a
ed
03
f3
ff
ef
f2
fa
0f
10
ea
d7
c9
e8
fa
0d
b9
db
14
1e
ba
1c
f3
14
ff
f0
11
e0
f8
25
03
e7
f4
d1
24
ec
e5
f5
ff
ed
0f
26
08
e4
03
12
7f
e0
0d
cd
29
09
d3
32
38
ff
e7
37
ed
e1
14
ef
17
e2
eb
07
08
2d
e4
fe
11
0b
da
08
00
0b
1d
d7
df
c5
38
e9
05
e3
e4
11
0c
e4
e8
fa
cf
e6
0a
fe
e7
fd
03
db
f2
3a
19
dd
0a
0e
ec
d6
ec
28
ca
ee
e2
23
fa
0c
08
ff
d9
f2
20
e4
0f
e2
fd
1a
ef
01
1a
30
0a
15
32
f4
0c
e6
e1
1f
09
ef
20
1e
1b
25
28
db
f5
06
e5
ea
e4
05
02
ec
04
2c
f7
05
1d
19
fb
0b
e3
dc
09
e5
f5
d0
fb
00
e0
fd
09
f1
fb
f3
e9
1b
e4
e3
f5
2d
fe
ee
31
f4
e5
ff
d9
13
1d
fc
12
1c
dd
07
02
e4
ed
f1
0a
f4
ff
e7
e7
06
21
04
47
18
f7
2b
ef
fd
d2
27
f3
ed
f2
f1
fe
25
d1
e4
ff
18
14
48
f1
ed
3c
e5
1d
fa
08
fe
0f
23
1f
ff
e2
b4
c8
29
e4
e2
00
25
f4
21
09
02
08
da
19
16
ed
a9
11
f8
e9
12
ed
e9
04
19
23
ee
ef
e1
1d
48
2b
e1
f0
1e
ee
e8
de
0e
f0
01
2f
f0
f5
02
f3
ef
f2
09
db
e3
24
01
01
02
ce
27
11
f4
10
0b
e8
ef
16
13
f1
f3
ee
e7
d7
ea
e5
eb
df
e8
f0
ff
fd
0c
0c
2e
0f
04
24
05
fe
fc
e8
2c
ee
0d
08
07
0f
0e
01
fd
03
15
06
d4
1c
17
d6
2d
ad
db
ec
e4
11
1d
f5
0c
3b
f3
05
d1
01
f6
25
09
ec
12
f6
10
fb
ce
f3
15
ef
fc
22
01
13
15
db
11
21
f6
e1
22
3b
1d
02
0a
ed
19
d5
15
de
f5
13
08
04
26
00
ee
12
04
03
f9
fe
05
39
fe
ef
e4
ed
ef
dd
f3
11
ff
d0
ec
fa
20
ea
13
21
01
07
25
fb
33
0c
eb
fc
04
1a
ec
27
03
27
e2
12
d4
ea
d6
ee
0c
0a
f5
e8
19
eb
31
dd
b1
fb
40
10
28
13
09
fd
18
16
23
e9
ea
02
31
0e
17
e3
fa
f4
13
37
1f
ff
ea
fe
22
f9
3d
f4
03
cc
0d
28
fc
e0
16
fc
18
0d
db
eb
07
fe
05
f6
ee
f4
ff
e9
d0
13
0e
27
43
fb
f9
04
07
3d
e8
e8
fd
e6
03
d0
d8
25
28
f6
da
e8
de
20
03
0b
fb
09
d5
e6
fc
f4
dd
f5
20
e2
d8
f0
12
02
0a
27
1e
ed
ff
1a
c5
fd
13
0f
04
ee
df
eb
f9
bc
1e
21
fa
f8
d0
d7
0b
0e
12
19
04
0f
fc
13
29
d4
04
e3
f8
d5
ed
fa
2e
d5
e7
fd
35
f7
d6
2b
f0
e1
b0
fe
08
d9
0b
1b
04
f3
0f
fd
f5
02
41
e1
fc
fa
05
ce
fc
d6
ed
dd
de
21
1a
f4
ea
fc
21
fb
cd
24
21
0f
f3
19
e5
fe
f7
dc
38
f8
f8
d6
23
18
24
03
37
ec
2d
c8
fc
bb
db
fd
f1
05
12
d2
01
f3
0c
1d
12
f5
fc
01
15
0e
0d
ef
30
21
37
f0
22
2d
2a
f2
0b
03
ec
e2
f3
2f
f6
fb
25
f1
2b
25
ed
31
f8
2f
1f
02
17
22
08
0f
0d
0e
1d
19
07
0a
2d
04
11
eb
fe
ea
c4
d4
f4
01
01
1c
ec
f2
e9
23
05
e3
17
ff
e5
24
06
d7
1d
d7
34
09
fb
c5
09
fe
17
fa
18
ee
fd
eb
1e
f7
ea
0b
fe
f1
e8
d3
1a
08
f6
e2
f8
13
15
0d
0c
fd
d2
ed
f3
12
0a
02
15
22
08
0f
db
cb
df
ec
2c
fb
0b
de
0f
f1
fa
f9
de
fc
01
10
26
1c
1f
13
18
02
ed
f7
08
10
04
fd
be
ee
0d
2c
06
d9
2a
05
09
34
02
c7
00
0f
ff
e9
2a
f8
06
d3
0c
c0
ea
26
19
0b
ed
20
ea
10
08
23
e9
0c
43
00
1b
06
34
07
03
e2
00
ec
f6
fc
f6
ef
10
18
d9
44
f2
f5
0a
f7
ea
ea
e0
32
f3
19
f4
cf
fb
f0
ff
3a
db
e3
0b
14
14
04
10
ee
07
f6
41
cd
e1
07
d4
0b
0c
f8
03
e6
11
01
ff
14
ed
07
2c
1a
37
05
f6
20
21
1d
24
d3
bd
f1
0b
ee
e5
ef
f8
bf
f3
0b
18
06
f2
ff
f9
ed
27
e4
e8
fb
d9
eb
2a
f2
34
11
1f
0a
0e
ed
ea
2e
da
f4
ed
37
0c
16
cd
0b
0d
e2
e7
1f
08
06
d3
d5
05
1f
ef
ee
fa
41
1a
f6
0f
f4
0c
e0
e1
17
f8
ef
10
d6
2c
d5
c6
e6
0d
ee
c8
fd
18
f9
09
45
25
b4
01
01
0c
26
c8
f2
15
f9
0d
14
07
00
0d
35
12
00
f8
08
f5
f0
d6
c6
0e
eb
06
ee
08
e8
fb
fc
07
f3
f2
0e
18
e1
3b
e0
04
04
f7
06
14
cd
f7
e9
24
f8
09
01
0a
cd
ec
0c
21
cf
f5
e9
24
05
ee
35
da
14
33
58
fe
1b
44
f4
f7
03
16
1d
bb
ec
0f
01
40
17
f0
1d
f9
24
c1
0c
fd
49
ee
c8
15
52
0e
d5
06
18
e7
e6
2a
2e
06
45
e9
0f
ee
00
03
f9
24
f8
06
fc
fe
24
f3
1d
00
d7
0e
0d
06
0c
46
04
d7
fe
1d
06
02
fb
22
fa
07
08
06
05
d2
15
f7
f6
f9
11
1c
0d
dd
d2
1f
20
e5
e3
e2
ee
29
de
02
21
1d
ee
f2
f3
54
0a
fe
e4
08
f7
d9
07
1d
f2
ec
1a
e3
3b
f6
1e
17
fd
ee
e4
04
00
eb
fb
16
fb
e3
ea
06
20
07
05
f8
02
15
11
10
df
04
f7
21
f2
0a
23
da
c2
ef
23
f6
f8
07
0e
c2
cd
db
18
f3
16
f2
e1
c8
dc
19
e5
de
03
d6
03
11
04
cc
ff
e7
01
00
13
06
e2
eb
ce
ed
e8
f7
ef
25
12
fe
e7
02
02
16
2c
43
01
f9
f4
05
17
06
fd
00
d6
da
f8
fc
11
08
0f
01
cc
18
22
f6
0c
0c
db
10
e7
fc
f5
04
f5
07
c3
fb
02
13
db
f8
21
25
fe
15
f7
f9
eb
f6
2f
1a
e7
12
db
f2
e8
e1
f5
11
09
15
28
bf
01
d7
db
f5
0c
36
1d
1b
1f
31
f7
1a
fc
31
e3
e7
ee
14
d9
e6
f8
24
24
17
08
eb
3c
f7
c8
16
ff
11
e3
fe
e7
ba
37
00
fa
2c
e8
e2
f9
f1
e2
ee
ec
ec
05
03
ed
f0
13
09
07
d2
2a
3e
13
0c
d6
0c
cf
28
10
f8
d0
18
dc
fa
f5
fe
12
18
15
db
0e
f5
d7
cd
02
02
12
35
20
f6
f8
fa
f2
0d
00
02
d2
0b
10
0f
11
f6
dd
f5
f2
14
0a
1d
37
fa
00
28
0d
1f
d9
04
f6
05
ed
29
c5
fc
e0
27
00
27
28
3e
ff
e0
17
01
f4
ff
0e
e0
fa
0b
28
f0
df
2b
e3
e1
f0
df
e5
fc
de
e8
09
f8
3f
e7
fd
02
1a
34
0d
e1
95
29
0a
03
f2
18
f0
18
00
18
03
fe
f7
ce
ea
fc
18
d5
df
05
24
01
d4
1b
33
13
f8
f4
f8
11
fc
f5
eb
00
27
08
01
39
d8
ff
15
e4
e4
ef
de
ec
0d
eb
eb
fc
11
e0
f5
fe
e9
38
03
13
e4
16
c3
0e
e8
0d
05
17
fc
c4
10
10
19
cd
fa
05
f5
f7
24
e4
0b
17
28
12
e7
b4
ee
41
fc
00
06
ea
0d
15
10
ec
fb
5a
31
39
0e
e7
c7
04
10
fb
25
03
eb
df
2b
30
d8
0b
1a
0e
03
26
f2
ff
ef
d1
c6
2d
01
0c
0b
e1
e1
0b
f8
03
19
20
08
f1
fc
0e
ec
11
f2
23
1d
d5
e6
f5
10
f4
09
f0
ec
27
f7
ed
f2
f2
03
fd
f7
fb
1c
02
e8
0d
e8
e8
22
10
f7
e3
00
e6
03
11
40
f2
0e
08
fe
ea
f4
03
d7
fa
c2
01
fd
19
1e
ff
02
07
fe
d4
ff
e0
b4
f5
1a
d6
09
d8
e7
25
e3
f4
1d
34
fe
42
e7
f4
ee
ee
f0
2b
d1
3e
1e
17
28
13
fe
04
25
fb
f5
fd
f0
22
17
bd
f2
0a
05
14
12
bd
02
ee
e9
ea
2e
05
34
29
db
e5
c7
f9
fe
f6
fb
22
15
f1
06
20
1a
46
eb
2b
0e
da
1d
f3
0e
d5
ea
13
f0
f7
25
db
08
e7
f1
f0
03
d5
f8
1f
1d
e8
14
0f
07
15
f8
17
cd
e8
00
ea
10
ed
dc
13
16
e0
12
15
d4
20
d5
19
0d
e5
ee
fa
c7
09
05
f4
07
d3
f7
f9
1b
1a
f9
eb
fb
2e
f6
3d
11
fd
ed
18
01
02
e5
4d
b8
48
0f
f0
fc
1a
e8
1f
12
3c
ee
06
09
19
06
cb
fd
ec
ee
f1
25
bf
bd
d5
00
fb
d9
0d
0f
05
22
0d
14
34
fd
01
14
06
0a
e0
f1
bf
d8
ec
30
f4
24
10
ce
03
02
24
38
0e
e2
f2
31
ea
02
15
e4
11
c4
d4
f7
17
04
f2
02
ee
1b
13
1e
37
04
12
d0
20
d2
ff
11
d5
cb
ce
16
de
e1
08
15
cd
df
e5
df
e6
31
14
0c
36
0d
ea
3f
cb
f3
e7
08
0a
44
18
0a
02
ed
02
fc
23
03
00
d9
ef
c0
0e
d4
10
13
c9
07
df
1d
1c
e7
e4
0f
df
f0
fc
e7
1e
02
0d
bf
da
2a
f5
e6
c8
ef
07
28
0c
04
0c
1a
f8
03
f6
f5
0c
f2
f8
35
d7
18
46
15
16
19
2d
ff
18
35
19
fc
54
18
f4
c3
12
00
c6
25
1f
e4
20
fa
f7
cf
1c
1b
d5
18
ff
e8
08
fe
08
33
19
15
c6
08
ec
33
1d
0a
e2
0f
22
ff
d6
3b
f7
09
bc
d7
e3
c7
0d
df
11
dc
2f
09
fe
fb
e7
e6
ec
fb
f6
e5
02
12
be
d8
f8
de
1b
16
02
fe
ea
fc
f8
dc
24
f7
2d
0f
18
13
21
01
06
0e
fc
12
f2
e5
d2
14
15
bb
ff
f8
f0
dc
0f
e5
1b
c6
ee
0e
e9
15
28
20
15
10
de
21
03
fd
02
2e
03
15
1b
1a
e1
f3
f0
30
01
eb
f6
a7
ec
08
09
f1
ee
cd
1a
19
1f
0e
1a
d0
12
1f
15
f1
d5
12
fb
2a
04
fa
20
f8
0d
24
13
de
ce
1b
e9
e4
ec
19
f7
fd
55
ed
28
ff
e0
17
f3
d8
ec
ff
3f
ff
10
1d
1a
f8
d5
f5
0a
e5
eb
e2
03
0d
f6
31
d3
14
09
ef
dd
2f
0a
14
e3
f4
35
f5
27
bf
07
03
08
bf
1f
04
d7
06
34
0d
dc
11
21
4e
1a
f7
0b
fc
e3
12
f3
ea
f2
e1
f6
d6
c4
01
2a
da
eb
0b
0e
ca
2b
31
06
e6
0c
27
f8
ea
f0
00
0a
17
e9
21
11
fb
06
1d
09
d7
0c
f5
fa
d6
fd
e8
15
f2
06
fa
03
20
3d
04
04
20
13
03
db
03
01
41
1b
1b
ef
ed
d0
09
11
fb
13
dc
07
f7
1b
e3
ca
12
0b
c4
16
07
39
2b
11
f4
c0
4a
c8
ff
3a
00
ca
fe
21
01
17
0b
05
f4
d7
39
e8
eb
ee
ef
f4
f4
fc
13
11
eb
ec
18
24
e1
e0
df
0e
fd
00
05
e4
2f
fc
0a
0b
08
15
f8
e0
0e
03
0b
d7
14
15
ff
02
1d
14
18
e6
e0
1a
14
16
36
02
11
0f
e7
10
08
fc
f4
13
2b
15
1f
0f
1f
0e
2c
de
d7
18
0d
37
13
0d
f6
ee
dd
16
e4
c8
08
f9
0d
d4
e7
0c
e7
17
e1
f0
f5
b4
12
23
fc
e8
13
06
e7
05
f0
e8
f7
f4
f8
fe
01
25
0a
f4
2a
25
06
f2
f0
e7
14
f8
39
0c
f0
dc
f5
1f
0f
19
fd
ef
0a
e9
bb
12
13
26
0c
ec
03
06
f7
0a
f3
fe
af
25
ec
e5
0b
e4
fa
3d
0b
f3
f1
21
dd
f5
fa
25
0e
fb
05
d2
01
28
f5
2c
24
16
f0
3c
e2
c3
e2
02
1f
16
f0
18
ec
ef
f9
eb
e1
fc
17
fe
0d
e1
fe
fa
cf
d9
08
d0
f4
f1
ea
cc
e8
cd
15
f7
ec
48
d6
f6
6a
0d
de
ff
f8
db
fa
0e
f3
10
ef
eb
ed
32
ec
20
04
10
19
fa
01
de
fd
e9
0f
0e
20
ff
06
a9
1a
e4
f5
d9
1a
07
fb
e3
11
e9
f3
fd
04
20
08
0c
fe
f2
fa
23
03
fc
1a
1b
fd
33
27
fa
28
09
0e
0e
f6
22
e7
f3
09
f4
fa
17
df
01
4c
ee
c7
21
01
16
03
02
f6
fa
1e
19
e9
04
e2
f4
e5
11
fc
06
e7
06
ff
1c
f7
04
f9
08
15
0e
fe
0b
f7
01
f5
de
15
f2
03
11
fa
ef
d9
d4
ed
08
0a
10
ec
ed
f9
02
01
f3
ef
c8
fc
d3
0d
27
de
01
e3
dc
27
16
19
2a
0f
40
df
e5
1d
12
06
1b
06
1e
ef
11
02
d2
18
08
12
da
11
f6
ea
13
ed
d4
00
02
02
00
27
27
47
0f
fa
20
f3
06
13
ea
1f
29
f0
e9
1b
e5
0e
e0
0b
de
e7
de
f5
0a
14
d5
15
f3
01
03
1f
1f
43
1a
bb
c4
f7
da
04
04
0c
ed
24
12
0c
01
05
df
f6
f4
ee
0f
10
f3
0a
e4
f9
ec
10
17
0b
c7
e0
d7
f4
07
f8
0b
ff
f4
ed
14
27
21
17
29
12
fd
f4
e0
e8
e0
f6
d3
50
0d
e4
ed
f9
12
14
28
01
d6
c5
1a
22
f4
fd
e0
42
ea
d4
16
d2
fb
ff
f7
e3
17
ec
00
fd
e0
fe
f5
14
20
cb
02
14
01
ed
fe
25
ff
fa
05
04
27
05
fa
e8
10
0e
f6
d9
df
28
17
31
fd
f4
2b
11
e0
f6
03
e5
37
f3
14
10
fd
da
fb
dd
e8
14
fb
02
30
19
f3
b6
f0
16
02
05
ca
0e
0a
f4
e9
ea
15
f5
07
d6
f0
f2
db
1c
17
21
1a
1e
eb
0e
17
eb
0d
fd
05
cb
ee
1e
01
f5
da
ea
34
1d
01
f1
f9
b2
32
f1
13
dc
c8
c5
31
19
fc
06
db
04
ff
1e
f6
08
07
11
f5
fc
f4
15
fb
0d
22
04
01
0c
06
db
de
36
d5
f1
f6
29
36
30
db
07
03
e8
c8
11
0d
14
01
e9
0c
0f
2a
09
e6
3b
d5
02
f6
1c
ee
2e
3b
04
03
f8
d0
16
d1
da
06
01
fe
10
f6
e8
09
d4
11
f8
05
e1
eb
d7
27
39
0b
fa
11
22
0f
0c
e9
1e
f7
0e
ed
ef
00
3e
ec
bd
1b
01
fe
ca
da
e3
f8
fe
1c
e6
f5
1c
da
1b
00
1d
d5
fd
f1
11
f6
fe
f5
f3
2a
f9
24
f6
fe
f9
29
0d
0b
24
25
cc
ff
03
0c
0b
f0
eb
c6
fc
ec
17
f7
25
f1
e0
14
e7
0a
ef
13
3b
ed
f0
3d
f7
15
e0
07
b9
cf
23
21
1b
fb
e4
54
26
f9
ee
04
10
dd
21
df
eb
09
f8
27
3a
fa
e8
04
fd
0d
10
f5
d0
05
d8
e8
0f
0b
28
d8
e2
18
1c
0b
0d
01
b6
2c
00
ff
0e
0f
dc
de
2e
2f
06
22
ed
c5
21
f0
02
bf
e1
f0
d5
f6
13
eb
e4
e8
10
12
1d
cb
16
bc
df
17
0e
f8
f7
c5
ed
f6
dd
ce
16
fd
18
f7
1e
2f
45
1c
2b
ef
ff
0f
ed
17
15
ea
fd
03
ed
ef
ec
f7
f1
04
f1
d5
e1
fd
3d
f2
f2
24
e6
11
f7
0c
03
bf
ef
fb
ff
0a
f9
16
21
0a
1d
00
10
1a
01
3e
02
d6
0d
e1
f0
be
cb
f2
dc
22
0e
f7
e3
14
0d
1f
15
d9
21
22
d5
c2
e6
12
e5
fd
04
de
0b
10
f3
1f
e0
0b
24
23
f6
eb
fc
d8
e3
ed
05
f0
f4
10
0f
07
10
21
28
e8
fc
d0
35
2f
e7
13
ef
d2
0f
f5
f6
f9
43
eb
1c
0a
08
f1
c1
1d
28
ea
ef
e5
e7
ef
e5
ee
04
f9
fa
00
f4
20
07
27
30
09
f3
2d
e6
ef
fd
d0
e2
ff
14
fe
07
13
fd
ec
1c
c9
11
e4
02
20
14
fb
d9
d7
17
06
18
f6
dc
c8
17
15
17
cd
04
1a
ef
f2
03
d3
f5
0a
eb
1c
00
17
14
16
fa
09
1a
2b
fe
0a
25
1b
03
12
10
19
3f
0c
0c
1a
d4
df
36
ea
03
29
fd
12
0b
0e
c8
d0
fa
02
00
06
f5
ed
f2
d2
e0
21
36
e6
d7
1e
f8
1b
0a
03
08
31
03
f6
18
1a
aa
cf
0f
07
12
e0
f5
fc
01
13
ea
0f
f8
30
f0
df
1a
37
d7
00
d6
eb
00
f8
fe
e0
da
1a
d4
12
eb
ef
17
12
3b
14
2b
e0
e4
2d
2f
c7
e3
e3
1d
db
fa
f3
12
4a
f1
06
35
fb
fb
dd
03
1a
fb
37
fb
2b
d1
22
ec
f9
38
e3
e6
0c
0a
0c
0f
d7
1d
f8
f3
2c
e8
e2
33
f4
f9
e3
25
14
0c
ef
0b
fd
43
2c
01
3f
f7
01
1b
f3
3f
12
fb
ec
d4
f1
e9
e8
d2
00
d5
c2
d1
17
ec
1a
22
e3
19
f8
fc
01
c3
09
bf
ed
34
e6
f0
18
f5
fc
ed
e5
ec
f1
eb
2a
de
ff
08
cf
b4
0b
11
09
d0
d8
b7
42
19
fa
11
c6
25
f2
13
4b
07
f5
11
a0
05
cc
47
f4
f0
2e
f0
38
13
f2
ef
e6
e8
0e
18
e4
34
f9
fd
fb
2e
2c
19
e0
22
c0
13
39
11
f5
07
13
03
3d
28
0e
ff
e8
0f
29
e3
f1
15
15
30
01
17
e1
ee
2d
e7
e3
db
d3
3e
f8
fc
c8
e1
0b
29
f7
e9
f8
fb
17
c2
11
f4
e7
d4
ff
df
f3
d7
f8
10
00
30
0d
db
34
05
e0
0c
f6
11
23
ec
f6
f6
e4
e7
0e
d1
56
f1
10
e0
0f
d1
0d
19
32
f9
ff
05
10
ed
05
20
df
02
e0
1a
01
ff
06
02
f5
e9
e7
fe
d4
03
ff
e8
34
0d
c2
ed
f2
01
14
25
05
29
0d
e6
0e
f0
f8
d7
0e
0a
3c
00
f8
f2
00
10
14
f9
f1
df
0b
12
04
f0
31
e0
3f
f8
27
f8
1b
1c
d5
25
ef
ee
05
16
f1
06
f3
04
19
d7
fe
e1
ea
04
03
f5
26
00
e0
14
fc
c5
fb
02
f4
26
0c
ef
17
11
f8
09
2b
14
06
2a
e8
ed
05
f2
c6
0e
f6
c5
ef
08
c2
3f
17
fa
0b
0c
28
e8
32
44
cd
f3
f4
09
02
0d
e5
04
0a
b7
c1
ce
b2
05
08
17
f2
19
07
fc
f6
0c
b9
fb
05
ec
fd
1e
fb
0f
f6
ee
d0
3b
0b
0f
26
23
ec
d4
02
01
d5
ee
f8
0a
44
c7
14
21
a3
36
3a
f4
f9
fa
e6
9b
3e
02
eb
e0
0f
00
14
ff
10
ce
0b
e4
e8
f3
c3
f1
15
1a
e2
e2
06
18
18
fe
fc
da
0d
09
fc
f0
dd
19
ff
1c
0a
e7
f8
fb
5a
f6
f1
0c
2f
fb
f1
f0
ff
1a
10
ba
f8
e9
eb
e5
11
f4
e9
05
07
0f
f0
10
39
fc
f3
0e
0f
06
32
f9
24
04
c4
f3
ea
f8
ff
02
e3
10
e7
f9
f3
03
e3
04
e6
38
1f
e5
43
f9
0d
1a
e9
c3
c7
f2
07
1a
3e
e3
1d
33
16
1f
27
15
fa
29
22
ec
06
0f
f9
bc
ff
38
01
11
e9
0f
08
f7
eb
25
1c
ce
15
05
2e
f0
e6
f4
eb
df
e3
fd
f2
e6
da
fd
af
e8
e5
ef
08
3b
21
07
0d
de
e9
17
11
09
db
0a
cc
29
11
3a
e3
f1
19
08
04
f3
dc
1e
f7
ea
08
eb
07
2e
e2
20
17
30
30
fe
f9
fe
01
07
10
fb
0b
ec
f7
db
f2
24
11
29
20
1d
0f
14
f2
00
07
ed
0e
d6
fd
07
0e
0c
fc
fd
f6
e9
27
01
02
ec
0d
dc
fb
eb
b5
18
0e
03
fa
cd
2e
f0
b2
27
0f
1a
14
0f
db
10
1a
0e
fc
10
36
0d
08
03
fe
fe
0f
3b
35
f8
0c
26
10
b8
f7
1c
1f
fd
0b
22
f3
dd
0a
eb
f8
f7
04
eb
cd
23
05
10
29
1e
f9
be
ca
e9
0f
1e
11
fe
fb
fd
08
43
de
05
2e
f9
f7
d4
2c
dc
f6
f7
17
c8
0a
01
f7
07
08
0b
06
ea
21
de
17
11
de
51
ee
f8
01
06
02
f1
0e
00
0f
c1
f1
22
1c
16
e8
17
04
ce
ef
e1
f8
30
01
12
03
fe
b8
d0
0d
0a
f4
2d
60
e9
01
f9
db
e6
fc
f2
24
fe
f9
27
fd
fe
f0
27
02
0e
0f
f2
04
0a
d7
fb
0f
fa
2d
03
33
14
0c
17
27
52
ec
d7
17
01
fe
23
0e
fa
19
ea
0a
16
02
1d
c6
ff
02
15
eb
f9
12
37
d4
1d
0c
12
18
f2
39
fb
03
da
d6
e3
fe
0c
ef
41
00
0a
03
bb
03
e7
fc
04
11
f3
f6
dd
dc
3a
1b
0b
fc
d2
33
0a
2b
ec
d0
23
dd
10
17
fb
f4
be
e8
39
e7
ff
fd
ed
3f
d9
ef
09
20
0a
d0
14
1b
11
de
eb
16
08
18
dd
1c
af
0b
f6
e9
ed
e6
e0
07
f3
09
f0
ef
fe
01
02
ee
0f
f3
d1
02
ce
1e
ee
cb
f8
e3
f2
1d
37
00
ed
d1
e7
d7
0b
fb
f9
0c
0f
f9
fc
0a
eb
02
cd
d4
fa
33
04
fb
01
ec
08
f9
f8
25
fa
c8
2a
17
02
08
18
14
ee
0c
e4
01
11
47
1a
fb
0a
4d
16
1b
fe
f3
0a
f0
e3
2a
f7
14
19
00
f9
12
d1
f7
f8
fc
d3
be
ed
f4
0e
0e
fc
ec
ed
fe
11
e4
de
09
22
23
2a
15
ef
01
08
03
03
09
f4
e9
10
01
15
29
fc
cb
07
ef
1e
0c
12
0f
1f
c5
16
cf
e0
e1
25
0f
e8
f5
1b
2c
fd
03
18
05
1e
fe
d2
e8
d9
e9
e9
ff
ef
15
de
2f
dc
f4
58
0b
19
ed
f1
06
ff
f8
00
24
fd
c1
e2
fa
e5
13
e4
ff
bf
ed
00
0a
0e
d8
07
32
16
de
0d
ed
f6
fd
cb
07
03
d7
25
20
b5
b6
e8
1e
11
e2
fe
0e
28
2b
f7
20
ea
0f
dc
3a
e6
f3
22
f9
fa
df
07
2f
1d
fd
27
06
1d
ea
c7
d3
de
0a
e1
36
01
dd
f0
fa
f1
20
f4
c8
15
df
03
db
09
bf
0a
04
dd
fd
e6
c1
ef
2e
0d
33
f0
17
e4
12
27
eb
e9
01
1e
e8
20
f8
0f
dd
21
ef
25
02
e6
14
0e
23
12
f1
31
16
08
0d
2d
16
e6
31
26
f8
ee
c5
f7
e6
e1
fe
ff
0d
ea
30
09
05
0a
01
37
f6
fe
f2
00
17
e0
02
e3
e7
05
09
c6
eb
1f
07
05
ce
46
08
ef
0a
d8
18
b0
12
a4
fb
dd
fe
26
fa
e2
08
f2
00
dc
fd
06
f1
07
de
50
f4
07
d3
07
f0
e4
21
00
10
f2
e6
ef
f0
16
f9
df
f8
04
05
1f
00
0e
ef
04
2c
01
04
d3
30
18
1c
25
fe
17
3e
1f
05
1e
de
01
ef
16
d1
db
f4
10
fa
19
11
3f
d6
19
01
05
08
0b
0e
08
ed
15
ed
d2
24
c9
f5
25
0c
f7
04
13
38
ff
02
14
2f
e9
d4
35
e9
ec
09
06
0e
24
0e
17
0d
de
db
e6
28
f9
10
fb
0a
ef
05
ec
01
21
1a
1a
41
16
f9
f5
d0
27
2a
cd
fc
d0
03
cb
cb
da
f3
e5
fd
1f
00
f6
16
e4
1a
04
e7
e1
e4
01
f7
c4
09
ec
05
05
19
3c
25
ff
10
11
03
e8
1d
17
14
29
08
cb
12
e9
01
0c
d1
fe
f8
f7
eb
d0
f1
10
06
13
c7
10
c9
df
14
d7
f0
03
09
06
01
e7
f3
2c
08
24
0a
3e
24
00
fa
f1
f5
1d
02
cd
18
d8
22
fb
11
33
0b
ea
f9
ed
f8
e6
1d
ea
f4
39
f5
f2
fa
f6
ff
c4
0e
17
ef
f4
02
38
0c
15
f1
2b
2e
f1
0a
21
00
0b
01
f6
d8
1c
0e
0c
da
f5
f7
2b
11
f4
1c
d8
10
ff
03
1f
0e
0e
ec
e1
cb
fb
dd
04
ee
f1
fd
ee
0e
0f
f6
08
ff
e1
f9
dd
f9
17
f7
2b
13
ee
ff
ee
b6
03
c7
32
fd
2d
06
df
05
01
20
da
1c
f0
03
29
16
d2
fe
fa
f7
00
de
1b
24
16
f7
01
18
09
fb
e8
ef
0a
0f
e2
13
13
f3
da
2a
2b
c9
19
09
e5
e6
fd
e3
f9
e1
fa
f4
dc
fd
22
fb
18
e6
01
de
e4
35
06
ed
fd
10
26
ef
fd
d3
18
01
e4
14
3f
ca
c5
13
21
e8
fc
02
ff
27
fa
f3
ee
f1
e6
0b
0c
16
0a
fe
f2
d9
03
15
ff
e6
ee
f8
18
01
fc
de
f6
fa
23
05
16
23
fc
1b
07
01
0f
f6
1d
13
d7
01
03
1b
e1
06
f3
14
16
e8
a9
1a
16
0b
ec
e8
32
f0
fc
ef
f8
f7
ea
1c
e8
00
00
ca
cf
2a
2b
f4
0c
14
df
05
f9
11
17
f9
f0
14
f0
33
15
e4
07
e8
15
2f
05
12
00
fb
ff
fe
07
22
3b
04
0a
f1
f0
e2
c6
21
ec
15
ae
0a
0d
17
d7
00
0a
d3
0d
22
fb
ed
ed
cb
07
05
05
e2
20
03
fd
22
f9
e8
08
16
fd
ff
f9
fe
ee
1a
e9
34
e9
e7
d8
09
e9
34
f6
f4
d8
09
0c
17
06
09
dd
00
d8
fa
fd
f1
f7
f1
33
12
de
f1
06
29
2d
f6
be
33
0b
46
2f
ec
fc
2e
00
f1
e4
d1
e8
01
02
fc
0f
f7
17
ff
03
02
15
1d
f7
ec
14
28
e0
00
0e
14
16
d0
46
be
26
07
06
0e
f6
ef
de
f8
26
2a
fc
22
03
fb
f4
dd
0e
25
17
07
e3
e9
f2
09
22
e9
00
fe
ec
31
f9
05
15
fb
11
d9
f5
03
10
ec
fb
d5
ff
d7
04
f6
d9
02
32
e1
26
1d
1e
ef
a7
0d
14
33
fd
f5
28
16
e9
e8
20
fb
ff
29
22
17
e8
09
03
c3
21
07
f4
c4
15
fe
0c
26
d8
e4
0f
f5
23
50
d1
25
1d
ed
c8
1a
2d
e0
00
f0
e2
ca
f4
22
c5
fe
0f
11
b4
29
01
18
29
23
e0
f4
22
13
05
02
22
e1
de
04
02
f3
01
18
03
dd
ca
10
ff
04
e5
ec
fe
dc
40
f2
0e
f5
36
0e
16
11
11
e9
14
f6
f7
f9
0c
cc
cb
f7
0e
f4
f2
fa
07
c0
da
05
d1
29
16
03
27
08
00
10
e6
00
20
ed
1b
e7
30
1d
f3
de
fa
f6
21
e0
3c
2c
ea
22
0d
01
18
30
cc
1e
b6
f0
14
10
fd
0b
f9
f7
08
d2
d2
dd
32
2c
dd
0f
02
2a
fe
07
fe
17
16
dd
e6
02
f6
07
f1
08
d0
08
d4
07
fd
19
08
f1
0e
0d
c4
48
28
15
e8
14
13
10
1e
fc
e7
d8
e2
be
eb
fd
18
18
04
fe
09
0b
35
01
01
05
07
00
31
db
fe
f8
11
30
c1
06
fa
b7
fd
e5
13
f5
0a
fd
f7
15
08
2a
0b
df
20
33
cd
15
00
12
fa
db
05
0a
f1
d5
ef
2b
f2
e2
0a
ea
0e
ef
20
07
f5
02
21
e3
f4
d6
28
06
df
30
ee
03
0b
15
39
03
08
14
0b
ef
0b
ec
d2
0b
f5
c7
f1
f9
03
2b
19
f0
bc
1e
25
fa
d1
de
ba
f7
30
e4
00
21
10
ff
18
24
f5
fc
e2
db
1a
1d
0a
00
fc
e9
fd
16
05
f9
e6
e9
08
0c
b9
e8
10
00
e1
13
04
05
0b
10
f9
c7
33
df
40
0f
fe
06
e9
2e
e7
b6
e7
34
ea
46
07
19
26
2f
fc
08
ec
1a
02
0c
25
d3
e5
e0
c8
07
e2
db
fd
ad
e8
18
05
f3
eb
07
f2
f2
f1
ff
fb
ef
e9
09
02
f7
cd
f6
f9
19
d3
ec
f4
1b
09
f1
f5
06
0f
fd
08
15
e0
ea
ff
01
d9
14
3d
16
30
0c
ec
23
fd
f9
f6
e5
10
f7
ea
25
fd
15
03
17
f8
f4
0d
eb
00
ea
ce
17
15
0e
fd
02
cc
e0
f4
fe
f3
0a
ff
19
f4
09
36
63
f0
09
18
15
da
01
ef
08
fd
0d
ef
ed
d9
34
02
f6
14
f8
e9
04
ef
2d
31
10
1c
39
1d
fb
f3
14
1b
d7
ef
0c
fd
dc
e4
fe
d9
19
e7
f2
09
33
dd
10
dd
f5
bc
11
cf
e7
d8
f3
30
1b
ed
10
e4
01
15
2c
f3
14
43
e4
ca
fc
0b
d9
07
fd
17
ce
0d
23
05
1e
cc
2d
c8
5b
d6
e6
e7
0b
ea
e7
ff
28
fa
18
26
08
43
e9
00
0b
06
14
0b
da
13
0c
50
de
c0
ca
9d
e2
18
2e
38
f6
14
13
03
de
de
07
d5
1e
fb
15
e6
ff
e4
19
10
43
f1
23
26
d9
f6
15
fa
f4
11
fa
12
11
11
1d
d0
45
04
06
08
10
19
1a
da
ff
e1
20
1a
06
1e
10
dc
17
12
ff
ff
06
e4
08
f5
d4
05
f9
f0
12
2f
0d
d1
17
de
e1
f0
e1
f2
13
e7
f7
f0
22
e2
01
13
3b
32
f0
ed
f0
12
25
d5
fc
2b
f0
d9
eb
06
e1
ea
f9
d9
ee
11
1c
f0
18
05
12
f3
e6
fa
16
02
e5
e2
d3
24
db
e7
17
06
27
f0
d5
11
ed
16
ea
06
d9
1e
00
05
2f
df
07
e3
e6
28
f8
fc
d9
fe
05
fe
fa
fe
fa
fe
0e
ee
2d
d2
09
0e
e2
e6
ea
06
ee
35
3f
00
10
f1
13
1e
06
08
cd
1a
29
18
1c
3d
05
fb
ea
16
f5
00
0e
f7
e3
05
f7
03
d4
11
b3
e2
15
2c
fc
e9
05
12
01
d0
fd
1d
07
0b
e9
1a
fd
27
24
17
ec
d9
1e
31
12
3f
08
05
e5
f0
0b
04
14
f1
3e
ff
23
00
f0
f5
e0
12
17
12
be
fd
d9
f2
f4
02
06
1b
14
05
f3
1b
0c
fc
09
fd
f4
f6
eb
10
ea
fb
f6
ff
05
f6
df
1b
01
d9
1a
fe
e9
13
26
e2
dc
28
fe
ec
17
f5
ff
1f
f7
0e
16
0c
f7
fc
fe
d4
f4
e2
e7
f6
2a
f1
1a
05
2b
f2
fd
02
13
db
39
cb
10
0d
14
ed
e8
3f
ee
fe
07
0f
f0
e2
fd
0e
2a
d2
1f
d3
06
06
fa
b1
05
cc
17
cc
fc
0e
01
00
37
fb
0b
20
ef
d3
0b
24
2c
fd
e3
fd
27
00
fc
f1
f4
05
e0
04
03
01
0f
1b
f6
15
16
2c
1e
05
fd
d8
f2
f0
0f
09
3a
24
e6
0e
ff
f2
26
0f
00
22
f9
16
17
01
e8
10
dd
03
07
fa
f6
f4
ec
de
0a
15
ca
e3
07
f8
db
11
06
3a
03
25
f6
da
0e
fd
07
fa
ec
f0
14
ef
e9
01
13
4a
db
3f
1e
1e
ff
f4
f4
52
fd
d6
e7
2c
10
05
ff
f7
db
f5
d7
fb
29
1b
f6
17
03
f7
2b
fb
b2
f0
20
07
15
f4
f6
f4
22
e4
3a
2f
03
2d
24
05
d3
03
08
e6
14
0b
31
08
bf
24
b5
f3
f1
cd
1d
0d
f1
3b
cd
d0
15
d0
0d
38
f7
d3
e9
f4
1a
db
fe
cb
e0
b3
15
e9
08
10
0e
fa
00
e3
dd
0f
19
00
20
ec
dd
f8
f4
df
e3
e0
f2
23
ec
e9
f2
15
f8
1d
f1
da
1c
1c
03
13
f4
2e
02
21
0e
1e
f8
11
f6
0e
fb
2a
f3
f2
fd
ef
0c
10
fd
fc
1a
d2
1e
23
20
1e
e9
ef
05
e8
30
0e
10
fd
f7
22
d2
01
03
e6
e6
fd
f2
14
1c
df
0e
f4
f0
f6
eb
f7
16
fd
e4
1c
d6
e9
ff
06
0b
1e
2f
f9
08
fd
ed
de
db
27
24
06
ef
00
fd
04
f0
03
d8
e1
e2
11
06
c2
f1
30
1c
ff
db
f2
e5
05
da
c1
ec
ee
f8
fb
10
ff
18
00
05
d4
e7
29
10
f2
1e
00
f4
18
28
1a
e9
23
fc
23
d8
34
11
e5
fa
19
dd
11
09
0e
01
e8
d8
ef
0d
05
13
f6
f8
12
0a
35
0a
db
0e
7b
eb
05
fb
fa
b5
d1
ff
25
0e
fc
da
ff
1e
32
5a
1f
f9
17
15
1c
f5
2b
d5
e8
18
14
05
0e
0b
f7
1c
cc
f8
00
f6
16
f4
ee
0a
eb
0d
02
0f
2c
eb
e1
ed
db
01
25
12
34
e1
19
e4
21
f5
01
14
fe
e6
15
fd
f8
06
00
f6
ee
dc
e7
ed
1d
08
0b
04
08
df
55
0e
f4
1f
36
1a
ec
f1
0a
20
ee
01
c3
ff
06
2d
ee
2e
dd
10
fb
04
ed
26
d5
06
04
07
f8
f8
d5
08
ff
f2
2c
0b
fb
d1
f9
fa
b6
00
04
ea
ce
f4
f9
1c
25
15
e7
32
27
05
19
dc
ec
18
ec
26
02
ed
31
04
fa
1a
f5
02
06
24
29
02
1b
d7
f1
01
1a
db
09
e0
01
0a
0e
fc
24
24
1e
3a
0a
ea
2b
0b
e8
50
d8
f3
0c
e8
15
de
2a
fa
13
ce
f7
eb
f9
eb
17
28
cc
06
04
f5
ee
0a
15
fe
c3
f2
0d
11
14
09
d0
0f
30
12
1c
d7
10
13
ed
02
f7
09
0a
f3
03
46
e1
dc
06
e9
c9
19
e1
f0
e2
5a
d8
e7
18
ee
eb
eb
0d
06
cc
ec
31
e6
e6
e0
1d
ec
fc
e6
0e
e4
0d
1f
29
eb
16
09
0f
d9
02
f0
2a
e1
01
ec
20
00
15
ee
ea
4d
04
f8
42
29
f5
f1
1d
db
e8
16
fb
f8
04
17
de
f8
06
f3
1a
1d
06
2a
05
cc
f2
d3
bb
f7
c7
05
e4
0e
ee
dd
05
47
e0
ed
22
ec
f4
ec
38
05
20
13
14
35
ce
4d
19
2d
21
fe
00
16
23
1f
5a
cb
ad
f6
de
12
0c
db
f8
00
3c
fa
0c
1a
25
de
18
dc
e4
f2
02
18
26
fb
d6
00
09
15
46
e3
18
fc
ea
d8
23
09
2e
15
ec
f4
f3
e1
fd
e0
12
f9
f5
f2
e8
f9
04
d9
f2
f9
eb
4d
c3
f5
02
f2
d6
24
f6
fc
1c
0c
e3
35
0c
e4
ed
0a
0f
fa
22
06
df
01
ed
e2
1c
d8
df
ea
fc
18
eb
0b
f1
fd
07
1b
d0
05
ff
ff
f4
da
f2
e4
13
f0
0f
21
29
50
ee
28
0f
fb
29
b8
1d
01
ca
09
17
0b
0c
f7
06
0c
f9
12
28
0a
1c
e4
e1
fe
f8
52
e0
f0
c8
cb
ff
f9
32
f9
0c
09
ca
ff
11
12
df
22
f5
f2
1a
f6
17
e9
3f
11
fc
19
14
fb
0b
26
ef
e6
de
e6
1c
d1
42
f0
05
05
e4
ec
25
0b
29
eb
3f
ff
15
15
4a
0c
ce
07
f6
e7
34
f5
e4
fd
d9
fb
02
fe
0d
1a
e1
f1
d7
e8
f4
00
e2
ef
e5
06
fc
01
2a
08
f8
00
1d
eb
08
02
15
ff
19
01
e7
04
03
07
e3
d5
c8
05
20
06
fd
32
ef
dc
23
45
0a
0d
25
ee
e2
de
f0
03
0d
09
f8
ed
00
00
12
07
d4
ec
ed
d1
fb
18
c8
d9
38
02
38
10
e5
e7
fb
60
00
1b
ad
ca
01
f6
0d
1c
2c
0b
1e
36
19
f4
03
f1
d4
02
18
04
e4
f2
20
06
c5
d2
07
e5
ec
10
e9
fd
c5
da
17
f4
0b
94
04
15
2f
f7
d9
fc
c8
f8
f7
1c
e1
06
e9
10
28
21
f7
0c
25
3b
1a
17
da
f8
1a
2f
ff
e5
fa
fe
1f
ff
0b
04
04
05
fc
15
27
d0
60
ec
0d
fa
25
12
f6
18
01
f7
f7
e0
0e
03
ec
c7
0b
ef
0d
ec
1d
e9
1b
eb
0a
3a
ea
09
0f
2a
ce
21
0b
2b
f9
14
13
e3
f0
2c
16
07
e1
03
16
f2
f3
f4
d6
d8
ff
f2
12
f6
01
05
d5
e3
28
18
03
ca
e3
1e
bb
0b
01
fe
0d
fb
15
ef
f8
28
e7
23
22
ee
13
c9
1f
00
fa
10
15
e8
eb
e1
e7
fb
20
02
cb
16
0c
c0
c1
0c
02
1c
f5
00
f2
f7
f9
11
fb
1b
1f
dd
eb
d6
ef
05
15
01
1e
ee
00
09
c8
c2
f3
f7
0f
11
04
fa
fc
ed
0d
29
cf
e5
f5
16
e5
20
2c
f8
fe
16
cc
fe
33
1a
db
ea
0f
33
ea
fb
13
da
eb
f8
f4
05
ed
fe
e7
14
10
2a
fd
09
09
fc
f5
d4
b9
0c
ed
25
31
f5
fe
f8
0d
f4
01
1b
e9
4f
0e
31
d9
fd
fc
e8
f9
e4
f9
ea
02
23
28
fc
29
de
c2
f6
e1
07
ef
e0
21
d7
31
01
08
c9
1d
ee
09
10
eb
f8
21
e7
32
f7
0d
e0
15
fe
40
da
e5
f6
07
ee
16
fa
13
39
2c
01
ff
0b
d4
2a
0a
ec
24
17
12
0b
eb
0a
eb
f1
ca
f1
04
e8
04
f7
e1
1a
55
05
02
fe
11
ef
03
f6
f0
e7
e0
e4
22
ee
09
f0
15
ef
c0
e2
0a
2a
07
18
08
fa
ec
10
fc
0d
ec
04
e4
e8
14
23
08
e1
2e
dc
04
e4
03
10
06
1c
f2
ed
04
27
f7
26
04
e4
e9
21
fa
17
0e
ea
17
f4
ea
ea
d8
c0
13
e6
06
01
e7
ff
32
e2
c9
01
05
df
ff
da
f8
e7
0b
21
f7
05
2f
f4
d2
35
f2
ec
53
35
01
25
fe
13
f3
14
17
f4
f0
0e
0d
1d
0d
fd
33
e0
fd
02
3a
06
ee
06
d4
34
43
00
11
fa
12
f5
1c
dc
df
44
f8
d5
21
fc
01
f8
04
f0
ec
ea
ec
10
29
24
f4
e3
04
fd
30
0b
0f
05
f4
06
10
01
e7
22
ea
ee
cd
1c
fa
dd
00
17
0d
19
f1
f7
01
e1
11
f2
ff
e6
dc
0a
14
33
eb
0f
13
0c
c8
fb
c8
00
10
c7
26
e3
ca
1f
d8
0d
f4
f9
10
3b
03
43
15
1a
fe
0a
f4
fb
da
f2
f5
e7
e3
e8
1e
ce
fa
29
ea
b7
fb
12
0d
02
dc
19
09
12
ec
f5
e2
ab
17
e0
e2
11
e8
19
0a
15
11
e1
1e
f6
fa
0e
0c
16
14
1d
0d
20
e0
04
f7
02
03
f0
05
c6
40
27
02
19
f1
c4
d8
f5
3f
1f
00
0d
dd
dd
f3
0e
0c
ee
de
18
02
fc
d9
0f
fd
f4
17
fc
fd
f6
ed
e0
0a
14
1b
f0
1c
f2
cb
e5
34
05
07
ea
dd
10
ec
d7
18
21
eb
f5
fe
e2
06
e8
02
f8
f9
0e
ed
38
2b
0c
f9
f5
dd
fa
0e
06
03
f5
40
24
ed
19
ca
06
e2
11
18
ef
f8
e1
fd
14
ec
fa
aa
19
26
09
ff
e7
34
ea
12
ef
fb
f8
fd
f5
16
49
04
01
0b
fe
27
f0
10
00
f9
03
ee
11
1b
be
fa
11
eb
fe
1a
e8
f9
f7
e9
f4
f4
e1
fd
ef
04
d1
d8
08
e5
0c
03
0a
0c
2b
2c
3f
0d
ef
ea
de
fc
19
ed
c1
1e
f4
ec
02
08
fa
e5
2e
fa
11
1a
20
00
eb
f2
09
12
2e
e0
00
16
f0
f6
0e
eb
0b
d1
3f
1c
df
fa
e7
fe
fb
29
e7
39
f9
d7
f8
01
e8
07
fa
ca
0b
ec
fc
ed
f5
19
ff
05
f6
fb
fd
e1
0b
18
2e
f3
e6
04
f6
f8
0d
05
3b
14
e3
ed
0a
40
07
29
f4
c9
f9
fa
f2
14
fe
22
0c
ee
0f
cf
f4
e8
2b
19
0d
e2
d0
12
e9
1e
33
fa
11
16
e2
d9
e4
28
d3
13
ec
1a
15
0c
f3
c1
f2
09
03
27
f2
0a
0a
d1
00
0b
f2
d0
e8
13
1b
0a
00
f7
1e
1f
0f
01
19
0b
14
ec
25
fb
05
e1
08
f8
05
2b
f9
fb
ff
01
e8
d4
ea
05
fa
f5
00
fd
ed
f2
06
07
17
c9
2b
e7
01
32
c8
cc
fa
d1
02
25
e3
02
1b
29
29
09
d5
fc
de
f4
09
ee
16
1d
22
36
f2
1d
2f
e0
e1
0c
17
d0
e9
de
05
04
e4
ee
fc
0e
15
16
0a
35
03
f1
d8
0f
f6
ee
06
f3
0c
e9
1b
0a
17
e5
e7
18
15
06
e9
0c
d3
0e
c6
fb
27
0a
f1
f6
02
08
15
f5
f6
c5
ea
ff
15
c5
00
27
f2
fc
1b
11
1d
09
fe
12
fe
de
2c
27
f5
e6
1c
ed
cf
3c
f6
d5
fa
f3
fa
dc
cd
f1
f1
f2
e3
dd
04
c0
e7
16
f4
13
cb
c3
00
04
ea
20
10
24
11
17
e9
05
eb
1f
02
fd
02
1c
fe
f6
f5
ed
21
e2
f6
f2
0f
0d
25
25
e5
e6
1a
fd
23
43
14
f9
11
03
27
ed
29
eb
e4
23
f8
08
1d
eb
f4
01
0d
16
0c
17
06
18
17
ec
11
24
fc
d4
2a
17
15
2f
db
e5
21
35
c6
e8
f9
bf
18
f0
d4
a2
f5
36
09
40
f5
f9
cf
06
1b
13
0f
0b
0c
02
e3
0d
19
23
22
e2
ed
d4
0d
ed
fd
f3
1e
1c
d8
1d
fa
25
db
24
2e
17
03
1e
db
ed
fb
07
fc
0b
e9
03
e2
fe
dd
d3
d6
f8
10
20
07
07
ea
ce
d0
18
01
cc
06
fd
31
02
02
0a
df
28
04
1b
d9
f9
2c
12
ed
f5
ee
f0
f1
00
d0
37
27
03
37
2d
07
24
e5
fa
ed
ef
d1
ed
eb
25
d5
d2
fa
01
17
dd
25
da
f3
32
0c
fb
1d
de
e4
05
18
d3
25
eb
fb
f2
f7
0c
fc
f3
14
00
13
12
0e
ec
bb
32
33
2e
e8
d1
ed
18
09
20
fe
ec
13
19
15
cd
21
14
f5
ef
20
2d
f8
ee
27
ac
e6
15
0d
fe
1f
f0
f7
01
16
fa
1e
ea
e2
0c
f0
e6
11
ff
fa
07
1b
07
1f
e7
1f
fc
e6
0c
0e
ff
f6
0d
e7
04
e3
02
10
e4
f1
fe
0d
fc
0d
db
e0
f6
e7
e5
0a
fc
f7
fb
24
1e
f6
17
e5
12
01
13
37
f2
18
19
df
27
ff
21
0f
19
ff
0d
d5
ea
f8
d6
09
00
18
f8
27
cb
f0
0b
07
ee
c6
0e
1c
e3
fe
ae
cd
fb
14
06
06
db
11
04
16
23
e4
04
f4
f5
11
1f
01
fd
f2
f3
07
ea
e9
cd
f3
f3
0b
fc
2d
0b
54
ea
0c
32
c2
13
0f
fc
05
0e
dc
31
24
34
e5
ea
46
20
02
08
fd
06
18
1c
da
0d
19
ec
41
f5
f4
f0
0a
20
f4
05
05
f0
f8
f5
ea
20
ec
f6
e3
ff
28
e8
de
db
f3
ee
0c
1b
19
ee
12
0d
13
00
a6
fb
18
ec
e5
0e
07
bd
0a
19
2a
fb
19
e0
34
42
df
12
ee
ec
31
13
d9
df
f7
ed
02
e5
c1
f5
ee
f4
30
f7
03
f9
11
19
04
3f
06
04
05
fd
29
eb
06
fb
f9
f7
07
d7
fd
22
de
ed
eb
0b
fb
f6
19
ee
0c
f9
34
3e
fe
d8
d2
f7
1d
d8
dc
42
e1
15
ec
19
4f
f7
2a
02
f3
26
17
e6
fa
f8
05
ea
e0
09
d3
1f
f0
db
ec
db
ff
17
d9
ca
f3
02
f7
15
06
0f
e3
fb
04
23
fa
16
05
04
0b
0c
fe
2d
e2
f7
ca
30
f3
eb
f3
13
ec
f1
40
36
18
ff
0f
23
fc
eb
2d
3f
01
f0
fc
0b
18
20
ec
25
1a
34
ec
0e
b6
06
ea
1d
15
f4
d1
14
24
17
07
d8
d3
d8
1b
e5
f0
df
b0
ea
0c
db
0a
00
e4
f2
0d
12
fb
fc
f9
e3
13
ef
0c
2f
13
f1
38
d2
ec
03
09
06
05
0b
e6
19
0f
18
f5
0c
fa
af
38
04
f2
e9
de
16
ea
fc
1f
e2
25
16
3b
1e
12
23
0d
1f
22
28
ed
e0
3b
e6
12
cd
03
16
bf
f4
0b
08
03
d2
ed
f6
0e
2a
17
f1
f4
cc
0a
e4
e6
10
cc
07
d4
0f
f9
12
f3
f4
29
05
20
f3
00
ec
e9
cf
2c
1b
0c
fc
ee
16
15
1e
db
08
0d
1f
05
05
f4
d5
12
1d
27
07
d6
d7
09
09
f8
06
fb
f7
f1
ef
2e
33
04
ff
ed
0b
ec
1a
06
d9
06
06
1f
e7
0c
28
e6
2e
ef
e7
2f
ce
08
ff
10
e8
e4
c7
f9
ff
e4
d9
e5
35
0b
f1
04
0e
04
f1
f9
15
ee
fa
f4
d3
00
e0
1a
0b
ed
20
15
02
02
3b
1b
05
06
ac
02
e0
fe
25
03
f2
d6
fd
0a
2c
3a
f2
f6
eb
d4
0b
f4
d6
37
db
f5
f6
01
0a
f0
20
e7
ec
1b
ff
06
15
d7
13
17
e6
f2
e0
28
d8
0f
c4
08
dc
07
15
ec
18
fc
0b
da
dd
0a
e7
ed
fd
ef
00
ef
d9
39
02
02
10
e8
f4
38
02
c0
f8
e9
05
08
fc
ff
f7
f5
ed
30
27
fb
07
16
eb
fe
d6
10
0a
47
c1
f5
f2
ee
15
19
04
db
e2
ef
15
03
f9
e7
eb
ee
08
19
08
db
fe
15
08
30
03
f8
02
0f
29
db
db
06
e5
f5
28
03
0a
e7
28
ee
c0
09
06
e9
d8
20
0b
10
34
f6
ca
e9
fc
13
e0
1f
03
0e
df
15
12
01
f9
fc
f4
db
2e
f2
d3
27
fa
1d
d8
13
00
f0
f3
13
ce
09
f8
37
1f
0b
2f
eb
e4
01
15
48
fa
20
2e
ee
f5
18
c0
e8
ec
f4
14
d8
ef
f0
20
10
01
37
0a
eb
e8
f6
f9
f2
d6
06
1b
e8
eb
1d
f6
eb
f8
11
09
fd
ee
10
14
22
15
1c
db
1a
2f
15
c7
06
e6
03
24
f8
1e
06
1f
f6
e0
96
1d
f1
13
e2
bc
de
00
23
3b
f3
e3
d7
d3
41
f0
f4
01
f4
fa
30
08
df
e9
e6
14
e7
3a
2b
e9
f6
28
05
c7
e4
dc
e0
1d
17
08
1c
12
c6
26
20
32
0b
1b
00
11
07
b6
ec
3a
3e
fb
02
fd
f8
04
ce
f9
f9
d7
12
24
f9
f8
fe
fc
f2
f8
f3
ed
04
da
0b
26
15
de
0e
0e
21
e8
0f
f7
ef
fc
05
fa
da
26
e2
f6
0a
ff
e0
02
0e
28
09
df
13
04
d2
dc
0d
1d
0a
e1
05
0c
ee
13
0a
dc
0f
01
0f
ef
2b
01
0e
dc
f2
0b
e9
04
1f
a5
01
12
0b
1d
f7
1c
d8
ee
2e
0c
04
ca
37
0f
08
cb
fb
24
0d
d3
23
0d
de
fe
0d
3a
e2
24
ee
de
2a
f5
f9
0e
28
f5
05
03
ee
1c
21
f4
fb
25
f7
ee
ec
d1
0f
ea
e0
07
d8
00
c7
00
0b
eb
f2
08
03
ed
f4
25
0d
fe
10
c9
02
26
03
0b
f8
e5
dd
d8
2b
2b
e0
ed
1d
0e
bd
01
0b
ee
e3
16
fa
eb
de
2d
1a
15
f6
fe
24
d1
1b
01
f6
0f
e7
06
03
ff
fd
fd
24
da
23
0a
f8
01
f8
fb
df
15
13
00
fb
fb
38
29
ff
03
f8
28
0d
0e
0b
f1
04
05
f6
b7
ff
26
f7
c5
d2
28
dc
df
13
0c
fe
d8
0e
0f
d8
e6
23
fd
2f
fd
f8
a9
13
d7
32
e4
f1
f1
1e
01
0d
3e
24
04
fa
ee
f0
fc
0c
e5
0c
0d
ef
24
28
cc
df
f9
01
ff
f1
f8
ec
1b
a9
d2
22
f2
c8
e3
05
0a
1d
1f
05
f8
fb
f4
0a
16
d7
f5
07
40
07
2d
2e
db
f4
f0
13
f2
21
f4
1e
30
ef
14
23
9f
0e
07
13
d1
fc
06
ec
ca
20
20
0d
cc
fe
c3
13
e5
56
0d
d5
eb
11
24
f3
15
f4
07
2b
32
fc
f0
de
ea
24
fe
08
0b
f9
f4
cf
0d
f5
a8
f9
2b
1f
fa
00
31
f0
d2
e8
c9
f5
97
05
e4
c4
26
f8
24
47
28
25
2d
1f
e1
ed
c6
f9
52
1a
d0
1c
e7
3c
2f
d9
f8
34
19
09
00
f3
02
05
e4
ff
bb
0f
d9
fd
08
14
d8
d6
f1
0d
ba
e5
12
22
e4
ea
e4
ff
d8
e1
f2
0c
00
e5
df
10
0c
08
f9
29
12
ed
29
0e
fd
13
f7
e2
09
1f
19
1d
15
fa
d5
f8
14
cb
e5
f3
f4
d8
01
0b
fc
57
25
f2
fc
e1
20
e3
34
21
06
f6
cd
f2
2c
ea
f5
ec
18
0c
0a
23
d4
f3
fe
e1
da
fd
04
27
d7
ed
0e
ef
14
07
f9
27
cb
f9
e6
c7
0f
20
ef
14
3a
02
02
f0
f6
17
f3
01
f9
0b
e3
11
f6
30
0f
07
e2
2c
f0
32
ef
09
e9
19
03
f7
ef
4b
ed
02
fc
04
0f
d4
f7
18
03
d4
ed
a5
17
16
03
ff
f5
15
fe
fb
b5
f3
e3
e4
07
37
f0
01
13
29
d8
14
21
1a
1f
17
00
1f
0c
05
d8
fa
1c
30
1d
18
05
d9
f3
12
10
0c
c6
12
09
11
ce
f1
01
fe
b8
11
e8
0c
25
f3
f1
2a
d8
f2
00
11
01
12
ee
12
fb
15
21
0d
1c
1d
e4
ea
fb
11
be
09
f4
1c
f8
d8
ef
f3
39
fd
f9
f2
f0
eb
18
f4
e9
07
dd
fa
e3
11
22
ea
df
2e
2b
11
14
02
fa
f9
14
12
fe
04
f3
07
db
f1
24
15
ee
08
e2
fb
06
c8
fb
18
01
fe
f8
f3
0d
24
17
f9
21
ed
fa
25
e7
17
12
0a
e6
0e
0e
16
f2
0e
16
17
de
29
0a
ea
07
de
25
f2
f4
f1
16
13
d6
ea
fe
fe
1c
ff
1e
01
e1
05
eb
fa
ff
11
f2
0b
1b
fb
21
ff
19
f2
e5
0c
f5
db
f9
de
20
2a
d1
ce
f4
e8
fc
fc
27
dd
df
fe
4f
21
1a
f2
f2
d9
04
0c
26
03
f3
0d
0d
ef
1d
dd
00
17
01
19
e0
ed
22
f6
fd
e8
ec
f3
e0
03
03
e4
17
ed
06
02
e4
e2
f6
c5
0f
e3
c2
fc
19
17
fd
04
ef
f8
e7
10
0d
f3
16
f0
e1
e1
21
2e
04
ef
17
18
0f
ff
f4
d8
00
fd
f9
21
fd
12
21
f6
20
30
d6
dc
39
fd
2e
2d
eb
db
a8
16
ef
01
ec
d6
ee
22
06
35
e8
fe
ff
09
4e
07
18
f4
0d
c6
fa
16
d7
ce
0b
fc
0b
ea
1d
fe
02
fb
d6
19
fa
f2
ec
12
00
e6
e9
fe
13
20
b9
e7
eb
d3
06
1d
fe
02
43
e2
1a
f5
11
0e
20
ea
04
e0
e3
10
19
0e
f9
13
f5
19
20
09
2b
d3
ea
c7
f4
ff
cd
1a
15
16
ec
27
1d
f7
03
10
10
0d
24
25
08
e7
ea
e5
0c
f7
e2
ee
2c
fd
f2
f8
0d
ed
0d
df
ab
e8
e6
0b
df
d6
1a
fc
d5
12
f2
c6
d2
f8
17
1f
16
f7
0a
0d
f1
f6
ff
40
eb
fb
e9
43
e9
1e
e2
06
fb
13
ff
f8
2a
01
d5
1e
05
ce
0c
21
ee
1d
0a
17
e3
db
0c
2f
1b
0a
00
22
36
d5
d2
0a
0a
eb
47
f1
b8
bd
42
30
f9
d7
11
f1
f8
3a
02
bf
54
cf
f3
08
04
ea
f8
1e
07
17
21
09
f7
0c
ef
0f
e4
c0
fe
19
40
0e
41
da
ea
ee
2d
19
ac
29
22
0f
25
e6
19
20
f5
d4
f0
11
05
ff
26
dd
ed
01
fa
04
00
e5
e8
1b
0f
d7
05
f8
ed
0f
ec
06
18
fb
20
29
ef
de
18
18
28
fe
10
db
f7
fd
b3
13
11
d3
12
22
1e
fd
05
14
1d
1b
15
09
1f
1a
ee
e5
03
2c
09
f5
07
01
f7
dc
f7
0f
eb
f4
fc
ef
e7
00
17
c1
ec
23
04
fb
01
26
ed
03
d2
02
09
ec
ec
f0
ee
ed
f5
02
06
1c
f7
14
24
08
fc
f4
ee
f7
d4
0c
02
19
31
0a
fb
07
fb
f4
f1
07
18
10
07
08
0a
00
05
f0
18
06
e8
38
10
f1
04
e2
fc
f0
10
06
c0
0e
0a
10
ec
2b
08
fe
e7
f1
50
d4
f1
f1
29
e7
d7
3a
31
0d
1e
19
40
00
0b
e7
1f
29
f3
f4
9b
08
4c
f0
fc
e4
08
21
d7
e6
a4
fe
10
f8
f4
12
09
ee
10
1f
fc
c8
b3
0e
08
08
0e
10
c6
03
19
21
ee
f6
1f
fe
35
ac
de
2e
df
06
51
27
d5
26
54
ee
15
21
09
d4
df
0e
ff
f6
dd
0c
f3
ff
e5
1f
0a
f3
e7
ee
0a
17
db
12
10
21
18
0f
0e
e5
af
fc
1b
f6
db
f7
f7
fa
ee
eb
08
0f
0e
da
07
f9
f9
ff
0e
00
04
12
21
07
1d
ea
f8
27
de
da
f7
d1
b9
f9
ec
b3
16
20
e6
32
e0
10
e1
f7
40
c9
17
f8
f6
cf
eb
ef
16
2f
4c
10
fa
f7
02
0b
02
f0
fb
0b
0e
fc
1d
19
f7
13
d6
18
31
d3
df
e6
00
10
ee
fb
f4
e1
00
e8
c0
e0
0a
3c
ea
e8
25
c8
03
f1
0b
ea
1d
fd
ec
d0
dd
32
41
0b
ee
f4
25
13
ea
11
ef
fa
e7
cd
26
0a
14
13
22
06
22
12
14
c9
f5
f2
02
f8
11
d0
e1
14
27
23
14
d5
02
09
25
f5
04
04
0b
d7
3e
dd
e8
09
e6
23
f9
d4
0f
fc
fb
ed
0a
18
ce
c8
01
f7
dd
05
12
de
df
1c
21
f6
10
1b
ca
f9
08
27
16
d5
10
08
ed
de
1d
c3
11
fc
ef
08
f5
d8
10
0a
f7
ed
01
32
18
0c
c0
0d
f0
3c
ff
57
e5
fa
1e
17
dd
21
00
0d
06
fb
01
2c
10
e5
d9
0e
e3
fb
29
08
16
10
20
f7
0e
19
f6
e7
fd
fa
fd
f6
1a
35
d7
13
db
ba
05
1a
33
f7
06
f2
ed
04
e3
2d
32
f3
10
f6
db
ee
cc
f9
17
35
25
e9
16
fb
f2
f2
0f
36
e3
2f
ea
f1
f9
eb
ee
15
ce
29
05
da
15
ef
e0
17
d8
f3
12
d0
16
f3
16
cd
27
27
16
2b
c5
0f
0f
0b
f7
14
27
15
f8
04
fa
dd
fe
12
03
fb
09
fd
e3
11
fa
29
20
e6
d5
27
ec
de
10
01
05
e9
27
d2
fb
0f
23
29
26
e5
0c
0b
02
1a
df
29
f5
dd
ed
e0
07
f8
fd
ef
f7
f1
15
e8
ee
04
e4
3a
17
e1
0e
f8
0b
02
0f
e5
ea
16
f6
27
0e
0e
23
dc
10
10
2e
0a
ec
dd
ff
04
09
0c
06
ea
f8
16
05
ea
fe
06
e0
d0
2c
de
06
02
cd
00
cf
f9
c7
ec
01
e1
ee
e7
ea
cf
f4
1e
05
f0
f1
09
17
ee
dc
e2
01
0d
1f
d2
d0
26
02
0a
dd
f1
14
13
18
eb
ee
f0
f6
0a
d0
d2
01
09
f1
10
e7
fb
13
e7
fa
da
33
e9
d6
f5
16
0e
ed
e5
d7
04
1c
3f
e7
03
f2
16
f6
0a
cb
f0
e4
ef
fd
fd
eb
e1
4a
14
e8
fb
1a
fc
fb
d3
fa
2c
47
22
03
09
fe
22
0e
1e
fa
12
03
e9
37
e0
f0
14
fb
24
d6
fe
1c
13
2e
0c
0f
e0
07
49
e3
16
3b
ed
24
00
28
04
eb
38
02
fe
23
cc
08
d7
02
29
b3
14
10
42
00
c6
ee
39
f1
18
fd
ba
04
0f
e6
0c
06
34
2b
fd
fa
d3
cf
e5
f0
f5
ef
e3
fa
01
e1
d7
26
05
06
11
0c
f2
02
e4
fe
23
f0
01
f2
02
27
12
0c
e7
fc
ea
11
da
2a
fc
ef
18
d8
ec
fa
07
b4
28
eb
db
0d
12
19
4b
18
11
ff
f6
09
ef
3a
c5
03
f4
f4
c9
e3
13
2e
d7
0c
1e
cd
07
d6
f7
e0
03
01
09
00
15
3b
fa
0e
08
f8
0a
48
ea
0d
2b
fd
ff
06
db
16
2b
ff
0a
0d
f9
e2
fe
10
f4
10
0f
20
ea
df
11
c4
e2
17
00
ed
12
dd
1f
ec
00
05
08
1d
e2
f4
d3
f3
f0
28
07
ef
db
eb
32
30
d9
01
e7
e8
22
11
0e
17
dd
20
de
f4
e1
c6
fa
e2
12
fa
e5
df
ed
18
df
19
cc
09
dc
f3
fb
2f
f6
dd
d9
17
d6
ce
e5
f1
f4
ef
16
fa
2a
1b
14
04
0a
fa
bc
0b
09
27
c0
f1
2e
df
22
19
01
09
ec
31
3f
f2
25
32
25
fa
e7
e6
00
02
04
31
20
04
0c
07
ed
20
28
f3
ee
19
0f
02
11
00
f1
13
0c
9a
41
26
0a
2a
c2
06
16
f9
04
ec
b9
b8
fa
e2
f3
e6
1d
f8
1b
f8
26
ea
dd
07
f4
4a
d6
f3
fd
01
fa
14
f6
1a
f8
02
1b
1c
0f
e2
f9
2b
16
d2
d6
07
f3
ee
45
15
11
f6
fa
e6
13
fd
de
0e
0a
ce
12
07
fe
dd
ec
de
28
26
e4
2a
fd
08
d9
e4
07
fc
1f
2d
e7
fa
cf
d0
fd
29
10
eb
12
ef
f2
32
02
eb
01
ea
ed
ef
c5
0a
d9
38
25
30
56
e7
d4
d8
de
22
2e
14
1a
1a
21
ed
de
27
0e
af
14
1a
c4
ca
d6
22
00
ec
f2
e3
1e
10
fc
f2
c6
f9
fc
db
23
f8
e7
fe
12
02
33
dc
04
db
07
0a
e3
d2
0d
27
d8
11
c0
26
02
fc
1e
0c
29
f6
e3
d0
09
01
fb
f7
f8
0c
fa
b6
fd
da
01
14
04
0f
e0
18
26
00
25
08
d8
02
f7
e1
e1
23
0e
28
df
0f
11
f0
f3
02
d4
f6
d9
e9
0f
07
44
eb
dc
f9
31
d2
e2
df
f7
fd
2d
22
13
01
f0
ce
e8
f2
3a
12
2e
1e
ec
f1
23
2e
f4
2a
26
07
08
d2
28
32
f6
05
14
2a
03
de
12
fc
1e
0e
06
00
d5
dc
2a
1a
1f
11
f8
43
27
b6
05
3d
2a
e9
d1
e7
33
d8
1a
f9
f0
0e
28
ed
f6
17
d1
ff
e0
3e
20
10
f5
e2
f1
0a
2e
1e
0f
28
cb
e5
f8
f8
fc
17
1c
11
fb
0a
03
e7
37
d2
0d
14
19
09
25
e7
2b
