19
10
f8
09
09
f4
f2
ed
f1
f6
08
fe
0b
00
14
0a
08
05
f7
0d
07
ed
ee
f9
f4
14
07
09
18
05
0c
fa
f6
f1
1f
01
fb
f6
02
fc
0a
0a
1d
02
f3
fe
fa
fd
17
0d
00
f8
f9
e4
14
02
f1
0d
fb
0c
e7
ed
04
02
26
f7
fe
02
01
03
04
e6
f9
01
ca
f2
f2
00
f9
10
07
e5
08
f3
13
00
ff
1e
fa
fe
0a
f7
ea
07
f9
fe
3c
f3
fc
01
07
ff
05
12
0b
f8
07
21
08
04
fb
f6
08
fd
ff
fc
f0
04
04
0a
25
e8
f7
12
f1
f5
09
06
ee
ff
db
f0
20
fd
fa
02
06
09
e6
0e
f3
f3
f7
05
16
18
0e
0c
14
0a
17
0f
fb
fc
07
f4
f9
01
fd
e5
05
fb
03
12
0d
f6
02
0a
05
fe
fd
f4
03
ff
e9
02
06
07
f1
1d
05
14
0a
0a
ea
12
fb
eb
d5
00
f7
f1
01
e8
f0
06
15
05
07
f4
f5
03
fb
0e
08
fe
12
f5
f2
02
e4
f2
ed
01
fb
fb
08
0a
14
0b
01
fc
06
0b
f8
fd
10
f7
0d
0d
fe
00
00
fa
08
13
07
f9
1c
0d
ee
e4
08
ef
f1
04
ea
fb
f8
13
19
f6
ff
0f
fa
13
fc
19
0d
f5
f0
fa
12
ff
fa
fa
0d
08
f1
f6
fd
e6
1c
ea
e0
ed
f7
12
18
f0
10
06
ef
21
ec
06
e1
e8
f7
fa
e4
22
01
fa
11
fa
fe
f5
0e
06
ef
fe
f0
f8
0b
ea
eb
fe
e8
f5
f8
fa
fa
f6
fd
14
fb
ec
1b
09
f6
f5
fa
f4
eb
e9
01
f0
04
f0
f0
ee
db
fa
f6
f1
f0
fa
06
f4
fe
f5
20
07
17
19
01
23
f3
ff
0d
03
00
09
05
03
08
fa
23
10
05
05
0e
16
00
0a
fb
e7
03
05
10
f3
03
fb
fb
f4
0e
00
fe
07
e9
09
f7
d6
d8
03
0d
ee
f0
fc
0e
07
f4
f8
2b
0f
14
15
fe
05
17
14
f3
10
f0
e7
03
01
fe
01
fa
0e
04
0d
eb
f1
f3
ff
03
f6
1c
10
02
17
0b
0d
e6
10
07
f1
fe
12
0a
ee
16
0e
06
fc
fa
fa
fb
f4
07
06
f7
e8
f4
12
0a
f9
07
ff
10
f9
05
12
fa
00
08
fc
f9
e4
01
02
e9
f7
f9
fd
ec
0f
f8
fa
02
f8
03
fc
15
05
00
10
f3
15
05
fc
07
07
01
03
0a
0c
ed
fb
05
f2
f9
fe
15
f5
fe
fb
e8
12
10
19
06
fb
05
01
04
05
f3
01
0b
f1
f1
fd
0e
e6
ff
f4
f1
0b
04
12
16
fb
06
1e
f9
ee
0a
00
05
e7
fd
02
e4
ff
f4
fe
f9
fd
01
f2
24
13
01
12
fb
03
e9
0f
2a
21
01
11
0e
10
03
02
1c
05
e9
1a
f6
01
03
08
e6
14
f4
0b
f5
27
00
14
0e
06
05
00
28
f0
ef
0f
12
2d
e3
fb
0a
12
0b
fd
d2
0c
12
04
fa
02
0a
0f
01
14
25
e8
01
f5
0c
1a
15
ee
f5
1c
fb
0a
f7
f6
29
04
18
02
f1
f6
ff
36
0a
fd
f9
13
fc
0f
f9
05
04
01
f4
fb
fe
05
fc
04
ff
f3
f0
07
0f
f9
ed
17
fc
11
1a
0a
02
f1
fc
f9
06
fc
0d
00
20
11
fc
03
19
0b
ec
1f
f8
f9
05
ef
0d
1a
0c
f9
f7
f9
ea
17
03
00
17
1b
fd
e4
0a
ee
e7
04
eb
00
2a
2d
13
0c
03
11
df
ef
d5
f6
04
05
fa
f0
f7
17
05
e1
0c
fb
f3
f5
f6
03
e2
f5
1b
ff
13
07
f7
ec
0c
00
fa
16
f1
19
0b
10
15
05
ff
08
19
06
fd
fd
f3
12
06
f7
fe
02
05
19
08
1f
02
dd
14
04
09
f8
e0
01
ff
ef
f2
17
eb
f3
02
fb
f6
fc
f3
08
ed
eb
ea
ea
04
0e
ee
f4
f6
e9
02
eb
fd
f4
ed
13
f1
00
26
00
fe
19
f7
00
07
0b
20
ea
e3
e7
ee
07
f1
10
f9
f6
f8
02
ff
fe
ff
13
ef
f5
06
e9
fd
f6
fc
fb
e5
f4
e0
14
00
eb
ef
1b
0d
e9
1d
06
f5
fc
f4
1e
08
f0
0f
ed
e5
01
09
e4
f8
0e
e6
12
11
ff
06
f2
e9
0d
1b
f5
10
f8
fe
0c
f3
04
16
ee
18
0e
ee
10
ff
f5
08
0c
f3
0c
ed
f6
f8
14
12
f4
ff
f8
d3
fa
10
0b
08
fd
0c
0e
05
f0
fa
f9
e2
e5
e9
0a
00
ee
ee
fa
00
f3
06
fc
2f
07
e1
f8
fd
0f
06
15
fe
ef
07
f9
05
04
11
f9
06
f2
ff
e2
ec
0c
fa
06
09
f5
0b
ef
ea
ce
f4
1e
15
f4
fe
e9
f2
f5
f1
05
09
14
03
fd
e6
12
ea
0f
15
fa
0f
ed
10
0b
03
00
f2
e6
04
e0
fa
e6
f3
fb
0e
19
ff
1c
fe
13
f5
13
fb
ef
ea
fa
03
13
02
00
03
17
fb
ee
f5
18
1e
11
f3
04
07
14
e5
f5
ee
fb
f9
fd
01
f0
f2
06
0e
09
fe
e1
ee
05
04
ec
ef
d1
f4
00
12
f9
f3
01
06
16
dd
19
25
f7
fc
df
e2
f7
01
1f
f9
07
0b
1e
ed
f9
14
fd
eb
f6
fa
f0
f8
09
fb
25
0a
fd
19
02
f7
1d
0c
07
fc
08
ff
ff
0a
03
2a
01
09
0f
10
f2
0d
e6
08
f7
ee
ec
e0
1d
f9
33
e5
fc
03
1b
fa
f6
16
f9
08
0b
fb
fd
f3
07
04
02
f5
f2
21
10
f8
ea
f1
08
03
ff
fb
19
f5
18
fc
0f
26
fe
07
07
1a
ef
0a
ee
e1
fa
0c
ee
07
e7
09
06
f6
f0
f7
fa
e9
f6
05
e6
d4
f7
00
03
05
0a
0a
ed
fb
f2
0f
f8
fb
17
fc
f5
03
e9
16
05
06
1e
07
fb
05
eb
ec
fd
f6
09
10
18
1b
17
fa
03
05
f4
fa
00
ed
1e
09
ec
f6
d9
ff
11
f8
04
01
f6
03
01
f8
1f
1e
fb
f1
0e
04
0f
fc
08
f7
f3
fd
1c
f1
03
07
13
0e
df
f2
ff
10
fb
fb
13
01
26
1b
fa
11
fe
15
ec
09
ec
04
e3
12
f9
01
f3
d9
13
00
fe
ea
fc
13
00
1d
08
fd
ed
e6
e1
0b
f2
05
f8
16
02
1d
f4
17
fd
fc
08
0d
0e
f0
fb
1b
0a
0a
f9
1a
f7
0c
ff
0a
25
08
f8
d9
0f
f7
fc
08
0a
03
e5
f9
12
1f
0e
dd
01
00
e8
dd
f2
f3
0d
f0
f0
ee
0f
1a
0a
0a
0f
0c
f8
0a
f5
06
ef
f9
ed
08
0a
14
28
05
0c
f1
fc
ec
fe
fe
15
e8
0b
0a
e5
27
fa
ef
14
00
f8
fe
09
25
f9
19
32
15
ef
fe
04
ee
20
f0
e2
03
f5
12
02
f4
0c
fe
0a
fa
f7
ef
fc
e9
fe
f5
f0
ee
00
15
f1
05
02
0c
fa
e8
0c
01
ef
f6
01
00
ec
0a
e8
f6
fa
10
ec
25
37
f8
06
10
fa
01
08
eb
eb
01
fe
09
de
00
ff
e4
e9
e7
0b
ec
18
00
fe
0f
e4
ef
ef
08
0e
03
0d
03
f7
07
f7
13
03
0d
0b
02
0b
f8
0b
25
01
f4
06
0b
f4
ff
fd
09
0b
f3
08
0c
f5
03
06
16
f7
ec
1a
f9
fd
ee
e3
fa
1e
f5
0e
06
f8
01
de
ef
16
f0
1b
ef
ef
12
05
10
2d
f8
fb
ef
f7
f9
d9
fa
0a
f2
ef
01
f1
1b
0c
1c
0c
f3
f4
01
12
f6
ee
09
05
f8
12
f5
0f
f4
f7
fc
20
03
f3
ec
04
fe
ed
0d
e6
f9
16
ea
0c
10
f9
fd
15
fe
ef
03
e9
f8
fa
03
1a
00
e0
f6
f8
e6
0a
08
03
e7
e8
fc
f9
f9
e8
11
10
09
ed
19
f6
11
05
0d
f9
fe
12
07
15
fe
03
18
07
07
09
ef
f7
02
da
e6
30
dd
f5
0e
f8
02
e9
e7
03
09
03
cb
fc
01
0e
0d
ee
36
f8
ee
13
ff
f3
0c
f0
19
e5
f5
ed
f9
e5
fa
f5
07
07
04
0d
ed
11
fc
f6
f7
dd
0d
fb
ff
fa
f5
1f
14
02
21
fe
10
0b
17
0c
f7
ed
02
f8
03
06
e1
10
16
0d
04
0e
11
12
f0
13
03
e6
21
0a
28
0c
eb
02
04
12
f1
e4
07
0c
12
13
0b
f6
05
0a
02
ea
0e
1b
1e
0e
fe
f7
00
ec
05
f7
03
fb
14
f6
f0
db
1c
04
fe
f3
14
10
f0
0b
1d
01
f8
19
13
ef
0c
1a
f6
05
13
07
0f
0a
f7
00
f7
fe
01
ea
f4
eb
f7
f9
f2
fb
ef
fb
f6
fa
f9
05
ea
fd
e7
fd
05
0e
f2
fe
f9
fa
01
fb
06
0f
df
01
fe
f5
f4
f4
f4
08
0f
f4
0f
f6
ee
08
07
f5
06
e0
05
05
e4
18
19
27
f9
11
03
0d
05
e1
ff
ef
ff
02
12
ee
e3
0f
12
06
04
ed
f7
1e
ee
f8
f0
07
ff
16
0c
06
23
f4
0c
09
08
fa
ee
01
0f
ef
09
f6
02
11
ff
e2
0b
14
29
0a
10
11
1f
f4
1b
fa
05
0c
09
10
10
f5
05
0d
e2
24
e7
e4
f7
f2
14
ff
ef
fc
ec
fe
0d
e2
fc
04
02
de
f0
fb
f9
19
e7
09
fc
07
ec
f3
f6
04
f5
e0
1f
f2
e6
f3
f2
02
0e
01
f8
0d
f8
fd
ec
fc
0f
f6
0b
ea
fd
e2
06
dd
dd
07
fe
08
0b
e4
f2
16
f0
f3
0f
06
05
01
0f
ef
f4
fe
0d
15
fe
18
f5
18
f5
0c
05
e6
06
01
17
ee
ef
07
e0
0f
fc
fc
f6
fd
fc
0a
e0
fd
12
ed
15
06
20
1c
02
f8
2c
12
0c
f5
22
00
07
28
ee
0e
eb
f8
03
fc
0e
18
08
f2
15
f1
f0
f0
f2
f9
0b
10
f9
ff
e2
0f
e8
0b
f9
f9
e6
f3
fa
f3
fe
0e
f1
fb
2c
fd
18
e3
00
03
f8
05
e9
f9
fc
0f
f8
09
03
00
0d
05
0b
ec
0f
00
08
08
20
e6
ff
fb
01
05
01
eb
fd
fc
f2
da
21
0b
00
ff
1d
d5
09
04
fb
fd
f6
fd
00
ff
09
f1
18
e2
e9
f6
09
f9
f3
02
da
04
fb
fa
fb
fa
e1
0b
1f
e7
f2
11
23
08
04
ff
e4
0c
03
09
0b
e9
e2
f1
08
04
d2
05
1c
09
0e
13
fe
03
06
f5
00
f8
dc
09
07
e1
fb
0e
12
e9
0f
dd
0b
02
07
fc
ec
03
0b
fa
f9
00
21
f2
16
1f
f1
eb
e9
ec
f7
ed
ec
dd
ff
f2
ee
01
11
02
23
e2
01
ff
fa
fc
10
d3
12
fc
df
01
07
0a
08
fb
fe
0c
fa
0f
11
01
05
0b
f7
e1
f9
fc
05
02
04
04
14
06
00
02
f2
06
10
e1
fa
f8
f0
0a
f0
0d
15
f9
11
e7
ec
2a
fc
f5
04
f9
01
0e
f5
09
e9
f9
f7
de
06
e8
d0
07
14
f9
0e
01
1a
fe
14
03
ec
04
f5
fd
06
fc
f8
ff
05
fa
fb
2e
0c
07
f3
e4
f0
06
f9
df
09
fd
1a
fe
11
0f
ee
1e
13
06
f0
03
fa
19
f1
0f
fc
e3
16
f6
fe
ff
00
01
fc
e3
f8
ee
0a
04
e8
06
f9
0c
25
fb
dd
1b
22
f8
18
01
ff
1a
02
01
11
ff
ee
0b
e8
ec
f9
00
01
ec
f8
10
0c
0a
17
09
f2
fe
13
f7
f7
fb
0b
16
0c
02
f0
0e
fc
e0
fd
f7
05
00
f4
eb
d6
01
f5
fe
09
f8
04
0a
fb
21
fa
f7
ff
27
14
ff
f5
01
09
0a
13
1f
08
ec
07
0c
fd
0d
08
19
ff
f5
06
0a
fa
01
fc
ff
ff
05
ed
fe
01
fe
16
fe
e3
f8
f9
ed
12
e1
0c
f3
de
11
07
0a
e7
f2
08
17
1b
16
03
f7
f3
ea
11
ff
f7
11
e2
1c
06
e8
16
fc
fd
00
db
1b
f6
eb
ef
f3
03
f7
f5
f0
04
0c
0e
11
1f
09
f2
07
0a
ef
fc
eb
09
10
f7
0a
0f
16
fd
05
f1
ff
eb
f1
18
ea
ee
12
fe
f2
13
ff
f3
fb
de
f1
e0
f9
08
e4
fd
f3
f9
f6
0c
16
e4
eb
05
27
f2
0e
0a
1c
01
12
13
02
08
f4
15
06
f9
f9
f4
0e
0e
0e
f3
fd
fa
e4
e9
f2
db
f0
fb
f1
ef
fa
fa
fe
d6
12
05
f7
02
f8
0a
ff
16
03
2a
0c
fe
ff
02
f0
ff
03
fc
fa
06
0e
25
e1
0f
17
05
01
fc
1b
f5
ea
14
e5
0d
00
f6
fb
f4
f8
12
08
06
e9
00
29
0b
0d
00
21
f7
09
02
19
17
00
14
1e
f8
eb
f9
2a
03
00
1e
ed
11
fe
0d
07
21
10
07
e3
00
f2
10
f1
22
f6
12
ee
22
04
ed
f2
07
fc
fe
04
fe
e8
f1
04
07
0d
12
f0
fb
f1
da
f2
dc
04
10
fc
1f
ed
f9
f7
18
f4
ea
e8
f1
0b
1a
00
f8
00
df
db
06
dd
e2
f9
fd
00
00
12
10
f8
00
ea
0d
fd
13
f1
f5
fd
f2
f1
f5
17
17
f5
f8
05
06
ec
f2
00
fa
03
13
05
03
ff
fd
f5
04
0b
09
e9
fa
dc
f8
fb
f4
dd
1f
de
f9
f4
fe
1c
29
06
15
f9
01
f3
d9
23
f9
1e
e5
f9
fb
f8
fe
d6
12
06
01
17
fc
ea
fb
fe
0b
dc
d6
00
0e
08
eb
0f
05
f7
02
18
ea
1a
0e
0c
20
1e
ec
12
ff
01
ed
d1
14
fb
e4
ff
e3
05
2e
ff
f3
03
06
0f
1a
0c
08
04
f8
02
ff
07
07
05
02
08
03
17
f5
02
02
0c
f8
f5
04
f3
12
10
01
0b
1d
ff
01
1f
06
e9
ff
ef
09
26
03
ee
f2
e8
08
fc
fa
fd
fd
dc
e2
df
fa
10
f3
01
07
f4
fe
0b
f8
e5
fe
16
ff
0b
f7
00
10
fa
18
e5
0c
09
f7
06
05
ff
e1
02
f7
0b
15
07
0a
14
f5
f9
01
00
0f
0f
ea
06
07
24
16
06
f1
09
00
ce
f9
f4
fe
e4
17
fa
e1
00
24
1e
0f
f3
e9
0d
e2
fa
fd
fe
e8
2a
f4
f1
16
1a
0c
05
06
0a
05
01
f8
fb
06
f5
f6
27
e0
0d
09
12
11
00
00
09
1f
f0
e0
05
ff
ff
17
19
1b
d9
f3
00
db
0f
1a
fa
ef
f4
00
0c
e2
14
fa
15
12
18
10
f8
e8
d9
00
f7
e3
19
02
e0
ee
f3
f7
ff
17
f5
e1
11
10
0d
e2
1b
f1
f2
06
f9
fb
fc
01
fd
fe
ff
f7
fc
f9
f7
f7
f2
07
ff
de
ea
ea
0b
0b
e8
da
10
f4
17
27
fc
f3
0c
f6
fc
1c
e5
e9
f0
01
08
10
15
16
f2
0e
00
02
f6
03
06
e2
f8
1a
02
ed
0b
08
fe
f2
27
00
f1
f1
ee
08
fe
fd
e7
07
f0
08
f4
f6
f2
09
d5
00
15
ef
ff
04
ee
0a
08
f8
15
d5
fe
0e
f1
19
d4
0e
f2
ed
21
13
f4
ea
fc
e0
ed
18
fe
f6
0c
17
f9
06
e7
f7
0b
28
0b
14
f9
f4
0b
fd
ff
0e
f3
06
fe
1f
1a
eb
0b
e5
fb
0a
0e
f7
fd
02
04
ee
08
07
10
ff
03
0b
11
df
e0
ef
fd
11
04
ef
15
07
07
0c
13
04
09
1a
04
ed
04
11
18
13
fd
1f
0b
1d
f6
00
01
e8
0a
fa
28
ff
e9
e3
f4
17
03
ff
06
16
18
f2
05
f7
08
ff
04
13
08
ec
04
e8
04
06
eb
ef
03
0a
0a
13
06
fc
f7
04
03
06
00
f4
f6
f7
f9
12
0d
f9
17
f2
23
f4
0c
f7
06
20
27
f7
fe
fd
02
f7
02
fb
ea
fe
f3
0b
09
00
ef
19
fe
08
0b
03
f3
ea
f9
fa
04
03
0a
fa
1e
13
1b
f8
f3
10
07
1d
e6
f9
14
e5
0e
fe
fe
1d
ed
f9
fe
f4
14
03
22
f5
14
fd
fb
19
2e
0f
f9
f1
18
13
fc
00
06
0c
00
06
f5
13
db
f6
f3
10
f5
de
fb
01
14
e7
da
2d
0e
06
0b
05
e9
f7
ed
f7
1c
02
0b
f5
23
09
fd
fe
0d
0a
f4
f8
04
10
f7
15
e7
e6
f1
e3
02
ea
05
1d
0a
0c
0e
f2
f7
09
01
ee
f7
f2
f9
f7
18
02
04
fe
f8
e8
0c
0f
1c
f0
e2
15
09
02
04
0f
18
e9
09
fa
f8
03
1a
d9
f3
19
17
e7
06
e3
f9
0a
fb
0c
f6
e6
1e
0a
e8
0a
00
0c
fa
06
e3
01
ef
f5
0b
e3
fe
0b
05
1b
13
fe
0e
fd
11
fa
03
ec
0b
04
ec
09
0d
fc
03
f1
fe
08
05
15
19
03
ef
ff
20
d9
ec
17
ff
f6
f2
18
ea
2e
f5
fb
fb
07
ff
ff
fb
03
f8
13
f8
e4
00
f1
e9
de
fe
f7
dd
f0
f5
fe
00
f3
0a
f6
16
1c
e9
1c
0a
06
0c
08
05
fe
0a
07
06
f4
ee
0a
0b
09
e4
17
13
f7
ef
ed
09
07
ff
cf
f3
f9
f9
ec
0c
0e
04
fa
f3
f6
f8
0d
f7
0e
12
0b
ec
f0
f6
ff
f0
df
1b
15
04
f1
0f
01
1a
21
08
27
1a
dc
08
ec
0b
0f
10
01
13
0d
f9
f4
f5
f1
05
e5
10
07
f9
08
1a
0a
08
ee
fa
02
eb
08
fb
1c
fb
0b
e7
10
02
18
fd
d7
0c
09
02
0e
0c
07
05
14
fc
0b
09
00
05
fe
f5
0b
12
0f
f5
e8
0d
06
2a
20
05
e9
f6
fd
18
f7
13
f1
e9
1d
00
1e
0a
06
f9
fc
00
0b
dd
f6
1e
02
f9
0c
04
07
f8
f7
ee
ef
f6
05
ea
17
ef
eb
c7
05
fc
f8
09
ed
05
ee
00
ef
0e
07
ed
2a
05
05
e4
00
03
00
01
02
f5
fd
d4
f4
06
2f
13
e9
fc
0b
00
0d
f1
f3
ef
ff
de
f5
09
01
fc
ed
1e
f8
ee
f0
02
23
f7
f2
f2
12
f8
f6
00
dc
01
03
ff
06
e6
ff
09
f4
22
02
f9
09
ff
f2
fa
07
f2
00
08
0a
0c
0c
f5
06
07
f7
f0
0a
e2
05
07
f4
1c
fe
fc
f4
f0
17
01
fa
ec
03
0d
fb
04
0e
04
e5
f2
fe
0c
06
ff
f9
f3
ee
e6
07
0b
04
14
f3
f6
ff
fd
e3
e1
eb
ff
26
0c
0c
fe
ef
ea
f1
f4
fa
d3
fd
0b
f5
04
06
ed
f8
f1
00
01
00
fb
fc
f5
0d
06
10
fa
dd
f9
08
fa
04
f4
12
fa
06
08
fd
e8
21
08
04
f7
0a
fa
fb
0d
fa
fe
16
ff
f7
e7
fc
f9
f4
ea
14
f5
27
04
00
00
f8
ff
fe
fa
03
fa
26
12
fd
16
05
04
f1
13
f9
ef
0f
02
06
09
05
12
f4
ea
fc
dd
14
ed
fa
06
e9
09
00
21
02
fd
e7
08
fc
e9
03
e3
e9
3a
0f
ee
0d
13
f7
17
fc
ef
0b
0b
f4
f9
15
13
17
fc
05
05
19
15
06
03
f7
ec
01
07
06
f2
06
04
00
02
f6
00
06
ea
fa
f9
f8
01
fc
f3
0f
53
fb
03
1b
e9
16
f3
14
14
08
d4
0f
fb
ed
04
f9
34
f3
f0
01
eb
07
eb
00
f8
08
10
fc
f4
f4
ff
df
fa
f8
06
e7
0e
fb
15
16
05
f2
e4
fb
f9
00
fd
1c
00
fc
fd
09
08
0c
fa
08
03
f9
0d
10
19
13
13
0f
f5
e3
e9
0b
f8
ec
13
00
f5
f1
e9
14
01
fc
11
11
fb
f3
06
f5
ff
0a
0b
ed
f1
0c
08
0f
0c
fd
fe
0f
f5
f2
f7
20
03
f9
fd
19
5d
08
f0
1c
07
ff
02
f8
f1
04
fd
f9
00
fc
07
f3
03
1d
01
fe
0e
1d
08
13
fc
fa
f1
0a
05
0a
09
ef
f3
ed
00
0d
fd
ef
fd
1e
1f
f3
06
07
28
f8
07
f3
fa
01
f8
fb
02
ee
07
f7
07
f7
09
0a
09
01
ed
09
fa
04
e3
f0
19
f8
fa
f1
da
0a
1b
0f
03
fb
d6
e7
10
26
f7
f6
11
08
0b
05
08
f7
0a
11
ef
14
1d
f7
06
f5
fb
ff
1d
f2
0b
ed
ff
e8
02
10
11
04
13
07
22
f6
25
04
1a
fe
de
ff
f2
f7
f4
08
08
fc
0d
06
05
0a
f4
ff
e0
1c
04
e6
ee
09
e8
f3
00
08
f3
fd
f9
0e
0d
29
1a
04
fe
09
fb
11
f4
ff
18
09
fc
f6
f8
03
f8
f7
f8
0a
07
e8
f3
fa
ff
18
1d
ff
fc
04
fe
0d
f7
f0
10
18
14
f3
e6
1d
0e
eb
eb
0f
f5
e6
eb
04
fa
ee
fa
ff
f1
00
e2
09
ee
00
f0
ff
08
13
08
01
f8
06
f5
f7
eb
21
dd
f3
eb
0a
fd
1b
dd
08
fb
10
f7
f1
e8
16
2b
d7
00
0c
07
e9
f7
ee
04
03
13
0e
fb
f9
f7
10
09
e9
21
ed
f5
18
08
0e
f3
f5
fa
09
00
0a
04
09
f3
f7
fd
00
ff
f1
f4
f2
ec
00
0b
ea
f6
0f
f6
11
07
02
02
f8
02
17
00
f4
f2
13
fa
0d
f0
fc
f8
04
ff
07
10
0a
18
10
02
05
fc
e2
f1
f6
13
41
00
e3
e8
fa
eb
e8
05
24
f0
14
38
04
18
fc
f5
ec
ff
ec
08
2c
2e
f8
15
11
20
e3
0a
03
e2
0c
11
fb
fd
fe
e9
f4
f6
f6
02
0f
f6
fd
f0
00
f1
e2
10
06
08
f4
09
01
0b
fe
d6
ed
1c
15
fc
02
00
fa
16
23
10
f5
1c
03
f3
26
0e
03
1b
fe
f6
0b
09
f6
f6
02
07
0b
04
f0
12
08
ff
e9
fe
16
fd
e5
0a
ef
05
0a
f0
f8
02
0b
0d
06
0a
fb
f1
1e
e0
07
23
0e
eb
e6
07
d4
ff
16
f5
f0
0c
04
10
fb
f3
fc
eb
10
f8
02
0e
ed
06
f1
ef
fc
07
0e
06
fd
0b
ee
f8
09
e0
0e
f0
ee
f8
fa
00
0f
17
f9
fc
0c
ff
02
f8
ff
09
0f
05
ef
1e
22
00
fe
fd
04
10
de
0b
f9
0e
09
fa
01
fd
e9
f4
0d
f9
f3
fc
04
1e
fb
09
fd
f5
1a
f3
fa
08
f0
03
10
06
28
16
1b
10
0d
0d
00
09
01
f4
08
0a
d8
0c
0c
f9
07
02
fc
ed
fb
f1
f8
fa
0f
ff
10
07
f0
f2
13
e8
e9
ef
0e
0b
0a
fb
04
0d
fa
0e
04
fc
e1
eb
fd
10
f5
09
ff
1b
fb
12
fd
ff
08
0d
02
00
fd
e5
07
21
0c
00
fb
f5
f7
fc
00
f7
17
f0
15
0c
f9
e6
01
e1
1a
f6
f9
0d
0b
f2
e6
22
08
05
fd
1c
ee
07
f6
ff
e6
e7
f8
17
f9
1b
0f
11
fc
f2
15
e6
f0
09
0d
fd
f8
05
ea
18
e8
28
02
13
e6
00
00
fb
ef
e9
f1
e1
11
0c
fb
0e
fa
01
0a
f9
14
02
dc
e2
21
10
e0
fd
1a
05
f2
fd
04
f7
01
fa
10
17
ff
fc
09
f7
20
08
fc
ed
f0
1d
0a
09
03
f8
fe
02
ea
03
ff
f1
f1
ff
03
fb
04
23
2a
ec
05
09
0e
0c
0e
1c
fc
04
ee
e8
00
fe
ee
04
e9
08
0e
fa
fc
0e
f5
fe
05
f2
fa
1e
01
03
07
f1
f0
0a
19
e4
d9
0e
f3
f8
0d
02
04
20
0f
1e
f5
05
fd
ea
f8
10
f3
1c
1c
08
06
f8
18
f6
ed
fe
0c
1a
01
f4
eb
03
0e
fa
0e
fb
de
22
02
12
01
01
fd
03
eb
f1
15
f7
0f
16
f3
04
ee
f1
fe
21
ec
ff
07
0a
0a
1b
12
ff
f6
01
f8
06
f8
d3
12
f2
fa
0a
00
0a
ed
0f
ff
f3
0f
ec
ec
01
f6
0a
f5
ec
f2
d4
fb
ed
e2
f4
06
16
31
f6
e2
fa
2a
19
e3
0c
fd
f3
0b
e9
03
f3
04
f7
0d
10
00
02
16
1f
f1
e9
fe
0f
fa
fb
05
ff
03
00
e4
dd
fe
f6
0b
22
02
0c
ff
f9
03
0a
0f
05
1b
05
16
f2
f0
f3
08
01
15
f5
f4
12
09
f5
ef
15
fd
0b
f1
12
d7
fd
02
d8
01
f0
ec
06
f4
f4
0d
26
0c
09
20
15
f5
fa
09
f2
fc
ff
04
12
23
f9
e1
0f
1f
f9
f3
0a
ea
20
fe
f3
e4
fd
ee
f4
19
19
05
0b
e5
fb
13
f3
20
12
11
f2
e8
0e
03
0b
02
eb
fa
e2
08
f7
01
ff
fb
18
ff
0a
f7
1b
ee
ff
fa
0a
f8
fc
1c
24
fd
e9
fc
03
08
09
d8
f7
09
dd
08
f6
d6
f8
01
f9
0c
02
05
f1
09
df
06
f5
f1
07
f5
eb
13
f0
08
ee
ec
0a
07
1c
04
09
d4
ef
f3
1e
f3
ff
13
f1
0b
13
1a
22
d9
fe
1a
dc
14
f3
de
05
03
0f
07
f9
f7
05
19
fc
0a
f3
17
f6
15
fd
f2
14
19
0c
fd
f5
17
fb
fd
f5
fc
02
24
14
07
18
03
08
ef
ee
fa
17
0c
06
0b
00
0d
0e
00
00
f0
1e
fa
08
09
ef
eb
f5
0c
05
fd
f8
00
fa
e8
0e
09
e6
ec
f2
0f
1d
f3
ed
fa
0c
f5
05
fa
09
ef
01
05
fd
fc
14
fd
f3
fb
fd
27
eb
06
f6
09
d6
05
f7
fa
e8
16
0a
09
f8
f2
0a
02
dd
ff
02
de
02
1a
de
04
00
f1
11
0d
fb
0d
15
fd
e8
eb
f8
10
01
08
fe
ea
f2
00
df
05
f5
19
fc
f7
13
f8
f8
05
14
11
09
0b
16
09
f4
05
13
0e
00
05
00
0f
f3
f4
e9
ea
f2
fe
05
18
ef
13
fe
f8
f4
06
01
f3
10
0d
1d
02
fa
02
0b
eb
19
e7
00
e8
0c
f0
17
f6
f8
ea
fe
f9
17
f9
0e
e8
0e
0e
fb
0e
fc
ff
04
f9
02
22
0a
f5
0e
00
da
f9
e4
11
02
1a
e9
ee
0a
13
1c
05
10
f3
fd
0f
2f
12
ec
e9
03
fd
2c
0c
08
fd
08
12
0d
09
f9
f2
eb
e9
fe
e6
29
09
ef
f5
13
fd
01
fd
f9
17
0b
f2
00
0f
02
e7
1f
fa
fe
01
00
08
e9
fe
f5
fd
0d
e5
fd
ff
0e
02
1f
04
16
dc
03
fd
ff
20
16
e4
0a
f5
18
d3
01
01
f6
ef
da
fa
1c
1f
0e
1b
f4
08
ef
04
f6
eb
f0
d4
0a
07
f2
08
05
18
f8
07
e2
f5
09
ec
16
f2
fa
1c
15
04
13
f4
fa
f7
f9
12
2a
fb
14
f0
02
fd
19
2f
0a
ff
19
0a
09
2a
ee
e9
f6
f1
05
1c
f8
fe
e7
ce
04
ea
0a
f9
06
15
0f
f5
0b
0a
09
f8
0d
02
17
fe
fb
04
22
0e
f1
05
f3
f9
f5
ed
f8
1a
e1
f5
f7
1a
02
fe
0c
f9
f5
f5
07
ff
08
d1
19
1e
03
09
fe
0b
fe
05
e7
0b
0f
1c
eb
03
fc
eb
0c
fe
09
18
e2
02
ff
0f
11
f8
11
06
03
1f
f1
08
04
06
e5
fa
ef
ff
ff
19
e6
19
fe
f5
03
12
f3
f8
ee
fa
fc
fe
e3
f2
12
ef
09
01
0a
14
fe
05
05
12
08
07
00
dc
f8
18
f9
ff
fe
f4
f3
e0
04
f4
17
17
f6
08
08
22
08
e8
06
f1
0b
fd
ee
f6
ff
f5
06
f3
1c
02
0e
df
03
03
e7
1e
05
e2
df
ef
ea
fc
e4
ee
14
d4
ed
fc
fb
ea
ee
02
04
27
ff
06
d9
17
02
f3
00
03
14
f3
fa
1d
05
e1
0e
2e
f6
16
13
eb
e2
13
31
e9
00
20
fe
0c
f9
fb
f7
db
ef
01
fd
29
03
ff
03
14
f3
2c
e5
14
0a
0b
07
07
fb
ff
ef
eb
ff
fd
1f
0d
e4
19
e7
df
fd
d4
18
dd
00
e7
0c
fa
db
fa
f6
12
ef
e4
fa
05
e5
f6
01
23
11
db
f1
e3
24
f8
0f
f6
21
0a
10
05
fe
ed
fd
05
f9
f4
12
fb
12
09
fc
fb
fc
cd
fa
0b
06
11
15
09
f0
f9
19
fb
05
12
0e
0d
e6
05
fa
19
0a
f4
14
1b
f7
15
fe
f4
03
f9
ed
0a
fb
ee
02
06
03
01
15
f1
da
0a
0e
0c
dc
f4
10
ea
f8
0b
f7
01
01
ef
08
f4
ed
f4
0b
d9
05
e7
08
ec
0f
13
e6
05
fa
01
f2
db
ef
10
13
09
08
00
15
0e
0f
ee
fc
07
ea
fe
f4
08
ea
eb
0c
2d
ee
e1
ee
da
0d
de
f9
05
fd
f7
f5
03
05
f5
fb
08
16
ed
fa
eb
0b
09
f3
fb
ec
ff
f0
04
11
06
0c
f9
0b
02
0e
0a
02
ff
ea
f3
f1
0a
11
0d
09
fb
f6
09
fc
10
ec
18
f5
16
02
10
ff
fc
ee
f2
02
05
d8
0e
f3
f2
f8
f2
02
0c
f5
e2
f1
0b
f9
f9
f0
00
0d
e7
ea
11
f2
05
fc
02
0e
09
01
02
2c
fe
f1
f3
e7
f5
e5
01
f1
f9
1a
ff
20
0b
fc
06
ff
fe
ea
13
ea
08
00
e0
fb
1a
e6
0b
09
0f
1c
fe
0b
0b
fc
06
13
00
06
e8
0b
f7
f8
05
e6
0e
fe
ea
06
f9
ff
fd
0f
05
11
f3
06
0f
17
02
f9
0d
0e
ff
04
df
06
fd
0e
f6
f6
fc
f8
eb
04
23
0f
0a
0a
14
fb
fa
2a
02
10
fb
fc
10
0a
11
f3
fd
fa
f6
f8
01
d4
f0
fa
e7
12
13
e5
0c
1a
e3
ff
f2
22
fb
15
ea
12
03
1e
fd
f1
eb
ff
03
f2
fc
f9
05
07
f3
da
f3
f3
15
05
08
00
e9
08
0e
1b
ed
06
08
12
f9
fe
0b
ed
14
f0
fc
10
0c
e0
01
d7
04
fd
04
0c
e8
0c
0e
15
1b
0f
0c
0a
06
f1
05
fc
d9
ff
13
03
f2
f1
0f
f8
ee
09
00
00
07
f0
07
e0
16
f8
12
f1
dd
ee
0b
f7
fa
fd
f3
f0
04
fb
f3
f9
f2
0d
00
f8
f9
e6
02
fd
ef
07
fd
ed
03
fb
f3
04
0b
1a
0c
f3
ff
f8
f9
f9
08
09
eb
15
05
f8
f9
16
20
f4
03
19
02
f2
13
fb
f8
ee
f3
f4
03
f2
16
08
fa
18
fa
e6
05
0b
f4
f1
0d
e9
05
01
e4
f6
f6
00
eb
ee
1a
f3
01
f8
fe
ec
00
1c
ef
00
19
fa
ff
f0
ff
fe
17
fc
2c
d7
09
fa
ff
01
02
09
08
04
0f
08
02
ee
05
11
e9
0e
00
0b
0c
fc
07
ea
22
f9
e4
09
df
02
11
11
fe
02
01
13
fb
e5
0a
ec
0c
07
fe
fa
f7
05
10
03
ee
ef
01
06
16
06
fd
f0
f0
f0
09
ed
fa
0e
0d
fe
0c
03
fc
f3
09
ff
f8
0b
ee
f3
07
f4
16
f1
09
10
df
06
f9
f1
20
f7
02
f9
f2
f4
00
ee
1e
14
fc
03
0d
fd
e9
ea
03
ef
15
ea
e3
00
0a
fa
ea
04
13
fa
fc
00
1c
07
05
e4
28
09
0a
12
f8
0a
1b
0b
10
ee
f5
0d
ff
04
10
15
20
09
12
e7
12
08
06
ee
01
21
f8
01
f3
f5
09
04
09
06
0a
fc
f8
f7
f0
f4
04
12
1b
f2
f6
fb
dc
05
17
0c
06
03
ff
11
15
08
00
00
06
02
08
fb
11
10
04
07
f6
fc
15
f6
0b
f0
04
03
e1
00
f5
fc
fe
f2
fb
0a
00
19
f5
00
09
ed
17
ef
06
ff
03
fb
fa
e8
07
eb
0c
e3
0a
01
04
28
2b
f7
f3
f6
ef
11
fb
ef
ef
fe
18
fa
08
12
f7
01
0b
12
fb
ee
e7
fe
ff
07
fa
f1
15
f1
fa
03
02
13
0f
11
e5
f9
07
02
05
0f
e7
f1
f3
ff
05
eb
14
f4
fa
0a
f6
04
0a
fc
fe
e9
06
fb
00
13
fc
02
f6
f1
f3
13
19
0e
f3
e6
02
fb
ef
f9
0a
04
05
fb
17
f4
0f
fd
f9
f3
0c
f0
fe
22
15
11
ee
e6
fc
2d
fa
10
25
eb
0b
e9
f7
ef
0b
fb
f9
03
12
13
fc
00
e4
03
f7
f9
e2
0f
e7
02
14
f5
fb
05
dd
f5
0d
fa
fc
0f
fa
00
f3
19
f1
04
15
14
06
f0
f2
0b
0d
f4
e6
0c
ff
03
0e
04
f8
fc
ff
f9
f7
0f
d2
11
00
15
03
f1
0b
03
01
07
f8
f9
06
fe
09
04
e4
f5
0a
01
14
0b
16
0a
07
02
12
ec
1a
19
0c
01
07
04
f2
01
07
f3
e3
f9
18
fa
f9
0a
0b
07
f9
10
18
02
de
ea
ee
0f
00
d6
12
00
ef
19
f8
0d
ea
0c
fb
fd
0a
03
06
fa
0a
10
08
ea
f6
04
fa
fc
f2
1e
f9
ea
14
fa
12
ee
f7
ed
dd
f9
f8
e9
e8
14
f6
f7
04
ec
fa
f4
f4
12
f3
00
ff
df
fd
01
eb
ec
f9
f4
f6
03
fd
0c
15
f9
fb
0f
03
1b
f8
01
0e
16
f3
15
0d
e0
0c
fe
f7
03
f8
12
f8
15
17
ef
fa
e5
02
0a
e7
fd
16
f5
01
fc
11
11
1c
06
ff
06
0c
04
18
f6
03
dd
ed
f3
10
fc
08
0d
f6
0e
0b
10
f3
f3
05
02
f6
e3
0c
f7
03
f2
02
f3
f6
e3
ff
f8
25
09
eb
e7
0b
ff
f2
1a
13
0c
f6
08
fc
f2
13
09
07
06
14
f6
0f
f7
fc
16
f0
fb
0c
e1
15
f1
1b
fd
e6
f2
fe
e9
06
02
13
ec
21
1f
0a
0f
29
2a
0b
dd
07
f4
16
ec
ee
04
03
08
0d
0f
f9
15
f4
18
13
e3
1f
24
16
ef
fc
11
07
09
ff
13
f1
f9
16
14
dc
f9
05
f2
f3
f2
fe
fd
16
11
02
fc
20
fd
02
05
03
03
09
fe
15
18
10
db
12
fc
03
fd
02
12
06
22
0b
e3
18
e2
ff
07
2e
1a
f3
11
0c
0b
f5
21
0a
fb
01
f9
f4
f0
f2
02
f6
d7
ea
fd
fb
f4
f7
0e
f0
15
f5
0a
07
05
04
f9
08
1a
ec
03
01
02
14
e6
f3
01
dc
f2
fa
08
0d
de
1c
02
ed
e9
01
dc
f9
04
03
fa
f2
df
fc
09
08
ec
0b
0e
f2
00
07
0d
1f
d6
ee
f2
db
e4
f2
16
f2
ff
fe
19
0c
27
d1
02
f4
f3
04
d8
22
00
03
07
14
02
0d
f3
f2
f7
ff
00
0b
07
ef
e8
29
f3
17
fa
f9
f5
fc
fe
f3
14
1d
e6
01
fd
ea
0f
e2
ff
0c
f7
0a
d8
05
14
fa
22
07
f7
f5
fd
1b
00
25
fb
07
0c
02
03
0c
fe
05
07
1c
03
10
19
04
03
f8
29
0d
11
08
07
e5
f1
0a
cf
f5
05
08
fc
fb
17
e5
0a
f5
eb
f2
f6
14
05
e5
09
eb
03
e8
ee
ec
13
0e
1a
de
fe
0e
01
14
fd
04
02
f9
fd
05
e8
e5
1f
fc
28
07
fd
01
14
e0
fb
0b
02
fb
0b
ef
f9
ec
e9
06
0e
08
f7
0c
08
ee
e7
f6
f8
04
19
fb
10
ff
e5
0f
f0
1b
ed
ec
03
09
0b
ff
1a
ff
28
ed
fa
1e
1a
08
1c
04
e4
0e
ed
25
eb
ff
08
04
03
f6
11
0f
1d
fa
17
ec
07
ef
fb
ff
f8
dd
15
0a
0b
07
1a
16
05
0b
fd
08
eb
0c
ef
0f
05
f9
d9
e2
fc
fc
e2
f3
0a
e2
ea
f9
f4
16
f4
fa
08
fa
13
13
e6
f2
ff
0f
ea
09
f2
06
fb
fe
e5
05
0a
0d
eb
0e
1a
e7
18
0e
fd
ea
22
09
16
18
f2
fb
0c
06
02
e9
f0
fa
14
e0
03
e5
f7
f1
f4
00
ef
f8
12
fa
0f
00
db
e7
f2
0e
fa
11
fc
0b
e0
2c
0b
fc
03
18
05
21
d6
1b
fe
0c
f4
09
1f
02
29
fe
13
fb
eb
09
fd
0c
f8
fa
0b
0a
0f
e4
09
0a
fe
e2
f5
16
0a
d9
fb
14
f9
ea
04
fe
13
fd
f8
07
09
22
e5
11
12
f2
05
f9
21
fa
ea
01
0a
09
08
0c
e8
28
09
04
08
f8
e6
ea
03
2c
e7
ff
03
13
18
f7
f8
ec
1e
05
fe
fd
f2
f7
fd
0c
0e
0c
02
ed
05
06
05
df
f5
10
15
ee
e1
0e
01
f3
fe
07
f6
07
0c
11
fa
d1
08
11
06
03
05
fe
05
08
d5
14
ff
e7
09
ef
f0
e3
f3
18
f7
03
f8
0b
14
fd
1a
fa
f8
0a
f9
fb
18
13
e6
0a
eb
0b
0b
f4
09
e9
fc
d0
ff
1e
f5
0f
e9
f7
e6
f6
e4
0d
ef
f5
f4
fc
18
08
ed
e7
0d
13
ed
2f
ec
fb
f9
00
ec
ea
fa
0b
13
0a
ff
fb
0e
e0
fd
e3
dd
fd
fd
f6
22
14
02
ef
f3
f2
07
e8
ea
01
1e
f4
31
10
e5
ef
f0
0c
f1
0a
02
ec
db
1f
db
eb
13
f3
09
13
f6
f2
ee
f7
18
fc
12
19
0e
03
fe
03
f9
f2
fa
01
13
10
ee
04
05
eb
2c
14
ee
26
fe
03
fc
1e
f6
f6
f9
07
08
0a
03
e7
d8
f3
15
f9
1c
fb
f9
03
13
ed
06
ff
f1
0e
1f
04
fe
f6
06
f1
00
0d
f4
14
ec
03
ef
05
00
14
f6
ff
02
12
0a
f2
fa
06
f1
04
ee
1c
09
d8
13
1e
dd
19
0a
f2
15
24
fe
16
f1
11
f1
e8
f7
0d
fb
01
13
f7
f8
02
02
0a
0a
0b
14
16
ed
00
f1
ee
eb
0a
01
ee
0b
fe
07
1b
f2
10
04
ee
fb
f9
08
0d
ec
e9
ec
f3
f2
e8
05
f3
18
06
04
0c
f6
1f
f5
09
0e
02
1a
e9
00
0b
05
f3
0c
f4
e9
05
12
ec
2e
0f
fb
00
e6
25
ff
ed
0d
09
18
f2
f4
f7
ee
06
f8
f3
19
0e
00
0e
10
fc
00
f5
15
f5
e8
fd
f9
f0
eb
ea
16
02
f0
f3
f9
12
0f
02
f4
0e
09
05
f5
1b
f0
f8
02
f1
15
00
f4
16
f1
fb
0f
0e
0c
1e
18
05
0d
0b
05
ed
ea
1b
fc
f0
d7
ec
0e
d5
eb
0f
0a
10
f1
e6
ed
1c
05
06
fe
02
1f
fd
10
09
02
f4
fa
ee
11
15
e8
07
04
0e
02
03
08
f1
04
00
0d
fd
0e
f3
03
0b
ea
fb
f9
f7
01
00
f0
e7
fb
fa
fb
ef
fd
e5
17
0f
fd
ee
18
0a
08
01
f3
0d
0e
06
e7
f4
14
1f
1f
08
15
fb
0a
f6
fc
11
f6
0c
05
e6
f8
0a
f2
04
19
01
11
0a
0c
05
0f
fb
0a
f0
12
fd
01
ef
14
f3
fd
06
fc
f9
e2
ff
ff
f4
0d
0d
ff
ed
fb
06
08
19
06
05
16
fe
ee
f4
0d
06
fe
ef
0c
01
03
fb
08
d6
ea
14
03
e8
1c
08
12
06
03
07
f2
e2
fe
26
f6
03
18
f9
12
f4
05
f0
f3
0d
f0
05
fd
e4
ed
f1
09
fc
fc
e8
e0
e7
0a
fe
07
09
03
0d
0b
f9
17
f5
0a
02
f4
0c
f7
11
17
13
03
0b
0d
ec
1a
ee
24
f6
08
18
fc
0e
f4
fe
ff
ed
fa
12
0f
fe
f6
f1
f6
12
f6
ec
03
f6
10
0e
07
0c
04
06
08
ea
05
f6
05
0d
16
09
18
08
f0
0f
f2
ee
1f
21
fb
fe
04
06
ef
f7
f8
0d
fb
02
00
fc
01
f5
04
01
f4
e4
f2
05
05
10
02
10
29
05
ed
ef
e5
ed
ed
f4
fd
fd
08
15
13
e8
05
f9
fb
12
e6
ec
14
ee
02
e4
08
f4
fc
f6
0b
d9
e7
0f
f8
f6
f9
fc
f6
ea
18
03
f1
11
df
fb
02
05
dd
f0
dd
0a
12
02
f8
fd
f4
fa
13
0a
f1
28
f2
24
ef
0c
13
ec
ff
04
f8
f6
0a
ed
00
fe
06
05
f5
04
f1
f9
f7
ec
e9
eb
09
ef
e4
ef
0a
f2
17
13
ff
19
f8
04
13
02
03
09
e0
14
02
03
e6
13
e4
13
01
0f
1f
f6
fd
fb
02
fe
11
fd
09
19
2c
0c
0f
f6
16
00
03
1f
f7
fc
e4
fc
ff
0e
dd
09
f4
0e
f1
fe
08
fb
ee
f2
0c
f8
0e
fe
f2
f5
fe
09
f2
df
f4
f6
ec
f8
0c
f2
11
ed
11
08
fe
e3
0d
0e
fb
ea
06
0b
04
08
04
f7
09
f9
0c
f2
15
fe
01
17
11
03
0c
12
ff
ec
f6
fb
00
0c
1b
fc
06
e8
ed
11
ff
f7
ed
08
0d
05
07
e8
ff
16
f6
fa
f9
f9
11
f9
fc
0d
10
06
03
1e
00
14
02
0b
f0
f8
11
fb
fb
12
fd
f7
e6
f9
13
f7
01
0a
ff
14
0a
ed
02
21
05
e4
f8
ea
13
fa
f2
0e
01
00
10
de
00
04
fb
f5
f9
f9
1c
10
f0
16
ee
10
19
06
f4
ea
07
0b
f6
d0
0e
ea
34
02
07
01
04
f6
0e
e0
02
f6
f0
f6
02
03
f8
13
f2
04
f2
f4
05
f6
02
f4
0b
00
f2
0d
05
08
05
08
fb
fd
06
17
f4
0c
0a
02
f1
0c
0d
0d
e8
ec
00
02
09
14
09
f4
0d
f6
03
05
21
e7
17
fc
ea
0b
03
f7
f4
f7
17
fd
fe
0f
1c
04
1f
04
11
f1
fb
f5
ed
11
f0
f6
0b
e1
19
ff
12
f4
09
09
05
02
fd
13
10
0e
09
03
fb
0b
16
e4
04
05
0d
ef
26
05
11
10
04
0b
17
f9
e9
fe
18
f0
f3
f5
ff
10
fc
ec
1e
ec
00
12
f1
07
f6
0d
09
e9
ff
02
f7
e3
ff
f9
f1
0d
f3
0c
19
06
fc
e7
ef
eb
1d
0a
1f
08
ff
fb
03
df
0d
fd
10
0a
dc
03
ff
ff
e0
f1
02
d8
16
19
0d
02
f1
10
e8
10
1f
11
0d
f5
e5
01
fe
d8
fe
f4
fd
0b
fd
fc
f7
00
fd
e2
0a
ef
f4
f0
11
ff
d0
21
fb
ee
e8
e9
ea
13
f8
1c
00
19
01
d9
eb
0e
f4
09
de
0f
fe
fa
f9
10
0b
fd
f8
f6
cf
ef
06
e0
f0
f7
00
09
03
2c
fa
f9
00
ef
eb
f6
f6
e8
08
04
ff
fc
d7
0e
0e
f6
03
f7
03
09
1c
fc
fe
01
e0
f1
02
fd
04
1c
ea
ec
09
16
0b
ea
fd
f5
0e
15
04
12
0b
00
16
19
f1
11
25
08
ec
15
16
e7
00
f7
0b
eb
06
fa
e2
03
ff
0d
fa
17
e6
f2
01
03
f1
f7
05
05
ff
2c
16
fa
0c
02
fd
fc
fa
16
18
f6
fe
0b
e1
16
f9
f0
f0
f5
26
09
0f
11
09
02
02
fc
f6
0e
f8
00
f2
10
f2
e6
f1
15
ff
e0
ea
00
fb
f9
f9
04
f4
d9
0a
f9
19
08
f1
00
05
e4
ee
04
f1
ff
eb
f3
ed
07
20
0b
06
0e
19
f2
f7
00
f0
06
05
03
09
0c
f9
eb
fb
d8
f7
fa
f6
fe
fa
f9
1a
00
0b
ed
f8
f8
e9
f2
fd
f6
07
fa
09
f5
f0
0e
f4
19
18
ef
fe
11
f8
1d
f3
09
1c
24
f9
0f
03
ef
e8
13
0e
18
ef
02
08
f9
df
12
06
e1
fb
1c
ec
fc
19
f0
fe
fa
fe
14
20
0a
fd
0b
11
2b
05
ea
0a
06
df
01
11
fd
fc
fd
17
1c
ea
0d
02
f0
f7
02
1c
f7
17
0b
05
32
0b
ee
e7
07
fb
e0
fa
01
06
0a
fd
14
ed
f9
fb
0a
fe
f3
05
fd
e0
04
f9
f5
06
38
ef
1c
fe
0e
fe
08
f6
18
26
00
1f
ef
f8
fe
0b
f2
0f
1f
f7
f5
f4
12
f9
f6
e1
06
07
0c
d7
12
f6
fd
07
13
09
f3
15
03
f4
07
1e
ff
fe
e5
05
1d
fa
1f
fd
02
08
f8
0d
fe
01
07
f3
0f
f8
f9
08
03
ff
00
1b
20
e8
1a
1a
e9
e1
09
00
08
03
11
f0
26
e3
ff
f0
e5
f7
07
0b
03
e1
ec
0a
02
fe
11
02
06
09
fe
04
f5
f3
ef
0e
0d
14
07
11
f6
f5
f5
04
d3
fb
0c
ff
f4
20
1c
ff
f6
f4
e8
1c
ec
fe
f9
06
10
07
13
f9
0c
29
01
14
06
e7
f6
fe
fe
e8
10
ef
ff
0a
0e
11
ef
fb
ed
01
ef
fd
fe
f3
ec
05
04
fe
fb
de
fc
e9
10
06
04
e4
01
13
f4
0a
f8
f7
cc
0b
fc
24
e8
19
0a
f5
0a
02
01
17
07
01
12
0b
ee
03
02
00
0f
00
30
fb
0c
02
f4
fe
e9
fd
f5
12
f4
fe
1e
12
fe
fb
11
14
fe
0f
f1
0f
23
03
f7
07
f7
08
01
01
06
ff
1b
f5
e6
ff
e4
1a
1d
01
fe
06
14
ea
fe
00
fa
1a
f1
fa
fc
13
1a
ef
0e
0a
ef
1f
12
0b
0f
f6
0c
0f
fa
05
08
db
10
f8
e5
09
09
fd
f4
ec
f7
06
f6
fd
fe
1c
10
fe
ff
11
fc
09
f4
e5
09
02
f5
18
e5
e1
f3
07
f5
0c
ed
0c
03
05
2b
01
ed
13
f3
10
fb
f3
f0
13
f7
05
fe
fe
08
f5
03
12
f7
f3
0b
04
04
06
02
08
eb
08
ff
09
f9
14
e4
0e
04
01
de
ea
0c
08
fa
0e
00
fd
fc
f0
fb
03
07
10
ed
fd
0b
0a
e6
ee
22
05
07
f9
02
03
0a
05
0b
11
1b
f9
ee
1a
02
f1
20
08
ed
00
eb
0b
1b
e0
f9
f8
15
ff
11
e9
12
fe
1c
00
12
04
f0
fe
fa
ff
23
fa
25
13
03
f4
0d
09
1c
f4
e1
ef
0e
01
fa
17
f9
f4
05
0a
0a
15
fe
03
f1
12
ce
f7
05
18
da
f5
e7
11
0c
00
00
fb
01
f6
20
0e
f4
ec
e6
e6
06
f5
f4
1e
e7
0e
fb
fd
dd
0b
eb
ee
03
fd
17
ee
f4
e5
d6
0d
07
db
da
0b
14
06
01
2a
09
f6
0c
fd
00
f0
e2
16
00
f9
e6
07
19
fa
14
02
01
03
f6
10
1e
06
12
05
0a
00
fe
00
ed
ef
f8
0a
fb
15
e9
f1
00
fd
16
02
f6
f7
22
cd
f0
f5
05
1e
09
e4
f5
f7
0b
dc
fc
fb
fa
1c
ff
f6
f3
f4
e9
0f
19
0e
ee
05
e7
0b
02
05
f3
0f
fe
0b
e4
0e
f2
ee
04
f3
f3
06
02
0e
ef
11
09
19
fb
06
fc
f6
02
fc
05
ea
10
07
04
10
25
08
f9
eb
09
ea
17
e1
fd
fa
07
ee
fb
08
0f
fa
f2
16
06
0d
eb
23
ef
1c
ef
d7
09
fb
fb
f3
17
f1
f7
17
f4
19
f9
00
f9
fb
05
16
ef
f8
f6
f5
f0
ef
05
f1
06
f6
11
f1
ee
eb
01
08
e6
ef
13
15
13
e1
f7
13
13
d3
0c
f1
ee
f6
f5
f2
00
ed
fc
3c
09
0b
e3
01
fc
24
ee
0f
ed
e6
14
1a
1d
16
11
f5
17
fd
12
0c
09
18
f6
f2
f0
fd
03
00
fb
10
0c
0e
13
04
f5
fd
ef
04
e5
f9
fb
05
fc
02
0d
ec
e7
f1
05
ff
0a
f4
fb
fe
1c
ea
ed
06
0d
00
fd
ec
f2
ed
e9
1a
fb
df
09
08
18
fd
10
15
00
0c
03
f4
fd
03
ef
f9
08
fe
01
e7
01
eb
f5
ee
e9
e8
ff
fa
fe
04
04
ed
e0
14
1c
d9
fd
e9
f4
19
ed
00
f0
0a
1e
ef
08
0e
f3
f4
0d
00
1d
ff
0a
03
fd
09
14
d5
0a
08
e1
e4
1a
f9
f2
f0
07
ff
fd
df
0b
ef
fc
f7
fd
04
09
0d
de
0c
27
fd
f3
fc
fb
15
fa
fa
00
06
0e
e9
fb
0f
13
0b
10
f0
03
10
f8
e4
e3
fb
f6
1e
07
07
f2
fb
07
0c
07
f7
1a
f8
0f
06
ef
09
17
0a
06
0d
f9
ed
02
04
f8
f7
07
0e
05
22
fa
24
fe
e6
ff
01
fb
fa
ff
f5
ef
02
e9
fd
f7
01
17
05
0f
d8
05
f1
fa
f8
f2
e6
eb
f5
11
d7
0d
dd
17
ff
01
08
f3
02
f8
f7
35
f6
16
f9
f1
0b
f3
f7
ec
fa
2f
0e
f2
11
fb
02
00
10
0b
14
f5
e7
0a
f3
fa
fd
f8
0f
09
0b
06
07
04
01
e9
fe
fb
04
0e
0a
1e
14
cb
f0
eb
db
04
f9
f4
04
fe
13
ed
02
05
f3
14
df
f4
0b
ef
01
f7
02
e7
1b
17
0b
07
19
ff
f6
00
f0
06
01
ec
fc
0f
07
f5
ea
f7
e5
0d
ee
0d
08
0b
0d
01
fc
0e
f8
e9
ed
15
e8
0b
02
f8
fe
f9
f5
ec
0b
05
02
0f
f8
02
1b
09
05
18
1a
00
0f
ed
12
ed
1d
fe
fd
09
19
fe
0b
f9
f8
fb
15
0c
07
f8
ef
08
00
07
f4
04
00
01
0e
f4
eb
e2
f0
ff
0c
05
f2
f0
0b
ef
ed
10
f1
f6
fd
1f
0c
07
f1
10
28
e8
e7
09
e9
0c
f7
02
05
f4
1a
fa
0a
fb
0d
f7
06
13
07
f9
07
ff
fe
19
0a
1a
09
fc
ee
10
f8
1f
05
19
e6
f3
02
24
fe
f6
05
03
0d
fa
f0
14
02
04
fd
f6
eb
e9
eb
11
f3
14
05
f5
0f
ef
0f
13
0e
01
fb
07
1c
10
f3
00
00
04
0e
f9
f6
fe
03
02
fb
f2
fb
ec
e5
fb
07
01
e6
11
06
ee
f8
0f
11
06
eb
fa
fe
12
e6
19
01
0b
fe
fc
13
18
fb
f3
08
03
01
e2
06
fd
02
28
0c
f6
0e
f4
01
0b
22
0a
fb
1c
25
f6
e4
f0
f5
e6
ff
06
fc
12
24
1a
07
fd
fa
22
02
e6
03
f1
11
20
12
0d
07
f0
04
de
f6
ff
05
f9
f7
1e
ea
df
ff
14
01
f3
fa
03
01
0e
fe
0c
d6
f9
e7
e8
ec
01
00
fa
0b
0b
03
ea
00
f9
10
07
f8
e7
0e
f0
e1
fd
d1
f3
18
03
2e
fd
14
21
f2
fa
f0
02
f8
f2
fa
e7
0b
fa
00
09
04
1e
f3
fa
f5
f2
fd
0c
06
10
09
ef
00
f1
03
0c
08
fc
dc
16
ef
e0
ec
f6
00
0e
04
14
fd
ff
df
f5
f0
fe
03
fb
0f
0b
12
0c
1c
fe
ee
16
1b
fa
fc
ff
0a
17
f4
10
11
fa
14
01
17
14
17
ed
04
f4
fb
1a
08
fa
d5
eb
12
1b
f4
10
e7
f7
f1
e3
1b
fc
ed
f1
05
ed
20
09
0a
f9
f9
fb
f3
13
03
fb
f1
1b
f3
fe
00
f8
e5
eb
0c
00
f6
09
16
fb
e7
1f
14
0a
03
13
f1
1e
dd
04
f2
e0
fe
e8
ef
fc
ea
0e
d4
0a
07
01
f5
e8
ea
0c
ce
15
00
00
ef
f5
f9
04
f6
00
d7
0a
01
05
18
ee
e2
03
28
f8
05
e0
f2
27
09
0f
ed
e5
16
ec
12
f1
08
26
f2
0c
1e
17
fc
e4
fc
0e
0c
07
fc
f7
ea
12
e5
e6
27
db
1b
13
09
18
f7
0a
fb
ee
ff
1b
ef
23
de
06
1b
e9
11
f5
00
e9
ed
06
0a
0f
04
f8
02
1a
08
f6
12
19
fd
06
f9
07
fe
03
03
06
11
f2
28
e6
16
22
f7
eb
17
fd
1b
0f
f9
f1
0f
db
eb
06
df
ee
fc
f3
f3
18
e2
03
0f
14
23
06
00
fc
0b
d7
02
e9
f4
eb
f2
0c
e9
0b
fa
09
fd
01
23
e4
ee
f7
ff
00
03
12
09
f8
e7
f4
e2
f5
eb
eb
0d
ee
f9
d8
ff
0a
fe
0e
f7
f8
01
19
1d
09
08
01
f6
19
fc
0d
1f
07
09
04
fb
0d
00
f6
eb
13
f9
fc
f5
f9
02
fb
10
f9
13
f3
18
04
05
11
0d
2d
e7
fb
f7
13
03
0d
f8
1a
fb
09
05
fd
fc
fc
08
07
09
fd
f4
04
fc
0d
0a
00
f1
f5
1a
0b
f8
1a
0c
18
f2
d1
ce
09
d1
fd
fe
06
f8
f5
12
d8
0f
e9
f4
f2
fd
f9
ec
fc
0e
fd
08
e5
17
0f
25
0a
09
15
f8
18
f8
fc
1c
fe
0f
0c
0c
14
cd
0c
df
fe
03
03
18
1d
1f
fc
df
d2
10
ff
07
09
f9
0c
04
ff
07
0c
19
07
e5
e3
0d
e3
e8
f1
ff
e6
06
fd
05
0c
03
f9
11
19
07
02
0d
e3
05
05
fc
e3
17
0a
fb
07
04
1b
f8
12
df
dc
fe
f0
1f
1c
fd
f1
ea
02
f5
ff
01
10
14
16
ef
0b
07
f8
01
f1
05
f9
eb
0d
18
fd
08
19
fb
f7
03
06
f8
f3
06
fb
0b
12
1e
fc
e8
f7
e9
f3
f9
f9
f4
04
fa
19
09
ea
06
01
00
1c
e7
03
f9
0a
0f
d7
25
f1
fc
0a
1c
e8
f5
19
ec
04
0c
fe
fb
e3
07
08
fe
15
00
f5
ff
03
0f
f9
f7
0a
16
03
fb
29
0b
04
11
05
f8
1e
e8
01
03
08
10
fc
e4
f5
00
0c
04
de
02
10
03
08
fe
22
15
fa
e9
08
f2
fd
fd
01
da
00
00
fe
f7
08
ef
11
fc
0b
26
e9
0d
15
eb
ee
f2
f7
eb
15
f6
05
ec
12
0d
08
fc
07
ec
0b
0a
1c
f4
01
fe
0d
03
14
16
13
03
f7
f8
f5
ed
10
ee
07
09
fc
f5
fd
e7
1b
08
e6
01
ec
02
fb
fd
f6
ea
24
f3
04
e9
11
f6
02
f0
fa
15
04
f2
f2
0a
fb
f8
e7
01
08
00
f4
08
0f
0a
02
21
f5
fe
ff
fd
f0
06
e3
02
04
f4
ec
f6
12
f9
ec
ff
09
f0
03
14
0c
0b
fd
da
fd
ff
f3
f0
0e
0a
16
f7
ea
ed
16
00
ec
f6
f5
0a
e6
01
00
e3
ff
04
fe
0a
0a
f8
09
03
ee
10
11
04
0c
f9
03
f8
e2
10
f8
ff
0c
0c
11
0a
d8
f5
17
11
fa
16
f2
18
f4
f2
fd
08
f8
ee
e5
0b
fa
e3
fe
dd
15
15
08
da
0e
e3
f9
17
14
0a
f2
0b
f8
e6
ff
0a
17
f9
12
26
fa
1e
fc
17
e0
de
f0
f5
ef
19
fc
08
f9
04
f1
ef
ef
08
f8
f0
fc
f4
f7
d6
13
18
f7
15
0d
fc
07
04
0d
f0
fd
16
19
0a
09
07
e6
f0
ec
02
07
ea
21
10
01
19
f8
14
fb
0b
fa
2d
06
05
02
ee
f6
e7
08
07
ef
0e
f8
0b
1c
f7
e8
06
0c
e8
ff
f9
0a
09
02
09
ff
1e
dd
f1
fd
0e
06
0c
f9
fb
05
0c
19
01
e9
f0
0b
12
ec
1d
02
01
f9
07
f5
0a
0f
f6
09
10
ed
f7
f3
17
0c
ea
0f
03
1a
fe
fc
15
05
ff
02
f6
fe
ee
00
0f
07
02
f4
0d
e8
08
0a
ec
09
09
02
07
17
fd
dc
13
0a
f6
0c
fe
02
fc
fb
fc
12
26
0d
f4
d5
0c
d9
ea
fe
03
03
f6
10
0f
0e
0e
f5
f5
ff
08
2f
fa
0b
02
0e
f6
ea
ee
fe
fe
03
09
07
16
fa
ed
ef
ea
f2
ff
22
15
01
f6
f3
e6
f1
ef
0c
f8
ed
03
07
18
05
07
fa
e9
09
fc
fe
0a
02
0d
14
09
07
fa
df
21
00
19
f2
0c
05
08
0f
e9
01
f2
0b
04
ec
da
f5
01
14
f4
ec
ff
ec
f4
07
02
fe
18
f6
0d
f5
11
0d
ee
0c
0d
f2
fd
17
01
f0
f6
12
ff
ee
05
f3
15
0c
e6
00
fd
03
f3
05
fe
12
10
ee
0b
05
fe
fd
02
eb
02
08
09
f5
0b
17
02
ea
fb
08
f2
06
f8
0a
04
04
02
16
f6
13
fc
f3
ed
10
00
00
fb
ff
e7
16
07
fb
05
0c
f8
04
fe
0a
18
f0
10
12
f0
0a
0b
ef
f8
f8
e3
05
e1
03
fd
ee
12
15
eb
01
3d
02
fd
0b
1b
07
16
04
20
1e
e4
19
0f
fa
00
e9
16
ea
0e
f7
04
f3
ee
27
f7
db
04
e9
f5
fe
0e
d5
f9
0e
e9
f7
f5
01
0d
15
ee
1d
01
e7
e5
0d
01
16
16
ee
08
fc
26
fa
ef
0c
0f
08
0a
f7
15
15
01
0d
01
00
f4
f8
f0
f0
fe
19
e2
f0
f5
08
09
e2
1a
ef
f8
ef
eb
f9
f6
f8
09
fa
fe
05
00
ea
f6
13
1c
01
f0
f2
05
fc
fd
00
01
0f
48
08
06
1c
e2
16
06
0b
0b
f4
08
04
0f
f8
ff
f7
0c
02
11
14
0e
1d
17
ea
02
0c
09
f2
f3
ea
17
d6
e3
f2
04
ef
fa
e4
fa
0a
f0
f9
f7
1b
19
08
f4
0a
03
e7
fe
f9
f2
f1
18
01
e5
09
07
f8
15
f4
0e
e5
08
f6
fe
e2
f6
12
fc
fb
03
08
00
07
0a
e0
ec
f6
09
04
f2
00
f8
f4
ea
0a
1b
05
10
04
e2
05
0a
01
0d
ff
18
11
ff
18
0b
ef
f5
e9
04
01
e8
0e
eb
0c
1c
f8
f2
08
06
f7
1e
ff
10
ee
fb
fe
00
09
0b
da
18
0a
17
0f
f1
0a
09
f9
df
0c
fc
02
07
12
12
dd
01
00
f7
12
0e
03
fd
fb
f9
13
29
1e
06
df
ef
0d
14
eb
01
e5
0a
0d
fd
fa
13
08
0d
fe
2e
11
f2
04
2b
11
f9
f4
fc
1c
11
ed
10
08
fb
0c
ff
f3
e9
eb
03
ef
09
04
e1
f8
f6
05
e6
19
ff
f2
fe
01
02
05
03
15
05
08
f2
06
00
25
ea
01
e9
09
fa
07
fe
f7
19
f2
0c
f4
f2
0b
23
ec
f9
fd
fa
f8
f5
f8
15
ea
ed
0e
f9
03
f1
fc
06
ef
14
02
14
15
10
fe
fe
16
f4
0e
05
ea
02
fc
e0
f3
08
08
0f
f8
f8
f2
eb
04
0c
f4
f4
0a
e7
f8
17
10
fb
fb
f3
1e
1a
f7
e8
10
04
21
d8
f3
0d
ef
f6
f8
10
04
05
e0
ea
fd
fb
11
00
03
0a
08
04
f0
f0
ff
f7
f8
17
1b
ff
0c
15
11
df
1a
05
fc
11
ee
00
11
0d
03
22
33
0d
06
e1
0e
13
04
09
fd
f2
02
e0
0a
ef
e6
05
08
1e
18
fe
04
f8
04
fc
f0
f7
ff
f4
08
f0
14
e7
e5
11
f6
28
02
07
f0
28
e9
1c
f9
05
36
f5
03
fd
20
24
0c
0f
22
06
05
f1
f9
06
0e
f9
ed
0d
01
16
ef
f3
10
03
f3
11
02
0f
05
0e
0a
fb
05
f9
05
3e
f7
04
12
f9
03
f4
10
e5
22
1c
ee
e9
f7
04
05
04
13
f4
0c
02
1a
f5
0e
10
f3
f3
f7
e5
0c
08
ff
02
f8
0e
05
16
14
fb
ed
12
22
ff
ec
14
da
f7
f7
ed
ff
07
f6
ff
e6
fd
f7
00
fc
e9
e5
e1
22
18
04
13
fc
05
0b
08
e3
f0
ff
f4
e4
08
f7
13
fc
11
fa
12
f2
0f
00
ec
f9
ea
0f
0b
0b
0b
f8
0a
2e
f4
f6
09
1a
0d
18
07
e6
13
fc
04
13
00
e3
0c
df
e3
f9
01
14
e2
23
0d
2c
ee
1f
de
fe
11
10
d7
07
09
05
f1
ee
fb
04
1f
0e
04
f1
0e
00
06
ea
e8
ea
14
00
14
0a
19
0c
eb
02
0c
0d
f0
0f
f2
ed
eb
11
00
f4
fe
eb
f7
e9
f7
04
11
0f
fc
fb
07
f6
ec
e6
0d
1c
fb
d8
f2
f1
02
14
0b
f2
e4
08
ed
00
ed
e4
fb
fe
f8
f1
f0
df
00
04
e1
02
eb
07
03
08
0d
05
fb
f9
25
fa
eb
1f
18
f4
ea
fa
08
01
f8
f7
ea
f6
ec
19
eb
03
18
f4
ef
0c
08
12
0e
f0
e7
0b
0b
f5
ef
12
04
f0
09
08
e9
0e
fa
0f
02
04
ed
09
f5
1d
07
13
dd
ef
20
dc
02
0a
15
00
0c
f8
1e
16
e9
f2
05
01
00
07
03
fd
fe
08
f1
f9
11
15
19
13
04
08
02
ed
f8
01
e8
fa
f9
00
fa
09
0e
0a
de
11
07
f9
ed
0a
f4
ed
0d
f9
10
1a
0e
03
0f
f6
2d
ec
ff
14
f0
f4
e6
f8
11
05
1e
17
fd
09
fa
f0
d4
fd
0c
f7
f4
1a
ec
f0
1e
0a
fc
1b
14
fd
ec
fd
09
f8
f8
ef
f0
f8
03
02
11
00
fb
ee
1a
12
13
06
eb
0f
e4
06
04
fa
f6
eb
03
02
07
f6
e9
f7
12
ec
fa
1b
08
f9
fe
12
f7
f7
08
f0
09
f8
19
f1
0f
03
f9
f9
ec
10
f0
01
16
02
1d
12
fd
1a
e8
f0
0d
05
d7
f6
05
0a
fd
fe
ed
10
11
f3
fe
fc
fe
e3
f8
02
fe
d5
fb
17
fd
04
f9
f9
27
04
ff
e9
04
31
09
07
ff
fc
f5
05
02
01
eb
13
0f
07
f4
01
1a
0e
16
14
02
e1
07
06
06
fe
07
f5
1e
f9
0d
ea
f7
15
e2
18
f6
fb
08
e2
06
f0
01
f8
24
0e
fd
fa
fa
fa
ec
fd
05
f2
0c
11
f8
0e
f8
11
ec
2c
ed
f8
fd
19
fb
06
ec
f3
12
27
08
f6
f4
28
f6
0b
e4
0c
1b
21
ec
05
ea
d7
08
10
09
09
d6
f7
f4
0d
f1
01
f8
e9
f8
11
dd
fb
fe
f3
e6
0b
e9
fc
f7
02
f7
f1
15
21
f4
0c
06
05
09
fa
fb
f5
fc
18
17
ff
10
dc
1b
e7
11
fa
10
0a
00
fc
fd
14
08
f9
f7
df
01
0b
14
fb
dc
f4
09
eb
17
29
10
04
f9
0c
f9
10
f7
16
d4
09
eb
1f
f4
10
03
ed
11
ff
1e
f9
e8
06
0d
07
02
e4
dd
27
0a
e9
0a
ff
08
fb
f3
fa
00
e0
ee
04
16
0a
13
f0
13
03
f4
f8
11
38
02
05
1e
0d
ef
ea
00
07
0f
0d
f8
f5
1b
1d
fa
01
e9
05
24
2d
f5
e8
f7
ee
f4
ee
13
f0
01
08
f6
f1
f0
03
e9
fa
1b
f6
f5
10
f3
07
04
fe
06
eb
fc
06
08
fc
f7
f1
f6
ea
0d
d3
17
e9
23
0a
12
e6
04
dd
09
ee
11
13
f3
f4
11
f6
08
28
2e
e6
14
f6
ed
ea
f4
1c
ea
00
f5
fa
00
06
20
f6
1e
14
09
f8
08
19
f9
05
0f
20
e7
1a
ec
fe
fc
e3
f8
0f
fc
03
e5
f2
11
00
01
00
d7
f0
03
0b
01
fe
18
18
23
0c
f9
ea
0d
f8
01
fc
f4
e8
0f
fb
ea
02
fd
e2
0d
fb
07
ef
f3
15
18
15
fa
f3
f2
0e
19
dd
06
1c
20
f5
02
03
fb
f7
f3
fc
07
f4
ec
18
de
f9
da
ff
c8
01
1a
f1
08
e8
01
d4
f6
04
f9
f4
f2
f9
fd
f8
07
fb
0c
04
13
fc
07
26
ea
15
ea
f1
05
1e
f5
f7
f6
04
12
01
01
fd
fb
09
fc
f9
eb
fc
0e
11
f9
ef
fd
f1
fd
0f
02
f3
0d
ed
03
13
fa
08
d1
13
0a
ee
05
1c
fe
00
ea
1c
f9
f8
01
0c
04
fa
04
03
06
ff
f2
00
02
f2
fb
01
ee
11
f9
0f
0c
ff
04
05
fd
f5
0b
07
eb
12
ee
f1
08
f4
ee
f3
0d
09
0a
f9
08
03
07
01
21
fd
e9
0b
03
ef
09
0f
dc
05
f3
e1
f8
01
f6
05
fd
0d
0f
de
ea
08
08
0f
f7
05
05
32
0e
13
06
11
f8
06
fb
eb
ef
08
f0
03
09
09
f9
ef
e3
fc
24
f2
f4
f6
fa
18
f8
f6
fa
04
11
07
f9
f8
f4
fe
f4
fe
04
07
03
fc
f7
fc
11
fe
0a
0d
12
dc
ef
f9
ef
0e
e8
03
f2
07
17
fa
02
18
fc
04
01
e4
04
00
12
f0
ff
da
0c
19
18
08
0b
00
f4
f7
ea
1b
fd
07
00
01
22
07
e9
01
f1
08
06
ff
2b
f4
f7
05
00
fa
0c
03
03
f3
03
f9
fa
ec
fe
0b
10
ed
fe
f9
05
01
0b
1e
0a
08
fe
14
e7
f1
fa
ff
0f
ed
ed
12
0b
ed
07
0e
0f
fd
e1
0d
0d
0f
09
e5
fa
ed
f8
f7
fa
0d
1c
0a
0b
f8
0a
06
f8
07
10
08
f5
0e
0a
0a
f6
0e
f9
fe
eb
fe
ff
f5
f8
0d
04
16
fb
1d
f5
f6
19
1e
e5
0d
03
f1
0a
09
fe
0d
f6
00
0b
0b
eb
ec
f4
05
01
1b
ff
f9
18
0b
ea
00
04
03
fe
18
05
0f
01
01
f8
0b
1c
ed
0a
db
f7
f6
10
ef
f9
ff
02
f6
11
0d
04
fb
0b
ea
00
eb
10
01
f4
04
dd
1b
ea
fe
10
f5
07
eb
ea
06
1a
06
cf
f4
ec
0d
ef
21
1f
03
10
0e
0c
06
f5
15
fa
11
02
f5
03
fc
01
ee
0e
e6
00
05
e1
13
11
00
05
07
03
f8
ed
fa
fc
14
1d
11
14
03
03
da
17
0e
f4
fb
fd
20
03
0d
03
fc
f4
0d
10
00
f2
0d
ff
fa
0e
f5
00
e6
ea
0d
0e
28
f8
f7
02
f4
12
f1
01
07
07
fb
f4
07
f6
f4
01
02
fd
0b
ef
05
0d
16
d0
0d
05
07
ec
f8
0f
e0
f1
07
1f
f4
eb
f6
05
fb
ea
fa
f5
13
ee
07
27
fb
f6
f8
07
f3
0f
ee
e9
09
fe
f4
ef
fc
ee
ed
0b
fd
06
08
f8
14
01
15
f5
ea
f1
fe
09
13
ec
f2
e9
f1
e9
da
f7
e7
ff
00
13
eb
19
01
ff
16
ed
f7
ff
ee
f2
f2
f9
dd
06
11
20
f7
11
fd
ff
f5
ff
10
ff
e2
f3
f7
e8
d4
d8
e3
dc
f7
ff
0d
0d
15
cd
11
e0
03
11
24
00
12
e6
03
1c
f1
0a
18
10
03
de
24
fb
f3
28
fb
f6
f5
09
f6
0d
01
11
dd
f6
14
fa
e1
0a
f8
c9
e1
04
f8
00
f3
07
fb
ff
15
36
0c
f6
13
09
14
25
e6
f0
0e
ff
eb
12
f9
15
0f
ed
f2
22
f4
fa
16
11
19
09
04
fc
09
de
d6
0d
12
32
0f
18
23
ed
0b
f8
f7
eb
fd
e8
00
e9
06
f1
f8
fb
f9
e8
08
17
fd
11
11
19
1d
02
ef
10
26
33
fd
fc
0d
f5
f6
fe
04
15
f1
fa
05
ea
0f
f7
e4
01
11
09
ed
f6
11
f5
0f
01
01
02
fd
f3
10
e3
fd
fc
09
ff
f4
08
e6
0d
06
09
f2
07
16
0e
e6
ed
0e
f4
14
00
fb
f7
ef
e5
04
fe
ec
fd
ed
07
f9
33
eb
07
26
e7
19
04
10
0b
ed
de
fa
17
fe
f8
fb
0e
fd
04
fe
06
ed
fd
10
24
0e
08
11
f3
e5
e4
e4
0a
1b
f8
17
e8
11
fc
f2
fe
1f
13
0c
1f
fd
0c
0f
e4
fc
17
06
f8
f9
1b
f7
01
fa
fb
f6
ef
05
08
00
f6
e0
f9
ef
0d
f6
0e
00
ef
ee
06
04
0e
f2
07
17
00
08
f9
1b
0e
d7
ea
13
df
0f
0a
00
f8
1d
eb
0b
05
f7
f6
f4
1b
14
0d
f3
12
07
f0
07
1e
f6
f3
0c
e9
db
f3
0b
f8
0c
f1
e4
c6
26
02
04
16
e3
fc
0c
02
ed
11
07
fd
e4
ef
f6
e6
f0
17
08
22
08
ee
14
e7
ff
02
00
05
f6
ee
0d
0b
16
07
fd
fe
07
f2
f8
01
0a
03
24
e2
fe
09
c6
ee
f2
f0
fe
14
16
eb
16
00
f4
01
f7
09
f4
f1
05
08
0c
15
03
ef
07
08
18
05
d6
fd
06
db
07
f2
1e
0b
1e
05
08
06
1c
12
f9
13
17
fe
1e
f9
0a
f5
e4
1d
11
02
f8
e5
e5
fe
fc
05
07
2a
0c
0e
09
e9
f9
07
eb
26
03
17
f5
09
17
e9
27
0f
fa
e1
e0
20
29
f1
f8
22
00
01
01
f0
07
f8
fa
ff
fb
fb
03
f3
e8
05
1f
fe
fe
0d
f3
ff
dd
25
18
f5
f1
f5
f0
10
ef
0c
1b
eb
f2
03
de
05
f5
f8
04
0d
0a
ed
f8
0b
ec
ff
12
07
fb
0e
10
fb
0c
09
f3
e3
1a
e7
fc
0d
e8
fb
f8
fd
02
11
f8
f7
f4
0d
08
f9
05
03
05
11
02
e1
06
00
06
10
fc
e4
04
08
e7
25
e9
01
f2
fb
fa
f7
fa
ee
07
f5
01
f6
f0
fa
ed
06
f8
f7
05
00
f7
10
03
03
04
f3
0d
f2
0d
f7
ff
0d
03
f4
f4
01
ec
14
16
f8
09
f6
f4
fc
ed
f8
0a
eb
e2
fe
0d
fd
08
15
18
f9
ee
f9
16
1a
d3
11
11
01
16
e9
10
1a
dc
14
ea
17
fe
fb
e4
f2
f1
fb
07
08
f7
f8
15
04
09
f8
f8
f5
1f
07
f2
eb
eb
0f
f1
f7
14
01
eb
0f
fb
1d
06
16
fa
16
07
f0
f8
0a
ff
f3
f8
fb
f4
06
01
ee
f4
fc
f3
13
07
fa
10
ed
ef
f7
06
01
10
f7
0b
10
fd
07
08
fd
09
0c
e6
09
0d
00
02
fb
0e
f3
fa
e1
02
0c
0b
13
ff
e9
14
15
f4
ef
02
db
f9
02
e8
f7
04
fd
01
ed
11
e9
f9
ec
0d
fe
fc
ef
f4
04
07
02
07
fa
03
03
f4
11
f0
18
ef
dd
13
18
12
e9
00
04
dd
f7
e3
fb
fa
d9
17
f6
14
04
06
08
fa
13
f4
f9
15
fe
1f
f5
04
0b
fd
0f
00
f6
f0
0e
f0
f9
15
f2
da
e2
19
ff
1f
08
12
07
05
09
fa
15
08
04
13
04
0d
01
f2
fc
18
fe
ea
14
08
03
fa
eb
05
02
fb
e4
16
01
ee
ff
09
05
18
fd
f9
0e
f7
eb
08
10
13
f3
12
fa
f7
ea
03
0b
f9
00
f9
fd
f8
07
02
04
11
f4
10
00
f3
d3
03
fa
08
04
0a
fb
f0
e5
fb
f5
f8
09
f6
fd
08
0c
02
0a
1e
12
0a
f3
f7
0b
e8
fd
ff
1d
0d
12
03
1b
2a
0f
e9
1d
f0
05
e8
14
f7
19
00
01
f5
08
0e
e7
fd
e7
0b
10
15
ed
e3
fb
ea
fc
f8
06
0c
ee
f2
06
ef
fc
fa
f3
f6
eb
05
f8
f9
07
f4
fd
0f
f7
15
fd
d6
e5
03
f4
08
06
04
f0
eb
03
fc
f4
f8
0a
1d
f8
f0
f1
fe
fd
0f
01
02
e8
02
f4
fc
06
f4
f1
10
f3
0b
0e
03
09
01
0e
10
ea
fd
11
0a
ef
07
f6
01
0a
fa
03
01
ff
18
fc
f7
01
f2
00
0f
03
0d
f7
15
00
23
e5
14
08
02
02
f7
07
11
10
f1
ea
11
fa
18
04
01
09
f7
e8
0b
fa
04
02
02
f8
fd
02
0e
09
e0
0b
f6
fa
f9
12
0d
f2
0b
ed
07
04
f1
f8
f7
fb
f5
e8
06
0d
f0
f3
0e
01
00
0d
16
05
e8
e8
f2
1a
0f
f4
1b
e6
04
03
04
0b
ec
03
12
f3
03
e0
0a
0d
08
02
f7
fd
04
ec
f6
f3
fd
17
09
ee
07
06
f9
f4
f9
f9
f6
09
fd
ea
ee
02
ed
ff
26
03
05
0c
10
ec
df
0f
ec
f0
08
ee
e7
05
f9
0d
00
fd
fa
fa
00
1b
e2
fe
1d
f2
e3
10
03
1f
fa
f6
0a
18
00
f9
ef
00
fb
f8
e9
ef
14
05
f4
00
25
fd
24
11
27
fd
0b
e2
0c
fd
02
f5
e6
05
ff
ec
00
ed
de
1b
11
ec
0a
06
13
06
18
ef
f9
e5
0e
10
ea
f0
fb
fa
fb
03
03
fe
10
fc
04
f3
0a
f2
0b
f2
0f
1e
ef
08
1e
df
0b
03
06
11
08
e6
fa
f8
13
f4
00
fc
27
fd
f4
e0
f8
11
fd
08
fe
e4
fa
fc
07
0e
07
e7
e4
12
f0
e9
0b
f9
fb
da
06
f5
f9
09
e9
03
17
07
00
eb
f5
0d
e1
f8
14
f7
18
ff
d8
07
f8
e0
02
16
01
fe
f0
16
09
fb
e5
0e
0a
ce
ea
14
f9
ef
0f
ed
ff
ff
e9
f1
10
02
fa
eb
08
03
09
13
1f
1c
f3
f4
f5
08
f4
fb
10
07
23
e6
09
0e
fc
e9
04
02
e8
11
07
08
16
1d
16
05
05
fc
23
0b
06
fb
0d
0c
0d
0b
f7
f1
0a
db
ec
0f
ee
02
19
05
18
25
fb
fe
06
ea
f2
11
fe
03
0b
f6
01
02
eb
f2
e0
ea
03
f6
10
d7
0c
01
0d
df
1b
f0
0c
18
fd
13
0d
06
0e
08
e5
00
04
07
06
fd
0f
25
1d
10
11
1e
06
04
f9
ef
04
02
f2
01
fd
d6
e8
fd
10
10
0f
0a
03
12
04
01
f4
f4
09
13
0b
0e
f7
17
01
03
10
f2
08
09
12
fe
12
0e
14
07
0f
0b
03
07
f1
10
ef
09
f1
07
f5
fc
09
f4
f2
09
07
10
03
ee
f8
13
ed
0d
f8
ee
17
00
fb
01
05
07
dd
06
ff
10
10
f6
e8
1e
0a
ef
05
f5
02
f0
ff
e6
f4
0a
f5
17
01
05
07
0e
05
0d
02
fb
0c
04
11
1f
f7
09
f7
08
0c
fc
ea
ef
f9
fa
f4
0f
08
f8
fe
fb
f9
14
fc
01
0e
e8
fd
06
e7
ea
07
e8
01
f6
0e
00
d7
fc
02
d5
e4
0d
ec
f6
04
fa
f7
11
ed
06
22
f2
00
e8
e2
f0
fe
0f
0c
00
07
f2
12
03
13
14
01
09
fa
00
f9
0b
fb
1e
f4
0d
ef
04
ef
02
f7
fa
f8
e7
fb
f8
f8
02
f4
1f
f2
ee
05
fb
fd
12
dd
fb
f6
00
05
17
19
0d
e7
fa
fd
13
08
f6
ef
16
0d
01
ff
01
27
2d
fa
03
ea
14
19
ff
0a
fd
fb
14
00
ef
0c
f0
de
12
00
ff
07
f1
da
00
1e
14
fb
0f
fd
0b
df
ef
08
e9
12
21
fb
f7
03
0c
ec
e8
16
f8
ef
0c
ed
19
08
f2
04
f6
f8
04
0c
0b
2a
12
e3
00
14
04
0e
f4
fb
e9
0a
f8
00
fc
02
02
00
04
00
10
fd
fa
eb
06
fc
f3
ff
03
f1
03
eb
fa
04
ef
e9
e8
fc
ec
e2
12
f3
f6
f6
fb
ef
0b
0e
05
f3
08
08
ec
eb
ff
eb
f0
12
00
00
0b
ee
ee
01
0a
10
f5
f2
f7
fa
db
0e
13
03
f2
f9
ed
1c
ed
03
ff
0b
19
e0
db
e9
27
01
f3
e8
16
16
05
00
fa
e7
f1
f6
12
08
e4
21
f8
04
f5
30
ec
dd
f8
08
04
da
f5
0c
2b
05
0c
fb
ff
24
0a
fb
e7
ef
fa
03
f9
f4
f2
07
04
07
12
e8
fb
fe
05
13
04
08
1d
15
11
03
fd
f5
00
f0
d9
13
fa
05
0b
14
f3
12
0d
20
07
1b
ed
15
fb
ed
11
f6
03
fa
0f
ec
e6
0d
ff
02
1c
f9
fe
fb
12
20
26
fd
f5
ff
1c
0f
ec
02
23
dc
0d
1f
20
f9
f9
fa
07
ed
10
0c
04
fa
19
fb
ef
01
e5
f5
dc
f9
05
09
fb
df
0a
11
08
13
ef
fb
ed
e1
f6
fe
f2
ee
fe
09
fe
01
f9
08
eb
05
1b
dd
ec
f4
fe
fb
fe
fb
0d
0b
0f
14
f7
f0
10
ef
07
ff
f8
fe
16
25
ee
f8
ea
28
0c
fb
0b
0f
14
f8
04
0c
08
fd
ff
07
d5
0e
01
08
02
fc
ee
fd
02
01
f0
19
0c
f9
ff
02
e4
ef
14
e9
f7
f0
f0
18
d6
02
f0
e0
15
10
02
09
e4
09
f0
01
11
fa
10
0f
09
ff
18
e5
fc
ed
f6
02
e9
f1
10
f0
ff
02
0c
15
e5
e3
e4
11
db
fc
fa
06
fe
0a
f8
fe
11
fd
0d
f2
02
12
e9
0a
26
fa
fd
ec
ec
0b
1e
fa
0d
03
03
13
07
fd
03
e4
26
13
0b
01
04
15
f5
07
10
fd
14
0d
24
07
f8
e5
0b
15
05
0d
0b
07
fc
fe
f4
ea
ff
f2
05
f7
23
f0
0e
16
fa
e3
07
f9
f9
0e
fb
f2
13
fe
18
f4
0c
f8
05
01
f7
13
16
0f
f3
03
fd
06
0e
f3
06
1b
16
03
05
f3
08
df
fa
15
11
fb
00
1a
1d
05
0f
07
f9
f0
ff
08
12
eb
0b
fe
0c
fd
08
0c
ff
f7
1d
0e
f8
f2
e2
07
09
f5
03
f0
1d
01
09
f7
0e
06
17
12
f7
03
ed
0b
08
fa
fe
10
fe
13
fd
20
fa
f1
06
e9
f6
e6
00
20
02
f8
ee
1a
08
e9
01
f7
eb
f1
05
fa
fa
f9
0a
ed
00
eb
f9
fe
00
f7
00
f1
fc
e9
ef
ff
0d
07
04
ed
fb
09
10
10
dd
13
08
df
0f
0a
f4
e9
f4
fc
dd
f6
f9
f8
11
f8
01
f2
1b
0a
f9
12
f3
01
f8
03
f6
06
f6
05
07
fb
03
f0
1a
00
f1
11
f8
fa
fd
07
f4
0d
0a
12
f7
ec
f9
f4
01
16
0c
fd
e4
f1
fa
f7
fc
f6
1e
e9
08
08
00
0f
f9
10
12
04
0c
fd
fb
eb
04
03
00
ff
1e
14
ef
0d
ea
00
14
14
0c
0d
e9
f8
0b
eb
05
1b
19
1e
e1
08
f0
f6
f8
e8
ff
0d
0e
05
e6
13
0c
f0
14
0b
fc
e0
ed
fe
1d
ee
ed
f3
f1
06
fa
fb
0c
f7
05
0b
e4
14
05
03
01
f8
09
fc
eb
0a
08
ec
00
f3
11
ff
f8
f9
21
fc
00
01
f8
f2
04
f5
09
eb
f9
f6
0f
08
fa
ee
f5
12
f3
04
01
f0
17
fe
f1
f7
1f
e6
f2
fa
f6
fa
14
01
03
07
0a
04
03
0c
1b
02
08
00
fb
28
14
f5
00
10
f3
01
ec
fd
04
fd
16
06
ff
03
02
07
0b
00
f9
01
05
03
e8
00
09
01
0b
e7
0e
0a
ed
dc
0d
04
15
00
ff
09
15
04
16
03
f8
e4
f0
f3
0b
06
02
00
00
e8
0c
e6
fd
09
e9
fb
ed
05
f4
08
15
05
05
f5
00
f7
ee
12
e7
09
f5
f8
d6
10
f9
fe
f6
0d
05
21
0b
e7
0c
f6
07
14
f4
fe
f5
ed
e7
05
0a
ef
ee
f5
08
f9
05
0f
fc
ff
f2
12
12
e9
e9
08
16
05
f5
06
09
e6
f4
06
0e
0a
08
fc
0d
08
02
10
01
e6
f5
07
12
e9
0d
fd
f9
fa
f5
fd
fd
04
0a
ff
f8
f2
ff
03
0d
f4
08
ff
08
0e
f4
f9
f5
fc
f2
fd
0b
08
11
fa
f6
ff
00
f2
07
12
05
fc
06
10
f4
07
fe
12
ef
04
fc
f1
f2
f7
10
02
1f
fd
df
0b
ed
eb
f4
f8
eb
f7
f9
03
1f
f4
fd
14
e1
09
19
06
da
06
00
fc
05
01
04
12
08
08
0b
17
0a
f9
13
00
25
ef
08
18
ff
00
01
15
1f
ed
fd
18
1f
0d
f0
e0
17
e9
0b
09
03
eb
07
07
01
00
15
05
26
df
e5
fd
0d
01
f8
f9
f5
16
f3
fd
f8
fc
08
fb
fa
03
f4
02
0e
fc
fc
09
12
16
f9
0a
f3
fb
17
da
fd
e9
06
1b
f7
fb
11
13
03
f7
00
ef
e5
ec
0e
08
fe
ed
05
fe
ef
f5
02
f9
fc
f3
00
ff
f8
ea
f2
eb
04
15
13
03
06
10
06
f3
fd
06
06
ef
12
fe
ff
f8
f4
f8
ea
f9
02
fb
f8
fe
fc
ec
0c
fc
fb
fc
16
03
05
fa
f1
00
f6
f7
0a
fc
fa
09
ef
17
f3
14
ec
fb
f9
06
f7
06
f9
12
e7
f4
e2
fb
0b
f9
0b
00
f8
0c
f8
f7
0b
06
14
00
fb
05
01
1b
07
03
02
fb
f5
fd
0c
f4
ed
f7
00
fa
fb
02
f2
0c
e7
f5
04
0b
f6
07
e0
f7
fe
f5
f1
e5
03
27
ef
0d
ff
fb
02
f5
fc
02
f4
fd
e8
12
11
e8
20
10
17
f5
fb
f3
19
f0
fc
ef
01
0a
f3
fd
05
eb
19
fb
0b
14
f1
06
06
ec
f6
1c
e8
0a
09
fe
0d
f8
05
17
f0
07
31
08
1e
ee
ef
e4
fd
26
ff
f5
f5
fc
fe
fe
fd
fe
ff
ef
f9
f9
07
e3
03
f9
fd
f2
0b
fd
06
fd
eb
ee
05
f9
f6
08
08
fe
ea
fc
19
f2
0e
19
08
08
09
07
07
ed
fd
fc
07
12
0d
e6
00
e7
fb
fd
d8
eb
02
02
fe
11
f1
ff
f1
fc
1e
06
f6
ea
fb
13
f1
0a
11
fd
15
f7
07
00
1d
0d
07
eb
04
df
04
fb
10
f1
1c
00
1c
e3
04
e1
01
07
e7
06
0e
17
f6
10
0b
ec
11
07
03
d8
fc
1c
f6
f0
f7
fa
ee
06
1a
ff
00
00
0b
13
0a
01
0d
06
ec
1b
fc
03
09
f9
eb
02
ee
01
ec
f2
0d
06
06
1c
f8
16
ea
ff
15
03
e3
0e
18
08
0d
02
0d
f2
03
10
12
0a
00
f8
07
f6
e8
21
f8
ec
e9
01
11
f8
11
ef
12
12
f4
0c
ff
0e
07
f2
f8
fc
17
fd
00
0a
05
fe
fb
12
d9
f0
fe
15
f6
0b
01
0e
00
07
0e
fd
03
f5
01
16
0b
01
01
11
00
fa
d1
f4
fb
0c
f9
18
e4
19
fd
0b
fe
0b
0e
dc
18
17
0f
01
f4
e9
e6
07
00
0e
00
ea
de
fa
e1
14
0d
03
f6
f8
17
08
0d
eb
f1
12
fa
f6
fe
20
ec
ee
1a
11
18
df
fb
09
11
ff
08
13
e7
16
01
09
f5
f6
fa
40
fe
ee
00
0c
18
f6
de
f8
f1
ee
ec
04
03
0e
fc
fb
06
11
e5
fe
f1
ee
eb
fc
06
e4
1d
ef
0d
f9
ee
0c
07
f7
26
f6
14
f4
fc
16
f5
0e
03
f8
04
e4
ea
0c
13
09
fd
f4
f9
f4
1c
03
e0
f8
01
fe
05
04
e2
e7
e5
f0
d8
14
e9
fb
15
f8
fc
fa
e8
27
fb
2e
f9
13
f0
fb
18
07
10
f4
02
e7
09
fc
25
0f
09
f8
07
09
03
e3
f9
06
09
ea
03
de
0d
f7
11
e4
fb
03
e9
f1
14
f3
f8
0a
f5
0a
f6
e4
02
06
09
f4
28
ee
13
0a
10
0f
1a
fb
0a
fc
04
f8
15
00
11
f5
ff
ff
13
f5
fb
0d
f5
17
06
fd
e7
1c
f4
1f
04
de
0b
f1
fd
0a
08
f6
ff
19
1f
f2
ee
14
eb
f5
00
e5
d0
11
0c
d4
fb
f3
ff
02
00
0f
02
14
12
ee
fb
ed
14
14
f5
fc
04
ea
09
fa
26
08
11
24
1a
25
fb
06
02
08
11
06
06
0f
0b
d7
e3
fe
09
05
15
05
1c
f4
07
fa
0e
06
f6
10
00
12
f7
1a
04
f0
0e
2b
12
f2
ef
04
12
e7
f3
e2
e0
fe
e6
ea
04
04
ff
00
fd
02
06
f6
f5
2a
00
ea
f0
f8
fb
05
fd
f2
ee
fa
e7
0e
f7
f2
f5
0d
28
fa
fa
f4
f6
f1
0a
02
ff
06
06
fd
d7
0e
f0
f5
ea
10
12
fc
fe
fd
f8
d5
30
ef
f0
fc
fa
04
20
fc
13
0e
fb
f9
17
f1
dc
18
06
22
07
15
08
10
06
09
14
00
12
03
f9
08
ec
ee
1a
f2
0c
28
1d
15
fb
eb
df
06
f0
0f
e1
f6
22
dd
18
e1
13
06
01
f3
e6
09
14
00
02
f5
e6
0b
02
01
fa
f2
1d
eb
db
17
fc
0e
27
fa
13
f9
05
f3
02
f8
f9
f7
18
f4
f6
10
f8
09
e9
15
04
dc
17
1f
ff
07
e5
0d
1a
14
f7
fe
f5
06
fc
fe
05
0e
00
13
f1
e5
fe
ec
07
09
13
05
07
08
f6
09
ea
f4
fe
e7
06
04
f9
e9
f8
1f
09
e2
11
22
02
f2
05
06
23
f7
f3
1e
f8
f3
0b
05
df
f4
0d
fd
c4
12
15
15
de
08
11
18
ee
18
eb
f9
ef
eb
fe
02
ed
01
1e
df
e6
f2
0c
f6
ed
f9
08
f4
ea
f0
2a
02
f4
02
ed
01
0b
e4
d8
0e
f2
17
11
17
04
1d
f9
f6
1a
08
0e
2f
e8
e7
07
12
07
05
f2
1e
15
e6
e8
1c
e6
f5
19
fe
fb
12
fa
fd
f3
04
03
1e
06
e9
0d
eb
27
05
f4
0a
f8
f2
f9
fe
e8
e4
fe
01
24
fb
ee
15
09
14
e8
09
f4
19
fa
f3
eb
ec
08
f9
0e
f7
19
f0
fd
fa
fa
f0
18
e2
29
1e
dc
16
04
f0
e3
fc
18
10
16
f3
e0
fa
fd
0a
3f
14
ec
f8
e6
ec
f8
09
f3
18
21
40
22
f5
1f
09
eb
05
ee
ff
08
06
f4
fe
f7
fd
01
fc
1c
0a
ed
15
ff
02
16
0f
2c
e4
fc
01
05
f5
0f
f6
e7
0c
f7
f4
0b
d2
e1
0a
02
d8
f8
08
fe
0d
f7
0c
e8
de
fd
04
03
f2
35
1c
0f
ec
dc
f4
fe
dc
09
01
ea
06
e1
1d
fc
0a
17
fc
01
ff
07
0a
15
fe
f3
12
fa
f3
03
0a
03
31
fe
0f
19
07
cb
e7
f2
e2
f0
fa
13
05
20
ec
f4
0d
06
0d
fa
ff
16
00
f3
06
ec
01
f9
15
17
f4
03
08
1c
0f
e8
eb
1d
0c
23
f9
ed
f9
24
dd
0c
03
19
f1
20
e4
01
1a
03
09
14
08
13
fd
06
f8
ef
15
fb
f7
1c
00
d7
ef
e9
15
16
ee
e3
cf
e2
f0
11
ff
17
02
0b
1a
1c
f7
f9
04
01
1e
0a
de
ee
ec
c8
f4
1a
fb
f1
0e
fe
04
08
ee
fd
05
16
d8
05
0b
f2
ee
fa
ef
f5
e9
14
ec
df
07
18
ff
c7
10
f6
fd
ff
0d
12
f4
00
fe
1b
04
0e
1f
ed
00
ed
2b
07
eb
17
f1
cd
13
12
fe
f8
f0
f1
fd
34
1c
dd
fb
e9
08
06
f6
ed
0f
07
03
0d
18
01
01
15
f4
be
fa
01
0e
0b
0e
fa
fa
1e
00
f8
d1
1f
0e
f9
fb
00
fc
12
f4
ed
13
f2
fc
d0
dd
1e
e7
03
15
0d
07
fb
15
0b
f4
25
f9
03
1a
f5
12
1f
fa
f6
d6
12
22
f0
fe
08
f8
f3
12
00
17
06
f4
09
12
fe
ee
0e
05
e1
35
ec
ff
07
23
06
ee
f2
e0
fa
f2
28
ee
f9
0d
d7
f2
eb
1a
e3
07
f3
09
03
ed
f6
08
03
fc
2a
0d
f4
02
03
01
fa
07
20
1b
f1
32
0e
de
fb
ed
ef
ed
f2
02
0c
fb
12
17
21
fb
0f
fe
0f
17
f2
01
f9
f4
fa
06
e9
04
00
0a
05
f8
f9
f0
f3
d2
01
0d
18
ec
06
ec
1a
18
f8
e5
09
17
05
ec
fb
1c
08
20
11
16
f7
10
1d
03
0f
08
14
0a
06
f1
f2
ed
f6
fa
fd
e8
06
f5
ef
01
0d
05
08
fb
10
12
f3
f3
04
0d
10
13
0e
10
fb
dc
fb
1b
0a
f9
fa
1d
f8
03
11
f1
0c
f6
ff
0d
f8
09
0b
e5
d9
e8
07
d9
fc
03
f9
e9
01
12
10
fa
0e
15
f6
f1
09
0c
fa
0b
02
f2
f7
f2
f2
fb
fc
0e
0e
f5
f4
0b
e3
06
f5
ff
18
0e
09
08
04
f2
f5
f1
f6
dd
fa
fb
0a
e9
14
00
04
10
ea
11
06
0b
f3
ff
e1
d6
0e
eb
f8
d0
fa
08
f2
02
f2
1f
0a
ff
12
f3
0a
03
f0
f9
d9
1b
f0
20
e6
1c
e7
07
04
fb
ff
03
17
11
13
15
1a
19
f4
1a
0e
04
2f
13
03
13
04
fe
f4
19
fe
fe
f7
f0
fa
0b
fe
de
05
f6
09
04
f6
db
f9
ef
fd
e5
f5
f8
e6
00
00
ff
0b
f9
f1
07
20
00
f5
06
f1
f0
f5
f6
db
fb
fe
0b
dc
eb
12
06
15
08
0d
12
fd
e0
02
07
0c
e8
0f
0e
f6
f2
f7
fd
d9
13
1a
22
fd
f8
18
f9
08
00
fb
03
f2
2d
0d
fd
05
22
08
fd
f8
df
02
08
00
e9
fc
18
02
15
eb
fe
f6
11
05
e8
f8
f2
0a
1b
ec
e4
f2
ea
01
01
00
fe
0b
f9
14
14
0b
05
fb
0c
ed
15
09
09
fd
13
f9
21
fc
fa
0f
0c
03
f7
f1
e8
07
f3
f8
03
07
fe
f3
11
19
ee
f3
ef
02
e3
e7
22
10
fe
11
2d
00
ec
0f
f2
f5
15
05
16
f5
f0
f2
ed
f9
f7
ef
f1
16
08
13
ef
2b
01
fe
07
0d
ed
01
0c
06
04
08
e9
f6
05
f4
f0
0a
f5
0f
fe
f2
fe
e7
05
08
05
ef
da
05
11
17
eb
0e
f1
fc
f0
ef
16
f9
fa
eb
06
ed
f1
07
03
08
02
00
f0
fd
f4
07
f6
fa
fa
24
01
d1
03
21
ea
02
fd
18
06
fd
e0
fc
f3
f7
f1
ef
f9
09
03
07
ef
e4
35
f7
ec
05
ff
f5
0b
1b
23
fb
f1
f6
df
f2
02
f9
10
f5
13
03
09
f6
0d
f7
ec
fa
1c
09
f2
09
18
f2
ee
1e
02
fc
fe
f5
19
e3
10
04
00
e6
f8
03
f5
fa
ed
fb
f9
f9
fd
f5
0f
f3
29
fe
ff
e8
08
08
f9
0a
0b
f1
fd
f5
ec
fa
1e
ff
10
fe
fd
0a
ee
10
ee
23
1f
08
e3
0e
09
f7
ee
07
06
f4
eb
f5
01
ef
09
10
fb
e9
0e
f4
e3
1c
e2
ea
07
e5
12
18
08
ff
e9
f6
02
fa
f2
03
f4
f5
f3
f2
f0
10
00
0c
12
fe
f3
f8
f6
fd
0f
f4
00
04
04
fa
02
02
fc
23
0f
f5
1a
ed
d8
11
f4
01
f0
03
f9
ef
12
fb
26
02
07
e9
0c
fd
15
f5
01
ff
0d
03
00
fe
fe
08
d3
f4
00
25
fb
f2
f8
f1
1e
09
ef
02
ed
10
1b
ed
08
f9
d8
17
10
1c
f7
ef
e8
0f
f4
0c
0d
de
0a
0a
fa
04
0f
08
fb
0d
ec
0a
09
00
00
f9
0f
15
07
f8
12
0a
f9
0a
f4
fe
0b
01
0e
ed
f1
09
fc
f6
16
f3
0b
08
de
19
f9
f7
fe
1f
fa
11
10
f9
fc
11
02
02
03
dd
02
ff
f5
08
f8
f2
0d
17
0d
03
ee
fe
04
f3
de
ef
02
0c
0a
e6
05
01
e8
0c
10
ee
fd
f6
00
0f
04
fa
ed
ee
14
05
fc
fe
f3
14
11
e5
0f
17
fe
07
ff
04
f5
1a
07
f5
f9
ec
02
08
0f
11
01
f3
fc
0b
04
ec
0f
04
0b
1a
0d
1e
0f
f6
ec
de
fe
14
de
02
06
00
fd
ff
fe
0b
23
17
01
02
0e
fc
23
ff
f4
20
2a
ff
06
14
f7
26
02
0c
f7
01
06
fd
0b
f6
f4
13
0d
04
20
f7
fd
f2
13
17
f8
06
07
0a
16
18
fe
25
13
0f
29
03
ed
13
f3
00
0e
04
e8
08
e9
f0
fa
01
fc
e8
f2
fa
dc
00
0f
fc
0e
05
06
ea
f1
f2
fd
e7
ec
f0
e9
ea
09
f8
0d
16
09
01
01
10
ff
13
fb
fd
17
0e
24
13
03
0f
10
f1
fe
06
ea
12
07
07
02
17
f8
fd
f4
04
f2
ff
f5
dd
05
d7
02
f7
e4
0d
ed
23
04
10
09
fe
ee
07
ee
ef
01
f2
ed
02
f8
fe
fd
0a
f4
03
09
0e
ff
e6
e8
f6
ff
0c
fd
f4
06
0b
f5
fc
07
07
fd
f5
f2
e3
0d
e2
1c
1b
01
fc
eb
13
ff
f9
f0
fd
ff
ee
04
eb
0c
16
0e
e2
fe
ed
f7
e4
01
0f
07
0d
12
f1
d7
06
09
0a
f9
f0
f0
f1
0c
0a
f0
07
fd
fd
f7
fc
07
fc
fd
fa
1a
02
25
ef
08
f1
03
09
e5
e9
2a
09
1a
fb
27
e9
f3
f0
06
16
fb
24
08
eb
f1
f7
05
0c
0e
01
09
1a
f9
e5
40
f3
d9
f2
f0
ed
0a
0e
f0
fa
04
f0
db
ee
1a
06
12
00
12
09
e2
ee
fd
02
15
f1
18
e0
08
f3
ff
12
fa
ec
ff
06
13
0d
10
f8
02
16
ee
f1
0f
2c
f6
01
0a
fe
ef
ee
f6
fc
14
05
fc
fd
0a
0b
f4
f5
ff
f9
e1
fe
fd
f7
f0
f2
10
eb
ee
06
08
0b
fd
fb
0d
01
f4
06
0e
1e
f3
0d
09
04
00
12
f7
04
17
02
fe
f9
fc
12
e6
1e
0f
fb
1f
f8
ff
ed
e3
0a
e7
f9
1a
f3
ff
f5
1e
f2
f6
14
0a
14
10
dc
fc
fe
e9
09
ed
01
14
0a
f8
06
f6
fb
0f
e5
32
02
0c
04
f2
01
f3
ed
21
03
fe
eb
00
e9
e6
ef
00
f0
04
1e
19
fd
f0
fb
08
04
09
fa
e7
18
03
da
03
03
0a
08
f0
01
11
e9
ef
08
04
03
09
05
ef
14
fa
dd
03
f2
f7
0c
20
fe
01
f3
e5
25
e8
e8
06
03
1d
05
09
f3
d4
06
18
0c
04
f5
05
1e
f9
01
f3
05
f9
ff
fc
1a
13
f3
06
02
09
09
0d
01
ec
f1
e0
e6
1f
f7
05
0b
eb
fd
f5
fe
fa
fb
04
f5
04
fe
25
f8
0a
db
f4
16
26
ec
0a
ff
e6
07
05
0d
f6
0a
dd
07
ef
1f
f0
15
fa
ed
e0
24
0e
fb
e4
f3
0e
17
03
11
fb
01
08
12
04
10
17
fe
f7
fd
1b
00
13
fa
23
12
07
0c
f8
05
15
01
0e
01
eb
fe
ed
0a
f8
d8
cc
06
09
ef
0f
e8
f8
fc
ed
e5
fc
ee
09
de
1a
f5
f6
07
20
f9
05
06
0a
fe
15
ff
08
13
14
15
09
07
1d
0c
f6
08
0c
32
d3
f5
00
fb
0d
ee
f6
d7
0b
1a
09
f9
f6
d5
02
f1
13
00
f9
04
0b
08
2f
0b
1e
00
0c
08
0b
f6
0e
09
05
f9
29
f6
02
14
1c
01
0a
10
12
fb
f2
ef
ea
f1
09
f2
e7
16
02
10
e7
21
01
02
f5
1c
ed
01
ea
f8
11
0f
e9
d7
01
13
f4
f7
1c
00
f2
17
f5
fb
fe
f8
09
f6
db
ee
dd
fd
11
fd
16
f7
06
c4
2e
dd
1b
18
e6
eb
0d
fe
e0
12
f8
1d
f8
fb
e2
f6
19
12
01
ee
ed
f7
e1
f4
09
1b
f3
ea
26
12
fd
0f
e9
f9
f6
0b
19
0a
02
03
fc
ee
0f
ee
1c
17
fe
eb
e1
f8
f1
1e
04
07
09
fb
fb
fb
01
e8
ea
08
fb
f4
21
19
24
11
16
fe
f5
09
1a
15
02
f5
fb
09
05
f8
03
ed
db
fb
10
f4
f8
0c
f9
fc
02
fc
f6
18
e1
f5
f6
eb
0c
d1
0d
04
e1
f5
04
f4
16
d6
13
f2
01
fd
06
05
20
14
df
fe
fb
fd
00
0d
02
07
fb
df
00
0e
16
07
ff
e9
f4
f6
ff
18
0e
f4
0a
ff
f7
03
01
de
f9
f6
0e
0e
06
27
f0
05
0a
05
f8
f3
2e
f1
35
0b
12
f5
03
0f
f1
ff
0a
0c
f6
0b
2a
02
ec
e3
e0
fd
14
fd
fe
02
14
0b
f8
0f
00
f8
f4
f2
10
0c
13
14
e1
fb
0e
f4
e4
ec
fd
0c
fb
ea
0b
fe
21
02
e9
fc
fa
2c
fd
1e
0c
fd
11
10
13
08
03
07
23
db
0f
0e
0d
03
06
17
ed
d6
0f
ef
d3
0f
18
12
09
14
d5
21
01
ed
00
fb
da
01
0c
f6
dd
f2
ee
02
f8
fb
e9
14
02
f9
f8
e4
00
0c
23
f8
f5
09
04
fc
f4
ef
09
0a
15
0f
05
11
10
f6
13
f3
e9
18
f0
10
ea
17
03
fa
34
07
05
01
12
0b
01
f4
05
03
10
ff
fd
e4
0d
f7
10
fc
fb
e8
06
ea
08
f0
0b
ec
fa
dd
dc
fe
04
12
05
ea
ff
dd
06
20
03
05
fb
04
de
0b
f5
e9
1b
f3
e4
ef
f0
0a
f5
26
f3
f7
0a
f5
03
ee
12
f0
0a
04
fe
12
ee
fd
fa
26
0f
fd
08
ec
f8
03
ef
f2
16
f6
1c
e9
09
f5
e7
db
30
13
10
0a
f3
fc
09
00
00
15
08
f7
14
f9
f7
15
08
f5
f8
0c
f0
15
00
f4
e3
00
1a
1d
0e
01
0a
0d
0b
12
fd
03
e7
1c
f7
13
ee
cd
fc
01
10
e0
0f
10
da
00
f4
e2
06
2e
16
f0
fb
fd
1b
f7
16
e3
1f
df
fc
0e
0a
f9
1b
01
09
f7
02
15
fe
f5
f4
04
df
02
10
ee
0e
01
00
10
fc
ee
0b
fb
0c
f5
f3
08
04
01
05
f1
f0
fe
ef
ef
05
17
fe
0d
05
f5
0d
fc
13
f3
0b
fd
03
0b
09
f3
ff
01
ef
f1
12
f7
1d
08
05
fc
f5
fe
20
01
0e
f4
fb
ff
fe
e7
f5
07
0c
04
ee
08
21
00
02
f4
ff
f1
fd
02
10
04
07
ea
05
f2
fc
06
f4
05
e6
06
11
02
f8
1d
07
01
04
f8
10
13
06
e4
0c
fa
fb
db
17
ec
f3
ec
ef
07
19
19
25
f8
0b
13
0e
07
01
e4
e9
0a
19
fd
fa
14
e2
03
fa
fe
f7
0f
fe
f7
f9
f4
f4
05
fb
01
07
05
fc
01
1f
ef
0d
15
f9
fe
fe
13
02
13
fb
f3
1f
0b
f9
ef
fe
07
ea
04
0f
ef
1a
f4
f3
1c
13
01
13
19
fc
09
0a
fb
10
16
e8
10
ff
e7
07
fc
fa
0c
01
02
f5
f4
ee
00
05
13
f7
f4
fa
f9
da
f0
02
04
f2
16
02
04
e6
f4
fd
01
fd
02
f5
fe
14
0a
de
24
ed
e9
e2
0f
0d
e6
09
f9
17
04
e5
08
e4
eb
fc
18
f9
20
f5
12
f5
f4
e1
f2
15
12
f2
11
06
0a
02
e5
fc
f7
0f
0d
e3
07
05
1a
0f
e2
0e
fd
e1
f2
ee
ff
f8
01
00
ec
fa
fe
fd
01
ef
01
fc
0a
fa
ff
f2
0c
07
05
00
f3
0b
f0
12
1c
f9
d5
1c
e0
fd
ee
1a
e2
04
f5
08
1b
11
0b
fb
f7
fc
06
0d
f1
05
01
1e
fe
e7
e4
f2
04
d9
16
fa
ef
01
02
0b
15
06
16
13
06
ef
f9
e4
08
04
e8
0b
1b
ed
15
fe
f5
07
fc
15
05
f9
f1
e8
e8
e6
f4
fb
ff
08
ff
fd
f5
fb
01
f4
1e
f5
20
fb
f7
19
fc
ee
0b
f8
fd
e8
f5
f9
14
f4
e5
e9
e6
06
fd
fe
15
ea
0a
fc
07
ed
f5
1d
ff
ea
02
ee
10
08
12
1d
0c
ef
fa
13
d6
ed
00
fa
f7
f4
06
0c
12
e8
12
09
05
06
ec
0b
01
08
20
0e
f8
00
17
fc
10
0b
19
f3
01
00
05
f8
fd
fd
ec
f9
04
eb
05
fc
04
f7
fc
fe
1c
03
fe
f8
fb
de
fa
10
f5
e9
f8
1e
f1
f3
f8
f7
fb
ed
0a
15
10
14
f2
01
e1
05
12
0e
0f
09
04
f6
12
fb
f8
1b
09
0a
28
08
f6
fe
09
09
e7
fe
0d
f1
fc
e5
db
00
f2
f8
1f
f0
f8
fb
14
f2
f2
0b
fc
f8
0a
01
00
03
f8
06
03
0a
fc
09
f0
07
0b
f3
f8
09
05
0a
f8
1d
23
18
05
f4
11
fa
ff
ff
07
01
00
f2
0b
0d
10
f1
0a
02
09
03
f8
1c
ec
fc
08
04
1b
e2
da
ff
10
fe
00
07
e5
ea
01
f9
ff
08
17
ff
10
e8
02
0d
0e
03
10
13
07
ff
18
f8
00
eb
08
ee
21
f1
03
f2
fe
e6
14
33
0d
03
19
04
ee
ff
fd
00
0e
e6
f3
f8
09
e2
24
ff
f7
ee
0a
12
06
10
fd
fb
02
16
15
f7
ea
eb
fa
fc
f7
0f
1d
0a
ea
f6
f8
f1
ec
02
04
fb
fd
01
15
f0
0d
ff
fd
eb
db
f4
12
f0
ff
fe
f7
d7
05
16
18
1b
15
fc
09
0c
e6
f5
ea
e7
03
07
e8
ea
ea
f3
ea
f6
e2
06
fb
0a
f6
0f
fb
0e
03
20
f8
f9
ef
0f
18
0e
ff
0f
17
fd
ff
16
15
07
06
ea
ed
0e
12
fa
09
e4
f5
03
02
11
01
02
e0
03
ff
f0
e3
19
09
e9
f2
10
ed
14
ff
f6
f4
0f
0e
0c
13
d4
0d
10
f4
fd
09
03
08
e8
0e
f1
ff
fb
ea
f1
e6
14
0d
f7
ee
f7
fe
fc
01
08
10
3a
20
0e
e3
06
f3
ef
00
e4
fc
04
ed
fb
08
0b
06
e0
0a
08
03
f8
26
ff
25
10
f2
fd
fc
fb
30
fa
ea
f3
e6
02
f1
08
09
0c
ff
0f
09
ef
04
fb
f7
f9
0b
e9
19
05
f1
09
e0
06
fc
f2
f2
0a
f6
16
0c
0b
fc
04
03
02
19
0b
06
10
ef
f0
09
ea
e6
fc
f0
ed
ff
f6
f5
07
fd
0f
f7
e0
0d
e1
fa
15
14
ea
09
05
f2
02
ed
06
10
00
09
03
f9
11
f3
e2
04
21
01
11
07
f5
fd
10
f4
0e
0a
0c
02
f7
fc
df
15
fe
01
ef
f9
03
f6
e5
03
00
0a
e6
f8
09
ef
ef
01
0c
fd
f3
f2
0d
08
02
fd
e9
0b
0a
ed
00
14
0f
04
04
0b
fa
f6
01
05
f0
fc
f2
f9
01
06
05
fc
0f
04
06
f6
05
11
f3
f3
1c
e2
e8
0b
fe
03
23
05
08
12
fa
f1
f8
03
0b
07
03
0b
1a
e3
f1
09
06
fb
e9
ef
00
fc
0a
de
1e
19
ef
e2
16
06
fe
04
03
fe
fb
ed
de
10
fe
fb
01
fe
13
03
f9
07
13
2d
f2
ee
13
ea
fc
eb
11
02
08
0a
1a
f5
f4
11
21
f6
fb
ea
fa
08
17
07
0a
13
15
12
ff
0c
01
f6
0b
10
07
ff
0f
11
fc
ea
24
0a
eb
0e
0e
04
22
11
f9
0c
f7
10
f4
13
eb
e4
18
e5
13
0a
00
01
fc
ef
10
0f
1c
16
10
08
0f
ea
0d
d8
f9
0b
df
0e
10
f5
fb
f1
01
11
ff
ea
1a
13
11
02
11
fc
2f
ee
fc
18
14
01
eb
f7
15
e9
04
06
07
17
fa
1e
09
fa
ff
03
22
d9
18
0d
f8
00
02
ff
15
e3
fd
f2
13
f6
01
05
07
18
fe
09
f1
fb
14
e3
05
f2
18
f3
f7
0d
07
f9
f1
00
fc
fd
0a
f4
04
12
12
08
f1
f6
07
03
29
fd
0f
f8
00
18
f3
f4
0a
fb
f4
fb
04
e9
0f
eb
02
f0
f8
f2
f7
fa
09
ee
04
fb
0e
f4
f6
13
08
f6
0e
f4
e1
d1
0c
11
f8
02
1c
df
1b
03
15
08
03
fc
0b
d5
fd
14
02
09
14
f8
02
03
03
fb
00
f8
2b
ef
f4
dc
09
05
04
f2
05
04
f5
ec
ff
0e
ed
0d
ff
e9
f7
11
1b
08
1f
06
ed
1b
13
f9
03
f1
0a
06
f4
02
00
fa
14
00
f2
08
f8
fa
eb
ff
0b
00
02
ea
e9
f7
01
e6
f7
05
17
12
eb
f3
1d
f1
19
f7
f9
fd
f3
0a
f5
ff
04
fd
f2
ed
0b
15
f2
f8
06
11
04
04
f9
f5
0b
27
ee
0c
04
ff
fe
0b
09
0e
01
ea
ee
fe
07
e8
f2
f9
21
10
f2
ee
0a
f2
cd
fb
f1
05
0b
11
e7
16
27
f4
05
0d
e3
16
13
f9
d3
04
f2
17
07
ef
00
1b
13
e2
ee
fd
e3
11
1e
01
18
09
11
fd
ee
ef
26
19
e7
f1
0a
06
0d
ff
05
e8
03
fd
ce
0b
fb
07
ea
ec
28
0d
f6
09
fc
1b
0f
eb
0c
fd
1c
03
f7
d7
12
f0
03
f3
13
f8
14
0b
ef
f3
fa
f8
06
dc
f3
15
0c
22
e2
ef
ef
fd
0b
f8
0c
12
fe
07
f9
07
04
f5
0b
f9
e5
13
e7
22
e6
01
fc
f7
20
1b
16
e5
02
ed
f8
0b
05
ff
0f
09
db
12
14
09
05
e2
ec
0b
fd
e7
08
df
fa
d9
fa
fe
f8
ea
fa
00
fe
0b
e9
09
1f
ef
0d
e2
0d
01
0a
f2
07
31
0a
fc
0d
03
f8
01
e7
ed
eb
10
0b
10
09
00
02
f5
0d
01
fe
21
f8
0d
06
09
0e
f9
28
f7
0f
f4
f7
06
ed
ec
f2
ee
0b
09
0c
0e
f8
02
2b
04
13
fd
09
03
e2
1d
02
14
1b
ff
ff
07
db
15
08
fb
11
f8
e1
fc
e9
02
17
0e
11
04
fd
f8
f1
fb
eb
ea
04
10
07
07
f8
fc
ef
03
1b
04
ff
07
05
19
0c
f4
09
f6
0d
16
f7
fb
f4
0d
fb
fa
11
04
00
db
34
1d
0b
01
0b
fa
fd
ef
07
19
07
eb
08
0f
10
f8
ff
f0
0e
d8
18
f4
05
14
09
e6
03
ff
05
fb
05
03
e9
f2
17
f8
07
eb
f4
08
ef
e5
21
f0
ee
09
f8
fa
1c
fa
23
f9
ff
0d
13
00
00
f2
09
ee
fb
e2
01
09
06
f0
0e
12
d3
f6
f2
10
0f
06
09
04
0e
ff
ff
03
e3
1f
fa
eb
07
19
10
0c
d3
0e
1b
0a
0a
ef
f8
06
08
fd
07
0a
ef
06
03
df
fa
35
f4
f1
05
e6
04
fa
0a
ed
e2
f3
04
1d
0b
e4
11
f9
ef
fa
e7
0a
04
e4
fc
f0
26
f2
f8
e4
f8
11
12
0d
16
0c
0b
ef
1a
03
11
d7
26
e9
07
27
e3
11
cd
0f
1f
18
18
00
13
ed
f1
21
00
e2
fe
12
e5
f7
ef
e0
f5
f1
f2
f9
f9
04
f7
0b
e7
ed
db
f6
f5
03
01
f5
f0
04
f8
0e
fd
0f
00
fb
fa
03
15
fb
fc
ec
ff
fe
e6
f5
10
f7
ea
03
fd
2b
e2
03
f7
10
20
e8
df
f5
00
00
f5
0d
fd
0b
f2
f4
f3
25
f4
f6
e4
08
e0
11
fa
fb
f1
fa
0c
f2
0e
22
29
0e
fd
06
1c
20
d9
03
b3
fc
f6
03
06
17
18
05
f8
20
e0
0c
38
01
09
ff
0c
0c
05
04
14
0f
05
1a
f4
05
ef
21
00
fa
f3
0c
ef
13
15
0b
05
ef
ea
e4
ec
04
04
0d
eb
f9
09
1f
fa
09
07
05
02
fe
0c
0d
f5
e4
03
17
ea
fe
03
f6
05
f2
ed
06
0c
fd
e6
ee
22
fa
0a
18
e3
fc
14
05
d4
13
e9
23
de
1e
f3
15
e8
03
f8
ee
1f
f5
ed
0c
fd
f5
2d
fc
f5
f9
06
00
13
10
f2
07
1f
f9
06
16
f8
e0
15
f1
f8
14
ea
ff
15
01
eb
f6
00
11
26
0a
0a
0a
1c
0d
16
e5
ee
ff
f4
e8
12
06
ee
f9
16
02
f6
05
f1
07
18
2a
27
fc
13
16
18
00
f0
27
ef
fb
1a
0a
ed
ff
13
dd
06
11
0c
ef
fd
ed
fe
d8
e7
0b
f1
e6
0c
15
08
ee
21
e5
02
17
06
12
f9
0c
12
fd
15
fb
0f
03
14
e4
23
32
29
07
f7
e5
e3
17
07
f0
f6
f1
f5
01
e3
17
0e
f1
05
e1
eb
ea
e8
04
ed
fa
11
01
ea
ee
07
04
f9
1f
11
fe
fd
f5
f9
13
e9
c7
0d
f4
0c
02
f4
f0
01
f7
11
00
07
04
2a
0c
e4
eb
25
d4
e4
fe
f3
e7
fa
f7
e1
0b
fb
06
07
d5
00
20
09
fc
de
15
1d
0b
fa
14
11
df
fa
ff
e8
0d
09
f1
ff
06
2f
06
07
15
00
ec
03
dc
2c
11
fd
04
03
ed
0a
f2
ef
0a
0c
fc
0a
15
27
07
e2
2b
04
18
fa
f4
08
fd
fc
f7
f2
29
02
12
e7
11
f0
0f
08
05
fb
00
1d
f3
f0
ee
ef
02
03
ef
eb
ff
f3
0c
ee
00
ea
07
0e
0d
22
02
f2
03
00
13
04
0a
fa
14
ff
e4
04
02
18
ff
1f
fc
f8
f4
e1
27
fc
e9
03
f5
fa
f7
04
04
1d
04
09
ee
e7
f7
11
fc
06
18
09
e6
18
f0
d5
f0
fa
14
05
08
1c
ef
df
f4
f5
f6
1c
0b
f4
e5
13
f9
ef
fe
26
07
ed
11
10
ef
eb
02
f5
fb
f7
f5
f6
ef
0c
14
f2
05
d7
10
0f
20
eb
ee
ff
f6
e9
15
d3
fd
06
e3
e1
10
04
15
03
f7
f9
07
f5
01
db
f9
0f
0e
1f
12
04
11
fb
f1
19
f5
06
fc
16
fc
05
02
d9
eb
0f
15
f2
01
16
f9
ea
04
23
04
1e
f5
16
08
02
04
0c
ee
00
fc
f5
f6
0d
15
00
f8
f2
f6
0d
f9
04
e2
f5
0d
0b
e7
0e
06
0f
03
df
0d
0d
f9
e1
0c
18
f6
07
00
ec
ef
0d
ec
1c
1d
ee
1a
f1
e9
df
f6
fc
f9
19
dc
03
0c
fa
fc
f7
03
f8
f3
0a
04
f3
12
12
10
24
f6
fe
e9
05
f2
03
f3
03
0e
01
ed
ea
f9
f1
f5
e2
04
0f
e8
06
11
0d
07
f3
18
19
e2
f1
0d
00
16
0d
fd
11
fe
f0
02
10
0d
05
ed
11
da
f5
02
14
11
02
e2
0f
fe
10
0b
03
02
0d
ee
fd
fe
01
fa
e1
03
0a
01
e8
ec
04
ed
13
09
0b
01
ff
ff
f8
f4
f9
00
0b
0c
f2
f7
f7
e8
d2
fc
f6
f9
07
fa
fb
15
f0
f2
fe
f6
05
19
08
ec
fe
03
ff
16
fc
04
fe
fd
f6
f6
0c
f7
f8
06
08
de
fa
ea
13
13
0a
11
01
fc
f2
ed
fc
f4
15
fe
15
0e
15
16
02
ea
19
03
07
0b
e9
02
05
17
e8
e0
04
eb
f8
09
1e
fd
f4
00
f9
e3
0a
0b
07
ff
06
fb
fa
ea
03
0e
ec
05
0d
03
ed
0c
f0
0d
f9
1a
08
09
0f
15
05
1f
14
1a
f1
fc
0f
09
f5
12
12
f8
f8
f3
05
fc
16
06
ff
18
14
10
ec
09
26
ec
10
12
f6
fc
e4
11
1d
19
fe
0e
e2
0b
16
09
17
12
05
1e
f2
04
04
07
ec
0e
dd
07
ff
0e
03
0b
0a
e7
26
ea
09
01
ec
10
f1
f3
fb
fa
0b
fb
13
db
0b
e7
00
06
f3
00
f6
e7
15
0f
06
fd
ea
15
db
1b
0c
f0
fa
0a
ee
ef
f4
03
f4
ff
03
ee
0f
fb
26
f2
00
06
0e
02
fe
0e
e4
04
02
05
07
ea
fc
00
f3
0c
13
08
ea
fa
f9
f2
16
ea
04
f2
f6
05
fc
e6
07
05
10
f9
07
f9
f5
fa
fd
10
02
de
04
0a
ff
1a
eb
ec
f4
e3
10
ff
11
ea
09
08
e6
f4
02
f4
0e
05
e4
11
04
17
04
ed
f9
04
f3
02
ff
07
09
17
07
df
f4
ed
11
eb
08
fb
ea
f6
07
eb
f5
00
f3
11
08
04
ee
07
f4
06
05
0b
02
fe
02
0b
06
1a
0b
e2
0f
0e
15
f4
fd
03
f1
0c
0e
e6
fc
f1
fe
06
04
dd
f4
ec
07
00
0c
00
f0
f1
fd
02
e1
1d
07
00
10
0b
0c
01
ed
03
0a
05
fe
f8
14
f5
fe
f7
14
f8
05
07
f1
01
01
07
0d
0b
fe
fe
13
00
f4
f5
02
f4
f5
f8
fc
fc
04
14
ee
04
1d
f7
f2
fc
04
f1
09
fb
fd
1b
fa
ff
00
f5
f5
09
10
0b
f4
0f
fe
1b
fd
26
f8
0d
02
06
0f
e1
12
0b
f6
fe
01
ef
00
fc
ec
03
07
02
0a
17
f8
12
f6
06
d3
06
fc
f8
e8
fe
f4
db
04
0a
ff
fd
0e
c6
f9
0a
e8
f5
de
eb
0a
05
0c
03
0e
fd
e5
1f
0a
1c
f7
06
11
fd
07
0c
12
16
20
f9
f8
fb
0d
0a
10
f6
e8
fa
0b
ff
01
01
ec
0f
f6
10
f8
1d
f2
03
f8
1b
12
f3
1f
fe
23
fc
0e
01
0a
06
02
09
ee
02
0c
e8
f7
0b
07
f0
f9
f0
e8
13
fb
09
11
0c
f9
e6
08
05
fd
fa
04
0b
f9
d4
f4
01
e7
ef
15
16
13
f6
0a
f7
0d
e2
fc
fc
f8
15
e9
13
ff
fa
02
17
f7
f4
fa
f3
0c
05
fe
11
fe
15
e5
e6
0c
03
ed
fc
ff
15
18
ff
f5
fd
f9
0a
11
f6
19
ff
12
09
03
e9
df
05
00
0e
0b
10
1b
fa
f9
e0
fa
10
f5
0e
fa
0a
f4
ff
08
e7
ee
e2
dd
02
0a
fb
e6
09
eb
0b
06
f7
f0
f9
e5
fd
18
0c
f5
27
05
01
fb
26
ff
01
f6
fb
18
05
08
12
f5
f2
14
e6
10
b7
15
0e
eb
fb
fa
f6
14
fe
03
0a
ff
09
fb
21
fc
04
f8
08
02
fd
eb
02
0f
fc
ec
0b
f4
09
f5
0f
02
02
11
fb
fd
13
ed
fc
00
00
01
e6
ee
13
07
06
07
e9
10
fd
0a
0d
eb
fd
04
0a
f1
19
e6
fe
16
fd
11
11
03
04
0d
ff
f3
f1
06
e7
fd
f7
03
ec
e5
f6
fd
23
23
0e
0f
0e
f7
e4
f2
f0
1f
0d
f7
ed
0d
f6
ea
e3
04
f1
fe
0a
f8
e6
f2
f4
1c
fd
eb
03
05
fd
11
0b
0a
0f
ff
04
08
00
f1
0b
02
06
0e
ec
ef
17
f9
01
13
ed
12
01
ec
1a
fd
eb
27
1c
fd
00
ff
f9
fd
14
1b
0c
0f
f4
06
01
ee
ff
0e
18
0f
0d
ee
05
10
0e
fd
ff
ff
e5
fa
1a
0d
fe
16
eb
16
ec
fa
07
1e
e6
10
09
ea
17
07
11
ee
fe
fe
fe
07
28
f4
f4
02
23
fa
f8
f5
f6
1c
17
01
fd
07
de
fc
fc
f9
0d
0d
0a
13
e6
00
ed
00
f2
f2
f5
f6
03
1d
0f
07
e5
ed
1e
e3
01
e8
14
e8
21
06
1e
dd
03
ff
01
fc
08
01
0b
f5
fd
fc
0c
fe
f5
f9
d3
11
02
0a
16
fe
17
ed
11
02
fe
e9
08
15
0b
04
d9
f8
e5
f4
f3
fe
11
f1
fe
0e
e1
0a
e3
02
0a
de
08
05
01
06
f5
06
0b
ec
09
f9
12
04
ff
07
12
ef
f6
0b
f3
f1
fe
ff
16
1e
1c
e3
ef
f2
06
e1
f0
05
f3
fe
18
f7
01
1c
10
08
03
f0
09
f4
ea
01
10
f7
02
f0
24
00
f6
08
0a
f7
f7
fd
04
e8
0e
19
f9
e4
1c
1b
ef
f4
01
10
10
ef
1a
01
fa
ee
fb
03
09
0b
fc
14
e1
25
21
f6
16
eb
0a
01
f4
f7
f5
ed
01
e7
fb
ed
1c
12
10
e4
f2
ea
db
00
ef
fd
01
fa
05
1c
f3
07
d2
f9
06
f8
fa
03
14
fd
ee
2c
0c
f6
07
0e
15
09
fc
f4
16
e3
05
05
f5
0b
02
f5
e5
19
fa
ed
da
ea
f4
fc
25
f8
19
db
e7
04
07
fb
07
13
00
19
fe
fc
12
05
f3
fd
f5
12
17
0b
0c
ec
02
ec
1a
1f
0e
e8
16
08
00
dc
ef
e6
19
ef
f7
0a
06
08
e5
23
f2
07
22
1a
ff
fb
03
fa
fe
d6
f3
08
00
ef
f1
1c
03
05
0d
ea
ec
09
fa
f2
f3
19
01
04
ed
f1
dd
f9
e9
06
e9
ef
0f
f7
03
0e
eb
f7
14
17
10
15
de
0d
0d
fc
0e
0b
0f
0d
db
05
18
07
f6
02
16
1d
05
f9
e4
00
cf
10
03
05
03
e5
09
31
ec
f5
01
2c
11
02
06
fa
f5
ff
01
fb
fe
16
ec
18
e9
06
ea
05
14
fc
00
2a
e8
ec
15
f0
fd
e6
f9
00
20
f5
ee
d9
09
e9
0f
0c
fe
ec
19
18
0e
e6
f2
f4
f9
07
fe
0f
15
15
fb
02
03
1e
17
f9
02
fe
0f
0e
ee
0a
e9
ec
f3
e8
f3
00
00
05
f0
04
fa
0d
0f
f1
ee
f1
04
04
de
16
fe
f0
ed
0e
fb
1b
f0
13
ed
ef
0a
ff
e4
18
01
f5
12
0b
e8
02
13
f3
fd
0c
d7
01
23
f3
2e
de
08
09
f5
1d
e7
0b
f4
fd
02
fb
ec
f2
dd
0e
f8
16
ee
06
07
f7
17
00
23
fd
e8
16
07
0c
f9
15
18
f7
0c
10
1c
e6
ed
e4
f0
10
e4
ed
02
ff
ec
13
e2
08
ee
1e
13
02
24
fe
16
07
09
1b
f0
f5
1b
06
1b
20
f0
18
f5
0b
fc
f1
f9
0c
1d
15
05
0a
11
1b
32
eb
eb
fe
0a
14
00
f4
f0
e2
ca
ec
f5
0c
f8
e2
fa
e6
13
10
f9
03
f6
eb
f3
14
0e
f2
e2
f1
fe
20
f6
fe
fb
d7
18
0b
f2
e3
0b
f6
ee
03
0c
e7
1d
fd
07
20
f1
04
0c
05
06
db
ef
0c
0a
f7
f9
2f
08
0f
fa
e5
fe
0f
dc
11
f9
f4
0f
f7
e9
fa
ff
02
07
10
0b
16
f7
f0
f8
0d
f7
f0
22
f6
f6
18
f5
0f
ef
0c
07
03
00
0d
10
1c
de
07
06
0f
ea
e6
f8
04
f6
f5
01
f9
ea
f5
f0
e8
23
f0
00
f8
fb
03
eb
0f
04
f0
ff
fc
f3
f2
04
fa
f5
e9
10
24
eb
ed
f5
f7
f0
28
0f
08
15
f2
07
0b
fa
32
ff
ef
1b
e5
f1
fa
ed
e6
f9
f6
0e
f1
f6
17
20
0f
11
0d
24
10
fa
00
ff
ed
e0
1e
fb
f8
fd
f4
ff
0c
e3
f5
f1
fb
fb
02
f0
0e
1a
e7
15
f2
e7
dc
01
01
ee
ed
f8
00
05
ec
09
f1
fd
ff
fe
e3
f4
ef
eb
04
f5
0a
13
03
02
e4
fc
17
f7
06
e4
fc
f0
00
f1
f6
0b
18
f9
0d
e9
ec
15
12
d8
fd
11
e5
ec
03
f6
07
08
0c
f6
fa
f1
07
00
18
0f
02
f8
eb
09
f0
02
f9
f9
05
e6
2a
ec
1c
f6
ef
f0
16
20
1b
0f
ff
0b
10
00
00
0a
06
0a
f7
0b
10
f8
00
14
02
ff
f7
00
0f
11
0d
17
18
e5
d9
df
0a
f8
ef
f0
fc
0f
04
23
f2
fb
0d
03
fe
12
18
ff
ea
08
12
09
0f
fb
0f
10
fc
06
27
fb
f8
1d
ed
fc
15
2e
15
07
e9
e7
12
ec
ea
08
1d
13
08
f1
03
e5
f2
09
11
fe
fd
f8
04
fd
0f
fb
09
fa
0e
f7
0e
f2
07
17
f8
04
f7
07
f5
f6
fb
f3
0a
f0
1c
ef
e3
1f
f7
01
07
07
0c
ff
dc
fe
f2
04
f4
05
01
ee
ee
fa
18
fe
08
12
0f
01
04
fc
fc
16
ec
fc
01
f9
eb
f2
18
13
e4
f9
f0
ff
0a
f4
08
e3
e3
ff
08
0e
ff
e5
16
e8
0a
db
d6
ff
fa
ff
f8
11
10
f4
03
f9
13
1f
03
12
07
fc
da
0f
0a
de
f9
ea
fc
02
fb
fe
fc
f7
00
e8
07
0e
ee
ed
f5
f3
0f
04
07
09
f7
f3
04
01
00
0e
f1
12
08
f0
05
ea
eb
ed
fa
07
fd
0b
23
ec
f4
ff
0d
03
eb
07
f7
0e
f6
f9
fc
f0
fb
0c
07
01
f8
f0
00
09
f4
0a
01
f6
11
fa
11
19
05
03
0e
0b
0e
19
01
01
ec
f2
1a
ef
fc
fd
00
0d
14
11
05
10
f4
21
f3
13
0c
08
01
18
02
e3
ee
12
07
eb
0c
de
fa
e6
f7
05
f7
f7
0e
00
0c
0f
0b
00
10
ff
eb
fe
f8
06
10
eb
fd
0d
04
fe
1f
fb
05
09
fc
0a
ee
07
07
02
d6
0e
1a
14
e7
08
f8
ec
1a
fc
fe
01
de
0c
f8
0b
02
f5
0f
ee
ed
ec
07
0e
ed
09
14
0d
20
ef
f4
fe
01
13
fa
01
10
fa
00
fa
05
14
f5
fe
fa
e9
14
fa
0a
12
12
07
fa
ed
1d
ff
fa
04
14
15
17
09
e1
fc
13
02
0a
1d
01
f6
eb
f5
1e
05
08
03
25
0e
12
f8
f1
da
09
24
00
d8
14
05
fe
f4
e6
0f
f7
fb
24
08
07
06
ef
15
ff
f9
ed
1b
f0
15
f0
f5
07
03
f7
f4
07
f6
18
0d
13
ee
14
0f
ef
0b
09
f5
1b
ef
0a
05
20
0d
f8
18
f6
0b
f3
09
ff
ef
f3
0a
0c
f4
05
eb
0d
13
11
ee
0c
07
02
f3
03
ed
ff
ed
02
ed
04
eb
08
e9
fb
ff
ff
fa
fa
18
17
12
f3
0e
12
10
ee
fd
06
0f
01
f5
fe
ea
f8
12
03
03
e2
16
f6
f9
19
0c
f4
fe
e7
07
f5
f4
04
f6
fe
f8
f6
ff
05
ed
0e
26
08
09
f4
ff
f0
fb
01
ec
f9
f7
f2
09
0e
f6
0b
fe
04
04
f6
08
17
fe
fe
f3
fd
fd
08
fa
e5
13
18
e8
eb
f9
07
12
02
e9
fe
f1
f3
04
09
0f
00
17
ef
f9
01
f1
f6
03
07
01
1c
fb
09
01
f6
ff
fb
06
02
0f
0d
07
11
02
1e
e5
00
08
fe
f7
07
fb
de
e5
02
ff
29
f6
02
17
d9
07
1c
17
e6
0a
02
01
0b
05
0c
0e
f3
fb
02
e6
f9
0c
ed
f4
14
10
f7
f4
09
f7
e6
e1
eb
f6
05
0d
fc
e7
f7
e2
0d
e7
f7
f8
00
0d
f9
fa
fd
d9
1d
2e
f8
17
d8
14
f8
f7
f0
f3
fe
fe
eb
f6
01
05
fb
e1
07
f8
ff
14
1c
ff
ed
e1
0c
fa
ed
f1
fc
fd
03
f9
f1
03
03
fd
f0
1f
ff
11
1d
f7
23
1d
fe
eb
15
fd
ed
ea
f5
15
fd
0c
f5
02
fd
03
f8
fb
fb
ee
f1
fb
04
f3
fc
f1
08
02
e9
18
e4
09
ff
04
fb
1c
08
1b
e8
fb
02
fd
00
fa
09
f5
11
e3
16
ed
03
f0
fc
00
09
04
20
fb
09
09
1f
ef
eb
eb
18
03
e5
f6
17
f2
f4
08
f6
01
11
0b
f1
1f
01
f0
f3
0c
e1
f6
02
f2
fe
f7
09
0e
00
f2
f6
fc
f8
18
ff
0a
03
fa
05
fb
04
fb
0d
07
e5
11
09
e9
ee
00
04
00
12
e0
e3
15
0f
23
04
f5
03
0f
e8
f3
fa
ea
f5
e7
14
0e
f0
f3
08
ee
fc
0a
f6
0a
d8
ff
14
f9
0d
07
08
f6
e0
1c
07
0e
fa
03
0c
fc
f8
15
18
12
2d
07
06
12
2b
00
f8
ef
ec
f4
1a
fd
10
05
ef
0d
e5
04
ef
0d
04
f2
cf
06
ff
f3
14
ec
23
ff
0e
00
f1
06
ee
0e
0d
30
02
00
fb
15
23
e5
e5
03
04
fa
16
f9
17
0b
04
01
11
f7
df
ee
f6
fb
ed
ee
e1
e9
e1
ed
18
f4
f0
fb
08
e2
01
00
0a
10
1e
15
09
10
08
0b
ef
f4
00
11
06
fc
0b
14
09
2a
02
08
03
05
e7
02
0a
f5
fe
10
09
f5
02
fe
ef
e4
18
19
17
f9
f9
0e
15
e6
f1
e7
01
03
19
15
31
fd
0f
f2
15
13
13
14
00
06
fe
0a
1b
ec
d5
fa
06
f3
ff
02
04
02
10
08
f4
0d
fc
e5
f5
fd
24
28
de
27
fc
27
f8
1d
f4
1b
fb
e7
0e
ee
0a
0b
06
eb
07
f3
1b
e3
09
0e
e8
f1
03
ff
13
e7
ee
0d
07
00
07
11
0c
f8
ee
d7
16
d3
05
07
e8
ff
04
ff
ed
17
e0
07
f2
02
0a
f5
29
18
f5
fb
f1
0b
f9
fb
eb
0d
fd
0a
18
17
f7
0b
dd
12
f9
ee
10
02
0b
08
02
03
12
01
04
28
ee
fc
02
0b
fb
08
0e
fa
0c
1c
fe
ef
05
05
0b
fb
f1
0d
e7
00
e5
ef
e4
14
07
06
d9
fd
f3
19
fa
fb
ff
f0
02
fd
20
15
eb
f6
f7
05
f9
1f
f4
18
06
fd
0d
17
08
fd
f2
14
e2
0f
f6
05
f1
04
0a
19
dc
00
f8
03
01
07
e6
14
0d
f8
ee
0e
fa
f6
0a
09
14
13
f8
e1
dd
e9
2f
ef
fd
0e
f5
fc
fb
e7
02
fa
f1
fc
02
fb
10
01
ed
13
0e
0f
06
10
23
ea
f4
07
f1
1b
eb
0d
e9
fd
28
f2
df
17
e8
23
09
dd
07
10
fb
0d
03
18
0a
11
01
0a
1f
f4
07
ea
00
fb
04
eb
bb
03
f9
fb
11
08
e3
05
04
1f
07
d8
f8
15
fd
0f
08
0c
0e
22
ff
d5
00
1f
03
01
e6
08
21
12
f7
ff
0f
26
08
09
f6
19
16
ee
e1
11
f6
11
f2
fa
f2
e8
18
f6
04
02
05
26
12
08
26
19
22
04
f6
0f
1e
08
f4
f0
05
1a
fe
01
f1
0e
12
29
f2
ff
22
0b
fa
02
00
0f
f7
09
fa
07
08
28
1a
06
f2
f7
f7
19
f5
01
f9
ee
1b
21
0e
ee
ea
15
10
19
1b
e6
fb
12
e8
f1
ec
04
ef
1c
ec
02
07
01
f8
21
f6
fd
0b
10
fc
1c
07
0c
f0
07
f7
ee
ff
0b
f2
f0
02
fb
ea
f8
04
02
00
02
fb
e4
04
eb
00
0d
eb
fe
0e
09
0f
f3
07
07
0e
01
e7
00
ea
f5
10
de
f4
ec
e2
04
d8
e5
09
f8
1e
10
f3
12
16
f6
10
fe
14
07
f0
ef
f4
f2
03
f2
04
e4
ec
03
f7
14
0d
1b
18
fa
1d
14
fa
04
10
17
04
06
f1
02
00
f8
04
d6
07
1a
f3
fe
f0
14
37
13
00
f7
e3
f9
02
02
db
1e
ec
de
11
02
ef
12
d1
f6
f7
07
0e
0e
17
0e
eb
fa
fc
21
f3
f1
00
13
f2
ed
ef
d9
e7
ed
0b
f6
02
ea
14
18
f9
15
e0
0d
db
09
e6
e5
0b
20
d8
00
2b
10
1e
fa
1c
04
eb
f3
0c
ec
d7
fd
ea
07
ee
02
08
fe
01
04
0f
17
f9
e4
15
f6
f1
07
03
eb
fa
22
e5
1a
0c
05
f6
06
f0
10
01
fb
df
0f
fa
1d
ec
15
fa
01
f3
ed
f6
ec
02
fc
09
05
fb
00
10
f8
fa
fd
06
ef
21
06
10
f4
04
ef
f4
ef
eb
e4
29
f2
0b
e4
fc
14
18
e4
f5
22
11
f6
ec
f2
e8
f7
14
1e
f6
0c
08
e6
f0
09
02
21
dd
f8
f9
fb
0e
fb
fc
f0
ea
f7
ec
ee
f2
03
03
13
f2
0c
07
ea
13
eb
fe
12
fc
ee
fa
2b
0e
0f
ea
00
04
fd
ff
03
01
07
07
17
02
f0
f8
f4
f2
03
10
02
f5
0a
01
fb
f5
f7
0a
ef
f9
f6
11
e0
ee
09
d8
04
03
fc
07
0f
14
f6
f9
f7
20
0b
02
e2
ed
08
02
f0
f1
2c
12
05
ef
d9
0a
0e
00
fc
fd
f2
ec
25
f9
f8
0d
ef
f5
02
f5
18
0d
00
1a
eb
14
02
00
15
e3
07
0b
f1
10
f8
05
fd
04
10
13
14
f5
09
1f
0e
17
0e
f7
01
ff
0e
fb
df
06
0a
db
1f
e5
06
f4
09
0e
02
dd
df
17
ee
30
f6
22
1f
01
eb
fa
f3
f8
09
03
0e
17
f4
00
06
16
10
09
fd
03
09
ef
06
0c
ee
17
ff
ed
18
f1
06
0a
eb
f3
04
f2
0e
18
f8
01
22
15
fb
ee
f7
00
01
df
fc
ee
fb
f3
03
f8
14
19
1a
11
1c
f0
f5
fe
08
0f
04
f6
04
11
03
0d
0f
ff
f0
e5
f7
0b
0c
f9
fd
ef
04
1c
16
10
e5
08
03
09
0f
09
ff
f6
09
f9
11
f8
ff
08
1b
f3
0d
f2
d5
fb
f3
03
e0
11
20
ed
04
ec
0b
12
dc
03
09
1a
13
f2
fc
0f
fb
f8
f1
f6
02
02
02
ef
e0
00
f0
06
ff
07
0e
f5
0f
e5
ea
07
e7
09
0b
f1
f6
f9
00
00
00
f3
13
f7
ff
fa
04
22
04
0c
1f
1a
14
16
fb
ff
fa
f1
ff
0a
ef
19
f4
12
09
00
15
07
1c
07
09
19
03
f9
f3
03
07
db
00
07
0e
fd
e3
14
f3
01
0e
f8
f1
09
ed
00
03
00
ec
08
02
05
e3
f6
02
f2
00
ef
fa
fb
fb
0e
07
02
09
f9
fe
f0
fe
fe
05
06
ec
12
ff
0b
ed
01
e6
f8
f9
fd
01
08
e1
e2
fd
ea
08
f2
ea
ec
f3
14
ed
e7
0b
0d
e9
dc
0d
10
f6
00
17
12
eb
f8
e5
00
e1
09
f7
f0
ff
ff
26
f1
f2
f2
1e
0d
0c
f4
fb
0c
02
08
fc
05
fd
ee
01
ed
04
e0
f3
e5
11
04
eb
ff
fe
fa
f9
f4
05
ee
ee
e6
fe
03
0e
07
12
fa
1b
04
f8
07
04
02
e2
12
f6
08
0a
05
f4
d6
0b
0c
f7
ff
ef
f8
05
16
0f
02
05
0d
1f
f5
21
fa
0f
fc
e8
0e
14
ff
f3
fd
12
fb
04
ed
ec
05
2a
06
e1
03
1b
03
fb
01
e5
00
05
06
09
f3
f1
ea
ee
ff
01
0f
ee
07
0d
ff
0f
11
0e
ef
06
13
e6
03
07
02
06
ec
f5
ff
f8
e2
14
fc
ec
f6
17
f4
12
f5
0b
0f
0c
03
0b
0e
fa
f9
ef
f7
f0
f4
05
ee
01
f9
00
02
fb
19
09
04
06
f4
0f
18
0e
25
ee
f9
fb
fb
06
09
0e
23
ff
11
f9
fa
04
0b
03
ee
ee
fa
08
e9
06
fd
18
20
02
f9
f9
ee
10
e6
00
0c
f0
17
03
01
0e
04
ee
f5
21
02
f7
39
0a
fd
07
0e
0d
eb
15
0f
01
18
f9
0e
22
1a
11
d8
05
09
e5
04
e2
fc
07
f0
f6
f6
1a
fd
01
f5
f8
fd
05
ff
ee
16
46
0e
f7
08
ff
ed
1b
06
f4
05
f8
f8
f0
15
14
01
0b
05
f8
ff
05
03
0e
f8
01
fb
fb
11
f0
f7
f4
f4
ed
05
03
00
14
ea
f9
e6
f8
07
f2
fa
48
fd
fd
0e
0c
09
02
0a
1c
09
df
0a
fd
fb
0c
f4
18
ee
09
08
03
ec
07
00
fe
1b
1a
04
04
dc
13
e0
f7
09
06
02
19
08
07
f5
00
00
dc
f1
ec
1c
05
10
fe
0a
0b
0e
fa
0f
f5
f9
ea
02
01
06
0d
04
0b
27
da
fb
d6
03
ea
e9
0d
03
10
08
00
0d
03
f9
fd
fd
ef
0a
09
06
0e
00
20
f4
f6
1d
0e
07
ea
14
ed
e1
ec
f6
e3
0e
04
eb
f7
02
4d
0e
f8
f5
ec
fd
1b
02
09
ec
e7
f9
fa
04
ee
0d
0a
10
05
00
16
fe
f6
03
f5
e1
0c
19
fb
00
0a
dc
06
f6
f8
07
f2
f5
08
14
09
ed
15
01
13
f4
01
f8
f9
fd
fd
dd
00
00
18
0e
06
ff
07
05
0d
f1
ec
00
f2
f6
d5
ff
fd
06
f0
08
f3
1d
10
fe
eb
e0
f1
0a
0c
0f
fd
0b
fa
f1
fb
0a
17
06
f9
14
0a
ed
1d
05
00
e3
08
ff
ef
f7
03
09
03
de
ef
fe
f8
f8
f9
fe
16
ee
06
03
fb
07
01
f5
08
f4
00
fa
fa
ed
12
eb
13
1b
09
0b
cd
1a
04
d4
01
10
fd
14
0c
1d
fa
fa
02
fb
12
11
eb
03
fb
11
e6
15
08
f7
f7
d0
ff
e8
ef
00
f6
0c
f3
03
07
ff
fa
04
fd
21
00
0b
f1
f6
19
00
0c
ef
15
03
18
f8
f9
03
16
fe
07
f9
f6
f3
f7
05
ff
ec
f4
09
f4
f5
07
fc
0c
f5
11
14
fe
0b
15
08
ff
0b
08
ef
03
2d
eb
2e
f0
fa
1d
0e
12
18
0e
e1
1d
06
ed
dc
f4
0b
f8
f7
fb
03
ff
f7
e6
ef
f6
09
e6
11
0a
f0
d8
cc
10
28
f6
fe
09
f2
e6
fa
1d
f4
08
18
12
fc
ea
21
0b
ef
0e
10
0c
ee
d5
16
21
17
fb
20
f9
0c
de
ee
27
0f
08
18
03
17
ef
e0
11
16
dd
f8
04
f7
e5
fb
2a
f5
03
16
11
fc
05
fe
15
f7
fc
fc
de
f2
00
f9
11
e4
ff
f0
e5
f2
03
f9
22
dc
fb
f9
0e
f0
05
f8
00
fd
f8
02
12
02
f9
0a
de
03
f1
0b
01
f5
ce
00
ee
fa
17
fa
04
22
d5
2a
f5
13
f8
08
d9
da
1b
eb
cf
f2
02
0c
07
fa
10
06
0d
07
e9
1a
f8
f8
fc
06
03
f0
fc
08
00
ee
15
fc
04
06
fc
df
eb
05
ee
07
f1
01
10
e7
27
16
fe
15
35
f1
1d
e9
f6
24
1e
02
f1
07
05
04
1c
f1
19
fe
02
e7
f3
0a
db
f4
f1
fc
00
e2
e0
fc
14
03
fd
f3
f2
f4
ee
fd
0d
e1
0f
f9
1e
1e
fc
0b
da
ef
05
ea
0b
02
e7
15
14
1d
04
03
fe
13
f7
06
ff
e6
03
0f
ef
f1
fe
17
f6
d2
fd
03
e3
26
00
19
1d
0c
04
0b
08
f7
08
07
fc
0d
09
10
06
f7
ec
26
03
01
15
fb
fd
26
0b
0f
d7
10
0b
10
ff
05
f1
e8
fc
fd
20
f1
ee
11
f4
06
07
18
fe
16
04
eb
03
fd
e8
ef
e7
1b
03
09
d4
06
eb
10
fb
f3
00
f8
f4
ee
e2
0f
e3
f6
05
1a
07
0f
10
1d
ef
0c
08
07
fa
ec
0f
06
e9
13
05
30
f8
05
1f
1b
fb
ff
0d
cf
02
00
11
fe
f0
0e
ff
1a
e8
2c
25
f9
08
16
e7
11
16
16
e4
fe
e3
0c
14
22
ff
fd
f8
ea
1f
ec
f4
38
ed
04
05
fa
f3
09
14
f4
fa
fb
eb
ea
00
fd
0d
15
fb
09
05
03
fe
f6
13
1c
0d
28
07
04
fc
ce
19
2a
fd
ee
03
15
06
04
e9
13
1e
05
19
f1
f5
01
e7
2e
1d
1e
01
0b
02
08
f7
15
11
dc
0e
fc
e4
01
da
01
23
dd
ed
ee
ed
ee
23
15
f0
0f
03
04
18
17
df
3b
02
15
00
07
f6
e9
0d
03
14
03
eb
01
0f
d5
ff
e8
ef
02
12
f1
18
04
fc
1b
f2
05
0f
f7
0e
02
0e
0f
ee
de
03
d7
13
06
f7
f7
11
04
fe
04
f8
f6
05
f8
f4
ff
fc
15
13
0c
0c
06
0f
0e
0c
05
e3
08
04
01
14
0b
08
f7
01
f9
12
f2
f7
00
f3
f9
e5
09
ef
09
ff
f0
1a
ff
17
fe
11
e8
f1
01
0e
11
14
1b
07
18
fe
20
0b
ee
06
01
03
eb
12
fd
07
1d
ec
ff
f3
00
09
0a
07
08
ef
05
f0
07
0e
f6
03
0b
18
0c
02
fa
f1
f1
0f
e5
0c
ff
04
1b
19
e0
fe
2b
06
05
1c
0c
f2
f8
f8
f6
d1
e4
e2
16
18
f9
f7
0b
f7
ed
eb
fc
f5
fa
f9
ff
fc
1f
f7
fc
fc
0c
1c
f1
0c
01
f5
fc
0a
e9
e6
ef
10
01
00
04
de
14
02
06
0d
0e
07
fb
11
15
fc
03
09
f9
11
fc
ec
ff
10
03
f9
e1
f2
23
ff
f4
fe
f6
26
fb
fd
08
0a
f0
06
fb
ed
12
0e
01
ee
0b
ed
f8
10
07
fd
f6
f7
00
07
eb
fb
e3
f5
e7
03
ef
04
0e
10
f9
d7
f7
f8
f9
03
07
05
e2
fd
1b
04
0d
07
14
06
12
12
07
fc
ef
13
16
f2
0c
f3
f5
0d
f9
0d
fc
fc
f8
1a
ff
02
f2
f9
08
0c
15
0f
05
0d
04
fa
f5
e6
14
f8
01
0f
0c
03
06
0e
fc
01
fa
ee
07
f8
00
fb
e9
f6
01
04
f1
10
f1
fa
0a
07
e9
fc
fd
ff
0a
fc
11
17
df
07
fc
f0
ff
ef
00
0b
09
17
d5
f8
f4
f6
18
fc
04
0d
ee
14
0b
df
03
f6
ec
00
f1
00
f5
f8
fc
fc
f7
fe
e4
fe
f5
fb
00
07
11
0e
0e
00
ff
f0
06
16
f0
ef
ff
26
11
16
15
16
e6
05
e6
ee
11
24
e9
ff
0d
13
14
f9
f4
10
09
fc
e5
0d
ee
fc
fe
09
f9
fe
fd
f0
fc
fb
d8
01
fe
fd
16
07
0a
fe
f2
05
f5
e0
fb
09
ff
06
0c
00
0f
fc
ed
00
f9
03
f6
e8
17
f6
fe
0a
09
e3
f0
00
17
19
ee
08
02
07
07
f2
0f
f7
ef
fe
1c
10
fb
02
0f
12
fe
08
ff
f3
25
ef
fd
0a
13
fb
05
13
d4
e9
f7
28
e1
25
15
fe
0d
fb
10
08
fe
16
eb
1a
fe
00
f7
02
08
fa
1f
12
fd
f0
20
fc
f3
fd
0b
fe
fe
ef
19
ef
10
f5
08
e3
02
fb
01
04
0e
2b
fa
f5
fc
fe
00
01
fc
09
07
16
e6
fc
fc
f1
01
fe
f0
fa
0c
f4
f8
16
ea
fe
ea
ed
1a
09
e4
ea
10
10
07
f0
eb
e8
11
ed
0a
f7
04
05
08
ef
f6
ed
e8
10
fc
11
fb
fe
fb
07
17
e9
08
11
f9
f0
06
ee
f4
09
13
f7
fe
fc
03
ff
05
fe
e7
ff
f2
ed
08
fe
0d
ee
0b
e8
ee
f8
fa
03
0b
f4
26
08
0b
eb
18
04
1c
ec
12
10
f0
ed
f8
05
12
04
f3
d2
0e
08
05
f4
e5
ed
07
ef
f3
15
f9
0f
f0
ef
0b
1b
f8
13
eb
fd
00
e6
f1
03
ee
12
05
f8
12
fe
ff
eb
12
f9
09
ef
e9
f2
f3
f0
0d
f4
05
13
f3
0d
d8
11
01
00
0b
03
03
fa
00
fe
0a
dc
ff
f5
05
23
04
db
18
f0
ea
08
12
09
fb
dd
05
0a
f0
e9
e3
f7
f5
ff
0d
ef
16
17
02
01
0f
f7
e2
0d
12
16
10
0e
08
f3
f9
1b
f0
08
04
0e
fd
f1
03
ed
f5
ff
f3
09
ed
18
fa
08
21
04
06
13
f4
07
1c
f2
00
05
f9
0d
03
fe
f8
fd
fa
f1
ea
0a
f9
f4
10
0b
0a
ff
fa
f2
ef
fe
fe
fd
f3
f7
ef
e1
02
ee
00
04
fb
fd
14
eb
0a
fc
ff
08
f0
f5
f5
09
f7
10
06
06
34
03
29
07
05
0b
02
00
03
fe
14
f0
0d
f2
ee
1c
fc
01
09
f6
13
10
05
05
ff
ed
06
10
03
12
11
fe
02
06
e4
01
fa
0d
fd
1a
f4
07
f0
0d
0d
1a
eb
14
1f
17
f1
f8
f6
1d
08
11
f8
fa
0f
fd
15
07
15
e8
1d
e5
f2
fe
f2
18
13
0d
03
0e
ec
ec
0c
ee
09
0a
0b
fa
e7
03
fa
00
0c
ff
09
f2
fe
fd
ef
1b
0d
f8
0b
05
04
f3
ed
e3
f1
f8
09
09
01
e7
d1
01
25
21
00
1b
00
e6
f6
0f
02
f3
06
f4
14
0e
20
17
f9
1b
01
f6
01
f3
19
02
fd
e8
11
f4
35
1d
13
e0
0b
36
ff
fe
0d
f9
f1
0d
f1
01
f9
26
ff
ee
d9
02
06
f2
ff
0c
11
09
fc
15
f5
ec
14
f8
13
f3
0d
0b
ff
e2
e5
f8
01
f6
ff
f7
17
20
fb
f3
08
fd
f3
19
f9
e8
07
03
08
0a
00
03
da
f8
06
f8
24
f9
05
18
eb
f6
ed
0a
07
fd
0c
e5
15
02
0c
0c
1a
f1
f2
f0
20
fd
2e
f4
ef
04
e3
0c
f8
05
fe
fe
0d
03
f6
d6
fb
fa
fd
d6
07
f7
fa
03
f3
fe
fe
ef
f6
01
06
07
ec
06
1d
f7
f8
eb
18
dc
e6
07
0f
e2
0e
02
f3
05
d9
14
fc
23
00
21
ff
f7
09
03
04
01
0a
0d
08
03
ff
f3
0b
05
ff
f7
fa
07
05
1d
f3
09
01
27
f0
11
05
12
06
eb
07
03
e4
f5
e2
00
07
06
1a
f3
0b
ed
f5
0d
f9
fc
ed
f8
04
17
06
0e
07
04
05
fd
f8
ec
0c
f9
0d
07
fa
ed
ca
fb
07
0f
0d
f9
fd
08
19
fb
00
1b
fa
00
13
f8
07
15
15
d9
f6
13
16
e4
fa
fb
0b
01
f8
10
0f
e4
f2
d4
00
14
f0
fc
e4
fd
f7
ea
06
00
11
f2
05
13
fe
ee
17
fc
f9
f2
0b
09
00
fe
e0
0c
23
fd
ea
fe
17
10
08
eb
e8
fc
04
fe
e1
ff
17
17
f8
1f
17
18
fd
fd
f2
f7
06
07
1b
01
e8
ef
f8
fd
07
00
fa
0d
ea
e2
06
01
f5
02
06
21
00
0c
ed
10
fe
00
e3
04
08
1c
01
ff
ff
e0
0a
f2
f0
f8
fb
19
0a
00
01
ec
03
11
11
0a
14
f4
20
f5
fc
fa
f4
f9
fa
e8
f2
f8
fa
ec
f3
fb
07
03
e3
f5
ef
ec
f8
13
0e
02
ff
f1
03
f9
ff
e6
0b
10
fe
1a
f9
03
07
12
19
07
08
ee
1c
e4
f3
f6
fd
1a
f1
01
02
03
00
fe
01
08
09
f8
02
ef
0d
01
09
fd
e5
0b
0d
f9
fe
f6
fd
12
0d
01
1a
f4
10
fe
01
04
fd
f5
13
fb
11
19
00
05
d9
0d
fd
fd
f7
f6
fa
c7
fd
02
07
f6
1f
fd
0f
09
fb
00
08
0e
02
02
f6
fd
03
04
f8
fa
fa
13
12
11
f4
04
13
ed
00
17
0c
eb
fb
ec
05
f6
fd
0c
09
f6
0f
f4
0e
fe
d0
fe
02
fd
f6
f8
fa
10
04
f8
e2
fe
01
f0
0f
f4
16
08
fa
e2
f0
11
f5
08
04
1b
04
00
ef
ff
14
ee
ff
19
15
f0
08
0b
04
f0
fe
fd
1f
e9
09
12
07
1a
1b
ff
d8
fd
04
09
e7
11
0b
f6
01
f2
17
ed
fc
0b
ef
fb
04
02
ff
fe
fd
09
f5
11
f8
ee
11
f7
12
e2
0c
f5
f6
08
f0
f4
09
0b
0e
ed
15
fe
fa
f7
ed
09
de
fb
17
e5
04
fc
fc
f9
04
09
e6
0d
11
03
0a
04
0a
e9
00
df
1f
03
01
f5
f8
f0
00
ee
f4
0d
f1
f9
ed
fa
f7
f6
06
f0
0a
04
03
ff
fd
ee
f4
ee
16
ed
1c
0d
ff
ee
ff
05
13
fc
f9
e8
06
04
15
f6
21
f8
fe
f9
e3
fe
f1
fb
ee
0e
03
fe
ee
0d
f1
10
fc
13
dd
15
fa
e7
f6
fd
fd
1f
ea
df
12
0f
11
15
24
14
f4
01
f7
0d
ec
fd
0e
14
f2
10
0e
f2
0d
f4
ec
ff
11
0d
e2
19
f0
fe
f8
fd
09
25
f2
04
17
fb
1e
02
1a
13
eb
fb
23
04
f7
15
f4
fd
d7
05
07
20
ef
fb
12
05
f2
f5
06
fd
0c
1d
fa
1b
f2
06
00
e8
fa
0d
03
25
06
ee
fb
06
b2
0b
0a
f9
07
0a
f8
f2
ef
21
fa
ca
f5
ea
ff
f3
0c
f6
16
10
ec
04
0a
e3
ea
1d
f4
21
15
19
06
ea
ec
02
f6
1f
f9
04
0f
17
02
e2
f1
04
ff
15
05
fe
f9
f6
07
e6
eb
d9
d6
0c
11
eb
0f
f2
f6
f4
04
fd
03
fd
e6
f6
f0
11
ff
11
0c
e4
fd
12
0a
f4
04
08
0b
f4
06
f3
17
f5
f9
f9
0d
f3
ea
f6
0a
f2
0e
02
02
f5
e8
ff
08
ec
fe
fc
f5
f7
04
ee
fd
11
f1
15
16
eb
23
08
f9
f9
07
fc
fe
f8
f3
00
ea
14
01
ef
f9
13
fc
04
0b
00
16
ff
fe
0b
ef
ec
f3
05
ff
f4
ff
16
09
01
14
e4
fb
0c
f6
f7
0a
10
1c
e7
f6
f8
f6
f5
12
16
f0
f2
eb
0d
08
f4
f1
f7
1c
07
0f
12
f5
10
11
f7
0d
f3
ee
f9
ee
f3
0b
fa
04
07
fe
05
08
0e
05
dd
ea
fd
da
ef
f7
0e
01
fb
14
01
01
f0
03
25
1c
f2
0c
08
06
00
f5
0d
e9
02
fc
11
fe
07
ea
f1
16
06
0d
08
fd
03
f0
2c
07
15
eb
00
0a
f6
01
09
14
14
08
04
26
e7
f2
cc
05
ef
08
f3
09
02
f0
06
eb
2d
ec
fa
f5
eb
f4
0f
fd
11
03
08
e0
07
fd
dd
05
0f
1b
11
f3
0e
09
f4
1c
fa
f2
f5
00
07
eb
ea
01
fb
11
0b
f4
fe
f9
0a
fc
de
fb
01
fa
0c
e6
10
11
ee
ed
ff
02
08
15
00
0e
e6
19
f8
0b
07
0a
07
11
03
0e
ff
d7
f9
fc
ff
17
02
f8
0b
f9
fb
0c
00
c5
ef
1a
03
ec
f9
1f
fc
e0
07
f7
fc
0a
ec
f5
1e
ec
09
ea
f7
f9
fa
00
ef
07
02
02
12
0d
17
12
16
eb
0a
2e
f6
ea
fc
fe
e4
ed
fd
01
01
00
0a
fb
06
f7
f6
1f
17
ed
11
09
f5
03
f9
f4
0f
f1
f5
f6
1b
f1
14
f9
f7
df
ef
fa
04
0f
eb
02
07
19
f5
0c
03
0e
f0
06
13
fe
f7
0b
0c
f1
02
02
1e
13
f5
0e
17
0b
ec
16
ec
ff
0b
03
0f
f5
f9
ee
13
0a
f3
e0
e6
f1
0e
06
07
0b
06
f6
f5
f1
f6
0b
f2
f4
1f
17
08
0f
fd
df
06
ef
0f
ed
0d
fe
08
04
ed
f2
df
fe
24
f1
05
fc
0b
f2
09
17
00
08
f7
fe
ed
1e
f7
19
04
fe
ff
d6
04
11
f0
de
df
03
19
0e
19
03
f9
ef
12
0d
e3
f0
e9
e1
0b
ea
09
19
f2
13
f3
0f
e9
10
11
e3
f0
17
f2
ff
24
09
ff
f3
06
1d
1a
fe
eb
e7
eb
18
fe
f3
e8
07
e6
e2
f4
e3
fd
fb
02
17
0c
e1
17
f9
f2
00
fb
ef
02
e5
00
03
f3
0b
e5
d7
02
e4
08
f0
ed
00
f7
f7
07
07
08
f9
ea
12
0b
fa
f8
0c
03
0c
fc
ee
e7
00
f7
14
05
fb
06
06
29
00
f2
f9
13
ec
f4
fc
0c
fb
fe
08
f8
0a
f2
e9
f5
0a
02
1a
f6
2c
19
f7
f9
ed
0e
09
f2
ff
15
0b
e7
21
00
e7
12
0b
e6
17
e7
ea
04
e5
22
f5
ea
f9
f3
f1
17
06
13
fd
07
04
ef
05
25
fd
f9
fd
f7
f7
e7
1d
f0
f1
fe
13
f8
06
12
fa
0d
fe
0b
14
03
03
f3
15
0a
12
09
0a
13
e2
e6
04
16
f4
fd
00
ee
e0
f9
0b
21
01
f2
f6
f5
fb
07
02
f6
29
0e
0e
0f
f3
0d
02
ef
20
33
02
0e
f5
1e
03
eb
1d
09
10
e4
27
0b
ea
fc
0b
2b
0f
e6
f3
fc
f5
ed
00
09
e0
0b
05
f8
13
ec
f1
12
fa
00
01
03
fd
10
16
fe
38
00
1d
ed
fd
d5
00
fe
06
06
2b
04
f3
0b
f9
0f
f6
08
e9
fb
eb
11
e1
0f
05
07
18
f3
f4
f8
00
0d
12
fb
17
06
f2
fb
11
03
f5
0d
08
22
08
0b
02
f8
fc
12
2a
fc
0f
ee
02
f2
24
11
02
01
f7
09
f9
0d
04
0d
18
eb
e6
f5
0a
f7
ec
02
01
ff
db
1a
f8
25
cf
13
06
00
21
f5
f6
ed
07
f3
f1
03
03
f8
19
0c
fe
00
e4
13
05
1b
05
e2
ef
fd
f9
f1
0f
e8
0b
07
eb
eb
12
d8
01
07
fc
1a
12
11
fe
1b
09
f3
fb
0a
f7
e4
16
ff
fb
e0
f0
18
ea
fe
ec
12
eb
02
1a
07
00
f7
da
f4
0a
fa
01
f5
1e
03
08
fb
00
f6
08
31
fe
fc
fa
29
0c
1a
f9
01
eb
0f
1a
f6
f7
fe
02
0d
07
f8
f8
16
e8
fc
f8
04
04
04
fa
e6
fe
f4
f6
f2
f4
10
f9
0c
21
eb
01
fd
fc
f2
f3
18
f8
fc
07
df
1c
ff
08
08
f9
17
e4
0b
06
f5
1e
0e
db
06
e2
1f
fa
fa
f9
1d
02
f9
1c
f6
02
04
1c
f0
06
f8
0c
21
f9
f8
09
f5
0c
da
f3
0c
e8
f9
e9
05
03
fd
0c
00
0b
05
00
1f
fd
ea
05
f1
0d
f7
ea
f1
f3
0e
0a
fe
f9
f9
e9
fe
fd
05
08
fd
fe
00
fd
fc
eb
09
22
0e
08
19
f0
04
06
07
04
f2
fc
f3
10
04
04
f4
01
08
04
f7
16
f1
f3
06
fb
13
0a
f9
17
f3
ff
f3
eb
05
f9
0e
f9
f5
ee
09
f4
02
f4
f3
fc
ec
01
0b
fe
0b
03
06
03
06
08
02
ff
fd
fd
ff
11
02
e5
0c
f9
18
0d
02
f0
19
05
10
09
06
15
14
14
f5
04
f9
17
f8
fe
e5
f2
f5
fe
ee
ff
f8
fd
03
f3
0d
e9
17
10
16
00
00
0e
fb
ff
f4
f2
08
f6
05
fc
13
13
0c
03
fd
0d
1c
fe
0c
03
eb
14
00
f1
0e
e4
fe
04
e8
06
25
e2
02
e8
f0
fe
08
08
f5
e0
f2
f8
f7
f4
1d
fe
00
00
02
e7
03
f5
fa
04
f7
07
01
f5
f1
0e
0b
03
05
f4
02
03
06
18
07
07
e4
11
f7
1a
ee
e5
f3
f8
0d
10
16
d7
fd
fa
fa
0e
ec
eb
0d
f8
14
07
fe
1f
13
0d
11
13
0e
06
f6
17
19
f7
e8
ff
e8
ff
f7
db
fc
08
17
0f
09
fd
0c
00
01
02
f6
fe
0b
0e
01
0b
fd
0d
f2
f4
e8
14
e8
06
14
ff
f9
09
f7
05
fa
18
00
19
12
09
0d
0c
04
f0
05
06
09
fd
00
04
e9
f4
1a
fd
ea
ea
ff
07
02
f5
f2
0e
fd
f0
f3
04
f9
fb
09
06
fe
18
fb
0f
f8
0f
13
f5
0f
e9
0d
17
0c
fe
00
09
1c
e8
08
ff
08
1a
ef
0f
0b
03
fa
08
03
f3
07
dc
f7
f3
f7
f3
fc
e5
ff
00
ff
f9
ff
fa
f2
f0
f4
0f
08
f9
0d
fc
fe
f9
fb
f1
e5
f7
df
06
f3
f5
ff
06
0c
05
05
0b
0c
e8
04
fe
fe
f1
f1
02
15
15
f5
f2
13
fb
02
fe
08
02
20
f0
0d
17
12
f1
fb
fb
fe
06
0d
f5
02
03
07
0f
0f
ff
fb
ff
09
ec
03
02
fe
04
09
f7
07
eb
12
e5
e9
02
1d
ec
0a
0b
f6
f7
0b
06
f7
09
f9
f9
ea
f4
08
10
06
df
05
05
02
02
e6
0a
0b
16
fb
0e
fb
21
06
04
01
01
0c
f0
00
21
08
20
f5
00
00
02
fc
e8
0f
03
05
07
06
0a
fb
f3
e6
08
1b
05
02
f7
1a
e8
e5
fb
fe
0e
e5
e8
f6
04
21
e5
f7
18
11
fd
f4
e3
fc
04
05
29
06
f2
01
18
f4
f8
fc
fa
02
1d
f8
05
00
eb
fd
17
ff
0e
e9
1c
06
ed
0c
e6
f3
0e
1d
f9
0b
29
23
db
fe
0c
e2
01
f3
fa
14
f0
f2
02
f5
12
fa
e6
08
0b
26
df
0a
06
08
f4
0a
f9
17
f4
02
17
fa
08
10
fd
13
10
f3
28
ed
fa
31
d9
02
ff
f5
0c
1b
1d
09
fa
fd
06
00
0f
fb
0e
13
fa
02
ec
f3
fb
fd
03
0a
17
10
00
08
14
eb
ea
12
ec
fe
09
f7
17
fb
e6
10
00
f2
fd
fe
cd
f9
00
fb
0a
0b
ee
17
ee
08
ea
fa
01
06
0b
07
11
0a
0b
f5
f4
01
02
17
17
1a
04
f7
fc
29
e5
ef
0b
02
f9
0e
0b
03
04
e9
03
f0
fa
e1
e3
00
f9
f8
f0
10
08
13
f7
0f
03
03
0e
10
0e
fd
03
0b
07
20
f3
ec
f3
f6
fb
06
f9
fb
e7
08
f2
f5
f1
f0
f7
02
fb
ed
0f
f7
08
03
e6
f3
00
11
06
db
0c
ea
23
00
db
f5
00
f1
19
fc
f7
0f
e5
ef
f5
fc
07
fe
f7
19
f1
07
de
22
f5
dd
14
fb
f4
f5
f7
06
06
fc
13
f9
f8
0d
1a
ed
fb
13
e5
25
16
0f
08
06
e5
0a
f3
09
f3
f6
ee
0e
d8
0c
06
0b
fe
e9
e7
e6
e7
da
06
f7
fb
e9
fb
03
00
07
02
da
18
f5
0a
09
00
14
05
0e
f6
08
0e
13
f3
0c
eb
f2
e1
08
14
f5
ee
f1
e6
f7
fe
e6
03
e9
f1
f7
fb
05
f9
13
e3
f7
fd
0b
fd
04
ef
12
f6
15
03
11
ff
f9
f4
01
15
fc
15
f5
16
07
09
08
14
df
08
10
f0
0d
f2
13
0a
19
f9
f1
fc
04
e2
ee
15
1a
12
f9
01
fd
0b
01
0e
0d
09
08
fa
07
f2
15
15
30
00
20
e6
11
02
07
ee
e3
fb
03
0b
eb
ed
e6
09
16
f1
ed
fa
07
2a
1b
07
e1
09
f7
0f
18
e7
f8
0b
e7
1a
0b
e7
22
01
fb
fc
13
f2
07
f2
0a
fd
ce
22
0f
03
0a
03
de
15
0b
fe
0b
ee
e5
00
f0
fd
fc
1a
08
07
0e
f6
f2
db
fe
ef
0d
fa
f1
f8
01
16
ef
01
ef
0b
0d
0d
f6
e5
ea
16
f6
0a
f0
0d
12
06
0e
f7
09
fa
08
f0
04
12
15
14
05
20
ff
20
08
f3
08
f9
e6
f9
e4
ff
1c
fd
dc
12
f7
0d
e1
0a
f8
03
14
f1
ea
d4
df
0c
f5
03
e7
05
f9
19
fb
05
13
0a
f8
ed
06
07
fc
e1
1b
0b
03
0e
f7
08
eb
07
23
0e
04
e4
14
08
f1
16
05
f9
1d
f4
0c
f3
f7
09
e5
06
ea
11
1b
02
05
05
0a
17
12
e1
d9
10
eb
02
f5
e2
06
fe
16
04
f5
ff
f2
05
11
fc
f3
14
fe
29
11
09
13
1d
f7
e1
0e
17
0c
1a
f2
10
21
06
06
06
04
14
03
ec
fb
0d
07
f7
df
ea
03
0b
13
f2
05
f3
fc
0a
fd
f2
06
f6
0b
f8
fd
20
f2
f4
ff
07
fd
f9
0d
e1
e9
03
f9
06
f7
f5
f6
f6
0c
e7
f0
02
1c
21
f5
f8
0e
fb
02
02
fe
08
20
fc
fd
fb
04
14
0f
f9
1c
e9
f2
17
23
0d
07
08
21
fc
fc
fd
dd
f5
0c
05
ee
f3
f7
06
11
03
06
f2
22
01
f3
ed
00
fb
08
fd
f0
0d
fa
03
05
e3
01
0a
f0
10
eb
f8
e1
0f
21
12
e7
fc
fa
f0
18
0a
fc
d0
fb
fb
ec
e4
0d
00
00
1a
21
ef
f0
f9
f9
f8
f9
e8
08
f3
f6
e6
f9
dc
f9
09
fc
e4
f8
09
f1
f6
df
1a
eb
fe
f4
f3
e7
e7
f4
02
e2
1d
f8
f7
e0
ff
10
f8
0a
ee
fe
18
0c
f8
fc
f1
1a
02
03
16
03
fa
00
13
f4
17
14
09
ef
f9
07
1a
1f
23
f5
0f
e5
1e
05
f6
f8
08
ef
1a
01
ed
00
f0
08
04
0a
11
0a
f4
f7
0c
fd
f0
1b
f5
0a
06
fc
fe
f3
f1
ec
12
f7
f9
10
01
df
21
fd
dd
2b
ec
06
e5
00
fd
e0
f8
12
e9
14
fb
fd
fd
05
1b
e2
08
28
07
1c
ef
0c
e9
05
23
11
f7
05
ff
f6
f9
05
12
0d
08
fa
f6
ee
05
fa
09
23
ee
06
f0
fb
14
01
12
11
02
06
ef
28
14
0c
e8
f9
e1
e2
fc
f5
07
f1
01
06
22
e3
14
f8
fa
0b
28
e4
04
f6
00
07
16
f6
09
eb
00
09
f3
0f
fa
e3
ff
de
10
df
16
fd
fe
14
06
11
09
07
c6
ff
12
1a
13
f2
f4
f7
d9
d5
0d
ff
09
ec
1c
fe
0f
f6
0e
07
06
ed
00
fa
07
0b
13
0f
e8
f6
16
03
fd
f8
d9
fd
f8
f7
f4
1c
0f
02
ee
f4
0e
0c
d9
fc
27
07
eb
ef
fe
fc
fe
18
1a
fd
ed
0e
f7
0c
02
05
16
ec
1a
09
fb
f3
ef
f9
0c
0f
f0
0e
04
fd
e4
f9
fa
02
ed
e8
18
fb
f6
ff
ea
0d
1f
fc
10
04
ff
f3
04
fe
02
11
0b
06
fe
f6
03
13
f6
0b
08
08
f2
f1
18
f3
18
f2
f6
fc
0d
1c
02
0c
0b
06
f0
06
fd
05
04
0f
f5
f6
f0
f4
ff
f9
fd
ef
f4
0e
03
ec
f6
18
fb
f0
fc
f9
ed
08
17
06
0a
ef
04
0c
00
12
f9
f8
f4
09
04
0d
fe
06
ec
03
0d
24
05
02
ea
fe
f4
04
f9
08
0a
16
f1
ef
f8
e6
f8
1a
00
ef
0e
15
10
f5
01
e4
f8
0a
e0
ec
00
02
10
0c
df
15
f6
03
fc
03
f0
fe
ff
fc
f3
0a
03
1a
eb
05
07
ed
0d
e8
0d
fa
ff
1f
11
0e
f5
02
fe
fd
17
0e
02
f3
01
11
e8
e1
06
07
01
ff
f7
ec
0a
f9
df
fb
e7
fe
f0
f8
06
06
04
05
09
f8
fe
0f
0e
fa
04
fb
14
0a
04
26
e9
0c
0c
0b
03
e2
05
11
1f
f6
f8
13
fd
02
f9
df
e7
ff
f9
08
05
10
fc
fa
ff
00
f8
17
fa
e3
08
fc
36
06
ed
08
1d
f6
f6
f7
00
0e
df
03
eb
ee
e7
03
df
12
fc
12
e5
04
ed
d8
ee
0a
0d
ff
e2
19
12
03
18
fd
f5
22
1e
e0
12
ff
e7
05
04
1b
03
12
f2
f9
f1
00
f5
02
17
1a
f0
f7
0a
e5
f5
f3
ee
15
ef
ef
ee
01
dd
10
e4
f6
e6
fb
0f
f7
04
06
f3
0b
06
0a
f8
f0
11
14
17
fe
09
10
ff
fe
01
1b
0c
fb
0b
12
dc
eb
0d
f0
fe
0d
04
1d
f3
f9
ec
f5
f6
eb
0e
e3
fe
06
e7
23
fe
05
19
fe
fb
07
f0
11
ec
0c
10
d7
f7
ef
08
19
0c
00
f4
f4
15
f3
00
14
07
1d
ea
10
f3
f6
fb
01
03
17
03
f1
11
fe
17
03
18
01
f0
13
02
e7
07
fa
25
2c
06
0b
ee
00
09
0b
01
fe
04
f5
0b
e0
f8
0b
f3
04
fb
06
ee
fd
16
f8
1c
e5
fd
f4
04
11
e7
ee
fa
f1
07
1a
e4
06
f6
17
0f
f9
f4
07
0a
f3
14
de
f5
00
11
f3
ff
ed
f5
00
02
f6
04
f9
f3
fa
e7
08
ff
fb
09
00
ff
1e
11
fa
12
f1
ff
fa
04
f5
05
0c
f2
e9
0a
f0
06
fb
0a
04
03
09
ea
0a
fc
f0
f3
0d
14
fb
10
f9
f8
fa
00
f3
f8
1e
f8
08
f9
11
09
1c
f3
f6
0e
1d
02
09
05
20
f7
e4
f2
07
fd
1b
0f
e8
04
0e
01
00
04
07
f5
f2
08
1d
f6
09
fa
f9
0a
01
ff
0f
00
02
08
12
fa
f4
08
12
09
fe
e9
fb
1a
fc
09
f1
f4
f4
02
08
05
18
fd
02
08
04
08
fc
f8
0e
e9
fc
14
fe
ef
f5
0d
18
07
fa
ee
fd
0b
0f
fb
e9
16
0f
ff
fb
07
f0
fa
df
03
13
05
f5
e2
ef
0b
f8
f1
02
08
fe
df
f1
05
01
f9
fd
ee
f6
ff
0b
02
0d
ff
10
f5
02
15
0a
fa
e2
0a
e1
f4
04
0c
fb
ff
0e
e6
04
12
05
0b
f2
ec
0b
01
fb
e1
fc
ec
fc
0e
fc
f9
03
f1
eb
fb
ff
15
07
16
0b
f1
f9
fe
07
f5
06
0f
19
ef
f7
15
ff
04
10
09
f8
f3
01
f7
01
10
0f
01
02
07
0f
f7
e5
ff
10
11
00
1a
01
14
13
fc
01
f4
f5
08
e1
0f
e7
12
f6
06
01
fc
e2
09
ef
f3
02
fc
ff
e3
f2
14
0e
ff
1c
00
0c
fe
e6
ea
0a
fa
07
0a
fa
f0
fc
00
10
09
07
fc
ef
0d
11
f9
ec
06
0e
f8
15
01
00
14
f0
fd
08
15
05
27
fb
e6
ff
05
0d
00
fe
09
04
ef
02
f9
f9
04
f5
08
09
ef
00
fa
e3
07
f5
f2
06
ff
ea
fc
11
08
ee
0b
15
f5
0a
fc
e0
fc
0b
03
0d
05
ee
de
fb
ff
1a
19
13
f3
f5
ec
14
f8
ea
fc
15
0f
ff
0b
01
e3
f1
10
f4
15
fe
ff
06
ee
fc
00
f7
01
1a
1d
0f
fa
06
e3
05
04
f6
09
06
eb
fd
00
06
03
f8
e8
f3
fe
0c
1f
14
19
fd
fa
0e
f6
f2
07
ec
02
f5
0e
f6
06
e5
f2
ff
07
f7
fe
fb
03
0e
eb
f6
00
0a
e8
01
08
f1
fc
2c
f1
18
13
10
ff
01
ff
00
26
2e
f5
07
e1
ed
ff
ef
f8
f2
fe
db
00
06
0d
fb
14
03
06
04
1f
0b
1c
00
f7
05
ef
fb
ff
f9
fe
03
fe
0f
e8
df
ed
1c
ff
fe
f9
0c
00
1a
f2
0b
f7
f7
0f
06
0a
fe
11
fd
fd
07
fe
fa
03
fd
05
fb
05
f5
11
1a
ff
ef
02
1a
03
fc
01
f6
ef
f5
1c
eb
11
e7
fb
1b
2e
00
f9
0f
fe
0c
f9
fd
18
fd
fa
10
0b
db
06
0a
25
09
ff
f7
f0
fe
07
f9
0b
fd
04
01
1d
e7
f1
dd
01
0b
d7
09
0e
0c
04
02
09
e9
05
fe
11
1c
fa
15
07
ed
f9
f3
05
0c
f9
f5
02
ff
02
03
1c
01
eb
fd
e9
07
f3
00
10
03
0a
fa
f9
ff
f6
f9
00
13
20
f3
03
0d
f5
18
16
1b
0e
07
06
ef
fd
02
1d
df
1b
02
e7
e2
17
f3
f2
f5
22
05
f9
d2
fd
ed
08
f9
d2
0a
22
0f
0d
ef
24
fb
f2
2f
fb
0d
11
fb
06
f5
fa
f4
fb
ea
10
1f
fa
fb
04
fc
17
d6
d0
0b
f9
0b
02
fe
f9
08
1a
00
25
fe
05
fb
fd
fd
16
14
f5
06
fe
13
ea
e9
10
f0
ec
0a
0c
0f
f8
11
e2
12
ef
ed
ed
04
ec
19
02
11
e8
f3
e7
14
e8
15
f9
0c
0a
de
ee
09
fc
08
18
f6
07
15
08
07
10
f7
00
16
0a
0e
00
04
04
00
14
fe
16
1a
04
02
0a
f9
04
f6
28
fe
04
08
0b
ed
f2
fb
0d
ff
0f
f5
f2
eb
08
e1
fa
17
f9
e0
11
e8
df
ce
01
0f
05
f5
0a
ff
20
f4
ed
f1
f7
1c
fd
fd
05
05
f0
03
03
0a
09
00
0e
fe
05
07
fc
03
fc
07
0a
03
1c
e2
04
fb
fb
fb
19
04
d5
fd
08
0e
f5
f9
18
f8
fb
e2
e4
19
16
ed
1f
13
09
ee
fc
f1
f7
eb
f5
0d
0f
02
f3
15
f5
f2
06
06
18
09
fa
fe
ff
05
04
ee
eb
0c
fb
15
f0
eb
de
12
fd
0e
03
1b
21
ff
19
f9
09
f5
fa
fb
df
13
ff
f7
02
f4
21
e3
1c
11
e2
fa
ed
02
16
09
f7
df
f2
04
21
ea
12
f4
0c
d8
0e
f3
f1
de
16
06
05
fe
02
02
fd
03
f8
0f
e3
fa
0b
d4
16
11
29
2d
ef
03
06
f8
09
da
fb
01
04
f2
0b
fd
f0
15
fe
de
f7
05
03
02
f7
ff
e7
ee
0c
1a
02
1a
1a
11
fa
13
f2
06
03
e8
10
f4
29
e4
fa
e7
fe
fb
01
05
04
00
09
f1
0b
e7
f5
01
0e
21
02
07
13
01
08
e6
ff
01
d9
e2
fb
22
fa
fc
ec
09
f7
cb
eb
e7
f5
01
f2
f7
06
19
e9
12
07
0b
f3
1f
08
fd
fb
06
ff
f2
fb
f7
fe
ee
fb
0e
15
0d
26
04
f4
03
01
03
e5
e1
06
0b
13
f9
ea
e8
09
03
09
0a
00
fd
04
fe
16
f2
0e
01
00
06
04
f1
ff
f7
09
26
17
11
f3
0f
03
f8
d9
04
15
0f
07
05
05
fd
1c
12
1c
f8
06
1f
f0
0c
e8
fd
02
e3
04
07
f3
fb
fe
f8
0e
0d
db
02
f1
0a
fe
06
01
06
f7
16
fe
02
e9
0a
f2
fe
24
e3
00
1f
fa
0e
fb
cd
00
24
08
06
f5
03
0b
15
fa
11
05
0a
ea
f6
ef
09
10
0a
14
09
f3
f5
19
23
07
fe
10
09
0f
fe
18
f4
ee
1a
f5
11
e6
fc
f6
fc
20
16
dd
05
ff
02
18
e3
05
0a
e4
e2
0d
0b
10
ff
ed
0a
ef
fc
02
ea
14
0a
17
05
13
ed
ed
05
01
fb
13
0a
f2
fc
00
10
ed
fa
14
eb
e9
ed
e7
0f
12
11
0a
ed
0b
ff
f6
e5
f8
df
05
ff
e3
18
04
f1
f7
02
f3
f9
fb
f5
0c
fc
05
03
d7
f4
fd
1a
00
2a
f5
fd
26
27
02
fc
f2
0a
f0
14
e8
05
fa
0b
23
fd
09
0a
e6
e9
00
07
ff
00
fa
1b
1e
f9
f8
d9
fe
ee
ea
ec
0a
f0
e7
e7
0d
13
fb
ed
0a
04
f7
f6
f8
f5
fa
ed
2d
e8
1b
f9
fc
f4
f9
f8
0e
e5
22
06
27
09
0a
02
f6
f3
f3
d8
10
00
eb
05
e5
13
ee
eb
0d
0a
fc
06
1b
f8
e7
e7
0d
d7
08
13
0d
f5
fe
0c
fd
09
ed
e7
ea
1a
f2
fc
04
f4
fe
f5
06
17
0e
fc
ea
08
14
0f
fe
00
ef
09
01
f2
09
04
0b
fb
fd
ff
01
f7
ed
f4
fc
fc
db
eb
00
0e
fb
f0
fd
03
fe
fc
f5
f6
0b
ec
03
19
17
e3
07
fc
09
0d
03
fb
00
05
06
ee
03
f7
15
05
1c
0a
fd
04
ed
0b
f5
15
05
05
f5
f8
38
09
df
e8
00
0a
fb
01
15
08
01
1a
f2
ff
f5
f1
01
e4
0d
f3
13
ed
05
f6
e6
f9
f6
05
fe
05
f2
f1
d6
e7
02
01
1a
16
e3
0f
f1
fe
f3
04
e3
09
0a
f8
00
d4
07
16
e5
1b
f8
fa
0d
06
1c
14
e8
fd
ee
f6
14
cd
17
fa
0a
ec
f2
06
f7
e1
dd
07
00
e7
f4
f9
14
16
0d
fc
f5
16
10
f7
03
0b
ef
01
14
15
d6
11
04
01
f7
e6
01
21
09
16
05
1c
ea
f5
fe
11
07
f7
06
e6
17
14
fc
ff
0f
14
17
1f
09
d4
01
16
20
ea
ff
f3
0e
07
03
ec
fc
01
f0
08
35
f2
1f
e6
f2
f5
0a
ef
e8
ff
f6
07
0f
11
0d
f8
e8
f7
06
04
e6
1d
1f
ee
e4
ed
e9
ef
fd
fa
f3
05
ec
fa
10
f5
f8
00
0a
10
02
0a
1c
1a
0e
df
13
fe
fb
f3
27
05
e7
07
00
f3
0f
e1
eb
e3
01
fa
eb
ff
0d
f3
0b
e1
00
f1
01
ed
fc
14
19
1b
19
e2
19
0d
d7
1c
e4
18
fe
e8
c9
19
1b
08
fb
ff
fd
ed
0e
c0
f4
f9
fe
de
21
01
e2
f9
05
fc
fd
03
0f
fe
d9
e9
02
06
05
f7
05
08
1e
12
e7
ed
03
e6
fa
10
fe
ec
08
dd
ea
14
04
e2
fa
eb
03
2e
f1
f4
05
f0
15
fb
fb
f6
e6
ff
03
04
03
00
06
0c
f7
fe
13
29
0a
08
f1
1c
05
2e
fd
f4
d8
e0
0f
e5
07
f7
04
00
1e
21
f7
0e
f0
01
e9
eb
07
f5
e6
1b
0e
e0
ec
fd
f3
0e
17
e8
01
e0
ee
ff
fc
e1
05
fd
03
fb
1a
d8
f8
04
ed
25
fa
03
06
03
f0
0f
fa
fa
1e
f6
fb
f7
0c
ff
fc
f9
fd
04
f9
05
e6
f2
fe
06
19
0e
0e
f2
10
eb
f3
0e
03
1c
f4
02
1d
e9
fa
13
1c
1a
f7
f0
17
0d
16
0f
f5
02
16
00
07
fa
03
f7
12
f9
ff
0a
02
08
11
15
08
fd
0e
03
2d
04
fe
05
14
00
17
14
f2
12
17
f6
ec
c5
00
f0
f8
0f
05
e3
f6
fd
f2
f6
f0
05
ec
f4
ff
e5
01
ce
f4
0c
e8
fa
1c
f4
e9
fb
1b
0c
1d
e1
09
16
f9
03
f5
17
25
f6
09
20
dd
18
e5
f8
f2
1a
d8
fd
10
f1
ff
14
0e
03
f3
11
ed
07
f7
f5
fa
eb
06
e1
0d
df
2c
28
09
27
f7
ed
ee
18
fc
05
0f
05
fe
ee
1f
25
09
08
18
1c
11
eb
07
f3
f8
02
0e
d5
07
24
e2
ed
fa
e8
e1
07
15
0f
19
10
fd
29
d9
fa
0f
08
19
11
0f
f8
fc
e2
f0
10
18
ff
ed
02
0e
fc
21
13
03
ec
fb
0c
f1
fa
10
0b
08
17
00
f9
fd
f1
19
fe
2b
fd
ee
16
14
17
fe
00
12
f7
ef
07
1a
0a
f0
f8
02
ff
17
ed
10
e0
22
d2
0e
ee
fa
ee
f6
fe
0d
e6
e2
08
f7
00
13
f7
f2
ca
f6
15
06
05
08
0a
f0
f3
02
fc
fa
16
12
fb
16
1e
fc
f3
ef
ee
05
16
15
fe
ec
e3
06
0b
f2
08
05
15
fa
cd
fa
fb
11
f1
1e
15
fd
07
0a
fc
05
01
e1
0b
0a
fe
08
02
ef
02
02
05
f6
12
03
fd
0f
03
f8
05
f7
f0
09
10
19
11
07
fa
d6
ff
08
f8
07
10
fc
20
fd
01
f5
fa
f4
e7
f6
03
0c
03
05
0a
0b
f1
ff
0e
e9
e5
14
0b
06
f1
fd
09
1b
09
0a
ea
f8
fc
0e
15
fd
15
f2
14
08
f8
f5
dc
0a
fb
09
f0
f1
07
fe
fa
0e
18
19
f6
f9
1b
0b
ef
16
05
f9
07
f3
f3
e7
00
0c
ef
14
07
fd
f7
0e
04
00
0c
07
ff
f0
de
1a
0a
ed
08
f0
01
fc
0d
f3
07
05
fb
02
f8
0d
ff
02
0e
0d
0e
07
f0
f6
10
f4
06
f4
e1
08
25
f2
f0
12
e6
fc
fb
f0
07
f4
f7
e7
fb
db
f7
0b
f6
05
20
fe
1b
00
12
ed
fe
20
13
ef
19
e8
f7
1f
0b
0f
1a
09
e8
03
02
e9
ea
03
10
fa
ea
06
07
0c
fe
f3
05
f1
e5
fe
06
0f
f8
0f
10
02
fe
0b
07
18
dd
07
f0
2a
18
02
fa
f7
fa
06
13
e0
09
12
0e
0f
08
f8
09
dd
03
fc
fd
00
05
16
f8
e5
f0
f0
fa
fd
f6
f4
f0
05
19
23
0d
f5
15
1b
04
e3
0c
13
03
f0
00
fe
e1
09
15
01
03
0c
05
0d
02
0a
f8
f6
e7
26
fc
e3
20
fe
15
0e
09
fe
f8
fb
f7
15
f9
eb
11
f6
13
e5
fa
01
f7
06
0a
0e
ff
0a
10
0d
f0
0d
05
f1
f2
ed
ff
16
0e
09
f6
00
07
03
e7
1e
08
06
f1
fe
ec
0e
0b
fa
fd
1c
0e
00
ee
0a
07
f8
05
02
0d
0c
ff
fa
db
0d
0b
0a
ed
03
d7
ed
07
fe
00
08
fc
11
fc
f8
f3
10
fe
fa
ea
ec
ec
00
14
0d
00
fb
fd
f3
04
0d
02
e4
ea
03
f3
f3
fc
eb
f8
02
ff
0a
e4
03
f8
f6
00
fa
08
02
f2
f2
0f
f3
fb
fd
f1
01
f0
f3
eb
f6
d8
f0
e5
0f
fe
1f
05
f9
dd
ff
f4
0d
10
dd
06
ff
f6
18
0c
00
22
d6
00
00
07
03
dd
02
0a
e3
df
00
fb
f4
0c
e6
f0
eb
f6
ed
08
06
e6
0c
f8
fd
05
f6
07
00
01
01
e8
fe
d4
13
08
02
e0
02
17
10
03
ee
f9
16
f2
03
f1
eb
02
f3
18
10
12
0f
0e
03
02
07
04
f6
27
ea
19
f3
08
e5
05
0c
e5
e0
06
06
01
18
fe
02
00
14
ff
e4
14
f8
0b
12
e5
e8
19
11
f6
d6
e0
23
fa
fe
fb
19
f8
0b
f2
f7
01
ed
e8
0c
fa
e8
09
03
e5
fa
f7
0a
02
e9
f4
e8
1a
f6
16
fe
f9
f5
f6
0b
