fa
1c
cd
30
e6
f5
14
22
0e
b6
c5
df
ea
e6
15
14
19
d6
15
3f
e5
03
7f
f6
01
fb
12
d8
ef
17
27
f6
f1
fe
15
ff
fe
21
04
15
07
04
10
0f
fa
22
13
fb
21
de
0b
ee
06
13
16
f8
0a
fa
ef
01
ea
ed
ff
18
10
00
0c
f0
1e
07
05
3e
f1
e0
04
fc
0b
10
fc
fd
22
2a
11
06
06
d3
0a
e6
f3
f1
1d
b3
f8
00
fb
05
d9
db
0d
d0
0f
fb
11
f9
f9
00
1f
33
f5
07
15
f2
02
03
36
00
0c
05
09
08
f3
eb
d8
db
f8
00
e6
1e
e2
12
ef
16
f9
f6
18
0b
09
f9
f1
f5
f3
f4
02
f9
11
f0
1a
2b
f7
fb
1f
05
11
fe
f7
e2
f3
12
12
f1
fd
06
0e
d9
ef
19
1f
f5
04
00
0c
03
04
0a
0e
f2
07
de
09
ff
fd
f8
04
14
f3
f5
02
f7
fa
f0
0b
18
00
09
fc
f6
f6
08
24
2a
f0
de
0b
00
01
03
0a
e8
f6
0e
f5
0c
fe
ec
23
fe
0f
f8
1d
ee
f7
02
f5
05
e9
d9
01
e7
f5
0d
0e
f4
f6
f5
20
0e
05
12
06
d3
fc
09
17
ff
12
02
04
08
fb
f5
f0
d0
07
fe
ee
06
e7
0d
f2
0e
f2
f9
12
01
0d
01
ef
f5
fc
f8
01
00
15
f1
17
21
fb
fa
1d
f9
10
fe
f0
ed
f5
11
10
f5
fc
05
12
e0
f2
14
1c
f7
03
fa
0a
00
08
fd
0b
f5
07
ea
08
06
fe
fc
0a
0f
f4
fb
02
fb
f6
f3
0c
16
ff
0a
fb
f5
f5
04
1e
20
f9
e7
08
fd
ff
01
0e
f4
fc
08
f4
12
fe
f5
17
01
06
f9
12
ed
f9
03
f6
07
f0
e9
fd
ee
eb
11
10
f4
f1
f3
1d
0f
06
11
08
da
f9
07
0f
01
14
05
00
0b
fb
fa
ec
d7
09
01
eb
09
ed
0d
f2
0d
ee
f9
0e
fd
0d
06
ee
f3
fe
f7
02
02
15
f1
15
1e
fc
fb
1c
f3
10
fe
f3
f0
f8
10
11
f7
fa
05
13
e6
f4
11
18
f6
02
f9
0a
ff
09
fa
0b
f6
07
f1
07
07
fc
fd
0b
0b
f4
01
08
fd
f4
f4
0a
13
ff
0b
fc
f6
f7
02
1b
17
fb
ea
07
fd
02
00
12
f9
fe
07
f4
12
fe
f6
11
01
ff
f9
0f
ed
fa
03
f7
07
f2
ee
fd
ef
e8
11
10
f5
f4
f4
19
10
06
0e
05
e0
f9
04
0c
00
12
09
fd
0c
fd
fe
eb
d7
09
ff
ed
0c
f1
0d
f2
0d
ed
fa
0e
fb
10
06
ee
f2
fe
f7
03
05
13
f3
14
19
fe
fa
17
f0
10
fd
f5
f1
f9
0f
10
f8
f9
04
14
ec
f8
11
16
f5
03
f8
09
00
0a
fa
0b
f7
08
f5
07
07
fc
ff
0b
09
f4
00
0a
00
f5
f3
08
12
fd
0b
fa
f7
f9
00
1b
15
fb
ed
07
ff
03
01
12
fd
00
05
f5
10
00
f7
0d
02
fd
f9
0b
ee
fb
03
f8
06
f5
f0
ff
ef
e9
13
10
f6
f4
f4
16
11
06
0d
05
e4
fa
03
0b
ff
10
0a
fc
09
fe
02
ec
dd
0a
fe
ec
0e
f5
0d
f0
0d
ec
fa
0f
f9
11
06
ee
f2
fe
f6
04
06
11
f3
12
18
fd
f9
16
f0
10
fd
f7
f3
f9
0f
0e
f8
f8
03
13
ef
fb
0f
15
f4
03
f7
0b
01
0c
fa
0a
f8
0a
f5
07
07
fc
01
0b
06
f6
fe
0b
03
f7
f4
08
10
fb
0b
fa
f8
fa
fd
19
12
fc
ef
07
01
04
01
14
ff
01
05
f5
10
01
f9
0b
03
fa
fa
0b
ee
fc
03
f8
04
f6
f0
01
f0
ea
10
0f
f6
f5
f7
12
11
06
0c
05
e8
fb
02
0c
fe
0e
0b
fd
09
ff
02
ec
e0
0a
fe
ef
10
f6
0b
ef
0d
ec
fc
0f
f7
11
06
f0
f1
fe
f5
05
06
11
f3
0f
16
fc
fa
15
f0
0f
fc
fa
f3
f9
0f
0d
f9
f7
03
14
f1
fc
0f
14
f4
03
f7
0a
00
0c
fb
09
f9
0c
f7
07
08
fc
02
0b
04
f8
fe
0a
04
f7
f3
07
0f
fb
0b
fb
f9
fc
fd
16
11
fd
f1
06
01
06
02
15
01
02
05
f6
0f
01
f8
08
05
f9
fa
09
f0
fd
04
f9
04
f7
f2
02
f1
ec
11
0f
f7
f5
f8
11
10
05
0b
04
ea
fc
01
0c
ff
0c
0c
fc
08
00
02
ec
e3
0a
fe
f0
0f
f7
0b
ef
0d
ec
fc
0f
f6
13
05
f0
f3
ff
f5
06
07
0f
f4
0d
15
fb
fa
13
f1
0f
fa
fc
f3
fb
0d
0b
f8
f7
02
13
f3
fd
0f
12
f3
02
f6
0b
01
0b
fb
09
f9
0d
f6
07
07
fc
04
0a
03
f9
fd
0a
06
f9
f3
05
0f
fa
0a
fb
fa
fd
fc
16
0f
fd
f3
05
01
07
02
14
02
05
03
f6
0d
02
f9
07
07
f9
fa
09
f0
fe
03
fa
02
f7
f3
03
f1
ee
10
0e
f7
f6
f9
0f
0f
04
0a
04
ec
fe
00
0d
fe
0b
0b
fd
08
00
04
ec
e6
09
fd
f0
10
f9
0a
ee
0c
ec
fd
0e
f4
13
04
f1
f3
fe
f4
05
07
0f
f4
0c
13
fa
fa
12
f2
0e
fa
fb
f2
fb
0b
0b
f9
f6
03
13
f6
fe
0e
11
f2
01
f6
0a
01
0b
fc
08
fa
0d
f6
06
07
fc
05
0a
02
fa
fc
0a
08
f9
f2
03
0e
fa
0a
fc
fb
ff
fa
15
0f
fd
f3
04
02
09
02
14
03
05
03
f6
0d
03
fa
06
07
f8
fa
07
f1
fe
04
fb
01
f7
f5
04
f1
f0
0f
0d
f7
f6
fc
0c
0e
02
08
03
ed
fd
ff
0d
fd
0a
0b
fc
07
01
04
ec
e7
08
fc
f1
10
fa
09
ed
0d
ed
ff
0f
f3
13
04
f3
f3
fe
f4
06
08
0e
f5
0b
12
fa
fb
10
f3
0e
f9
fd
f3
fd
0b
0a
f9
f6
02
13
f7
ff
0e
10
f2
01
f6
0c
02
0b
fd
08
fa
0e
f6
06
08
fc
07
0a
00
fb
fb
09
07
fb
f3
02
0d
fa
0b
fc
fd
00
fb
13
0d
fe
f5
04
03
0b
02
14
03
06
03
f6
0d
03
f9
06
08
f8
fb
08
f2
ff
04
fe
00
f7
f4
04
f1
f1
0e
0d
f8
f6
fd
0a
0e
01
06
02
ef
fd
fe
0d
fc
08
0b
fc
06
01
05
ed
e9
09
fb
f2
0f
fa
08
ee
0d
ed
ff
0f
f1
14
04
f2
f4
ff
f3
06
08
0d
f5
09
10
f9
fb
10
f4
0e
f9
fe
f2
fd
0a
0a
f9
f6
02
13
f9
ff
0e
10
f1
01
f5
0a
01
0b
fd
07
fb
0e
f6
06
06
fd
08
09
ff
fb
fc
09
08
fd
f2
01
0d
fb
0b
fd
fd
01
fa
13
0d
fe
f7
04
04
0b
00
14
04
08
01
f7
0c
04
f9
06
08
f6
fb
07
f3
00
04
ff
fe
f8
f5
05
f2
f3
0e
0c
f8
f6
fd
0a
0c
01
06
02
ef
fe
fd
0d
fc
08
0c
fb
07
03
06
ee
eb
08
fb
f2
0e
fc
08
ee
0c
ee
01
0f
f1
14
04
f4
f4
fe
f2
06
08
0d
f5
08
0f
f9
fc
0e
f4
0d
f7
ff
f3
fc
08
09
f8
f6
01
13
fa
00
0d
0f
f2
00
f5
09
02
0c
ff
07
fb
0e
f8
06
07
fc
09
09
ff
fc
fb
09
09
fd
f3
00
0d
fa
0a
fe
fc
02
fa
12
0b
ff
f7
03
05
0d
01
14
05
09
01
f6
0b
04
f9
06
09
f7
fb
07
f2
01
04
ff
fe
f8
f6
06
f1
f2
0c
0b
f8
f6
00
07
0c
00
06
02
f0
ff
fc
0d
fc
07
0c
fc
06
03
07
ee
ec
08
fb
f3
0e
fc
07
ed
0d
ed
02
0f
f0
15
03
f5
f5
fe
f2
06
08
0c
f4
09
0d
f8
fd
0e
f5
0c
f7
ff
f2
fc
08
09
f8
f5
01
12
fc
00
0e
0f
f1
00
f4
09
02
0b
ff
07
fc
0e
f6
06
06
fd
0a
09
fe
fc
fb
09
09
fd
f2
ff
0c
fa
0b
fd
fe
03
fa
0f
0a
fe
f9
01
05
0e
01
13
05
0a
00
f7
0b
05
fa
06
09
f6
fb
06
f4
01
05
00
fd
f9
f7
08
f2
f3
0b
0a
f9
f7
ff
07
0b
ff
04
01
f0
ff
fb
0d
fb
05
0c
fc
06
04
08
ef
ed
06
fb
f4
0c
fe
07
ed
0c
ef
03
0e
f0
15
03
f6
f5
fd
f2
05
09
0b
f4
06
0c
f8
fe
0e
f6
0b
f6
00
f2
fd
08
07
f8
f6
01
12
fe
01
0e
0d
f1
00
f5
09
01
0b
ff
06
fc
0e
f7
06
07
fd
0b
08
fe
fc
fa
09
0a
fe
f2
fe
0c
fa
0b
fd
fd
04
fa
0f
0a
ff
fa
02
05
0f
01
12
06
0a
00
f8
0a
06
fa
05
09
f5
fb
06
f4
02
05
00
fc
f9
f7
08
f3
f5
0a
0b
f9
f6
01
05
09
00
03
01
f1
00
fa
0d
f9
05
0d
fc
05
05
07
f0
ef
05
fb
f4
0d
fe
06
ee
0c
ef
03
0e
ee
14
03
f7
f5
fd
f2
06
08
0b
f4
06
0a
f8
fe
0d
f7
0a
f5
01
f1
fc
07
06
f8
f5
00
12
fd
02
0d
0d
f1
ff
f5
08
02
0b
00
06
fd
0e
f7
06
08
fe
0b
08
fe
fc
fa
08
09
fe
f3
fd
0c
f9
0b
fd
fd
04
fa
0f
09
00
fb
01
05
10
00
12
05
0b
00
f7
0a
06
fa
05
0a
f5
fb
05
f5
04
05
00
fb
f9
f7
08
f3
f4
0b
08
f9
f7
02
04
0a
fe
02
01
f3
ff
f9
0d
f8
04
0c
fc
05
04
08
f1
f0
04
fa
f4
0c
ff
06
ee
0d
f0
04
0e
ed
15
03
f6
f6
fd
f1
05
08
0a
f4
05
09
f8
00
0b
f7
0a
f5
ff
f2
fd
06
06
f7
f5
01
13
ff
01
0d
0d
f1
ff
f5
08
02
0a
ff
06
fe
0e
f7
06
08
fd
0c
08
fe
fc
fa
08
0a
ff
f2
fc
0b
fb
0a
fd
fc
06
fa
0d
08
00
fc
00
06
10
00
12
06
0b
00
f8
09
05
fa
05
09
f4
fc
06
f6
04
05
01
fa
fa
f8
09
f3
f5
0a
08
f9
f8
02
03
08
fd
01
00
f3
ff
f9
0d
f8
04
0c
fb
05
05
08
f1
f1
04
fa
f5
0a
00
05
ee
0c
f0
05
0d
ed
14
02
f8
f6
fd
f2
04
07
09
f4
05
08
f7
00
0b
f7
0a
f3
ff
f2
fd
06
05
f7
f5
00
11
fe
01
0c
0d
f1
ff
f6
08
02
0c
01
06
fd
0e
f7
06
08
fc
0e
08
fe
fd
f9
07
0a
ff
f2
fb
0a
fa
0a
fd
fd
07
fb
0c
07
01
fc
00
06
11
ff
12
05
0b
ff
f8
08
06
fb
05
0a
f3
fc
07
f5
04
05
02
fa
fa
f8
0a
f3
f6
09
08
f9
f7
03
02
08
fd
00
01
f3
00
f8
0d
f7
03
0c
fc
04
06
09
f1
f2
03
f9
f5
0a
01
05
ef
0c
f2
06
0d
ec
14
03
f8
f7
fc
f1
04
07
09
f5
05
08
f6
01
0b
f7
09
f3
01
f3
fd
06
05
f6
f5
01
12
ff
01
0b
0c
f3
ff
f6
07
02
0b
01
05
fe
0d
f7
06
07
fd
0e
08
fe
fd
f9
07
09
00
f2
fb
0b
f9
0a
fd
fd
06
fa
0c
08
01
fe
00
06
11
ff
11
05
0d
fe
f8
09
06
fa
05
0b
f3
fc
07
f5
04
05
02
f9
fb
f9
0b
f4
f7
08
08
fa
f8
04
01
06
fc
01
01
f4
00
f8
0d
f7
03
0c
fc
04
06
09
f2
f4
02
f9
f5
08
02
04
ef
0c
f2
07
0d
eb
13
03
f9
f6
fd
f1
03
08
08
f5
04
06
f7
03
0a
f9
09
f2
00
f2
fd
06
04
f7
f4
01
10
00
02
0b
0c
f1
ff
f6
06
02
0d
01
06
ff
0d
f7
05
07
fd
0f
07
fd
fe
fa
07
0a
00
f2
fc
0a
fa
0b
fd
fd
07
fa
0b
07
01
fe
ff
06
12
fe
11
04
0d
fe
f9
09
06
fb
04
0b
f4
fc
08
f7
05
05
02
f9
fb
f9
0b
f4
f7
07
07
fa
f8
04
00
06
fc
00
00
f4
00
f6
0d
f6
03
0c
fd
03
08
09
f2
f6
01
fa
f7
09
02
04
ef
0d
f2
08
0c
ed
13
03
fa
f7
fc
f1
02
07
08
f5
03
06
f7
03
09
f9
09
f2
00
f2
fc
05
04
f6
f5
01
11
00
01
0b
0b
f2
ff
f7
06
03
0b
02
06
ff
0e
f7
05
09
fd
0f
06
fd
fd
f9
07
0a
01
f2
fa
0a
fa
0a
fd
fc
07
fb
09
06
03
fe
fe
06
13
fe
10
05
0d
fe
f9
07
07
fb
05
0b
f3
fc
07
f7
05
06
04
f6
fb
fa
0a
f5
f7
07
06
fa
f8
05
ff
05
fb
ff
01
f4
ff
f6
0e
f6
02
0d
fd
03
08
09
f2
f6
00
fa
f6
08
02
04
f0
0c
f3
08
0e
ed
12
02
f9
f9
fb
f1
02
06
07
f5
03
06
f6
03
09
f9
08
f1
00
f2
fd
04
03
f6
f4
01
11
01
02
0b
0b
f2
ff
f7
06
03
0c
00
05
ff
0c
f7
05
08
fd
0f
07
fe
fe
f9
07
09
01
f3
fa
09
f9
0a
fe
fc
08
fc
0a
05
03
00
fd
06
12
fe
10
06
0e
fd
f9
08
07
fb
04
0b
f3
fc
07
f7
06
06
04
f6
fc
fb
0c
f5
f7
07
05
fa
f8
06
ff
05
fc
ff
02
f4
ff
f6
0d
f4
02
0c
fd
03
08
09
f2
f6
ff
f9
f7
07
03
04
f0
0c
f4
08
0d
ed
12
02
f9
f8
fc
f1
03
06
06
f4
02
06
f6
04
08
f9
08
f1
00
f2
fc
05
01
f7
f5
01
10
02
02
0b
0b
f3
ff
f7
05
03
0c
02
05
00
0d
f7
05
09
fd
0f
07
ff
fd
f8
07
09
00
f3
fa
0a
f9
09
fe
fc
08
fc
09
05
03
01
fd
06
13
fd
10
05
0e
fc
fa
06
08
fb
04
0a
f3
fc
07
f8
06
07
04
f5
fc
fc
0d
f5
f7
07
06
fb
f9
06
fe
04
fb
fe
02
f4
00
f5
0e
f5
01
0b
fd
02
07
0a
f3
f7
ff
f9
f7
06
03
03
f0
0c
f4
0a
0c
ed
11
02
f9
f9
fb
f1
02
05
06
f6
02
06
f6
04
08
f9
08
f1
01
f3
fd
04
01
f6
f5
01
10
01
03
0a
0a
f2
fe
f8
05
03
0c
03
04
ff
0c
f8
05
09
fc
0f
07
fd
fd
f7
06
09
02
f3
f9
09
f9
09
fe
fc
08
fc
09
04
04
ff
fc
06
12
fd
0f
04
0d
fd
f9
06
08
fb
04
0a
f2
fc
07
f8
07
07
04
f4
fc
fc
0d
f5
f7
07
05
fa
f9
06
fe
04
fc
fe
02
f5
00
f5
0e
f4
00
0c
fd
02
07
09
f4
f7
ff
f9
f8
06
03
03
f1
0c
f4
0a
0c
ee
12
03
f8
f9
fa
f1
02
05
05
f6
02
07
f6
05
07
f9
06
f1
01
f4
fd
03
01
f6
f5
02
10
01
03
09
0a
f4
fe
f9
05
04
0d
01
05
00
0c
f7
05
0a
fc
0e
07
fc
fd
f8
06
09
01
f4
fa
0a
f9
09
fe
fb
07
fd
08
05
05
00
fc
06
12
fc
0e
04
0e
fc
f9
06
09
fb
04
09
f2
fc
07
f9
07
07
04
f4
fc
fc
0e
f4
f7
06
05
fb
fa
06
fd
03
fc
fe
02
f5
ff
f6
0d
f4
00
0b
fd
02
07
09
f4
f9
ff
f9
f8
04
04
03
f1
0c
f5
0b
0c
ee
10
03
f8
f9
fb
f1
00
04
04
f5
02
06
f6
04
06
f8
06
f1
00
f4
fc
04
01
f6
f5
02
11
01
04
09
0a
f3
fe
f9
03
04
0d
02
04
00
0b
f7
05
0b
fc
10
07
fd
fc
f8
07
09
01
f4
fa
0a
f8
09
fe
fa
08
fe
08
05
05
00
fb
05
11
fb
0e
04
0d
fc
fb
05
09
fb
04
09
f3
fc
08
f9
07
08
05
f4
fc
fc
0e
f7
f7
06
06
fb
fa
06
fd
03
fc
fe
03
f5
ff
f6
0e
f4
00
0b
fd
01
07
0b
f4
f9
fe
f8
f9
05
03
03
f1
0b
f5
0b
0d
ee
11
02
f7
f9
fa
f2
01
05
04
f6
02
08
f6
05
06
f9
07
f1
00
f4
fc
03
00
f6
f5
02
0f
01
04
08
0a
f3
fe
fa
04
04
0d
02
04
01
0b
f7
05
0b
fd
10
07
fd
fc
f8
06
08
01
f5
fb
09
f7
08
fe
fb
07
fe
07
04
06
00
fb
05
11
fc
0e
04
0d
fb
fb
04
0a
fb
04
0a
f3
fc
07
fa
06
08
05
f3
fc
fd
0e
f7
f7
07
04
fc
fb
07
fd
03
fc
fd
04
f5
ff
f6
0d
f5
ff
0b
fe
01
07
09
f5
f9
fe
f8
f9
04
04
03
f2
0b
f6
0c
0b
ef
10
03
f7
fa
fa
f2
01
04
03
f6
01
08
f6
05
05
f9
06
f1
01
f5
fc
04
ff
f6
f5
03
10
01
05
09
09
f4
fd
fa
02
05
0d
02
04
01
0c
f8
05
0a
fc
0f
07
fd
fc
f8
06
08
01
f5
fa
09
f9
08
fe
fa
07
fe
08
04
07
00
fb
04
12
fb
0e
04
0d
fc
fb
05
0a
fa
04
09
f2
fc
07
fa
08
08
05
f3
fc
fd
0f
f7
f7
07
05
fc
fa
07
fd
02
fd
fe
04
f6
00
f6
0d
f4
00
0b
fd
01
06
0a
f5
fb
fe
f8
fb
03
04
03
f1
0b
f7
0c
0b
f0
10
04
f7
fb
f9
f1
00
03
03
f7
02
08
f5
05
05
f9
06
f1
01
f5
fd
05
ff
f6
f5
03
0f
01
06
08
0a
f4
fd
fb
03
05
0c
02
04
02
0b
f8
04
0c
fc
10
06
fd
fc
f8
07
09
01
f5
fa
09
f8
08
fe
fa
08
fe
07
04
08
01
fb
03
10
fb
0d
05
0d
fb
fb
04
0a
fb
04
09
f2
fc
07
fb
07
08
04
f2
fc
fe
0f
f7
f7
06
04
fd
fa
08
fc
02
fd
fe
05
f6
ff
f5
0c
f4
ff
0b
fd
01
07
09
f5
fa
fe
f8
fa
02
05
02
f2
0b
f7
0d
0c
f0
0f
02
f8
fb
fa
f3
00
02
03
f7
01
08
f5
04
04
f8
06
f2
02
f5
fc
03
fd
f6
f5
03
0f
01
06
08
09
f3
fd
fb
02
05
0c
02
03
02
0b
f8
05
0b
fb
0f
06
fc
fc
f7
06
08
01
f5
fa
08
f8
08
fe
f9
07
ff
08
04
08
01
f9
03
10
fa
0d
03
0d
fb
fc
05
0b
fb
04
0a
f3
fc
07
fa
07
09
05
f2
fc
fe
0e
f8
f8
07
04
fd
fb
08
fd
03
fd
fd
05
f6
fe
f6
0c
f4
fe
0b
fe
01
06
0a
f5
fa
fd
f7
fb
02
04
02
f2
0b
f8
0d
0c
f1
0f
03
f7
f9
fa
f2
ff
02
03
f7
01
08
f5
06
03
f9
05
f1
02
f6
fc
03
ff
f6
f5
04
0e
00
06
07
09
f5
fd
fb
03
06
0d
02
03
02
0a
f8
04
0c
fc
0f
06
fc
fd
f9
06
09
01
f6
fb
09
f8
08
fe
fa
07
ff
08
04
08
01
f9
03
10
fb
0c
03
0d
fa
fc
03
0b
fb
03
0a
f3
fc
07
fa
07
09
05
f1
fc
fe
0f
f7
f7
06
05
fe
fc
08
fc
02
fd
fe
05
f6
fe
f6
0d
f3
fe
0a
fe
00
06
0a
f5
fa
fc
f7
fb
02
05
02
f3
0a
f8
0d
0b
f1
0f
04
f6
fa
f8
f4
ff
01
01
f7
01
09
f6
05
03
f8
06
f2
01
f7
fd
03
fe
f5
f5
04
0f
02
08
07
09
f5
fc
fb
01
06
0c
02
02
03
0a
f9
04
0d
fc
10
04
fd
fb
f8
07
07
00
f5
fb
08
f9
07
ff
fa
07
00
07
03
09
02
f9
02
10
fa
0c
03
0d
fb
fd
04
0c
fb
04
09
f3
fc
07
fa
07
0a
04
f1
fc
fd
0f
f9
f7
07
04
fd
fc
07
fd
01
fd
fd
05
f7
fe
f6
0d
f3
ff
0a
fe
00
07
0a
f6
fa
fc
f7
fc
01
05
02
f3
0a
f8
0e
0b
f2
0e
03
f7
fa
fa
f3
ff
01
02
f8
00
0a
f7
04
03
f9
05
f3
01
f5
fc
03
fe
f6
f5
05
0d
01
07
07
09
f5
fd
fb
02
06
0d
01
03
04
0b
f9
05
0d
fb
0f
05
fc
fb
f8
07
09
01
f6
fb
09
f8
06
ff
f8
07
00
06
04
09
02
f8
02
10
fa
0c
03
0d
fb
fd
04
0c
fb
05
0a
f3
fc
06
fb
07
0a
05
f1
fd
fe
10
f8
f8
06
04
fe
fc
08
fd
01
fd
fe
06
f7
fe
f5
0d
f3
fd
0a
ff
00
06
09
f5
fb
fb
f7
fd
02
04
01
f3
0b
f9
0d
0c
f3
0e
04
f7
fa
fa
f4
ff
00
01
f7
01
09
f7
05
02
f9
04
f3
01
f7
fd
02
fd
f6
f6
05
0d
01
08
06
09
f6
fc
fc
01
06
0c
02
02
05
0a
f8
05
0d
fb
0f
05
fd
fa
f8
06
08
02
f7
fb
07
f7
07
fe
fa
06
00
07
03
09
02
f8
02
0f
fa
0b
03
0c
fb
fd
03
0c
fb
04
09
f2
fc
06
fb
08
0a
04
f0
fd
fe
10
f9
f8
07
04
fe
fd
09
fe
02
fe
fe
06
f8
fd
f6
0d
f3
fc
09
ff
ff
06
0a
f7
fb
fc
f7
fc
01
05
01
f3
0a
fa
0d
0b
f3
0f
04
f6
fa
fb
f3
fe
01
00
f8
00
0a
f7
05
01
f9
03
f3
02
f7
fc
02
fd
f6
f6
06
0c
01
08
06
08
f6
fc
fc
01
07
0c
02
02
04
0a
fa
05
0e
fa
0f
05
fc
fb
f8
06
08
01
f7
fc
07
f7
06
ff
f8
07
01
07
03
09
02
f7
02
0f
fa
0b
03
0b
fb
fd
02
0c
fb
04
08
f3
fc
07
fb
09
0a
04
f1
fc
fe
10
f9
f7
07
04
fe
fd
08
fd
02
fe
fe
07
f7
fd
f5
0d
f4
fb
09
ff
00
06
0b
f6
fc
fc
f6
fd
00
06
01
f3
0a
fa
0e
0b
f3
0e
04
f6
fa
fb
f4
fe
00
00
f8
00
0a
f8
05
02
f9
03
f3
01
f7
fd
03
fe
f6
f6
06
0d
01
09
05
09
f6
fc
fc
00
07
0d
02
02
06
0a
f9
05
0e
fa
0e
05
fc
fa
f8
06
07
01
f8
fc
07
f6
06
ff
f9
07
01
08
03
0a
03
f7
02
0e
fa
0a
03
0b
fa
ff
03
0d
fc
05
08
f2
fc
06
fc
08
0b
04
f1
fc
fe
10
fa
f8
05
04
ff
fd
09
fc
02
ff
fe
07
f7
fc
f5
0d
f5
fd
09
ff
fe
06
0a
f7
fc
fc
f6
fd
00
06
01
f4
0a
fa
0e
0a
f5
0d
04
f6
fa
fb
f4
fd
ff
00
f8
00
0a
f8
05
02
f9
03
f3
03
f7
fd
02
fd
f5
f6
06
0d
01
09
06
08
f7
fc
fc
01
07
0c
02
02
06
0a
fa
05
0f
fa
0e
04
fb
fa
f8
06
07
01
f8
fc
06
f7
06
00
f9
07
01
08
04
09
03
f6
01
0e
fa
0b
03
0b
fb
ff
02
0c
fb
04
09
f3
fc
05
fc
08
0b
03
f0
fb
fe
10
f9
f8
06
04
ff
fe
09
fd
02
ff
fe
07
f7
fb
f6
0c
f4
fd
08
ff
ff
05
0a
f8
fb
fc
f6
fd
ff
06
01
f4
09
fa
0e
0b
f4
0d
05
f8
fa
fc
f4
fe
ff
ff
f9
00
0a
f9
05
02
fa
03
f4
03
f8
fd
02
fd
f5
f6
07
0c
01
09
05
08
f6
fb
fd
01
07
0b
02
02
07
09
fa
04
0e
fb
0f
04
fc
fa
f8
06
08
01
f8
fd
08
f7
05
00
f9
06
02
08
04
09
03
f6
ff
0e
fa
0a
03
0b
fb
ff
03
0d
fb
05
08
f2
fc
07
fc
08
0b
04
f1
fc
ff
10
fa
f9
06
03
ff
fd
09
fe
01
ff
fe
08
f9
fb
f7
0c
f4
fc
08
ff
fe
05
0b
f7
fb
fa
f6
fd
ff
05
00
f4
09
fa
0f
0b
f4
0c
05
f6
f9
fc
f5
fe
ff
ff
f9
00
09
fa
05
01
fa
01
f4
03
f8
fd
02
fd
f5
f6
08
0c
01
09
05
08
f7
fb
fd
00
08
0b
01
02
07
09
fa
04
10
fb
0f
04
fc
f9
fa
06
06
01
f9
fc
06
f7
05
00
f9
05
03
08
03
0a
03
f5
00
0d
fa
09
03
0a
fa
00
02
0e
fc
04
07
f3
fc
06
fc
09
0b
04
f1
fc
ff
11
fb
f8
05
03
ff
fd
09
ff
02
01
ff
08
f9
fb
f6
0c
f4
fa
07
ff
ff
05
0c
f7
fb
fc
f6
fd
fe
06
00
f4
09
fb
0f
0b
f6
0d
05
f7
f9
fc
f5
fd
ff
00
f9
ff
09
fa
06
02
f9
01
f4
02
f9
fd
01
fe
f6
f7
08
0c
01
0a
04
08
f7
fb
fd
ff
08
0b
01
02
07
0a
fa
04
10
fa
0e
03
fc
f9
fa
06
07
01
f9
fd
07
f7
05
01
fa
06
02
08
03
09
02
f5
00
0c
f9
09
02
0a
fa
00
01
0e
fc
04
08
f4
fc
06
fc
08
0b
04
f0
fc
ff
10
fb
f9
05
02
ff
fe
09
fe
01
01
fe
08
f9
fa
f6
0b
f5
fb
07
ff
ff
04
0b
f8
fc
fb
f6
fd
ff
04
00
f5
09
fb
0e
0b
f5
0c
05
f8
f9
fd
f5
fd
fe
ff
f9
fe
0a
fa
06
02
fa
00
f4
03
f9
fe
02
fe
f5
f7
09
0b
01
0a
04
08
f7
fb
fd
00
08
0b
02
02
09
09
f9
04
10
fb
0e
03
fc
f9
f9
06
05
01
fa
fd
07
f6
05
00
f9
05
03
07
04
0a
04
f4
ff
0c
fa
09
02
09
fb
ff
03
0e
fc
04
08
f2
fc
06
fd
09
0c
03
f0
fb
fe
10
fd
f9
04
03
ff
00
09
ff
00
01
ff
08
f9
fa
f6
0b
f4
fb
07
00
ff
05
0b
f8
fc
fc
f6
fe
fe
07
00
f6
09
fb
0f
0b
f5
0b
05
f8
f9
fc
f6
fe
fe
00
fa
ff
09
fb
06
02
fa
01
f5
04
f9
fe
02
fd
f5
f7
0a
0c
00
0b
04
08
f7
fa
fd
00
08
0c
02
02
09
09
fa
04
0f
fb
0e
03
fc
f8
f9
07
06
02
f9
fd
06
f7
05
01
fa
05
04
08
03
09
04
f4
fe
0b
fa
08
02
09
fa
00
01
0f
fc
05
09
f3
fc
06
fd
08
0c
02
f1
fc
ff
0f
fd
fa
03
03
00
00
09
ff
01
01
ff
09
fb
fa
f6
0b
f5
fb
07
00
ff
05
0b
f9
fc
fc
f5
fe
fe
06
00
f5
09
fc
0f
0b
f5
0b
05
f9
f9
fd
f6
fc
fe
ff
fb
fe
09
fb
05
02
fa
00
f5
04
f9
fd
01
fd
f5
f7
0a
0a
00
0b
04
07
f8
fb
fc
ff
08
0c
02
01
08
09
fb
04
10
fa
0e
02
fc
f8
fa
07
05
02
f9
fd
05
f6
05
01
f9
05
04
08
03
0a
05
f4
fe
0b
fa
08
03
08
fa
01
01
0e
fc
05
07
f3
fc
05
fe
09
0c
03
f1
fc
fe
0f
fd
f9
05
02
00
fe
0a
ff
01
01
ff
09
fa
fa
f6
0a
f4
fa
06
00
ff
05
0b
f9
fd
fb
f6
fe
fe
06
ff
f5
07
fc
0f
0b
f6
0b
05
f9
fa
fd
f6
fd
fd
ff
fb
fe
08
fb
06
03
fa
00
f5
04
f9
fe
02
fd
f6
f8
0a
0b
ff
0b
04
08
f7
fa
fd
fe
08
0b
02
01
08
09
fb
04
10
f9
0e
03
fb
f8
f9
07
05
02
f9
fe
05
f5
04
01
fa
04
04
08
04
0a
05
f4
fd
0a
fa
07
02
08
fb
00
00
0e
fd
04
09
f4
fc
06
fd
08
0c
02
f1
fc
fe
10
fd
fb
03
02
00
00
0a
ff
ff
01
00
0a
fa
f9
f6
0a
f5
f9
06
ff
fe
05
0a
f9
fd
fb
f6
fe
fe
07
ff
f5
08
fd
0f
0a
f6
0b
06
f7
f9
fd
f6
fc
fd
ff
fb
ff
09
fb
06
02
fb
00
f5
04
fa
fe
01
fd
f6
f8
0a
0a
00
0a
03
07
f8
fa
fd
ff
08
0a
02
01
0a
09
fa
04
0f
fa
0e
02
fb
f8
f9
06
05
01
f9
fe
05
f6
05
01
fa
05
03
07
02
0a
04
f4
fc
0a
fa
08
02
07
fb
01
01
0e
fd
04
08
f4
fc
06
fd
08
0d
03
f2
fb
fe
0e
fe
fb
04
03
00
00
0b
ff
00
01
00
09
fb
f9
f5
0a
f5
f9
07
00
ff
04
0b
fa
fe
fb
f5
ff
fe
05
ff
f6
07
fc
0f
0a
f6
0a
05
f8
fa
fd
f7
fd
fe
fe
fb
fe
09
fc
06
02
fb
00
f5
05
fa
fe
01
fd
f5
f8
0b
0b
00
0c
03
06
f9
f9
fd
ff
09
0b
02
01
09
09
fb
04
10
fa
0e
02
fc
f9
fa
06
05
01
fa
fd
05
f6
04
01
fb
05
04
09
03
0a
05
f2
fd
09
fa
08
02
08
fa
01
00
0e
fe
05
08
f4
fc
06
fe
08
0c
02
f1
fc
fe
0e
ff
fc
03
02
00
00
0a
ff
00
01
00
0a
fc
f9
f7
0a
f5
f9
06
ff
fe
04
0c
fa
fd
fb
f5
fe
fe
06
fe
f6
08
fb
0e
0b
f6
0b
06
f8
f9
fd
f7
fc
fc
fe
fb
fe
08
fd
06
01
fb
00
f6
04
fa
fd
00
fd
f6
f8
0a
0a
00
0b
03
06
f9
f8
fd
fd
09
0b
02
01
0a
09
fb
04
0f
f9
0d
02
fb
f7
fa
06
03
01
fa
fe
04
f7
04
01
fb
04
05
08
03
09
06
f2
fc
09
fa
08
01
07
fb
01
01
0e
fd
03
08
f4
fc
06
fd
09
0c
01
f2
fb
fe
0d
ff
fc
03
02
00
00
09
00
ff
01
00
09
fc
f8
f7
09
f5
f9
06
00
fe
04
0b
fa
fd
fc
f5
fe
fe
06
fe
f6
07
fc
0f
0a
f7
0a
06
f9
fa
fe
f7
fc
fd
fe
fb
ff
08
fc
06
01
fb
00
f6
04
fa
fe
01
fd
f6
f8
0b
0a
ff
0c
03
06
f9
f8
fe
fd
09
0b
02
01
0b
09
fc
04
10
fa
0c
02
fb
f7
fa
06
04
02
f9
ff
03
f6
03
01
fb
04
04
07
03
09
05
f2
fc
09
fb
07
00
07
fa
02
00
0e
ff
04
08
f4
fc
06
fd
08
0d
01
f1
fc
ff
0e
ff
fb
03
02
01
00
0a
ff
ff
01
01
09
fc
f8
f6
09
f5
f8
06
ff
fe
03
0b
fa
fe
fb
f6
ff
fd
07
ff
f7
07
fc
0e
0a
f7
09
06
f8
fa
fe
f7
fb
fc
fe
fb
fd
08
fd
06
01
fb
ff
f6
05
f9
fe
00
fc
f6
f9
0b
0a
ff
0c
03
06
f9
f8
fd
fe
09
0b
02
01
0a
08
fc
03
0f
fa
0c
01
fb
f7
fa
06
04
01
fa
fd
03
f7
03
01
fa
05
05
08
03
09
06
f2
fb
08
fc
07
01
06
fc
03
00
0e
fe
04
08
f4
fc
05
fe
09
0d
01
f1
fc
ff
0d
00
fc
04
02
01
00
0a
ff
fe
01
01
0a
fd
f8
f6
09
f6
f8
05
00
fe
03
0b
fa
fe
fb
f5
00
fd
07
fe
f6
07
fe
0e
0b
f7
0a
06
f9
fa
fe
f7
fb
fc
fd
fb
fe
08
fd
07
02
fc
ff
f7
04
fa
fe
ff
fd
f6
f9
0b
0a
00
0b
03
06
f9
f7
fd
fe
09
0a
01
00
0b
09
fc
03
0f
fb
0c
01
fb
f6
f9
06
05
01
fc
fe
02
f6
02
01
fb
04
05
06
02
09
06
f2
fb
08
fa
07
02
07
fb
02
00
0e
fe
03
07
f5
fc
05
fd
09
0d
01
f1
fc
fd
0e
00
fc
03
03
01
00
0a
ff
ff
01
01
0a
fd
f8
f6
09
f6
f7
05
ff
fe
04
0b
fa
fe
fc
f5
ff
fd
06
fe
f7
07
fe
0e
0a
f8
0a
07
f9
f9
fe
f7
fb
fd
fd
fc
fc
08
fe
06
01
fc
ff
f6
05
fb
fe
00
fd
f6
f9
0a
09
00
0b
02
05
f9
f8
fd
fe
09
0b
02
00
0b
09
fc
03
0f
fa
0c
02
fc
f5
fa
06
04
02
fa
fe
01
f7
03
02
fb
04
05
07
03
09
06
f2
fa
07
fa
06
01
05
fc
03
ff
0e
ff
05
07
f5
fc
05
fe
09
0c
01
f2
fc
ff
0d
00
fd
03
02
02
00
0b
ff
ff
02
01
0a
fd
f8
f6
09
f6
f7
05
00
fe
04
0b
fb
fe
fb
f5
ff
fd
06
fe
f8
07
fd
0d
0a
f7
09
06
f8
fa
ff
f8
fb
fd
fc
fc
fc
08
fd
06
01
fc
ff
f7
04
fb
ff
ff
fd
f7
f9
0b
09
01
0b
03
05
f9
f7
fd
fc
09
0b
01
00
0b
09
fc
03
0f
fa
0b
01
fa
f6
fa
06
04
00
fb
fe
02
f7
02
01
fc
04
05
07
03
09
07
f1
fa
08
fb
06
01
05
fc
02
00
0d
ff
03
08
f4
fc
05
fd
0a
0d
00
f2
fd
ff
0d
01
fd
02
01
01
01
0a
ff
ff
01
01
0a
fd
f7
f6
09
f6
f6
04
00
fd
04
0b
fa
ff
fb
f6
ff
fd
06
fd
f8
07
fd
0d
0b
f8
09
06
f9
f9
fe
f7
fa
fc
fd
fd
fd
07
fd
06
01
fc
fe
f7
04
fb
fe
ff
fd
f7
f9
0c
09
00
0c
03
04
fa
f6
fd
fc
09
0a
02
00
0c
08
fd
03
0f
fb
0a
01
fb
f6
fa
05
04
00
fb
fe
02
f7
03
01
fd
04
04
07
03
09
06
f1
f9
07
fb
06
01
05
fb
03
ff
0d
ff
04
08
f5
fc
05
fe
08
0d
01
f2
fb
fe
0d
01
fd
03
01
02
01
0b
ff
fe
03
01
0a
fd
f7
f7
08
f6
f7
05
01
fd
04
0b
fa
ff
fc
f5
01
fd
06
fd
f9
06
fe
0e
0a
f8
09
06
f9
fa
fe
f9
fb
fc
fd
fd
fc
07
fe
06
01
fc
ff
f7
04
fb
ff
ff
fd
f6
f9
0b
09
00
0d
02
05
fa
f6
fd
fc
09
0a
00
ff
0c
09
fd
03
0e
fa
0b
00
fc
f5
fa
06
04
00
fb
ff
01
f7
02
02
fc
04
06
07
02
08
06
f1
fa
07
fb
05
00
04
fc
04
ff
0c
00
03
08
f5
fc
04
fe
09
0c
01
f2
fc
fe
0d
00
fd
03
02
02
00
0c
fd
fe
02
01
0a
fe
f6
f7
09
f6
f6
04
00
fd
04
0c
fb
fe
fb
f5
01
fc
06
fd
f8
06
fd
0d
0a
f9
08
06
f9
fa
00
f8
fb
fb
fc
fd
fe
07
ff
06
00
fd
fe
f7
05
fb
ff
00
fd
f7
fa
0b
09
ff
0d
02
04
fa
f6
fd
fb
09
0b
01
ff
0d
08
fd
03
0e
fa
0a
00
fb
f5
f9
05
04
00
fc
ff
00
f7
01
02
fd
03
05
08
03
09
06
f1
f9
07
fb
06
01
04
fc
04
fe
0c
00
03
07
f5
fc
04
fe
08
0d
01
f2
fc
fe
0d
02
fe
03
02
02
01
0b
ff
fe
02
01
0b
fe
f6
f7
08
f7
f5
05
01
fd
03
0a
fb
fe
fb
f5
00
fc
05
fc
f8
05
fd
0d
0a
f9
09
07
f8
fa
ff
f9
fa
fc
fd
fd
fc
07
ff
06
00
fc
fe
f7
04
fc
ff
ff
fd
f6
fa
0b
09
00
0d
02
04
fb
f5
fe
fc
09
0b
01
ff
0d
08
fd
03
0d
fb
0a
00
fb
f5
f9
05
04
01
fb
fe
01
f7
01
02
fc
04
06
06
02
09
06
f1
f9
07
fb
05
01
04
fd
03
ff
0c
00
03
07
f5
fc
05
ff
08
0d
00
f3
fc
ff
0c
03
fd
02
01
03
00
0b
ff
fe
03
01
0b
fd
f6
f7
08
f6
f6
04
00
fd
03
0a
fc
ff
fb
f5
00
fc
06
fc
f9
05
fe
0d
0a
f9
08
06
f9
fb
00
f9
fb
fc
fc
fd
fd
08
ff
07
00
fc
fe
f8
04
fc
00
ff
fd
f7
fa
0c
09
00
0c
02
04
fc
f5
fe
fc
0a
0a
02
ff
0d
08
fd
03
0f
fb
0a
00
fa
f6
fa
06
04
00
fc
ff
00
f7
00
02
fd
04
06
07
03
09
06
f1
f8
06
fc
05
01
03
fb
05
ff
0c
01
04
07
f6
fc
04
fe
08
0c
00
f3
fb
00
0b
02
fe
02
01
03
00
0b
ff
fd
02
01
0b
ff
f6
f7
07
f8
f7
04
00
fd
03
0b
fa
ff
fb
f5
00
fc
06
fc
f9
05
fe
0d
0a
f9
08
06
f9
fa
00
f9
fb
fb
fd
fe
fc
07
00
06
ff
fc
fe
f8
05
fc
ff
fe
fd
f7
fa
0c
08
ff
0c
02
04
fc
f5
fd
fc
09
0a
01
ff
0d
08
fe
03
0f
fb
09
ff
fc
f5
f9
05
04
01
fb
fe
00
f8
01
03
fc
03
06
06
02
08
07
f0
f9
06
fd
05
00
05
fc
04
ff
0b
00
03
07
f5
fc
04
ff
09
0c
ff
f3
fb
ff
0b
03
fe
03
02
03
02
0b
fe
fc
03
01
0a
fe
f5
f8
07
f7
f5
04
01
fd
03
0a
fb
00
fb
f5
00
fc
05
fb
fa
05
fe
0d
09
fa
08
06
f9
fb
00
f9
fb
fa
fc
fe
fd
06
00
06
00
fd
ff
f8
04
fc
00
fe
fe
f7
fa
0c
08
01
0c
01
04
fc
f4
fe
fa
09
0a
01
00
0e
08
fe
03
0f
fb
09
00
fb
f5
fa
05
05
ff
fc
fe
ff
f8
00
03
fe
03
06
06
03
09
07
f0
f9
06
fc
04
00
03
fc
05
ff
0c
01
03
07
f5
fc
04
ff
08
0c
00
f4
fc
ff
0c
02
ff
02
01
03
01
0b
ff
fd
03
02
0b
fe
f6
f8
07
f7
f6
03
01
fc
04
0a
fb
00
fb
f5
02
fb
06
fc
f9
05
ff
0d
0a
fa
08
06
fb
fb
01
fa
fa
fc
fb
fe
fd
07
00
06
00
fd
fd
f8
04
fc
ff
fe
fd
f7
fa
0c
08
00
0b
01
04
fd
f4
fe
fa
09
0a
01
ff
0e
08
fe
02
0e
fb
09
ff
fb
f4
f9
05
05
00
fc
fe
fe
f9
00
03
fd
03
06
06
02
09
07
f1
f8
06
fc
05
00
02
fc
06
fe
0b
01
02
08
f6
fd
04
fe
08
0c
00
f4
fb
00
0b
03
ff
03
01
04
02
0a
fe
fd
03
02
0b
fe
f6
f8
07
f8
f4
04
ff
fc
03
0a
fc
ff
fa
f5
01
fb
06
fb
fa
05
fd
0d
0a
fb
07
06
fa
fb
01
fa
fa
fc
fc
ff
fc
07
00
06
00
fd
fd
f9
04
fd
ff
ff
fe
f7
fa
0c
08
00
0c
01
03
fd
f4
fe
fb
09
0a
00
ff
0e
08
fe
02
0e
fb
08
fe
fb
f5
f9
05
03
ff
fc
fe
fe
f8
00
03
fe
03
06
06
02
09
07
f0
f8
05
fd
05
01
03
fd
06
ff
0b
01
02
07
f6
fc
04
ff
08
0c
00
f5
fc
00
0b
04
ff
02
01
04
01
0b
fe
fc
04
02
0b
ff
f6
f8
06
f8
f4
02
01
fc
03
0a
fc
ff
fc
f4
01
fa
06
fa
fa
05
fe
0d
0a
fb
07
05
f8
fc
01
fa
fa
fc
fc
fe
fb
07
00
06
00
fd
fe
f9
04
fd
00
ff
fe
f8
fb
0c
07
00
0c
01
03
fe
f4
ff
fa
09
09
01
ff
0e
08
ff
02
0d
fb
09
ff
fb
f5
f9
05
04
01
fc
ff
fe
f8
00
02
fe
02
06
07
02
08
05
f0
f7
05
fc
04
01
02
fc
05
fe
0a
03
03
08
f7
fc
04
ff
08
0c
00
f5
fc
00
0a
04
ff
01
00
04
01
0b
fe
fc
03
01
0b
ff
f6
f7
07
f7
f5
02
00
fc
03
0a
fc
00
fa
f5
02
fb
06
fb
fa
04
ff
0c
09
fc
07
07
fa
fb
00
fb
fa
fb
fb
ff
fc
05
00
07
00
fd
fc
f9
04
fd
00
fe
fe
f8
fb
0d
07
00
0c
00
03
fe
f4
ff
fb
09
0a
02
fe
0f
08
fe
02
0c
fb
08
fe
fb
f6
f9
04
04
ff
fc
ff
fd
f9
01
03
ff
03
06
06
03
09
07
ef
f8
05
fc
04
00
01
fc
06
fd
0b
02
02
07
f6
fc
04
ff
08
0c
00
f5
fc
ff
09
04
00
01
01
04
01
0b
fe
fc
04
02
0b
00
f6
f8
06
f8
f4
02
00
fc
04
0a
fc
00
fb
f4
00
fa
06
fb
fb
04
ff
0c
09
fb
06
06
f9
fc
01
fa
fa
fb
fc
ff
fc
06
01
06
ff
fd
fe
f9
04
fd
ff
fe
ff
f8
fb
0d
07
00
0c
00
02
fe
f3
ff
fa
0a
0a
01
fe
0f
08
fe
02
0d
fb
08
ff
fc
f6
fa
05
05
00
fd
fe
fd
f8
ff
03
ff
03
07
06
02
09
06
f0
f8
05
fd
04
01
01
fd
07
fd
0b
02
02
07
f7
fc
03
00
07
0c
ff
f4
fc
00
0b
05
ff
01
00
05
01
0c
fd
fc
04
02
0b
ff
f6
f8
07
f9
f4
02
00
fc
03
09
fc
ff
fb
f4
02
f9
06
fa
fa
04
ff
0c
09
fb
07
06
f9
fc
01
fb
fa
fb
fc
ff
fb
06
02
07
ff
fd
fd
f9
04
fd
ff
fd
fe
f8
fb
0c
07
00
0b
00
02
fe
f3
fe
fa
09
09
02
ff
0f
08
fe
02
0d
fb
07
fe
fb
f5
f9
05
04
00
ff
fe
fd
f8
ff
03
fe
03
07
05
02
09
06
f1
f7
05
fd
03
01
01
fc
06
fe
0a
03
02
07
f7
fc
03
00
08
0b
00
f5
fb
ff
0a
04
00
01
01
05
01
0b
fe
fc
03
02
0b
00
f5
f8
06
f8
f4
01
01
fb
04
0a
fc
00
fb
f5
02
fa
05
fa
fb
04
fe
0b
08
fc
06
07
fa
fc
02
fb
fa
fb
fa
ff
fb
05
00
07
ff
fe
fd
fa
05
fe
00
fe
fe
f7
fb
0c
07
ff
0c
00
03
fe
f3
ff
f9
09
09
01
fe
0f
08
ff
02
0d
fd
08
fe
fb
f5
fa
05
05
00
fd
ff
fb
fa
ff
03
fe
03
06
05
02
08
07
f0
f7
05
fc
04
00
01
fc
07
fd
0a
03
02
06
f7
fd
03
ff
08
0b
00
f5
fa
00
09
06
00
02
01
05
02
0c
ff
fb
04
03
0b
00
f5
f8
06
f8
f4
02
01
fb
03
09
fd
00
fc
f6
02
fa
07
fa
fb
03
ff
0c
09
fc
06
06
fa
fc
02
fb
fa
fb
fb
00
fd
06
01
07
ff
fe
fe
f9
04
fe
00
fd
00
f8
fb
0c
07
00
0b
00
02
ff
f2
ff
fa
09
09
01
fd
0f
08
ff
02
0d
fc
08
fd
fb
f6
f9
05
04
ff
fe
ff
fc
f8
ff
04
00
02
07
06
01
08
07
f1
f7
04
fe
03
01
00
fd
07
fe
09
03
02
06
f7
fc
04
00
07
0b
ff
f6
fb
ff
09
05
00
00
01
06
02
0b
fe
fb
04
02
0b
00
f5
f9
06
f8
f3
02
00
fb
04
09
fc
01
fb
f5
02
f9
05
fa
fb
03
fe
0d
08
fd
06
05
f9
fb
02
fb
fa
fb
fb
00
fb
05
01
06
ff
fe
fd
f9
02
fe
ff
fd
ff
f9
fb
0c
06
00
0c
00
02
ff
f3
00
f9
09
09
01
fe
10
07
00
01
0c
fc
08
fe
fc
f5
fa
04
03
ff
fe
ff
fc
f8
fe
03
ff
02
07
05
02
08
06
f1
f7
04
fe
04
00
00
fd
07
fd
09
03
03
06
f7
fc
03
00
08
0b
fe
f6
fc
ff
0a
07
01
01
01
05
02
0b
fe
fb
04
02
0b
00
f4
f8
05
f9
f4
02
01
fc
03
09
fc
01
fc
f4
02
fa
05
f9
fb
03
ff
0c
08
fd
06
05
fb
fc
02
fb
f9
fb
fb
00
fb
05
00
06
ff
fe
fd
fa
04
fe
00
fd
fe
f9
fb
0c
06
00
0c
ff
02
ff
f2
fe
f9
09
09
00
fe
0f
07
00
01
0d
fc
07
fe
fb
f6
f9
04
04
00
ff
ff
fb
f9
ff
03
00
03
07
05
01
08
06
f0
f5
04
fd
04
00
01
fd
08
fd
09
03
01
06
f8
fd
03
00
08
0a
fe
f7
fa
ff
08
07
01
01
00
06
03
0c
fe
fb
04
03
0b
00
f4
f9
05
f8
f3
01
01
fb
03
08
fd
00
fc
f5
03
f9
05
f9
fb
03
ff
0c
08
fc
06
06
fb
fc
01
fb
fa
fb
fb
00
fc
04
02
06
fe
fe
fd
fa
05
fe
00
fd
ff
f8
fb
0c
07
00
0b
00
02
01
f2
ff
f9
09
09
01
fe
0f
08
ff
01
0c
fc
07
fc
fa
f5
fa
05
04
00
ff
ff
fa
f8
fe
04
00
02
07
04
01
07
07
f1
f6
04
fe
03
00
00
fd
08
fd
09
04
01
07
f7
fd
03
00
07
0b
ff
f7
fb
00
09
07
00
01
00
06
02
0b
fe
fc
05
03
0b
00
f5
f9
04
fa
f3
00
01
fb
02
09
fe
02
fc
f5
02
f9
05
f9
fc
03
00
0b
08
fd
07
05
fb
fc
03
fc
fa
fb
fb
00
fb
04
02
07
fe
fd
fc
fa
04
fe
ff
fd
ff
f9
fc
0d
06
00
0c
ff
02
00
f2
ff
f8
09
08
01
fe
10
07
00
01
0d
fb
06
fd
fa
f5
fa
04
04
ff
ff
ff
fa
f9
ff
04
fe
02
08
04
01
08
07
f1
f7
03
fe
03
ff
00
fd
08
fd
08
04
01
06
f7
fd
02
00
08
0a
fe
f7
fb
ff
08
07
01
00
01
06
02
0b
fe
fb
04
03
0b
00
f5
f9
05
f9
f4
01
02
fb
04
08
fd
00
fc
f6
03
fa
05
f9
fc
03
00
0c
08
fd
06
06
fb
fc
02
fc
fb
fb
fb
00
fa
05
02
06
fd
fe
fc
fa
04
fe
00
fc
ff
fa
fc
0c
05
00
0b
ff
01
01
f2
ff
f8
09
09
01
fd
10
07
00
01
0b
fc
06
fd
fa
f5
f9
04
05
ff
ff
ff
fa
f9
fe
04
00
02
07
04
01
08
07
f1
f6
03
ff
03
00
fe
fc
09
fc
08
05
01
05
f8
fd
03
00
07
0b
fe
f8
fb
00
08
07
01
01
00
06
03
0c
fe
fb
04
03
0b
01
f5
fa
05
f9
f3
00
01
fb
04
08
fe
00
fd
f6
03
f9
06
f8
fb
02
ff
0b
06
fe
05
06
fb
fc
02
fd
fa
fb
fb
01
fa
04
02
06
fe
fe
fc
fa
04
ff
00
fd
00
fa
fc
0c
06
00
0b
ff
01
01
f1
ff
f9
09
08
01
fd
10
07
ff
01
0b
fc
06
fd
fb
f5
f9
04
04
ff
ff
ff
f9
f9
fd
04
00
01
07
04
01
08
07
f1
f5
04
ff
02
00
fe
fe
09
fd
09
04
00
05
f8
fd
03
00
08
0a
ff
f8
fb
ff
09
08
02
01
00
07
03
0b
fe
fa
05
02
0a
01
f5
f9
05
f9
f4
00
02
fa
03
09
fe
01
fc
f6
03
f9
07
f9
fc
02
ff
0b
08
fe
04
05
fb
fc
02
fc
f9
fb
fb
01
fa
04
03
06
fe
fe
fd
fa
04
ff
00
fd
fe
fa
fc
0d
06
00
0b
fe
01
02
f2
00
f8
09
08
01
fd
10
07
01
01
0c
fd
05
fc
fa
f5
f9
03
04
00
ff
ff
f9
f9
fd
04
00
03
07
05
01
08
07
f1
f5
03
fe
02
00
ff
fe
09
fc
08
05
01
05
f8
fd
02
00
07
09
ff
f8
fb
ff
08
07
02
00
01
06
03
0b
fd
fa
05
03
0b
01
f5
fa
05
f9
f3
00
02
fa
03
08
fd
02
fd
f5
03
f8
05
f8
fc
02
00
0a
07
fe
05
05
fb
fd
02
fc
f9
fb
fa
00
fa
04
03
05
fe
fe
fc
fa
04
00
00
fc
ff
fa
fc
0c
05
00
0b
ff
00
00
f1
ff
f7
09
08
00
fd
10
07
00
01
0c
fd
05
fc
fa
f5
f9
03
04
00
ff
ff
f8
fa
fd
04
01
02
08
04
01
07
06
f2
f6
03
fe
01
00
fe
fe
09
fd
08
05
01
05
f8
fd
02
00
07
09
fe
f8
fa
00
08
08
02
00
00
06
03
0b
fc
fb
04
03
0a
01
f5
fa
04
fa
f3
00
01
fa
02
08
fd
01
fd
f6
03
f9
06
f7
fd
01
00
0b
07
ff
04
05
fb
fc
02
fc
f9
fb
fa
01
fa
04
03
06
fe
fe
fc
fb
04
00
00
fb
ff
f9
fc
0c
05
ff
0b
fe
00
01
f1
ff
f7
09
08
00
fe
0f
07
01
00
0b
fd
06
fc
fb
f6
f9
05
04
ff
00
00
f9
f9
fd
05
01
02
08
03
01
06
07
f2
f6
03
fe
02
00
fe
fd
0a
fd
07
05
01
05
f8
fd
03
00
08
09
fe
f7
fb
01
08
08
02
01
00
06
03
0b
fe
f9
05
02
0a
01
f4
fa
04
fa
f3
ff
03
fb
02
07
fe
01
fd
f6
03
f8
05
f7
fd
01
00
0b
08
fe
04
05
fb
fd
03
fd
fa
fa
fa
00
fa
04
03
06
fe
ff
fb
fb
04
00
ff
fb
00
f9
fc
0c
05
00
0a
fe
00
03
f1
00
f8
09
07
01
fd
10
07
00
00
0b
fe
06
fc
fb
f5
f9
03
05
ff
00
ff
f8
fa
fc
05
00
01
07
03
01
07
07
f3
f5
03
ff
01
00
fe
fe
09
fc
07
06
00
04
f8
fd
02
00
08
09
fe
f7
fc
00
09
09
02
ff
01
07
04
0a
fe
fa
05
03
0a
02
f4
fa
05
fa
f3
00
02
fa
04
08
fe
01
fd
f7
03
f8
06
f7
fd
00
00
0b
07
ff
04
05
fb
fd
03
fd
fa
fb
fa
02
fa
04
04
06
fd
ff
fb
fb
04
00
00
fc
ff
fa
fc
0c
05
01
0a
fe
00
03
f1
ff
f8
09
07
02
fc
0f
07
01
00
0b
fc
05
fc
fa
f5
f9
04
05
ff
01
00
f8
f9
fd
05
01
01
08
04
01
06
07
f2
f6
02
fe
01
ff
fd
ff
09
fd
08
06
00
05
f7
fd
02
00
07
09
fe
f9
fb
00
07
0a
03
ff
00
07
03
0a
ff
fa
05
03
0a
01
f5
fb
04
fa
f3
ff
02
fa
03
07
ff
02
fc
f6
04
f6
05
f6
fd
01
00
0a
06
fe
04
06
fc
fd
03
fc
fa
fa
fa
02
fa
04
03
06
fe
fe
fc
fa
05
00
01
fc
ff
fa
fc
0c
05
02
0b
fe
ff
03
f1
00
f7
09
07
01
fd
0f
07
01
00
0a
fc
04
fb
fb
f5
fa
04
04
00
01
00
f7
fa
fc
05
01
00
07
03
00
06
07
f2
f6
02
fe
00
01
fd
fd
09
fc
07
06
00
04
f8
fd
03
00
07
09
fe
f9
fb
00
08
09
02
ff
00
07
03
0a
fd
fa
05
04
09
02
f4
fa
04
fa
f4
ff
01
fa
03
08
ff
02
fd
f6
04
f7
05
f7
fe
01
00
0a
07
ff
03
05
fc
fd
03
fd
fa
fa
f8
01
f9
03
04
06
fd
fe
fc
fb
04
ff
01
fc
00
fb
fc
0d
04
01
0a
fd
00
02
f1
00
f8
08
07
01
fd
10
07
01
00
0a
fd
05
fc
f9
f5
f9
04
04
00
00
00
f7
f9
fd
05
01
02
07
03
01
06
07
f2
f6
02
ff
01
00
fd
fd
0a
fb
07
06
ff
04
f8
fd
02
01
06
09
fd
f8
fa
00
07
0a
02
ff
00
07
03
0b
fd
f9
05
03
08
00
f5
fa
04
fb
f3
ff
02
fb
02
07
ff
02
fd
f6
03
f8
05
f6
fd
00
01
0a
06
00
04
05
fc
fc
03
fd
fa
fb
fb
02
f9
04
04
06
fd
ff
fc
fb
04
01
01
fc
00
fa
fc
0c
04
01
0a
fd
ff
05
f1
01
f6
09
07
01
fc
0f
07
03
00
09
fd
04
fc
f9
f5
f9
04
04
ff
01
00
f6
f9
fc
04
01
00
07
03
00
06
07
f3
f5
02
ff
01
01
fd
fe
0a
fc
07
06
ff
03
f8
fd
01
ff
08
09
fd
fa
fa
00
07
09
02
ff
01
07
03
0a
fe
f9
06
03
09
02
f4
fa
03
fa
f3
fd
01
fa
02
07
ff
02
fe
f7
04
f6
06
f7
fd
ff
01
0b
06
00
03
05
fb
fd
02
fe
fa
fb
f9
02
f9
03
05
06
fe
ff
fb
fb
05
01
00
fb
ff
fa
fd
0c
04
01
0a
fd
ff
04
f1
01
f8
09
07
01
fd
0f
06
01
00
0a
fc
04
fb
fa
f6
f9
03
05
00
01
00
f6
fb
fc
04
02
01
07
03
01
06
06
f3
f5
02
ff
00
00
fc
fe
0a
fc
06
07
ff
04
f8
fd
01
00
08
09
fd
fa
fb
01
07
09
03
ff
00
07
03
0a
fe
f9
06
03
09
02
f4
fb
02
fb
f3
ff
03
fb
02
07
00
02
fd
f6
04
f7
04
f6
fe
ff
00
09
06
00
02
05
fc
fd
04
fe
fb
fa
fa
02
f9
03
04
07
fd
ff
fc
fb
03
01
00
fb
00
fb
fd
0b
04
00
09
fd
fe
04
f1
01
f7
09
07
00
fc
0f
06
01
00
09
fd
04
fb
fa
f6
f9
02
05
ff
01
00
f7
fb
fb
05
02
00
07
03
00
06
07
f3
f5
02
ff
00
00
fc
fe
0a
fc
06
07
00
04
f9
fd
02
00
07
08
fd
fa
fb
00
07
0a
04
ff
00
08
04
0a
fe
f8
06
04
09
02
f4
fb
02
fb
f2
ff
03
fa
01
07
ff
03
fe
f6
04
f6
05
f6
fe
ff
01
0a
07
ff
03
06
fd
fe
03
fd
fb
fb
fa
03
f9
03
05
06
fc
fe
fc
fb
04
01
01
fb
00
fb
fd
0c
05
01
09
fd
fe
05
f0
00
f5
09
07
01
fc
0f
07
02
ff
0a
fe
04
fb
fa
f5
f9
03
05
00
00
00
f7
fb
fc
05
02
01
08
02
00
05
08
f4
f5
02
ff
00
01
fd
ff
0b
fb
06
07
ff
04
f9
fd
02
ff
08
07
fd
fa
fb
00
06
0b
03
ff
00
08
04
0a
fe
f8
05
04
09
02
f5
fb
03
fb
f4
ff
03
fa
03
07
00
03
fe
f8
03
f6
05
f7
fe
ff
00
0a
05
01
03
05
fd
fd
03
fe
fa
fa
f8
03
f8
02
04
05
fd
ff
fc
fb
04
02
01
fc
ff
fa
fd
0b
04
02
09
fc
fe
05
f1
01
f6
09
06
01
fc
0e
06
02
ff
09
fc
04
fb
fa
f5
fb
03
04
ff
01
ff
f6
fb
fc
05
02
00
07
03
00
06
07
f4
f5
02
ff
ff
00
fc
ff
0a
fc
05
07
ff
04
f8
fd
01
00
07
08
fd
fa
fc
00
07
0b
04
ff
00
08
04
0a
fd
f8
05
04
08
02
f4
fc
03
fb
f4
fe
02
fa
03
06
00
02
fe
f6
03
f7
04
f7
fe
fe
01
0a
05
01
02
05
fd
fe
03
fe
fb
fa
fa
04
f8
01
05
06
fd
fe
fc
fb
03
01
00
fc
00
fb
fd
0b
04
00
09
fd
fe
05
f0
00
f6
09
06
00
fc
0f
06
02
ff
09
fd
04
fb
fa
f7
f9
03
04
00
01
00
f6
fb
fb
04
02
00
07
03
ff
06
08
f4
f5
02
ff
ff
00
fc
ff
0b
fc
05
07
fe
03
f9
fd
01
00
08
08
fd
fa
fc
01
06
0b
03
fe
00
09
04
0a
fe
f8
06
04
08
02
f4
fb
02
fb
f3
fe
02
fa
02
06
00
04
ff
f8
04
f5
05
f6
ff
ff
00
09
05
01
02
05
fd
fd
03
fe
fa
fb
f9
03
f8
02
05
06
fd
ff
fb
fc
03
01
00
fc
01
fb
fd
0c
04
01
09
fd
fd
06
f1
00
f6
09
07
01
fb
0e
07
02
ff
09
fe
04
fc
f9
f6
fa
03
04
ff
02
00
f5
fb
fb
05
02
00
08
03
00
06
06
f5
f5
01
00
ff
00
fb
ff
0c
fb
05
07
ff
03
f9
fd
01
00
06
07
fd
fc
fb
00
05
0c
04
ff
00
08
05
0b
fd
f7
05
03
08
02
f4
fc
03
fb
f2
fe
02
fa
02
05
01
03
fe
f7
04
f6
05
f6
ff
fe
01
08
05
01
02
04
fd
fe
03
ff
fb
fb
fa
03
f8
01
05
05
fd
ff
fb
fc
04
01
00
fb
01
fb
fd
0c
03
01
08
fd
fe
06
f0
01
f6
08
06
00
fc
0e
06
02
fe
09
fe
03
fb
fa
f7
fa
03
04
ff
01
00
f6
fb
fb
06
02
00
08
03
00
05
07
f4
f5
01
00
ff
00
fc
fe
0b
fa
05
08
ff
03
f9
fd
02
00
07
07
fd
fb
fb
00
06
0c
04
fe
00
08
04
0a
fe
f7
06
03
09
02
f4
fb
02
fc
f3
fd
03
fa
01
07
01
03
fe
f7
03
f7
05
f6
ff
fe
00
09
04
01
02
04
fc
fe
03
fe
fb
fb
fa
03
f8
02
06
05
fc
ff
fb
fc
04
02
00
fb
00
fb
fd
0c
03
01
09
fc
fd
07
f0
01
f4
08
06
01
fb
0e
06
02
fe
07
fd
03
fa
fa
f6
f9
03
05
fe
02
00
f5
fb
fa
05
02
ff
08
02
00
05
07
f5
f5
01
ff
ff
00
fb
ff
0b
fb
05
08
ff
03
f9
fd
01
01
06
08
fd
fb
fb
00
06
0c
05
fe
ff
09
04
09
fe
f7
05
03
08
02
f4
fc
02
fc
f3
fd
02
fa
01
05
01
02
fe
f8
04
f6
05
f6
ff
fd
02
09
04
01
02
05
fd
fd
03
fe
fb
fb
fa
03
f9
01
05
06
fb
00
fb
fc
04
02
01
fb
00
fb
fd
0b
03
00
08
fc
fe
06
f0
01
f5
08
06
00
fc
0e
06
03
fe
09
fe
03
fa
f9
f7
f9
04
04
ff
03
00
f4
fb
fa
05
02
00
07
03
ff
05
07
f5
f5
01
00
ff
00
fb
fe
0a
fc
05
09
fe
02
f9
fe
00
01
06
07
fc
fc
fb
00
06
0c
04
fd
00
09
04
09
fc
f8
05
04
07
02
f4
fc
02
fd
f4
fd
03
fa
02
06
01
04
fe
f7
04
f5
06
f6
ff
fd
02
09
05
02
02
04
fd
fd
04
00
fa
fb
f9
04
f7
01
06
06
fc
ff
fc
fc
03
02
01
fb
00
fc
fd
0b
03
02
08
fc
fd
07
f1
01
f5
09
06
01
fb
0e
06
03
fe
08
fe
03
fa
fa
f7
fa
03
05
ff
02
01
f5
fc
fa
06
03
00
07
02
00
05
07
f6
f4
01
ff
ff
01
fc
ff
0a
fc
04
08
fe
02
fa
fe
00
01
06
07
fe
fc
fb
00
05
0c
04
fd
00
08
04
09
fd
f7
07
04
07
03
f4
fc
02
fb
f3
fd
03
fa
02
06
02
04
ff
f8
04
f6
04
f5
ff
fc
01
09
05
02
02
04
fd
fe
03
ff
fb
fa
fa
04
f8
01
06
06
fc
00
fb
fc
04
03
01
fb
00
fc
fd
0b
02
01
08
fb
fd
06
f1
02
f4
08
05
00
fb
0d
06
05
fe
07
fe
02
fa
fa
f6
fa
03
04
00
02
01
f4
fb
fa
06
03
00
07
01
00
05
07
f6
f5
00
ff
ff
ff
fa
ff
0a
fb
05
09
fe
02
f9
fd
00
00
06
07
fd
fc
fc
00
04
0d
05
fd
00
08
04
09
fe
f7
06
03
08
02
f4
fc
02
fc
f4
fe
03
fa
02
06
02
04
ff
f8
04
f6
05
f5
ff
fd
01
09
04
02
02
04
fd
fe
03
ff
fc
fb
fa
04
f7
01
05
05
fb
ff
fb
fc
03
03
01
fb
01
fb
fd
0a
03
01
08
fb
fd
08
f1
02
f5
08
05
00
fb
0d
05
04
fe
07
fd
02
fb
fa
f6
fa
02
04
ff
02
00
f4
fc
fa
05
02
00
07
02
00
04
07
f6
f5
01
00
fe
00
fa
ff
0b
fc
04
0a
ff
02
f9
fe
00
00
07
07
fd
fc
fd
01
05
0d
05
ff
ff
09
05
08
fd
f6
06
04
07
03
f4
fb
01
fc
f4
fc
02
f9
02
05
02
04
ff
f8
05
f6
04
f6
ff
fc
01
08
03
02
01
03
fd
ff
04
00
fb
fa
f9
03
f7
01
06
06
fc
00
fb
fd
04
02
02
fb
00
fc
fd
0a
03
01
08
fb
fd
08
f1
02
f5
08
05
00
fc
0d
06
04
fe
07
ff
02
fa
fb
f8
fa
03
04
ff
03
00
f3
fc
fa
06
03
ff
06
01
ff
04
07
f6
f4
01
00
fe
01
fa
ff
0b
fb
04
0a
fe
01
f9
fe
00
01
06
07
fd
fc
fb
00
06
0d
04
fd
ff
09
05
08
fd
f6
06
04
07
04
f4
fc
02
fd
f4
fd
02
fa
02
06
02
04
00
f9
05
f6
05
f6
ff
fd
01
08
04
02
01
03
fd
ff
03
00
fa
fa
f9
04
f6
00
07
06
fc
ff
fa
fc
04
03
01
fb
00
fc
fd
0b
02
01
07
fb
fd
08
f0
02
f6
08
05
01
fb
0d
05
03
fe
07
fe
02
fb
fa
f7
fa
02
04
ff
02
00
f3
fc
f9
06
03
00
06
01
ff
04
08
f7
f5
01
ff
fe
00
fa
ff
0b
fb
04
0a
fd
02
fa
fe
00
01
06
06
fc
fd
fb
00
05
0d
05
fe
ff
09
04
08
fe
f7
06
03
05
03
f5
fc
01
fd
f5
fc
02
fa
02
06
02
04
ff
f9
04
f5
04
f5
ff
fd
02
07
04
03
01
04
fe
fe
03
00
fb
fb
f9
04
f7
00
06
05
fb
ff
fb
fd
04
03
01
fb
01
fc
fd
0a
02
01
07
fa
fc
08
f0
02
f6
08
05
00
fb
0d
06
04
fd
06
fd
02
fa
fa
f8
fa
02
04
fe
03
01
f3
fb
f9
06
03
00
06
02
ff
05
07
f7
f5
00
00
fd
01
fa
ff
0b
fb
04
0a
ff
01
f9
fe
01
01
06
06
fe
fd
fc
02
05
0d
06
fd
ff
09
05
09
fe
f6
06
04
07
04
f4
fc
01
fe
f4
fc
03
fa
02
06
02
04
00
f9
05
f4
04
f5
ff
fb
01
08
04
02
00
04
ff
ff
04
00
fc
fb
f9
05
f7
00
06
05
fb
00
fa
fd
04
02
01
fb
01
fc
fd
0a
02
01
07
fb
fb
07
f1
02
f5
08
05
00
fb
0d
05
04
fd
07
fe
02
fa
fa
f9
fa
02
04
00
02
01
f3
fc
fa
06
03
00
07
01
ff
04
07
f7
f6
00
00
fe
00
fa
fe
0c
fb
04
0b
fe
01
fa
fe
00
01
05
07
fd
fd
fb
01
05
0e
06
fe
ff
09
04
09
fe
f6
06
04
07
03
f5
fd
00
fd
f4
fc
02
fa
02
04
02
05
00
f8
04
f5
06
f5
00
fb
01
09
03
03
01
04
fe
ff
04
00
fb
fb
f9
05
f7
01
07
05
fc
00
fc
fc
04
04
01
fb
00
fd
fd
0a
02
02
06
fa
fc
08
f1
03
f5
08
05
00
fb
0c
06
04
fd
06
ff
02
f9
fa
f8
fb
03
04
ff
03
01
f3
fc
f9
05
03
ff
07
01
ff
03
07
f8
f6
01
00
fd
00
fa
ff
0b
fb
03
0a
fe
01
fa
fe
00
00
05
06
fd
fd
fc
00
04
0e
07
fd
00
09
05
09
fe
f6
06
04
06
03
f4
fb
01
fd
f4
fc
03
fa
02
05
02
05
00
f9
05
f5
04
f5
00
fc
02
08
03
03
00
04
fe
ff
03
00
fb
fb
f9
06
f6
01
07
05
fb
01
fb
fd
04
03
01
fb
01
fd
fd
0a
02
01
07
fa
fc
09
f1
03
f5
07
05
01
fb
0c
05
04
fd
06
fe
01
fa
fb
f8
fa
02
04
ff
03
01
f3
fc
f9
06
02
ff
07
01
ff
04
08
f8
f5
00
00
fd
01
fa
00
0b
fa
03
0b
fe
00
fa
fe
00
01
06
06
fd
fd
fc
00
04
0d
06
fd
ff
09
05
08
fe
f6
06
03
06
04
f5
fc
01
fe
f5
fc
05
fa
02
05
03
05
ff
f9
04
f5
05
f5
00
fb
02
09
03
04
00
04
fe
00
03
01
fb
fc
f9
05
f7
00
07
06
fb
00
fb
fd
04
04
02
fc
01
fc
fe
0a
02
02
06
fa
fb
09
f1
03
f5
08
04
00
fb
0b
05
05
fc
06
fe
01
fa
fa
f8
fa
02
05
ff
03
01
f3
fd
fa
06
02
ff
07
01
ff
04
07
f9
f5
00
ff
fd
00
fa
ff
0b
fb
03
0b
fe
01
fa
fe
00
01
05
06
fd
fd
fc
01
04
0e
07
fc
ff
09
06
08
fe
f6
06
03
06
04
f5
fc
00
fd
f3
fc
03
fa
02
05
04
04
00
f9
05
f6
05
f6
00
fa
02
07
02
03
ff
03
ff
ff
04
01
fb
fb
f9
05
f7
00
07
06
fb
00
fa
fd
03
03
01
fc
00
fd
fd
0a
01
03
07
fa
fb
0a
f1
03
f6
08
04
01
fb
0b
05
05
fd
05
ff
01
f9
fb
f8
fa
01
04
ff
02
01
f2
fd
f9
06
03
00
06
00
ff
04
07
f8
f6
01
00
fc
00
f9
00
0c
fa
03
0b
fe
00
fa
ff
00
01
05
06
fd
fd
fc
01
04
0f
07
fd
ff
09
05
07
fd
f7
06
03
06
04
f5
fd
00
fd
f5
fc
03
fa
02
04
04
04
00
f9
04
f6
04
f5
01
fa
01
07
03
04
00
03
fe
ff
04
01
fc
fb
f9
06
f6
00
07
05
fb
ff
fa
fd
03
04
01
fb
00
fd
fe
0a
01
02
07
fa
fb
0a
f1
03
f4
07
04
00
fb
0b
05
05
fc
05
ff
01
f9
f9
f8
fa
02
04
fe
03
01
f2
fd
f8
06
03
00
06
00
fe
04
07
f9
f5
00
00
fc
00
f8
ff
0b
fa
02
0b
fe
00
fa
fe
00
00
05
06
fd
fe
fb
02
05
0f
06
fd
ff
09
05
08
fe
f6
06
03
05
03
f5
fd
ff
fe
f5
fb
02
fa
02
04
03
04
00
f9
06
f5
04
f5
00
f9
02
08
01
04
00
03
fe
ff
03
01
fb
fa
f9
06
f6
ff
07
05
fb
00
fa
fd
03
04
01
fa
00
fd
fd
08
01
02
05
f9
fb
0a
f1
02
f4
07
04
00
fa
0b
05
04
fc
05
fe
00
f9
fb
f8
fa
01
04
ff
03
01
f3
fc
f9
06
03
ff
05
ff
ff
04
06
f8
f5
ff
00
fc
00
f8
ff
0c
fa
02
0c
fd
00
fb
ff
ff
00
05
06
fc
ff
fc
02
04
0e
07
fd
ff
09
05
08
fd
f6
06
04
05
04
f5
fd
00
fe
f4
fb
04
fa
02
05
04
04
01
f9
05
f5
05
f5
01
fa
02
07
02
04
00
04
ff
ff
04
02
fb
fb
f9
06
f6
ff
08
05
fb
00
fb
fd
03
04
01
fb
01
fe
fe
0a
02
02
06
fa
fa
0b
f1
03
f5
07
05
01
fb
0a
05
05
fc
05
ff
00
fa
fa
f9
fb
01
04
ff
04
01
f2
fd
f8
05
04
ff
06
00
ff
05
06
f9
f5
ff
00
fb
00
f8
ff
0b
fb
02
0b
fd
00
fb
fe
ff
01
05
06
fc
fe
fc
01
04
0e
07
fc
ff
09
05
08
fe
f6
06
04
05
04
f6
fd
00
ff
f5
fb
04
fa
02
04
04
05
02
f9
05
f5
05
f5
01
fa
02
07
01
04
ff
03
ff
ff
04
02
fc
fa
f9
05
f6
ff
07
04
fa
00
fa
fe
03
04
02
fa
01
fe
fe
09
02
02
06
f9
fa
0a
f2
03
f4
08
03
01
fa
0a
05
06
fc
05
fd
01
fa
fa
f8
fa
01
04
fe
03
01
f2
fd
f9
06
03
00
06
00
fe
03
07
f9
f6
00
ff
fc
00
f8
ff
0b
fb
02
0b
fd
00
fb
fe
ff
02
05
06
fc
fe
fc
01
04
0f
06
fd
ff
09
05
07
fe
f6
05
04
04
04
f5
fd
00
fe
f5
fa
04
fa
02
03
04
06
02
f9
05
f5
05
f5
01
fa
03
07
02
05
00
03
fe
ff
04
01
fb
fb
f9
06
f6
ff
07
04
fa
00
fb
fd
03
04
02
fc
01
fe
fe
09
01
02
06
f9
fa
0a
f2
03
f5
07
04
00
fa
09
04
05
fc
04
fe
00
f9
fb
fa
fa
01
04
ff
03
01
f2
fd
f9
05
03
ff
05
00
fe
04
07
f9
f6
ff
00
fb
00
f7
00
0b
fb
02
0b
fc
ff
fb
ff
ff
01
04
05
fc
ff
fc
01
04
0f
06
fc
fe
0a
06
06
fe
f7
06
04
05
05
f6
fd
ff
fe
f5
fb
03
fa
01
04
03
06
00
f9
04
f5
04
f5
01
f9
02
07
02
05
ff
03
00
00
03
02
fc
fb
f8
05
f5
ff
08
05
fb
00
fa
fe
03
04
01
fc
02
fe
fe
0a
01
03
04
f9
fb
0b
f2
04
f5
07
04
01
fa
09
05
05
fc
04
ff
01
fb
fb
f9
fb
00
04
ff
04
02
f3
fd
f8
07
04
ff
06
ff
ff
03
07
fa
f5
ff
01
fc
00
f9
00
0c
f9
02
0c
fc
ff
fb
ff
ff
00
05
05
fd
00
fc
02
03
0e
08
fd
fe
0a
06
07
fe
f6
05
05
05
04
f6
fe
ff
fe
f5
fb
04
fa
01
03
05
06
00
fa
05
f5
05
f5
01
f9
02
07
02
05
ff
03
ff
00
03
02
fc
fb
f8
06
f5
fe
07
05
fa
00
fa
fd
03
05
01
fa
01
fe
fe
09
00
03
04
f8
fb
0b
f2
04
f5
07
04
01
fb
08
05
06
fb
04
ff
00
f9
fb
f9
fb
01
03
ff
04
01
f2
fe
f9
05
03
fe
05
fe
fe
04
07
fb
f7
ff
00
fb
00
f8
01
0b
fa
01
0c
fd
00
fb
ff
ff
01
04
05
fc
fe
fc
01
04
0e
07
fd
ff
09
05
06
ff
f6
05
04
05
04
f6
fe
ff
fe
f5
fb
04
fa
02
04
05
07
01
fa
05
f5
04
f5
02
f8
02
07
01
06
fe
02
ff
00
03
02
fb
fc
f9
06
f6
ff
08
05
fa
00
fa
fe
03
04
02
fa
02
fe
fe
09
00
01
05
f8
fa
0a
f2
04
f4
07
03
00
fa
09
04
05
fb
04
ff
00
fa
fb
f9
fa
02
03
ff
04
02
f2
fe
f9
06
03
ff
05
ff
fd
04
07
fa
f6
ff
01
fb
00
f8
00
0b
f9
02
0c
fc
ff
fb
ff
ff
02
04
05
fc
ff
fc
02
03
11
07
fb
fe
0a
05
07
fe
f6
05
04
04
04
f6
fd
ff
ff
f6
fa
05
fa
02
04
05
06
01
fa
05
f4
04
f5
01
f9
02
07
02
05
ff
02
00
01
04
02
fb
fb
f8
06
f5
fe
07
04
fa
00
fb
fe
03
05
02
fb
02
ff
fe
09
00
03
04
f9
fa
0a
f2
04
f4
07
03
ff
fb
09
04
05
fb
03
ff
ff
f9
fb
f9
fa
01
04
ff
04
01
f1
fe
f9
05
03
ff
05
fe
fe
03
07
fa
f6
ff
00
fb
00
f8
00
0b
f9
02
0c
fc
ff
fb
ff
00
01
04
05
fd
00
fc
02
03
10
07
fc
fe
0a
05
06
fe
f6
05
03
03
04
f6
fe
ff
ff
f7
fa
03
fa
01
03
05
06
01
f9
05
f4
04
f6
02
f8
02
07
00
06
fe
03
ff
00
04
03
fc
fb
f9
06
f6
fd
08
04
fa
01
fb
fe
03
04
03
fb
02
fe
fe
09
00
02
05
f8
f9
0b
f3
04
f4
07
02
00
fb
08
04
05
fb
04
ff
00
f9
fb
fb
fb
01
04
fe
04
01
f1
fd
f8
06
03
ff
06
ff
fe
04
06
fb
f8
ff
00
f9
01
f8
00
0b
fa
01
0b
fd
fe
fc
00
ff
01
04
05
fd
00
fd
01
03
10
07
fd
fe
09
05
06
fe
f5
05
04
04
05
f5
fe
ff
00
f5
fa
04
fa
01
03
05
05
02
fa
05
f5
04
f5
03
f8
02
06
01
06
fe
02
ff
00
04
03
fc
fb
f7
06
f5
ff
08
04
fa
00
fa
fe
03
05
02
fc
01
ff
fe
09
00
02
04
f8
f9
0c
f3
04
f4
07
03
00
fa
08
04
06
fb
03
00
00
fa
fb
fa
fb
01
03
ff
04
02
f2
fe
f8
05
03
fe
05
ff
fe
03
06
fb
f7
fe
00
fa
00
f7
00
0c
fa
01
0d
fc
fe
fc
00
ff
02
05
05
fc
00
fd
02
02
0f
08
fc
fe
09
05
06
fe
f5
05
03
03
05
f6
fe
fe
ff
f7
fa
03
fa
01
03
06
05
02
fb
06
f5
05
f6
02
f9
03
06
01
05
fe
02
00
01
03
03
fd
fc
f8
07
f5
fe
09
04
fa
01
fa
fe
03
05
02
fb
01
fe
fe
08
00
02
04
f8
f9
0b
f3
04
f4
07
03
ff
fa
08
04
06
fa
03
ff
ff
f9
fb
fa
fb
01
04
ff
04
01
f1
fd
f9
06
04
ff
05
fe
fd
03
06
fb
f7
fe
01
fa
00
f7
00
0a
fa
01
0d
fd
ff
fb
00
fe
01
04
05
fc
01
fd
02
03
10
07
fc
fe
0a
06
05
fe
f6
06
04
04
04
f7
fe
ff
00
f6
fa
03
fa
02
03
06
06
02
fb
05
f5
05
f5
02
f7
03
06
00
06
fe
02
00
00
03
04
fe
fc
f9
08
f5
fd
09
03
fa
00
fa
fe
02
05
02
fa
01
ff
fe
08
00
03
03
f8
f8
0c
f3
04
f5
07
03
00
fb
08
04
06
fa
04
ff
ff
fa
fb
fa
fb
01
03
ff
05
02
f2
fe
f8
05
03
fe
05
ff
fe
03
07
fc
f6
ff
00
f9
00
f7
00
0b
fa
01
0d
fc
fe
fc
00
00
01
04
05
fc
00
fd
01
02
10
07
fc
fd
09
05
05
fe
f5
05
03
03
05
f6
fe
fe
ff
f7
f9
03
fb
01
02
06
06
02
fa
05
f6
04
f5
02
f7
02
06
00
06
ff
02
ff
01
04
04
fe
fb
f9
07
f5
fe
08
04
fa
00
fa
ff
03
05
03
fb
01
ff
fe
08
00
02
04
f7
f9
0c
f4
05
f5
06
02
ff
fa
07
03
07
fa
02
00
ff
fa
fb
fb
fb
01
03
00
04
01
f1
fe
f9
05
04
ff
04
ff
fd
02
08
fb
f8
fe
00
fa
00
f8
00
0a
fa
00
0d
fc
fe
fc
00
ff
01
04
04
fc
00
fd
03
03
0f
08
fc
ff
0a
05
06
ff
f6
05
04
03
06
f6
fe
fe
ff
f6
fa
03
fa
01
02
06
06
03
fa
06
f5
04
f5
03
f8
02
05
00
07
fe
02
00
01
04
03
fc
fb
f8
08
f5
fe
08
04
fa
00
fa
ff
03
05
02
fa
01
ff
fe
08
ff
03
03
f8
f8
0c
f4
04
f5
06
02
00
fa
07
03
06
fa
03
00
ff
fa
fb
fb
fb
01
04
00
05
02
f1
fe
f8
06
04
ff
04
fe
fd
03
06
fc
f8
fe
01
f9
00
f7
00
0b
fa
00
0d
fc
fe
fc
00
ff
01
04
04
fc
01
fd
02
03
10
07
fc
fd
0a
05
05
fe
f6
06
03
03
05
f7
ff
fe
01
f7
f9
03
fb
02
03
06
05
03
fa
05
f5
05
f5
03
f7
03
06
00
06
fe
02
00
01
03
03
fc
fc
f9
08
f6
fe
09
04
fb
00
fb
ff
03
06
02
fc
02
00
fe
08
ff
02
03
f8
f9
0c
f4
06
f6
06
03
01
fa
07
03
07
fa
01
ff
fe
fa
fc
fa
fb
01
03
ff
04
02
f1
fe
f8
05
04
00
05
fe
fe
03
06
fd
f8
fe
02
f9
01
f8
01
0a
fb
00
0d
fc
fe
fd
00
fe
01
04
04
fd
01
fd
03
02
11
08
fc
fd
09
05
05
ff
f7
05
03
03
05
f6
fe
fe
00
f8
f9
03
fa
02
03
07
06
02
fc
05
f5
04
f5
03
f6
02
05
00
07
fe
01
00
01
03
05
fd
fc
f9
07
f4
fe
09
04
fa
00
fa
ff
03
06
02
fa
02
00
fe
07
ff
02
03
f8
f8
0d
f4
06
f5
07
02
ff
fa
07
03
05
fa
02
00
ff
fa
fb
fc
fb
00
03
00
04
02
f1
fe
f8
06
04
ff
05
fe
fd
03
06
fc
f8
fe
01
f9
ff
f7
01
0b
fb
00
0c
fb
fe
fd
01
ff
01
04
04
fc
01
fe
02
02
10
08
fb
ff
0a
06
05
fd
f6
06
04
03
05
f7
ff
ff
00
f8
f9
03
fb
01
03
07
06
02
fb
06
f7
03
f6
03
f7
03
05
00
06
fe
01
00
01
04
04
fd
fb
f8
08
f5
fd
09
04
fa
00
f9
ff
03
06
02
fc
01
00
fe
07
ff
03
03
f7
f9
0c
f4
05
f6
06
03
00
fa
06
03
07
fa
02
ff
ff
fa
fb
fb
fb
00
02
ff
04
02
f1
fe
f8
05
03
ff
04
fd
fd
02
07
fd
f8
fe
00
f9
00
f7
01
0a
fa
00
0d
fc
fd
fd
01
fe
01
04
04
fd
02
fd
02
02
10
07
fc
fe
09
06
05
fe
f6
06
04
03
05
f6
fe
fe
00
f7
f9
04
fb
01
02
07
07
03
fc
05
f5
03
f6
03
f7
03
05
00
07
fe
01
ff
01
03
04
fd
fb
f8
08
f5
fd
0a
04
fa
01
fa
fe
02
06
02
fb
01
ff
fe
08
ff
02
03
f6
f8
0c
f4
05
f5
06
02
ff
fa
05
03
05
f9
01
ff
fe
fb
fb
fb
fc
00
04
ff
05
02
f0
fe
f8
05
04
fe
04
fe
fc
02
05
fd
f8
fe
01
f8
00
f7
00
0a
fa
00
0d
fc
fe
fd
01
ff
00
04
04
fc
02
fd
02
02
11
08
fa
fe
09
06
04
fe
f5
05
04
02
05
f7
ff
fd
01
f8
fa
05
fb
01
02
08
06
02
fb
05
f6
03
f6
02
f6
03
05
ff
08
fd
01
00
01
04
04
fe
fc
f9
08
f4
fd
09
04
fa
01
fb
ff
03
06
02
fb
01
00
fe
08
fe
03
03
f7
f8
0d
f5
06
f5
06
02
ff
fa
06
03
06
fa
01
00
ff
fa
fd
fc
fc
01
04
00
04
02
f1
ff
f8
06
04
fe
04
fd
fd
02
06
fd
f9
fd
00
f8
00
f8
01
0b
fa
00
0d
fc
fd
fc
01
fe
01
03
04
fc
02
fd
02
02
10
08
fc
fd
0a
05
04
ff
f6
06
03
02
06
f8
ff
fd
00
f8
f9
03
fb
02
02
08
08
03
fc
05
f6
04
f7
03
f6
03
05
ff
06
fd
01
01
01
03
05
fe
fc
f8
08
f5
fc
0a
04
fa
00
fa
ff
02
06
03
fc
01
00
fe
06
ff
03
02
f7
f8
0c
f5
05
f5
06
02
ff
fa
05
02
06
f9
01
00
ff
fa
fc
fc
fc
01
03
00
04
02
f1
ff
f7
06
04
ff
04
fd
fc
02
06
fe
f9
fe
00
f8
ff
f7
00
0b
f9
00
0d
fb
fd
fd
01
fe
01
03
03
fc
01
fe
02
02
10
09
fb
fd
09
05
04
fe
f6
06
03
02
05
f7
fe
fd
01
f9
f9
04
fb
01
02
08
07
03
fc
05
f6
05
f7
03
f6
03
06
fe
08
fc
01
01
01
03
04
fd
fb
f9
08
f5
fd
09
03
f9
01
fa
ff
04
07
03
fc
01
00
fe
07
fe
03
01
f7
f8
0c
f5
05
f5
06
02
00
fa
05
03
06
fa
00
ff
fe
fa
fd
fc
fb
00
03
00
05
03
f1
ff
f8
06
05
fe
04
fd
fd
02
07
fd
f9
fd
00
f8
00
f6
01
0a
fa
00
0d
fb
fd
fd
01
fd
02
03
03
fc
02
fe
03
02
10
08
fb
fe
09
06
04
fd
f6
05
03
02
06
f8
ff
fd
00
f9
f8
03
fb
01
01
08
08
03
fc
06
f5
03
f7
04
f6
03
05
ff
07
fd
00
01
01
03
05
fd
fc
f9
08
f5
fd
09
03
fa
01
fa
ff
03
07
03
fb
01
00
fe
06
ff
04
01
f7
f7
0d
f5
06
f5
06
02
00
fa
04
03
07
f9
01
00
fe
fa
fc
fb
fc
01
04
ff
05
03
f1
ff
f8
05
04
fe
04
fd
fc
01
07
fe
f9
fe
01
f8
00
f7
01
0b
fb
ff
0c
fc
fd
fd
02
fe
01
03
03
fc
03
fe
02
02
11
09
fc
fe
09
05
04
fe
f6
05
04
01
05
f8
ff
fd
00
f9
f9
05
fb
02
01
08
07
05
fc
06
f6
03
f7
04
f6
03
05
fe
08
fd
01
01
02
04
05
fd
fc
f8
08
f5
fd
0a
04
f9
01
fa
00
02
06
03
fc
01
01
fe
06
ff
03
01
f7
f8
0c
f5
05
f5
06
02
00
fa
04
02
07
f9
00
00
fe
fa
fb
fc
fd
00
02
ff
04
04
f1
00
f7
04
03
ff
04
fd
fd
01
06
fe
f8
fd
00
f8
00
f6
01
0a
f9
ff
0d
fb
fc
fe
02
fe
01
02
04
fc
02
fe
03
01
10
08
fb
fd
09
06
03
fe
f6
05
03
01
06
f8
ff
fd
01
f8
f9
05
fb
01
02
08
08
04
fc
05
f6
04
f7
04
f6
03
05
ff
08
fc
01
02
02
04
05
fe
fc
f9
08
f5
fd
0a
02
fa
01
fa
00
03
08
03
fb
02
00
fe
06
fe
04
01
f7
f7
0b
f6
06
f7
06
01
ff
fa
05
02
07
f9
01
00
ff
fa
fc
fd
fc
ff
02
00
06
02
f1
fe
f8
06
05
ff
04
fd
fc
02
06
ff
fa
fe
01
f7
00
f7
00
0a
fa
ff
0d
fb
fb
fd
02
fe
02
03
03
fc
03
fe
03
01
10
09
fb
fd
09
06
03
fe
f7
05
02
01
06
f8
ff
fd
01
f9
f9
04
fb
01
01
08
08
05
fc
05
f6
03
f7
04
f6
02
05
ff
09
fc
00
01
02
05
04
fe
fb
f9
08
f5
fc
0a
02
fa
01
fa
ff
03
08
04
fb
01
01
fe
05
fe
04
01
f6
f8
0d
f6
06
f6
05
01
ff
fa
04
02
07
f9
01
00
ff
fa
fc
fd
fc
01
03
00
06
02
f0
ff
f8
05
04
fe
03
fd
fc
02
06
ff
fa
fd
01
f7
ff
f6
00
0b
fa
ff
0d
fb
fc
fe
02
fd
02
02
03
fd
03
fe
03
02
10
09
fb
fd
09
06
03
ff
f6
05
03
01
07
f8
00
fc
01
f9
f8
04
fb
01
01
09
08
04
fc
05
f6
03
f8
04
f5
03
04
fe
08
fd
01
02
03
03
06
ff
fc
f9
09
f4
fc
0a
02
f9
01
fa
ff
03
07
02
fb
02
01
fe
06
fd
02
01
f7
f7
0c
f6
06
f6
05
01
ff
fb
04
02
07
f9
00
00
fe
fa
fd
fd
fd
00
02
00
06
03
f0
00
f8
06
04
ff
03
fd
fd
01
06
ff
fa
fd
01
f7
00
f8
01
0a
fa
ff
0e
fc
fb
fe
03
fe
01
03
03
fc
03
ff
03
01
10
09
fb
fd
09
05
02
ff
f6
06
03
01
05
f9
ff
fd
01
fa
f8
04
fb
01
00
0a
08
03
fd
06
f7
03
f8
04
f5
03
04
fd
08
fc
01
02
03
03
05
ff
fb
f9
08
f5
fc
0a
02
f9
01
fa
ff
03
07
03
fb
01
01
ff
06
fd
03
00
f6
f7
0d
f6
06
f6
06
00
ff
fa
03
02
08
f9
00
ff
fe
fa
fc
fc
fc
ff
03
ff
05
03
f1
00
f7
05
03
ff
04
fc
fd
01
06
ff
fa
fd
00
f7
00
f7
01
0a
fb
ff
0e
fb
fc
fe
02
fd
02
02
03
fc
03
ff
03
00
11
09
fa
fd
09
06
03
fe
f6
04
02
01
07
f8
00
fd
01
f9
f7
03
fb
01
01
09
07
04
fc
05
f7
03
f8
04
f5
03
04
fe
08
fc
01
02
02
03
05
fe
fb
f9
09
f5
fc
0a
02
f9
01
fb
00
02
07
03
fb
01
01
fe
05
fd
04
00
f7
f6
0d
f6
06
f6
05
00
ff
fa
04
02
06
f9
ff
00
fd
fb
fc
fc
fd
00
02
ff
05
03
f1
00
f8
05
04
ff
03
fd
fd
02
06
00
f9
fc
ff
f7
01
f5
01
09
f9
ff
0d
fb
fb
fe
03
fc
02
02
02
fc
03
fe
03
00
0f
09
fb
fd
08
05
02
fe
f7
06
03
01
05
f8
00
fc
01
f9
f8
04
fb
02
00
09
08
03
fd
05
f6
03
f8
04
f5
04
04
fe
08
fc
00
02
02
04
05
fe
fc
f9
08
f5
fc
0a
01
f9
01
fa
00
03
08
03
fb
01
02
fe
05
fd
04
00
f6
f7
0d
f7
06
f7
05
01
fe
fa
03
02
07
f8
00
00
fe
fa
fe
fd
fd
00
02
01
06
03
f2
00
f9
06
04
00
03
fd
fc
02
06
00
fb
fd
00
f7
00
f7
01
09
f9
fe
0e
fa
fb
fe
03
fd
02
02
03
fd
03
fe
04
00
11
09
fa
fd
08
05
03
ff
f7
05
02
00
06
f9
ff
fc
01
fa
f8
05
fc
01
01
0a
08
04
fe
06
f7
04
f8
04
f6
03
04
fe
09
fc
00
02
03
03
07
ff
fc
f9
09
f5
fc
0b
02
f9
00
fb
00
03
09
04
fb
02
02
ff
05
fe
03
01
f6
f7
0b
f6
06
f7
05
00
ff
fb
03
01
07
f9
ff
00
fe
fb
fd
fe
fd
00
03
ff
06
03
f2
ff
f8
05
04
ff
03
fd
fc
01
05
00
fa
fc
01
f6
00
f6
01
09
fb
fe
0d
fb
fc
fe
03
fd
02
02
02
fd
03
ff
03
00
10
0a
fb
fe
08
06
01
ff
f7
05
02
01
06
f8
00
fc
02
f9
f7
04
fb
01
00
09
07
05
fe
06
f6
03
f8
04
f5
02
04
fd
09
fc
00
02
04
04
06
ff
fb
f9
09
f5
fb
0a
01
f9
01
fa
00
02
08
04
fc
02
02
fe
05
fd
03
00
f6
f6
0d
f7
06
f6
05
00
00
fa
03
02
08
f8
ff
00
fd
fa
fe
fd
fd
00
03
ff
06
02
f1
00
f9
04
04
ff
03
fc
fc
00
05
01
fa
fd
00
f7
00
f7
02
09
fa
fe
0e
fa
fc
fe
03
fe
01
01
02
fc
04
fe
03
00
11
08
fa
fc
08
05
02
ff
f7
06
03
00
07
f9
00
fc
02
fa
f8
06
fc
00
ff
0a
08
05
fd
06
f8
03
f8
05
f5
04
04
fd
08
fc
ff
03
03
03
06
ff
fb
f9
08
f5
fb
0a
01
f9
01
fa
00
02
08
03
fb
02
01
fe
05
fc
03
00
f6
f6
0c
f7
05
f6
05
00
00
fb
02
01
08
f8
ff
00
fe
fb
fe
fd
fd
ff
02
ff
06
03
f1
00
f8
05
03
ff
03
fc
fc
01
06
00
fb
fc
ff
f6
00
f6
01
09
fa
fe
0d
fb
fa
ff
04
fe
02
02
02
fd
04
ff
03
00
10
09
fa
fc
08
05
02
ff
f7
04
03
00
06
f9
01
fc
02
fb
f8
04
fc
00
00
0a
09
04
fe
06
f7
04
f8
04
f5
03
04
fd
09
fc
ff
02
03
03
05
00
fc
f9
09
f5
fb
0b
02
f9
01
fa
01
02
08
04
fc
01
02
ff
04
fd
04
ff
f7
f6
0b
f7
07
f6
05
00
00
fb
02
01
07
f8
ff
00
fe
fb
fe
fe
fd
ff
02
ff
06
03
f1
00
f8
06
06
ff
02
fb
fb
01
06
01
fb
fc
01
f6
00
f6
01
0a
fa
ff
0d
fb
fb
ff
04
fe
02
01
02
fd
04
ff
03
00
10
09
fb
fd
08
06
01
ff
f6
05
03
00
07
f9
01
fc
02
fa
f7
04
fc
01
01
0a
08
04
fd
06
f8
03
f9
05
f5
04
04
fc
09
fc
00
03
03
04
06
ff
fc
f9
09
f5
fc
0b
02
f8
01
fa
01
02
08
04
fc
02
02
ff
05
fd
03
ff
f6
f7
0c
f8
07
f7
05
00
00
fb
02
01
08
f8
fe
01
fe
fc
fe
ff
fe
00
02
ff
06
03
f1
01
f8
04
05
ff
02
fd
fc
00
05
01
fb
fc
01
f6
00
f6
02
0a
fa
fe
0e
fb
fb
ff
05
fd
02
02
02
fd
04
fe
04
00
10
09
fa
fd
08
06
01
ff
f8
06
03
00
07
fa
01
fc
02
fb
f7
03
fc
01
00
0a
09
05
fe
06
f8
03
f9
05
f4
03
04
fc
09
fc
01
03
03
04
06
ff
fc
f9
09
f4
fb
0b
02
fa
01
fa
01
02
08
03
fb
02
03
ff
04
fd
03
ff
f6
f6
0c
f8
07
f8
04
00
ff
fb
02
01
07
f8
ff
00
fe
fc
fd
fe
fe
00
02
00
06
04
f2
01
f9
04
04
fe
02
fc
fc
00
06
01
fc
fc
00
f6
00
f5
03
08
fa
fe
0d
fa
fb
fe
04
fd
01
01
02
fc
04
ff
04
ff
10
09
fb
fd
07
06
01
ff
f8
06
03
ff
07
f9
01
fc
03
fa
f7
05
fc
01
ff
0a
08
05
fd
06
f8
03
f9
06
f5
03
03
fd
0a
fc
00
03
03
04
06
ff
fc
f9
0a
f5
fb
0a
01
f9
02
fa
01
02
08
05
fc
02
02
ff
05
fc
04
ff
f6
f6
0d
f8
07
f7
04
ff
ff
fa
02
01
08
f8
fe
00
fe
fc
fe
fe
fe
ff
02
01
07
04
f2
01
f9
04
04
ff
02
fc
fd
01
06
01
fb
fc
ff
f5
00
f6
02
08
fa
fe
0d
fb
fb
ff
04
fc
01
01
02
fd
04
ff
04
ff
10
09
fb
fd
08
05
01
fe
f8
05
02
ff
07
fa
01
fb
02
fb
f7
03
fc
00
00
0a
08
05
ff
06
f8
02
f9
05
f4
03
03
fd
09
fb
ff
03
04
04
06
ff
fc
f9
09
f6
fb
0b
01
f9
01
fa
01
02
08
04
fc
01
02
ff
04
fc
03
ff
f7
f6
0c
f8
07
f8
04
ff
ff
fb
01
00
07
f8
fe
01
fd
fb
fe
ff
fe
ff
02
00
06
03
f2
01
f8
05
04
ff
02
fc
fc
01
05
01
fc
fc
00
f5
ff
f5
01
08
fa
fd
0d
fb
fa
00
05
fd
02
02
01
fd
05
ff
03
ff
10
0a
fa
fd
07
05
01
00
f8
04
03
ff
06
fa
01
fb
02
fb
f6
04
fc
00
00
0b
09
05
fe
06
f8
02
f9
05
f4
04
03
fc
0a
fb
ff
03
04
03
07
00
fc
f9
09
f6
fa
0a
01
f9
02
fa
01
01
09
04
fc
01
03
ff
04
fc
04
ff
f6
f6
0d
f8
07
f7
04
ff
ff
fa
01
00
07
f8
fe
00
fd
fb
fe
ff
fd
ff
02
00
06
03
f2
01
f9
04
03
ff
02
fb
fc
00
05
01
fb
fc
01
f5
ff
f6
01
08
fa
fe
0d
fb
fb
ff
05
fc
02
01
01
fc
05
00
04
ff
11
0a
fa
fd
08
04
00
ff
f7
04
02
ff
07
fa
02
fb
03
fc
f6
03
fd
00
ff
0b
08
04
fe
06
f8
03
fa
06
f4
04
02
fc
0a
fb
ff
03
03
03
07
00
fc
f9
08
f5
fa
0b
01
f8
02
f9
01
02
08
04
fc
01
03
ff
04
fb
04
fe
f6
f6
0c
f8
07
f8
05
ff
fe
fb
01
01
06
f8
fd
00
fd
fb
fe
ff
fd
ff
01
00
06
03
f2
00
f9
04
04
ff
02
fb
fc
00
04
02
fc
fb
00
f5
ff
f6
01
08
fb
fe
0d
fb
fb
ff
05
fc
02
01
01
fc
05
ff
03
ff
0f
09
fb
fd
07
06
00
ff
f7
04
03
00
06
fb
02
fb
03
fc
f6
04
fd
01
ff
0a
09
05
ff
06
f8
02
fa
06
f4
04
02
fb
0b
fb
00
03
04
03
07
00
fd
f9
09
f6
fb
0a
01
f8
01
fa
02
02
08
04
fb
02
03
ff
03
fc
04
fe
f7
f6
0b
f9
06
f8
05
ff
fe
fb
00
00
08
f8
fd
01
fd
fb
fe
ff
fe
ff
02
00
07
03
f2
01
f9
04
04
ff
01
fc
fc
00
05
02
fc
fc
01
f6
00
f7
01
09
fa
fe
0d
fb
fa
ff
05
fc
02
02
01
fd
05
fe
04
ff
0f
09
fa
fc
07
06
00
00
f8
05
02
ff
07
fa
02
fa
03
fc
f7
04
fd
01
fe
0c
08
05
fe
06
f9
03
fb
05
f4
04
03
fc
09
fb
ff
03
04
03
08
00
fc
f9
08
f5
fb
0b
00
f9
02
f9
01
01
09
04
fc
02
04
ff
03
fc
04
fe
f6
f5
0b
fa
07
f9
04
ff
fe
fa
00
00
07
f8
fd
01
fd
fc
ff
ff
fe
ff
01
ff
06
03
f2
01
f9
04
06
00
02
fb
fc
00
03
03
fd
fb
01
f5
00
f5
02
08
fa
fd
0d
fb
fa
ff
05
fd
02
01
01
fd
05
ff
04
ff
0f
0a
fb
fc
07
05
00
fe
f7
05
03
ff
07
fa
02
fa
04
fb
f6
04
fd
00
ff
0b
09
05
ff
06
f8
02
f9
06
f4
04
02
fb
0a
fa
ff
03
05
03
07
00
fc
f9
0a
f5
fb
0b
00
f9
02
fa
02
02
09
05
fc
01
04
ff
03
fc
04
fe
f6
f5
0c
fa
06
f9
04
fe
fe
fb
00
00
07
f8
fe
00
fd
fc
ff
ff
fe
ff
02
00
07
03
f2
01
f9
04
04
ff
01
fb
fb
00
05
02
fd
fb
01
f5
00
f5
02
08
f9
fd
0d
fb
fa
00
05
fc
02
01
01
fe
05
01
03
ff
10
09
fa
fd
07
04
00
ff
f8
05
03
ff
08
fb
02
fb
03
fc
f7
05
fd
00
ff
0c
09
05
ff
06
f9
02
fb
05
f4
04
03
fb
0a
fb
ff
04
04
03
08
01
fc
fa
08
f5
fa
0b
00
f9
02
f9
02
02
09
03
fd
01
04
ff
03
fb
03
fe
f7
f5
0c
f9
08
fa
04
fe
ff
fa
00
00
08
f8
fd
00
fc
fc
ff
00
fe
ff
01
00
07
04
f2
02
fa
03
04
ff
01
fb
fc
00
05
03
fc
fc
01
f5
ff
f6
02
08
fa
fd
0d
fa
fa
00
06
fc
02
01
01
fc
06
00
04
ff
0f
0a
fb
fc
06
04
ff
01
f8
06
03
fe
08
fa
02
fa
04
fc
f6
04
fd
00
fe
0c
09
05
ff
06
f9
03
fb
06
f4
03
03
fc
0a
fb
ff
04
05
04
08
01
fc
f9
09
f5
fb
0a
00
f9
02
f9
02
01
09
05
fd
01
04
ff
03
fb
03
fe
f7
f5
0b
fa
07
f9
04
fe
00
fb
00
00
07
f8
fd
01
fc
fb
ff
00
ff
ff
01
00
08
04
f2
01
f9
04
04
ff
01
fc
fc
01
04
03
fd
fb
00
f5
00
f5
02
08
fa
fd
0d
fa
fa
00
06
fc
01
01
01
fd
06
00
05
fe
0f
0a
fb
fc
06
05
ff
00
f8
05
02
ff
08
fb
03
fa
04
fc
f6
04
fe
00
ff
0b
0a
05
ff
06
fa
02
fb
06
f4
04
03
fb
0b
fb
fe
04
05
04
08
01
fd
fa
08
f6
fa
0b
00
f8
01
fa
02
02
09
05
fd
01
04
ff
02
fb
04
fe
f7
f5
0b
fa
07
fa
04
ff
ff
fb
00
ff
07
f8
fd
01
fd
fc
fe
00
fe
ff
01
00
06
04
f2
02
f9
04
05
ff
01
fa
fb
00
05
03
fd
fb
00
f5
ff
f5
02
08
fb
fd
0c
fa
f9
00
06
fc
02
01
01
fd
06
01
04
fd
10
0a
fb
fd
06
05
ff
00
f8
04
02
fe
07
fb
02
fa
04
fc
f6
03
fe
00
fe
0c
0a
05
00
06
fa
01
fc
06
f4
03
02
fa
0a
fa
fe
04
05
04
08
01
fc
fa
08
f6
f9
0a
00
f9
02
f9
02
02
09
05
fd
02
04
ff
03
fb
04
fe
f7
f5
0c
fa
07
f9
04
fe
ff
fc
00
ff
06
f8
fd
02
fd
fc
ff
00
fe
ff
01
00
08
04
f3
01
f9
03
05
00
02
fb
fc
00
05
03
fd
fb
00
f5
00
f7
02
08
fa
fc
0c
fa
f9
01
07
fc
03
01
01
fd
06
00
03
fe
0f
0a
fb
fd
06
04
00
00
f9
04
03
fe
08
fc
03
f9
04
fd
f6
04
fe
00
fe
0b
0a
05
ff
06
f9
00
fb
06
f5
05
02
fb
0b
fb
fe
04
05
03
08
01
fd
fa
09
f5
fa
0a
ff
f9
02
f8
02
02
09
05
fd
00
05
ff
03
fa
04
fe
f7
f5
0b
fa
07
fa
03
fe
fe
fb
ff
ff
06
f8
fd
01
fd
fc
00
00
fe
fe
01
00
08
04
f3
01
fa
03
04
ff
01
fb
fb
00
04
03
fe
fb
00
f5
ff
f5
02
07
fa
fd
0c
fb
f9
01
06
fc
02
01
01
fd
06
01
04
fd
0f
09
fa
fc
06
04
ff
ff
fa
04
02
fe
08
fb
02
f9
04
fe
f5
04
fe
ff
fe
0c
09
05
00
06
f9
03
fc
06
f5
03
02
fb
0b
fa
fe
05
05
04
08
00
fd
fa
09
f6
f9
0b
fe
f8
02
f9
03
01
09
05
fc
01
04
ff
03
fa
04
fe
f7
f6
0b
fa
07
fb
04
fd
fe
fc
00
ff
07
f8
fc
00
fd
fd
00
00
fe
ff
01
01
08
03
f3
02
fa
03
04
00
01
fa
fb
ff
04
03
ff
fb
00
f5
00
f5
02
08
fa
fc
0d
f9
f9
00
07
fc
03
00
00
fd
06
01
03
fe
0f
0a
fb
fd
06
04
fe
00
f9
05
02
fe
07
fb
02
fa
04
fe
f6
05
fe
01
fe
0c
0a
05
00
06
fb
02
fc
07
f5
05
02
fa
0c
fa
fe
05
06
03
08
02
fb
fb
09
f6
f9
0a
00
f9
02
fa
03
01
09
06
fd
01
04
ff
02
fa
04
fd
f7
f5
0b
fb
08
fa
03
fd
fe
fb
ff
ff
07
f8
fc
00
fd
fc
ff
00
ff
fe
00
00
07
05
f3
01
fa
04
05
00
00
fa
fb
ff
04
04
fe
fb
00
f5
00
f6
01
07
fb
fd
0c
fa
f9
01
07
fc
02
00
00
fc
06
00
04
fd
0e
0a
fa
fc
05
04
ff
ff
f8
04
02
fe
09
fc
03
f9
03
fe
f4
03
fe
ff
fe
0c
0a
06
ff
06
fa
01
fc
06
f5
05
01
fa
0a
fa
fe
04
06
03
09
01
fd
fa
09
f7
f9
0a
ff
f8
02
f9
03
02
08
05
fd
01
05
ff
02
fa
04
fd
f8
f5
0b
fb
07
fb
03
fe
fe
fb
ff
ff
07
f8
fc
00
fe
fd
00
01
ff
ff
00
01
06
04
f4
03
fa
02
04
ff
01
fb
fc
ff
04
04
fe
fa
00
f4
00
f5
01
07
fa
fc
0c
fa
f9
01
07
fc
02
01
00
fe
08
01
04
fd
0e
09
fa
fc
05
05
ff
00
fa
04
02
fd
09
fb
03
f9
04
fe
f6
03
fe
01
fe
0d
0a
05
00
06
fb
01
fd
07
f5
02
02
fa
0a
fa
fe
04
05
03
08
01
fd
f9
09
f6
fa
0a
ff
f9
02
fa
03
02
09
06
fe
02
04
ff
02
fa
03
fd
f8
f4
0b
fb
08
fb
03
fd
ff
fc
ff
ff
06
f8
fc
01
fc
fd
00
01
ff
fe
00
00
08
04
f3
02
fa
03
05
ff
00
fb
fb
ff
04
04
00
fa
00
f5
00
f6
02
06
fb
fd
0c
fa
f9
01
07
fc
02
00
00
fd
07
01
04
fe
0f
0a
fb
fc
05
04
ff
00
fa
04
01
fe
08
fc
03
f9
04
fe
f6
04
fe
ff
fe
0c
0b
06
00
07
fa
02
fd
06
f5
04
02
fa
0a
f9
fe
05
06
04
0a
00
fd
fa
09
f6
f9
0a
ff
f8
02
fa
03
02
09
06
fe
01
05
ff
01
fa
03
fc
f8
f4
0a
fb
08
fb
03
fd
fe
fc
ff
fe
06
f8
fc
00
fd
fd
ff
01
ff
fe
00
00
08
04
f3
02
fa
03
04
ff
01
fa
fb
fe
04
05
fe
fa
00
f5
00
f6
01
07
fb
fc
0c
fa
f8
01
07
fc
03
01
00
fd
07
00
03
fd
0e
09
fb
fd
05
04
fe
00
f9
03
02
fd
08
fd
03
f9
04
fe
f6
04
fe
00
fe
0d
0b
06
00
07
fc
01
fd
06
f5
04
01
f9
0b
fa
fd
04
05
02
09
02
fd
fb
09
f6
f9
0b
ff
f8
02
f8
04
01
0a
06
fd
01
05
ff
01
fa
04
fd
f8
f4
09
fc
08
fb
03
fd
fe
fc
ff
fe
08
f8
fc
02
fd
fd
01
01
00
fe
00
01
09
04
f3
02
fb
04
05
00
01
fa
fb
ff
04
04
ff
fb
01
f4
ff
f5
02
07
fb
fc
0c
f9
f9
01
07
fb
03
01
00
fd
07
01
05
fc
0d
09
fa
fc
04
03
fe
00
fa
03
02
fd
09
fd
04
f8
04
ff
f5
03
ff
00
fd
0d
0a
05
01
07
fb
00
fd
07
f6
03
01
f9
0b
f9
fe
05
05
03
08
02
fc
fb
09
f8
f9
0b
ff
f9
03
fa
04
01
09
05
fd
02
05
ff
02
f9
04
fd
f7
f4
0a
fb
07
fb
02
fe
ff
fc
fe
ff
06
f8
fb
01
fc
fd
00
01
00
ff
00
00
07
04
f3
03
fa
03
05
ff
00
f9
fb
ff
05
05
ff
fa
01
f4
ff
f6
03
06
fb
fc
0b
fa
f8
01
08
fc
02
00
00
fd
07
02
04
fd
0e
0a
fa
fb
05
04
fd
00
fa
04
01
fd
09
fc
04
f9
05
ff
f5
03
ff
00
fc
0c
0a
06
00
06
fb
01
fd
07
f5
03
01
f9
0a
fa
fd
05
06
03
09
02
fc
fb
09
f6
f9
0a
ff
f8
03
f9
04
01
09
05
fe
01
05
00
01
fa
03
fc
f7
f5
0a
fc
07
fc
03
fd
fe
fc
ff
fe
07
f8
fc
01
fc
fd
00
02
00
fe
00
01
07
05
f4
02
fa
03
05
ff
00
fa
fb
fe
03
04
ff
fb
01
f4
ff
f6
02
07
fb
fc
0c
f9
f9
02
08
fc
02
00
00
fd
08
00
05
fd
0e
0a
fb
fc
05
04
fe
00
fa
04
02
fd
09
fd
03
f9
06
ff
f6
03
ff
ff
fd
0d
0b
06
01
07
fc
01
fd
07
f5
03
02
f9
0b
f9
fe
05
06
03
09
02
fd
fb
09
f7
f9
0a
ff
f9
03
f9
04
01
09
07
fe
01
05
ff
01
fa
04
fd
f8
f5
0a
fc
08
fb
03
fc
fe
fc
fe
ff
06
f8
fb
01
fc
fd
00
02
00
fe
ff
00
08
04
f3
02
fb
03
05
ff
ff
f9
fb
ff
04
06
00
f9
00
f5
ff
f6
03
06
fb
fc
0c
fa
f8
02
08
fb
02
00
00
fe
07
02
04
fd
0d
09
fb
fb
04
04
fd
ff
fa
04
01
fc
09
fd
04
f9
05
00
f5
03
ff
00
fd
0e
0b
06
01
07
fb
00
fd
07
f5
04
01
f9
0b
f9
fc
05
06
03
09
02
fe
fb
08
f7
f8
0b
fe
f9
02
f9
04
02
08
07
fd
01
05
00
01
f9
04
fc
f8
f5
0a
fc
07
fc
03
fd
fd
fc
fe
fd
07
f8
fb
01
fd
fe
01
02
00
fd
00
01
09
04
f4
02
fb
02
04
00
ff
fa
fb
fe
04
06
00
fa
01
f5
00
f6
03
06
fb
fc
0c
fa
f9
02
08
fa
03
00
ff
fd
08
02
05
fc
0d
09
fb
fc
03
04
fd
01
fa
04
01
fd
09
fd
04
f8
05
ff
f5
04
ff
ff
fd
0e
0b
06
01
07
fb
00
fe
07
f6
03
01
f9
0b
f9
fe
05
05
04
09
02
fd
fb
07
f7
f9
0b
fd
f9
03
f9
05
01
09
06
fe
01
06
ff
00
f8
04
fc
f8
f5
09
fc
07
fc
02
fc
fd
fc
fe
fe
07
f8
fb
01
fc
fe
01
02
01
fd
ff
01
08
03
f4
03
fb
03
05
ff
ff
fa
fb
fe
04
05
00
fa
01
f4
ff
f5
02
05
fb
fc
0c
fa
f8
02
08
fb
02
00
ff
fe
08
01
04
fd
0d
09
fb
fb
03
03
fd
01
fb
03
01
fc
09
fd
03
f8
05
00
f5
03
ff
ff
fd
0d
0b
06
01
07
fc
00
fe
08
f6
03
01
f9
0b
f9
fc
05
07
03
08
02
fd
fc
08
f7
f8
0b
fe
f8
03
fa
04
02
09
07
ff
01
06
00
00
f8
03
fc
f8
f4
09
fc
08
fd
02
fd
fe
fc
fd
fe
07
f8
fb
01
fc
fe
01
03
00
fd
ff
01
09
04
f4
03
fb
02
05
ff
ff
f9
fb
ff
04
06
00
fa
01
f4
ff
f6
03
06
fa
fb
0c
fa
f8
02
09
fc
02
00
ff
fd
07
01
05
fc
0d
0b
fa
fd
04
04
fe
00
fa
03
00
fc
09
fe
04
f8
06
00
f6
04
ff
00
fd
0d
0a
06
01
06
fc
00
fe
07
f5
04
01
f8
0b
f9
fd
05
06
03
09
02
fe
fb
08
f7
f9
0b
fe
f8
03
fa
04
01
09
07
fe
00
05
00
00
f8
04
fc
f8
f4
09
fc
07
fc
02
fc
fd
fc
fe
fe
06
f9
fb
01
fd
fe
01
02
00
fe
ff
00
08
04
f4
04
fb
02
04
ff
ff
fa
fa
fe
03
06
01
f9
00
f4
ff
f6
02
05
fb
fb
0b
fa
f7
02
09
fb
02
00
ff
fd
09
02
05
fc
0c
09
fb
fc
03
03
fe
00
fb
03
00
fc
09
fe
04
f8
05
00
f4
03
00
00
fd
0e
0b
06
01
06
fc
01
ff
07
f5
04
00
f8
0b
f8
fd
05
06
02
09
02
fd
fc
08
f7
f8
0b
fd
f8
03
fa
05
01
09
07
ff
00
06
00
00
f9
04
fc
f8
f4
09
fc
07
fd
02
fc
fd
fc
fd
fd
07
f8
fa
01
fc
fd
02
04
00
fd
ff
01
08
03
f5
03
fc
02
05
00
fe
fa
fb
fe
03
06
01
fa
00
f4
ff
f5
03
05
fb
fb
0b
f9
f9
03
09
fa
03
00
ff
fe
08
02
04
fb
0d
0a
f9
fb
03
03
fd
01
fb
04
00
fd
09
fe
03
f8
06
00
f5
04
00
00
fd
0e
0b
07
02
07
fb
00
ff
07
f5
04
01
f8
0b
f9
fd
06
07
02
09
03
fc
fb
08
f7
f8
0b
fd
f8
03
f9
05
01
09
06
fe
01
05
ff
00
f8
04
fc
f9
f3
09
fd
08
fd
02
fb
fe
fd
fe
fd
07
f9
fa
01
fc
fe
02
02
00
fd
fe
01
09
03
f5
04
fb
02
05
ff
ff
f9
fb
fe
02
06
00
fa
00
f4
ff
f6
03
05
fa
fb
0b
fa
f8
03
09
fb
03
00
fe
fd
08
02
05
fb
0b
09
fa
fb
03
04
fc
01
fa
03
00
fb
09
ff
05
f7
05
01
f5
03
00
00
fd
0e
0a
05
02
06
fc
ff
ff
07
f4
04
01
f8
0b
f9
fd
06
07
02
0a
03
fd
fc
08
f7
f8
0b
fd
f8
04
f9
06
01
09
06
fe
01
06
00
00
f8
04
fb
f9
f4
09
fd
08
ff
02
fc
fe
fd
fd
fd
07
f9
fa
01
fd
fd
02
04
01
fd
fe
00
09
04
f5
04
fb
02
05
00
ff
fa
fb
fe
03
06
01
fa
00
f5
00
f5
03
05
fc
fb
0b
fa
f7
02
09
fb
02
00
ff
fe
09
02
05
fb
0c
0a
fa
fc
03
03
fd
01
fb
03
00
fb
0a
fe
04
f7
06
01
f5
03
00
ff
fc
0e
0a
07
02
06
fc
00
00
07
f5
04
00
f8
0b
f9
fd
05
07
02
0a
03
fd
fb
07
f8
f8
0b
fd
f9
03
f9
06
01
09
07
ff
01
06
00
ff
f8
03
fc
f9
f4
09
fd
07
fd
02
fc
fe
fd
fd
fd
06
f9
fa
01
fc
fe
02
03
01
fd
ff
00
09
04
f5
03
fc
02
04
00
fe
fa
fa
fe
02
06
01
f9
00
f5
ff
f6
03
04
fb
fb
0a
fa
f7
02
09
fa
02
00
fe
fd
09
02
05
fb
0c
0a
fa
fc
02
02
fc
01
fc
03
00
fb
09
ff
05
f8
06
01
f5
04
00
ff
fd
0e
0b
06
02
07
fc
ff
ff
08
f6
04
00
f7
0b
f8
fc
06
07
02
0a
03
fe
fd
08
f8
f8
0a
fc
f8
03
fa
05
02
0a
07
ff
00
06
00
00
f7
03
fb
f9
f5
08
fd
07
fe
01
fc
fd
fd
fd
fc
06
f9
f9
01
fc
ff
02
04
01
fd
fe
01
09
04
f6
04
fc
02
04
00
ff
f9
fa
fe
02
06
02
f9
01
f4
fe
f6
02
04
fa
fb
0a
fa
f8
04
0a
fb
02
00
fe
fd
08
03
05
fb
0b
0a
fa
fc
02
03
fd
01
fb
04
00
fb
09
ff
05
f8
06
01
f5
03
01
00
fc
0e
0b
06
03
06
fd
ff
00
07
f6
03
00
f8
0b
f9
fc
06
08
02
0a
02
fe
fc
08
f8
f7
0a
fd
f9
03
f9
05
01
09
07
ff
01
06
00
ff
f8
04
fb
f9
f4
08
fe
07
ff
01
fc
fd
fd
fd
fc
06
f9
fa
01
fd
fe
02
05
01
fd
ff
01
08
04
f6
04
fc
02
05
00
fe
f8
fb
fd
02
07
01
fa
01
f5
ff
f5
03
05
fb
fb
0a
fa
f8
04
0a
fb
03
ff
fe
fd
09
02
06
fb
0b
0a
fb
fb
02
02
fc
01
fb
02
ff
fb
09
ff
05
f7
06
01
f4
03
01
00
fc
0e
0a
06
02
07
fd
01
00
07
f6
04
00
f8
0c
f8
fd
06
07
02
0a
03
fe
fc
07
f8
f7
0b
fc
f8
03
f9
06
01
09
08
ff
01
07
00
ff
f7
03
fb
fa
f5
08
fd
06
ff
01
fb
fc
fd
fd
fc
06
f9
f9
01
fc
fe
02
04
01
fc
fe
02
09
03
f6
04
fc
01
06
00
fe
f9
fa
fd
02
07
02
fa
01
f5
ff
f7
02
04
fb
fb
0a
f9
f7
04
0a
fb
02
ff
fe
fe
08
02
05
fb
0a
0a
fb
fb
02
02
fc
01
fc
03
00
fa
09
fe
05
f6
06
02
f5
03
01
fe
fd
0d
0a
05
02
06
fe
fe
00
07
f6
04
00
f7
0b
f8
fc
06
08
02
0b
03
fe
fd
07
f9
f7
0a
fd
f9
04
fa
06
00
09
07
ff
00
07
00
ff
f8
03
fb
fa
f3
08
fe
07
ff
01
fb
fd
fd
fc
fc
06
f9
f9
01
fd
fe
02
04
02
fc
ff
01
08
04
f5
04
fc
01
05
00
fe
f9
fa
fe
02
07
01
f9
00
f5
ff
f6
02
04
fc
fb
0a
fa
f7
04
0a
fb
03
ff
fe
fe
09
03
05
fb
0a
0a
fb
fc
01
02
fc
01
fb
02
ff
fb
09
ff
05
f8
06
02
f5
02
01
ff
fc
0e
0a
06
02
07
fd
fe
00
08
f6
04
ff
f6
0a
f8
fc
06
08
02
0b
03
ff
fc
07
f8
f7
0b
fc
f9
04
f9
06
00
08
08
ff
01
06
00
fe
f6
04
fb
fa
f4
07
fe
07
ff
01
fa
fd
fd
fd
fc
06
f9
f9
01
fc
ff
01
04
01
fc
ff
00
09
04
f5
04
fc
01
04
00
fe
f8
fa
fd
02
08
03
f9
01
f5
00
f6
03
03
fb
fb
09
fa
f7
04
0a
fa
02
ff
fd
fd
09
03
04
fb
0a
0a
fa
fc
01
02
fd
01
fc
04
00
fb
0a
ff
04
f6
06
02
f5
03
01
00
fc
0d
0b
05
03
06
fd
fe
01
08
f6
03
00
f7
0a
f8
fc
06
07
03
0a
04
fd
fc
07
f9
f8
0a
fc
f9
04
fa
06
00
0a
09
ff
01
07
01
ff
f7
04
fa
fa
f4
08
fe
08
ff
01
fb
fc
fe
fc
fc
06
f9
f9
02
fc
ff
03
05
02
fb
fd
01
09
03
f7
04
fc
01
04
01
fe
f9
fa
fd
02
08
03
f9
00
f5
ff
f6
03
04
fc
fa
09
fa
f7
04
0a
fa
02
ff
fe
fe
09
03
05
f9
0a
0a
fb
fb
01
02
fc
00
fc
03
fe
fa
0a
ff
05
f7
06
02
f5
04
01
ff
fc
0e
0a
07
02
07
fe
ff
01
08
f7
03
ff
f6
0a
f7
fc
06
08
02
0a
04
fd
fd
08
f9
f7
0a
fc
f9
04
f9
07
00
09
08
00
01
07
00
ff
f7
04
fa
fa
f4
07
fe
07
00
01
fa
fc
fe
fc
fc
05
fa
f8
01
fc
ff
03
04
02
fc
fd
01
09
04
f7
05
fc
02
05
00
fd
f8
fa
fd
01
08
02
f9
01
f5
00
f6
03
04
fc
fa
0a
fa
f7
04
0a
fa
02
00
fd
fe
09
03
06
fa
09
09
fb
fc
01
02
fb
01
fc
03
ff
fa
0a
ff
05
f7
07
02
f4
04
01
fe
fc
0e
0b
06
03
07
fe
fe
00
08
f7
03
00
f6
0a
f7
fc
06
07
02
0b
04
fe
fd
07
f8
f7
09
fb
f9
04
fa
07
00
09
08
ff
01
07
01
fe
f7
03
fa
fb
f4
07
fe
07
01
01
fb
fc
fe
fc
fc
05
fa
f8
01
fc
ff
04
05
02
fc
fe
01
09
03
f7
04
fd
00
05
00
fd
f8
fa
fd
01
07
02
f8
01
f5
ff
f7
03
04
fc
fa
09
fa
f7
04
0a
fa
03
ff
fd
fd
0a
04
06
fa
09
0a
fc
fb
01
02
fc
01
fd
02
ff
f9
09
00
06
f6
07
03
f3
02
01
ff
fb
0e
0b
06
03
07
fe
fe
01
08
f7
04
ff
f7
0b
f8
fd
06
08
02
0a
04
00
fc
07
f9
f7
09
fb
f9
04
fa
07
01
09
07
00
01
07
01
fe
f6
03
fa
fa
f4
06
fe
07
01
01
fa
fc
fe
fc
fb
05
fa
f9
00
fc
ff
03
05
02
fd
fd
01
08
04
f8
04
fd
02
04
00
fd
f8
f9
fd
02
08
03
f8
01
f5
fe
f7
03
03
fc
f9
09
fb
f7
04
0a
fa
03
ff
fd
fd
0a
03
05
f9
09
0b
fb
fb
00
02
fb
02
fd
02
ff
fa
0b
ff
06
f6
07
03
f5
02
02
ff
fc
0f
0b
06
03
07
ff
fe
02
08
f7
03
00
f7
0b
f7
fc
07
08
01
0b
04
fe
fd
06
f9
f6
0a
fc
f8
04
fa
07
00
09
08
00
01
07
00
fe
f6
03
fa
fb
f4
07
fe
07
01
01
fa
fc
fe
fc
fb
05
fa
f8
01
fc
ff
03
05
03
fc
fd
02
09
04
f8
05
fd
01
05
00
fd
f9
fa
fd
02
08
03
f9
01
f6
ff
f7
02
03
fc
fa
08
fa
f8
04
0a
fa
02
ff
fd
fe
0a
02
05
f9
08
0a
fb
fc
00
01
fc
02
fd
02
ff
fa
0a
00
06
f5
07
03
f4
03
02
fe
fc
0d
0b
05
03
07
fe
ff
01
08
f8
05
ff
f6
0b
f7
fd
07
08
02
0b
04
fe
fd
06
fa
f7
0b
fb
f9
04
f9
09
00
09
08
ff
00
08
00
fd
f5
03
f9
fa
f4
07
ff
06
ff
00
fa
fc
fe
fc
fc
05
fa
f8
01
fc
ff
02
05
02
fc
fd
01
09
04
f7
05
fd
01
05
ff
fc
f8
f9
fc
02
08
03
f8
01
f7
fe
f7
03
03
fb
f9
09
fa
f6
04
0a
fa
03
ff
fd
fe
0b
03
05
f9
07
0a
fb
fc
00
01
fc
02
fd
02
fe
fa
09
00
06
f6
07
03
f5
02
01
fe
fc
0e
0b
06
03
06
ff
ff
01
08
f8
04
ff
f6
0a
f7
fc
06
08
02
0a
04
ff
fd
06
fa
f6
0a
fb
f9
05
fa
09
00
09
08
00
01
08
01
fd
f5
04
f9
fb
f4
06
ff
06
01
00
fa
fd
fe
fc
fb
05
fa
f8
02
fc
ff
03
05
02
fb
fe
02
09
03
f9
05
fe
01
05
00
fc
f8
fa
fd
01
09
04
f8
02
f6
ff
f7
03
03
fc
fa
09
fa
f7
05
0a
f9
03
ff
fc
fe
0b
03
06
f8
08
0a
fc
fb
00
02
fc
02
fe
02
ff
fa
0a
00
06
f6
07
03
f5
02
02
ff
fb
0e
0b
05
04
07
ff
fe
01
08
f8
04
ff
f5
0a
f7
fc
06
09
01
0a
05
fe
fd
06
fa
f7
0a
fb
f8
05
fa
09
00
0a
09
00
00
07
01
fd
f6
04
f9
fb
f4
06
ff
07
02
00
fa
fd
fe
fc
fb
05
fa
f7
02
fb
00
03
06
03
fb
fe
02
0a
03
f9
05
fd
00
05
00
fc
f9
fa
fc
00
09
04
f8
00
f6
ff
f6
03
02
fc
f9
08
fa
f6
05
0a
fa
03
ff
fc
fe
0a
04
06
f9
08
09
fb
fb
00
01
fa
01
fd
03
fe
fa
0a
01
06
f6
07
04
f4
02
02
fe
fb
0d
0c
06
04
06
ff
fe
02
08
f8
04
ff
f6
0a
f8
fc
06
09
02
0b
05
fe
fd
06
fa
f6
0a
fb
f8
05
fb
09
00
0a
08
01
00
08
01
fc
f5
04
fa
fc
f4
07
ff
07
03
00
fa
fd
ff
fc
fb
05
fb
f7
01
fc
ff
04
06
03
fb
fd
03
08
04
f9
05
fe
00
05
ff
fc
f8
f9
fc
01
09
04
f8
01
f6
ff
f7
02
02
fc
fa
07
fa
f6
05
0a
fb
02
ff
fb
fe
0a
04
06
f8
06
0a
fc
fb
ff
01
fa
02
fe
02
fe
fa
0a
01
06
f6
08
04
f4
02
03
fe
fb
0d
0a
06
04
06
fe
fe
02
09
f8
03
fe
f5
0a
f7
fc
07
0a
02
0b
04
ff
fd
05
fa
f6
09
fa
f8
05
f9
09
00
09
09
00
01
08
01
fd
f5
04
fa
fc
f4
05
ff
06
01
00
f9
fc
fe
fb
fc
06
fa
f7
01
fb
00
03
05
03
fc
fd
01
0a
03
f9
05
ff
00
05
00
fc
f8
f9
fd
01
09
04
f8
01
f7
ff
f8
03
02
fd
f9
07
fa
f7
05
0b
fa
03
ff
fc
fe
0b
03
05
f8
06
09
fb
fb
00
01
fb
02
fd
02
ff
f8
0a
01
06
f5
07
04
f4
02
03
ff
fc
0d
0c
05
04
07
00
fd
02
09
f9
04
fe
f6
0a
f7
fb
06
09
01
0b
04
ff
fd
05
fa
f6
0a
fb
f8
05
fa
09
00
09
08
00
00
08
01
fc
f5
04
f8
fc
f5
05
ff
06
03
00
f9
fd
ff
fc
fa
06
fa
f7
01
fc
ff
03
05
03
fb
fd
02
0a
04
f9
06
ff
00
06
00
fc
f7
fa
fc
01
09
05
f8
01
f7
ff
f8
03
03
fc
f9
07
fa
f7
05
0a
fb
02
fe
fb
fe
0b
04
06
f8
06
09
fb
fc
ff
01
fa
02
fd
02
fd
f8
0a
01
07
f6
08
05
f5
02
03
ff
fb
0d
0b
06
04
07
00
fe
02
08
f8
04
ff
f5
09
f7
fc
06
09
02
0b
05
ff
fd
06
fa
f6
09
fa
f8
05
fb
09
00
09
08
01
00
09
02
fc
f5
04
f9
fc
f4
04
ff
06
03
00
f9
fc
fe
fc
fa
05
fb
f6
02
fc
01
04
06
04
fc
fd
02
09
03
f9
06
fe
00
05
00
fc
f7
f9
fc
01
09
05
f8
01
f6
ff
f7
03
02
fc
f9
07
fb
f7
05
0a
f9
03
fe
fb
fe
0b
04
05
f8
07
09
fc
fc
fe
00
fa
02
fe
01
fe
f8
0a
01
07
f6
08
04
f4
01
03
fe
fc
0d
0c
05
04
07
00
fd
02
08
f8
04
fe
f5
0a
f7
fc
07
09
02
0a
05
ff
fe
05
fa
f6
09
fa
f9
05
fb
0a
00
09
0a
01
01
08
01
fc
f4
04
f9
fd
f4
04
ff
06
04
00
f9
fc
ff
fb
fb
05
fb
f7
00
fc
00
03
06
04
fb
fd
02
09
02
fa
06
ff
ff
05
00
fb
f7
f9
fb
00
09
04
f8
01
f8
00
f7
03
02
fc
f9
07
fb
f7
05
0a
fa
03
ff
fa
fe
0a
04
06
f8
05
0a
fc
fc
ff
01
fa
01
fe
02
fd
f9
0a
01
07
f5
08
03
f4
03
03
ff
fc
0d
0b
05
05
07
ff
fd
03
09
f8
04
fe
f5
09
f6
fc
06
09
02
0c
05
ff
fe
06
fb
f6
09
f9
f8
05
fb
0a
00
09
08
01
00
09
02
fb
f4
03
f9
fc
f5
03
00
06
03
00
f9
fd
ff
fb
fa
05
fb
f7
01
fb
00
03
07
04
fb
fe
02
0a
03
fa
06
ff
00
05
01
fb
f8
fa
fc
00
09
05
f7
00
f7
fe
f7
03
02
fd
f9
07
fb
f6
05
0a
f9
02
ff
fa
fe
0a
05
05
f7
06
0a
fc
fc
fe
00
fa
02
fe
01
fe
f9
0a
02
06
f5
09
05
f4
01
03
fe
fb
0d
0b
05
06
07
00
fe
03
08
f9
04
fe
f5
09
f6
fb
06
09
01
0a
05
00
fd
06
fb
f6
08
f9
f9
05
fa
0a
01
08
09
01
00
08
02
fc
f3
04
f8
fd
f4
04
00
06
05
ff
f8
fe
ff
fa
fa
04
fb
f7
02
fa
00
03
07
03
fb
fd
02
0a
03
fa
06
ff
ff
05
00
fb
f8
f9
fc
01
0a
05
f8
02
f7
fe
f8
03
01
fd
f9
07
fb
f7
05
0a
f9
02
ff
fa
fe
0a
05
06
f7
05
09
fb
fc
ff
00
fa
01
fe
02
fd
f7
09
02
06
f6
08
05
f5
02
04
fe
fa
0d
0c
05
04
07
01
fe
03
09
f8
04
fe
f4
09
f6
fc
07
09
00
0a
06
ff
fe
05
fc
f6
09
f9
f8
06
fb
0a
00
08
09
01
ff
09
02
fb
f4
04
f9
fd
f4
05
00
05
03
ff
f8
fc
ff
fb
fa
04
fc
f6
01
fb
00
04
07
04
fb
fd
01
08
04
fb
07
ff
ff
05
00
fb
f7
fa
fc
01
0a
05
f8
00
f8
ff
f7
03
01
fd
f9
06
fb
f6
05
09
f9
02
ff
f9
ff
0b
05
06
f7
04
0a
fd
fc
fe
00
f9
02
fe
02
fc
f8
0a
02
07
f5
08
05
f4
02
04
fe
fb
0d
0c
05
04
07
01
fd
04
08
f9
04
fe
f4
09
f7
fb
07
0a
00
0a
05
ff
fe
05
fa
f6
09
fa
f9
05
fb
0b
00
08
0a
01
ff
0a
02
fb
f4
04
f9
fd
f4
04
00
05
04
ff
f8
fc
ff
fa
fa
04
fc
f6
02
fb
00
04
07
05
fb
fc
01
08
03
fb
06
ff
ff
04
ff
fb
f7
f9
fc
00
0a
06
f7
01
f7
ff
f8
03
00
fe
f9
06
fa
f6
06
0a
f9
03
ff
fa
ff
0b
05
07
f7
04
09
fd
fc
fe
00
fa
02
fe
01
fd
f9
0a
02
07
f5
08
06
f5
02
03
fe
fb
0d
0c
06
05
07
00
fe
04
08
fa
04
fd
f4
09
f6
fc
07
0a
01
0b
06
ff
fe
04
fb
f5
09
fa
f8
06
fb
0b
00
08
09
01
01
09
02
fb
f4
04
f8
fe
f4
04
00
06
04
ff
f8
fd
00
fa
fa
04
fb
f6
01
fb
01
04
07
04
fb
fc
02
09
03
fb
07
ff
ff
05
00
fa
f8
f9
fc
ff
0a
05
f8
01
f8
00
f8
02
01
fd
f8
06
fa
f6
05
0a
f9
02
ff
f9
ff
0b
05
07
f7
03
09
fc
fc
fe
00
fb
00
ff
01
fd
f8
0b
01
07
f4
07
06
f4
02
03
fe
fa
0d
0b
05
05
07
01
fd
03
09
fa
04
fe
f3
08
f7
fb
07
0a
01
0a
05
ff
ff
04
fc
f5
08
f9
f7
05
fb
0b
00
09
0a
02
00
09
02
fb
f4
04
f8
fe
f5
04
00
04
04
ff
f8
fb
00
fb
f9
03
fc
f6
01
fb
01
04
06
05
fb
fc
00
09
03
fc
06
ff
ff
04
00
fb
f7
f9
fc
ff
0a
05
f7
00
f9
00
f8
03
00
fd
f9
06
fb
f7
06
09
fa
02
fe
f8
ff
0c
05
07
f7
03
09
fc
fc
fd
00
f9
02
fe
01
fc
f7
0b
03
07
f5
08
06
f4
01
04
fe
fb
0d
0b
05
05
06
01
fd
04
09
fb
04
fd
f4
09
f6
fc
07
0a
00
0a
06
fe
fe
04
fc
f6
08
f9
f8
06
fb
0b
00
09
0a
01
ff
0b
03
fb
f3
03
f8
fe
f4
03
00
05
05
ff
f7
fc
00
fb
fa
04
fc
f6
01
fc
01
03
07
04
fb
fc
02
08
04
fc
07
ff
ff
05
00
fa
f6
f9
fb
00
0b
06
f7
01
f9
ff
f8
03
00
fe
f9
06
fb
f7
06
09
fa
02
ff
f9
ff
0c
05
06
f6
02
09
fc
fc
fd
00
fa
02
ff
01
fc
f7
0a
03
07
f5
09
05
f5
01
04
fe
fb
0c
0c
06
05
07
02
fe
04
09
fa
05
fd
f5
08
f6
fb
07
0a
00
0b
05
00
ff
04
fc
f4
08
fa
f7
05
fb
0c
ff
08
0a
01
ff
0a
03
fa
f4
04
f8
ff
f5
05
00
04
05
fe
f8
fb
00
fa
fa
04
fc
f6
02
fc
01
04
07
05
fa
fc
02
09
03
fc
06
00
ff
04
ff
fa
f7
f9
fc
ff
0a
06
f7
01
fa
ff
f8
03
00
fe
f8
06
fa
f7
06
09
f9
03
ff
f8
fe
0b
05
07
f7
02
09
fc
fb
fe
00
f8
01
ff
01
fd
f6
0a
03
08
f4
08
07
f5
01
04
fd
fb
0d
0b
05
05
06
02
fc
04
08
fa
05
fd
f4
09
f6
fb
07
0a
00
0b
06
ff
fe
04
fc
f5
07
f9
f9
06
fb
0c
00
08
0a
01
00
0b
03
fb
f2
03
f8
fe
f4
03
00
04
05
ff
f6
fc
00
fa
f9
04
fc
f6
01
fb
01
05
07
05
fb
fb
01
09
03
fc
06
00
ff
04
00
fb
f7
f9
fc
ff
0b
05
f7
01
f9
ff
f9
03
00
fd
f8
05
fb
f6
06
09
f9
02
ff
f8
ff
0b
06
06
f6
03
08
fc
fc
fd
ff
fa
02
ff
01
fc
f6
0a
03
07
f4
09
06
f4
01
04
00
fa
0b
0a
05
05
06
03
fc
04
08
fb
05
fd
f3
08
f6
fc
07
0a
00
0a
06
00
ff
04
fd
f4
08
f8
f8
06
fc
0c
ff
08
09
01
00
0a
03
fa
f3
04
f7
fe
f5
03
00
05
06
fe
f7
fc
ff
fa
fa
03
fd
f6
01
fa
01
05
08
07
fa
fc
02
0a
03
fd
08
00
fe
04
00
fa
f7
f8
fc
fe
0b
06
f8
01
f9
00
f8
03
ff
fd
f8
05
fb
f6
06
09
f8
03
ff
f7
fe
0b
06
06
f7
02
09
fd
fc
fc
ff
f9
02
ff
01
fc
f7
09
03
08
f4
09
07
f5
00
05
fe
fb
0d
0c
06
05
06
02
fd
04
08
fb
05
fd
f4
08
f6
fb
07
0a
00
0a
06
00
fe
04
fd
f4
07
f9
f9
06
fc
0c
00
09
0a
02
ff
0a
03
fa
f2
04
f7
ff
f4
03
00
05
05
fe
f7
fd
01
fa
f9
03
fd
f6
00
fb
02
04
08
05
fb
fc
01
09
03
fc
07
01
ff
05
ff
f9
f6
f8
fc
ff
0a
06
f7
01
f9
ff
f9
03
ff
fe
f8
05
fb
f7
06
08
f9
03
ff
f6
ff
0c
05
07
f6
02
09
fc
fc
fd
ff
f9
02
00
01
fb
f6
0a
03
08
f4
08
08
f5
02
05
fe
fb
0c
0c
05
05
06
03
fc
05
08
fb
04
fd
f4
07
f6
fc
06
0a
00
0b
06
ff
ff
03
fc
f4
07
f8
f8
06
fb
0c
00
08
0a
02
01
0a
03
f9
f2
03
f8
ff
f4
03
00
05
05
fe
f7
fd
00
f9
f9
03
fd
f6
01
fb
02
04
08
06
fa
fb
01
08
04
fc
07
01
fe
04
00
fa
f7
f8
fb
ff
0b
06
f7
00
fa
00
fa
02
ff
fd
f8
03
fb
f7
06
08
f9
02
fe
f6
ff
0c
05
07
f5
01
09
fe
fb
fd
ff
f8
01
ff
00
fb
f6
0b
04
07
f5
09
07
f5
01
04
fe
fb
0c
0c
05
06
07
03
fc
04
08
fc
04
fd
f1
07
f5
fc
07
0a
00
0a
06
01
ff
03
fd
f4
06
f8
f8
06
fc
0d
ff
08
0a
02
fe
0a
04
f9
f2
04
f7
ff
f4
02
01
05
06
fe
f7
fc
00
f9
f9
02
fd
f6
01
fb
02
04
07
06
fa
fd
00
09
04
fd
08
00
fe
04
ff
f9
f6
f8
fc
fe
0b
07
f7
01
fa
00
f9
03
ff
fe
f8
04
fc
f6
06
08
fa
02
ff
f6
ff
0c
07
06
f6
01
07
fd
fc
fc
ff
f9
02
00
00
fb
f6
0a
04
08
f4
09
07
f6
01
05
fe
fb
0b
0c
05
05
07
03
fc
05
09
fb
03
fd
f3
07
f5
fc
08
0a
ff
0b
06
00
ff
03
fd
f4
07
f9
f9
07
fd
0d
ff
08
0a
02
ff
0b
04
fa
f2
04
f8
00
f5
03
01
04
06
fe
f7
fc
01
f9
f9
02
fd
f5
00
fb
02
04
08
06
fa
fc
01
09
04
fd
09
01
fe
05
01
f9
f6
f8
fc
ff
0c
07
f7
01
fb
ff
fa
03
ff
fe
f8
04
fc
f6
07
08
fa
02
fe
f5
ff
0b
06
06
f6
01
08
fe
fd
fc
ff
f9
02
00
00
fb
f6
0a
04
08
f3
09
07
f5
01
05
fe
fb
0b
0c
05
05
06
03
fc
05
09
fc
05
fd
f3
06
f6
fb
06
0b
ff
0a
06
00
ff
02
fd
f5
07
f9
f8
06
fc
0e
00
08
09
02
00
0a
04
f9
f2
04
f7
00
f4
01
01
04
06
fe
f7
fc
00
f9
f9
02
fd
f6
01
fb
01
05
08
06
f9
fc
01
08
04
fe
08
01
fe
05
00
f9
f6
f8
fc
fd
0c
07
f7
00
fa
00
fa
03
ff
fe
f8
03
fc
f7
07
08
f9
02
ff
f5
ff
0c
06
07
f5
00
08
fd
fc
fc
ff
f9
01
00
01
fb
f6
09
05
07
f4
09
08
f5
00
05
fe
fb
0a
0b
06
06
06
03
fd
05
09
fc
04
fd
f3
06
f6
fc
06
0b
ff
09
06
00
ff
03
fe
f4
06
f8
f9
06
fc
0e
00
09
0a
02
ff
0b
04
f9
f2
04
f6
00
f5
02
01
04
07
fe
f6
fd
00
f8
f8
01
fe
f5
01
fb
03
04
08
06
f9
fc
01
09
04
ff
08
01
fe
05
00
f9
f6
f8
fb
fe
0c
08
f6
01
fb
ff
fa
02
ff
ff
f7
04
fb
f7
06
08
f9
02
ff
f5
00
0c
06
07
f5
01
07
fd
fc
fc
ff
f7
01
00
00
fb
f6
0a
05
08
f4
0a
08
f5
00
05
fe
fa
0b
0a
05
06
07
03
fd
05
08
fc
03
fc
f3
06
f5
fb
07
0b
ff
0a
06
00
fe
01
fd
f4
07
f8
f9
06
fd
0e
ff
07
0a
03
ff
0b
04
f8
f2
04
f7
01
f5
02
01
03
06
fd
f6
fd
00
f9
f8
02
fe
f5
00
fc
02
04
08
06
f9
fc
01
08
04
fe
08
01
fd
04
00
f9
f6
f6
fc
fe
0c
08
f6
00
fb
00
fa
02
ff
fe
f7
03
fd
f6
07
07
fa
02
ff
f3
ff
0c
07
07
f5
ff
07
fd
fc
fc
fe
f8
01
00
00
fb
f6
0a
05
08
f4
09
07
f5
00
05
fd
fa
0b
0c
05
05
07
04
fc
05
08
fd
05
fc
f2
07
f5
fc
06
0a
ff
0a
07
00
ff
02
ff
f4
06
f8
f9
07
fd
0e
00
08
0a
02
00
0b
04
f8
f1
04
f6
00
f5
01
02
03
06
fe
f6
fc
01
f9
f8
01
fe
f5
00
fb
03
04
09
07
f9
fc
01
08
04
fe
09
02
fd
05
00
f9
f6
f8
fc
fe
0c
07
f6
00
fb
ff
fa
03
ff
fe
f7
03
fc
f7
07
07
f9
02
fe
f3
ff
0c
06
07
f5
ff
07
fd
fc
fc
fe
f8
01
00
01
fb
f6
0a
05
08
f4
0a
08
f5
01
05
fd
fb
0a
0c
05
05
07
04
fc
05
09
fd
04
fc
f2
06
f5
fb
07
0b
ff
0a
06
00
fe
02
fd
f4
06
f7
f8
07
fe
0e
ff
07
0a
03
ff
0b
05
f8
f2
04
f7
00
f5
01
01
04
07
fd
f6
fc
01
f8
f8
02
fe
f5
01
fb
03
05
08
07
f9
fc
02
07
04
ff
09
02
fd
04
00
f8
f6
f7
fc
fe
0d
08
f6
ff
fd
ff
fa
03
fe
fe
f7
03
fd
f7
07
07
fa
03
ff
f3
ff
0c
06
06
f5
ff
07
fe
fb
fb
fe
f8
01
01
00
fa
f6
0a
05
08
f4
0a
09
f6
01
06
fe
fb
0a
0c
05
06
06
04
fd
06
09
fe
05
fc
f2
05
f5
fb
06
0b
ff
0a
07
00
ff
02
fe
f3
06
f8
f8
07
fe
0e
ff
07
0a
03
ff
0b
05
f8
f1
04
f6
01
f5
01
02
03
07
fd
f6
fc
01
f8
f8
01
fe
f4
01
fc
03
04
08
06
f9
fc
00
08
04
ff
08
02
fd
05
00
f8
f5
f7
fb
fe
0d
08
f6
ff
fc
ff
fa
02
fe
ff
f7
02
fc
f7
07
07
f9
03
fe
f2
ff
0c
06
06
f4
ff
08
fe
fc
fb
ff
f7
01
01
00
fa
f6
08
06
09
f4
0a
09
f6
00
06
fd
fb
0a
0c
06
05
06
04
fc
06
09
fc
04
fc
f1
05
f5
fb
07
0b
fe
09
06
01
ff
02
ff
f4
05
f8
f9
07
fe
0e
ff
08
0a
04
fe
0c
05
f8
f1
04
f6
01
f7
01
02
02
07
fd
f6
fb
01
f8
f8
01
fe
f4
01
fc
03
05
07
07
f9
fb
00
08
04
ff
08
03
fd
04
00
f8
f6
f7
fc
fe
0c
08
f6
00
fd
ff
fa
03
fe
ff
f7
02
fb
f7
07
07
f9
01
fe
f1
ff
0c
06
07
f5
ff
07
fe
fc
fb
fe
f7
01
01
ff
fa
f5
09
05
09
f4
09
08
f6
00
05
fd
fa
09
0b
05
06
06
05
fc
06
09
ff
05
fc
f2
04
f5
fb
08
0b
fe
09
06
ff
ff
02
fe
f5
05
f8
f8
07
fd
0e
00
08
09
03
fe
0b
05
f7
f1
03
f6
01
f6
01
02
04
07
fd
f5
fd
01
f8
f7
02
fe
f5
01
fc
03
04
08
07
f9
fd
00
08
03
ff
08
03
fc
04
00
f8
f5
f7
fb
fd
0d
09
f6
ff
fc
00
fa
03
fe
fe
f7
02
fc
f7
07
06
f8
02
fe
f1
ff
0c
06
07
f4
ff
07
fe
fc
fb
fd
f7
00
01
00
f9
f4
09
05
08
f4
09
09
f6
00
06
fd
fb
09
0a
06
06
07
06
fd
06
08
fe
03
fc
f2
06
f5
fc
07
0b
fd
09
07
00
ff
01
ff
f4
05
f8
f9
07
fe
0e
00
08
09
04
00
0b
06
f7
f2
04
f6
01
f6
01
02
03
07
fc
f5
fc
01
f8
f8
01
ff
f3
01
fc
04
05
08
07
fa
fb
01
09
04
00
09
04
fd
05
00
f8
f5
f7
fb
fd
0d
09
f7
00
fd
00
fb
03
fc
00
f7
02
fc
f6
07
06
f9
02
ff
f0
01
0c
07
07
f5
fe
07
fe
fb
fa
fe
f7
01
01
ff
f9
f4
0a
05
09
f4
0a
09
f5
00
06
fd
fb
0a
0b
05
06
07
05
fd
06
09
ff
05
fc
f1
05
f5
fb
08
0b
fd
08
06
01
ff
01
ff
f4
04
f7
f9
07
fe
0f
01
08
0a
04
ff
0c
06
f7
f0
04
f7
02
f6
01
02
02
08
fd
f6
fd
02
f8
f7
01
ff
f4
01
fc
04
06
08
07
f9
fc
01
07
04
ff
09
03
fc
04
00
f8
f5
f7
fc
fd
0d
09
f6
00
fe
00
fc
03
fc
fe
f7
01
fb
f7
07
06
f9
02
ff
f0
ff
0d
07
07
f4
fc
07
fe
fc
fa
fe
f7
01
01
ff
f9
f4
09
06
09
f4
0a
08
f5
00
05
fe
fb
08
0a
05
06
06
06
fd
07
08
ff
04
fc
f2
04
f4
fc
07
0b
fd
09
07
01
ff
02
ff
f4
04
f7
f9
07
fe
0f
00
07
0a
04
fe
0c
06
f8
f1
03
f6
02
f6
00
02
02
07
fc
f5
fd
02
f8
f8
02
ff
f4
01
fc
03
04
09
07
f9
fc
00
07
04
00
09
04
fd
05
01
f7
f5
f5
fb
fd
0d
09
f6
ff
fd
ff
fc
03
fd
ff
f7
01
fc
f6
06
06
f9
02
ff
f0
ff
0d
07
07
f4
fd
07
fe
fc
fa
fd
f8
01
01
ff
f9
f3
0a
06
09
f4
0a
09
f7
00
06
fd
fa
09
0c
06
06
06
06
fc
06
07
fe
04
fb
f1
04
f5
fb
08
0c
fd
0a
07
01
ff
01
ff
f4
04
f8
f8
08
fe
0e
00
06
0a
04
fe
0c
06
f7
f1
03
f6
02
f6
00
02
01
07
fc
f5
fd
02
f8
f7
00
ff
f4
01
fc
04
05
09
08
f9
fc
01
06
03
ff
09
03
fc
05
00
f7
f5
f7
fb
fc
0e
09
f6
00
fd
00
fc
03
fc
fe
f6
02
fc
f7
07
05
f9
02
ff
ee
00
0c
06
07
f4
fc
07
fe
fc
fa
fe
f6
01
00
00
f8
f3
09
06
09
f5
0a
09
f7
ff
06
fd
fb
09
0a
04
05
06
06
fd
07
09
00
05
fb
f0
04
f4
fc
08
0c
fd
08
07
00
ff
01
00
f4
04
f8
f8
07
fe
0e
00
07
0a
04
fe
0c
06
f7
f0
03
f5
02
f6
00
03
02
07
fc
f5
fd
02
f7
f8
01
ff
f4
01
fb
04
03
09
08
f8
fc
01
07
03
00
09
03
fc
04
ff
f7
f5
f5
fb
fc
0f
09
f6
ff
ff
00
fc
03
fc
ff
f7
00
fd
f7
07
05
f9
02
ff
ed
ff
0c
07
08
f2
fc
07
fe
fc
fa
fd
f7
01
01
ff
f8
f4
09
07
09
f5
0a
09
f7
ff
06
fc
fb
08
0b
05
06
06
06
fc
06
07
00
04
fb
f1
03
f5
fa
07
0c
fd
08
06
00
ff
00
ff
f5
03
f6
f9
07
fe
0f
ff
07
0a
04
ff
0c
06
f7
f1
03
f6
02
f6
ff
03
02
08
fc
f6
fd
02
f7
f7
01
ff
f3
01
fc
04
04
09
08
f9
fb
01
07
03
00
09
04
fc
05
ff
f7
f4
f6
fc
fc
0f
0a
f6
ff
fe
ff
fd
03
fc
ff
f6
01
fd
f6
06
05
f8
02
ff
ed
00
0b
06
07
f4
fc
06
fe
fc
f9
fd
f6
01
01
ff
f9
f3
09
07
09
f4
0a
09
f6
00
06
fd
fb
07
0b
04
06
04
06
fd
06
08
00
04
fc
f1
04
f4
fb
07
0c
fc
08
08
00
ff
00
00
f4
04
f8
f9
07
ff
0e
ff
07
0b
04
fe
0c
06
f7
f0
03
f6
03
f7
00
03
02
08
fb
f5
fd
02
f7
f7
01
00
f4
00
fc
05
05
09
08
f9
fc
00
07
03
02
0a
04
fc
04
00
f7
f4
f6
fb
fd
0f
09
f6
ff
ff
ff
fc
03
fc
00
f6
01
fd
f7
07
05
f8
02
00
ec
00
0c
07
07
f3
fb
06
fe
fd
f9
fd
f8
01
02
ff
f8
f3
09
07
09
f5
0b
09
f7
00
07
fd
fb
08
0a
05
07
07
07
fd
08
08
00
05
fb
f1
03
f5
fa
07
0c
fd
08
07
01
ff
00
01
f4
03
f7
f9
07
ff
0f
00
07
09
05
fe
0c
07
f6
f0
04
f5
03
f6
ff
03
02
08
fb
f4
fd
02
f7
f7
00
00
f4
00
fc
06
04
09
07
f9
fb
01
07
04
01
09
05
fc
05
01
f6
f5
f6
fc
fd
0e
0a
f6
ff
ff
00
fd
02
fb
ff
f6
00
fd
f7
07
05
f8
02
ff
eb
00
0b
07
08
f3
fd
06
ff
fc
f9
fc
f6
00
02
ff
f9
f2
09
08
09
f4
0b
09
f8
ff
06
fc
fb
08
0a
04
07
06
06
fd
07
08
01
04
fc
f0
03
f4
fb
08
0c
fc
08
07
01
00
00
00
f5
04
f8
f9
08
ff
0e
ff
06
0a
05
ff
0c
07
f6
f1
03
f5
03
f7
00
03
01
09
fb
f4
fe
02
f7
f6
01
00
f4
01
fc
06
04
09
08
f8
fb
01
07
04
02
0a
05
fb
04
ff
f6
f4
f5
fb
fc
0f
0a
f6
ff
ff
ff
fd
04
fb
ff
f7
00
fd
f7
07
05
f8
02
fe
eb
ff
0c
07
06
f4
fb
06
fe
fc
f9
fd
f7
01
01
ff
f8
f4
0a
07
09
f4
0a
09
f8
00
07
fd
fb
07
0b
05
06
06
07
fc
07
08
01
05
fb
f0
02
f5
fa
08
0c
fc
07
07
01
ff
ff
01
f5
03
f8
f9
08
00
0f
00
07
0a
04
fe
0c
07
f6
f0
03
f5
03
f7
ff
04
01
09
fb
f4
fc
02
f7
f7
00
00
f3
01
fc
06
05
09
08
f8
fb
00
07
04
03
0a
06
fc
05
00
f6
f3
f5
fb
fc
0f
0a
f6
ff
ff
ff
fe
03
fb
00
f6
ff
fd
f8
07
04
f8
02
ff
ea
00
0b
07
08
f4
fa
06
00
fc
f9
fd
f7
00
02
ff
f8
f4
09
07
09
f6
0b
0a
f8
ff
07
fd
fa
07
0a
05
06
06
06
fc
08
08
02
04
fb
f0
02
f4
fb
08
0c
fb
07
08
00
00
ff
00
f4
02
f7
f9
07
00
0e
00
08
09
05
ff
0b
07
f5
f0
03
f4
03
f8
fe
03
01
0a
fa
f3
fc
02
f6
f7
ff
00
f4
00
fc
06
04
09
09
f8
fb
00
07
04
01
0a
05
fb
04
ff
f6
f4
f5
fb
fc
0f
0b
f6
ff
00
ff
fd
02
fc
00
f6
ff
fc
f8
07
04
f8
01
ff
e9
00
0c
07
07
f3
fb
06
ff
fb
f9
fd
f7
01
02
fe
f8
f2
09
09
09
f5
0b
0a
f7
ff
07
fc
fb
06
0b
03
07
07
08
fd
08
08
01
04
fc
f0
01
f4
fa
09
0c
fb
07
06
01
00
ff
01
f5
02
f7
f8
08
00
0e
00
06
0a
05
fd
0c
07
f5
f1
03
f5
04
f7
fe
04
01
0a
fa
f4
fd
02
f6
f7
01
01
f3
00
fc
06
05
0a
09
f8
fb
00
06
04
03
0a
05
fb
04
01
f6
f4
f5
fb
fc
10
0a
f6
fe
00
ff
fd
03
fb
00
f6
ff
fe
f7
08
04
f8
02
ff
e9
ff
0a
08
08
f3
fa
05
ff
fc
f8
fd
f6
01
02
ff
f8
f3
09
08
0a
f5
0a
0b
f9
ff
07
fd
fa
05
09
04
07
07
08
fc
08
08
02
04
fa
f1
01
f5
fb
09
0c
fc
06
07
01
00
ff
01
f4
02
f8
f8
08
ff
0e
00
06
0a
05
fe
0b
08
f5
f0
03
f4
04
f7
ff
04
01
0a
fa
f4
fd
02
f6
f7
00
01
f3
01
fc
06
04
09
08
f9
fb
00
07
04
03
0a
06
fb
04
ff
f6
f4
f5
fa
fb
0f
0b
f6
fe
00
00
ff
02
fa
00
f6
ff
fe
f7
08
04
f8
02
ff
e8
ff
0c
08
07
f2
fb
06
00
fc
f8
fc
f6
01
02
fe
f7
f3
0a
09
09
f6
0b
0b
f9
fe
07
fc
fc
05
0a
04
07
06
08
fc
08
07
03
05
fb
f0
01
f4
fa
09
0c
fa
06
07
01
00
ff
02
f4
01
f7
f8
08
01
0e
01
07
0b
06
fe
0d
08
f5
ef
03
f4
04
f9
fe
04
01
0a
fa
f3
fd
03
f6
f6
00
01
f2
01
fc
06
05
0a
09
f9
fb
01
07
04
03
0a
06
fa
03
00
f6
f4
f5
fb
fb
0f
0a
f6
fe
00
00
ff
02
fa
00
f6
ff
fe
f7
08
03
f8
02
fe
e9
00
0b
07
07
f4
fa
04
00
fb
f8
fc
f6
00
02
fd
f7
f3
0a
09
09
f5
0b
0b
f8
ff
07
fc
fb
05
0a
05
07
06
08
fb
08
07
03
05
fb
ef
01
f4
fa
09
0c
fa
06
07
01
ff
ff
01
f5
02
f6
f9
08
00
0e
00
06
09
04
ff
0c
08
f5
f0
02
f4
04
f8
fe
04
01
09
fa
f3
fe
03
f5
f7
ff
02
f2
01
fc
06
04
0b
09
f8
fb
00
07
03
02
0a
07
fa
04
00
f5
f4
f4
fb
fb
0f
0b
f6
ff
01
00
ff
03
fa
00
f6
fe
fe
f8
08
03
f7
02
ff
e7
00
0c
08
07
f3
fa
05
00
fb
f8
fc
f6
01
02
fe
f7
f2
0a
09
0a
f6
0b
0b
f9
00
08
fc
fb
05
09
04
07
06
08
fb
08
07
04
04
fa
f0
01
f4
fa
09
0c
fa
06
07
01
00
fe
02
f6
02
f6
f8
08
00
0d
00
06
09
05
fd
0c
09
f5
f1
03
f3
05
f8
fd
04
00
0a
fa
f3
fc
02
f5
f6
ff
01
f1
01
fc
07
04
0a
09
f8
fb
01
06
04
03
0b
06
fa
04
00
f6
f4
f4
fb
fc
10
0b
f6
fe
01
00
00
02
fa
01
f6
fe
fe
f8
07
03
f8
02
ff
e7
00
0c
08
07
f3
f9
06
ff
fb
f7
fc
f6
02
02
fd
f7
f2
09
09
09
f5
0a
0b
f9
ff
07
fc
fb
04
0a
04
07
06
08
fc
08
06
03
05
fb
ef
00
f4
fa
09
0c
fa
06
07
01
ff
fe
03
f6
00
f5
f7
08
00
0e
00
05
0b
05
fd
0c
09
f5
f1
02
f3
06
f8
fd
05
00
0b
f9
f3
fe
02
f5
f6
ff
01
f1
01
fc
06
04
0a
09
f8
fb
00
08
04
03
0a
07
fa
04
00
f5
f3
f3
fb
fa
10
0b
f5
fd
01
00
ff
02
fa
00
f5
fe
ff
f7
07
02
f8
01
ff
e6
00
0b
08
06
f3
fa
05
ff
fb
f7
fb
f7
00
01
fe
f7
f2
08
09
0a
f6
0b
0b
f8
ff
08
fc
fb
04
0b
04
07
06
09
fb
09
07
04
05
fb
ef
00
f4
f9
0a
0d
fa
06
07
00
00
fe
03
f5
00
f6
f9
09
02
0d
00
06
0a
05
fd
0b
09
f4
f1
02
f4
05
f9
fd
05
00
0b
fa
f3
fd
03
f5
f6
fd
02
f3
00
fd
08
04
0a
09
f8
fb
00
07
04
04
0b
07
fa
04
00
f6
f4
f4
fc
fb
0f
0b
f6
fe
01
00
00
02
f9
01
f5
fd
ff
f8
09
03
f6
01
00
e6
00
0b
08
07
f3
f9
05
00
fb
f7
fc
f6
00
02
fc
f7
f3
09
0a
09
f6
0b
0b
f9
ff
08
fc
fb
04
0a
04
07
06
0a
fb
09
06
05
05
fa
ef
00
f4
fb
09
0c
fa
06
07
00
00
ff
03
f5
00
f6
f8
09
01
0d
01
05
0a
06
fd
0d
09
f3
f1
03
f3
06
f8
fd
05
00
0b
fa
f3
fd
03
f5
f7
ff
02
f2
00
fc
08
04
0a
09
f8
fb
00
06
04
05
0c
07
fa
05
ff
f5
f4
f3
fa
fb
10
0c
f6
fe
01
ff
01
02
f9
00
f6
fd
fe
f8
08
02
f7
02
ff
e5
00
0a
09
06
f3
f9
04
00
fc
f7
fb
f6
01
03
fd
f6
f2
09
0b
0a
f7
0c
0b
f9
ff
08
fb
fb
04
0a
04
07
06
09
fb
09
06
05
04
fa
ef
ff
f4
f9
09
0c
f9
06
07
01
00
fe
03
f6
01
f6
f9
08
00
0d
00
07
0a
06
fd
0b
09
f3
f1
03
f4
06
f9
fc
06
00
0b
f9
f2
fe
03
f5
f7
ff
03
f2
00
fe
08
04
0b
09
f8
fa
ff
07
03
05
0b
07
fa
05
00
f5
f4
f3
fb
fb
11
0b
f6
fd
01
ff
01
03
f9
01
f5
fd
ff
f8
07
02
f6
02
ff
e3
ff
0b
08
06
f3
f9
05
00
fc
f6
fc
f6
01
04
fd
f6
f2
08
0b
09
f7
0a
0b
fa
ff
08
fc
fb
03
0a
03
08
06
09
fb
09
06
06
05
fa
f0
fe
f3
fa
0a
0d
f9
06
08
01
00
fe
04
f5
00
f7
f9
08
02
0d
00
06
0a
05
fe
0c
0a
f4
f1
02
f4
06
fa
fc
06
00
0c
f8
f2
fe
03
f5
f6
fe
02
f2
00
fd
08
04
0b
0a
f9
fa
00
07
04
05
0b
08
fa
04
01
f5
f3
f4
fc
fa
11
0c
f6
fe
02
ff
00
02
f8
01
f5
fd
ff
f8
08
02
f6
03
00
e2
00
0b
08
06
f2
f9
04
01
fb
f7
fb
f7
00
02
fd
f6
f2
09
0b
0a
f7
0b
0c
fb
fe
08
fb
fb
03
0a
03
07
07
09
fd
09
06
06
05
fa
f0
fe
f4
f9
09
0d
f9
05
07
01
00
fe
04
f6
00
f7
f8
09
01
0d
01
06
0a
06
fd
0c
0a
f3
f1
03
f3
06
fa
fc
06
00
0c
f9
f2
fd
03
f5
f6
ff
03
f1
00
fd
08
04
0b
0a
f8
fb
01
07
03
05
0c
09
fa
05
00
f4
f4
f3
fb
fa
11
0d
f6
fd
02
ff
00
02
f9
01
f5
fb
ff
f9
08
02
f6
02
ff
e2
00
0a
09
06
f4
f9
05
00
fc
f6
fb
f7
01
03
fd
f5
f2
08
0b
0a
f8
0b
0b
fa
ff
08
fb
fb
04
0a
03
07
07
0a
fc
0a
05
06
06
fa
ef
fe
f4
f9
0a
0c
f9
05
06
02
ff
fe
04
f6
00
f6
f8
09
01
0c
01
06
0a
06
fd
0c
0a
f3
f1
03
f3
06
fa
fc
06
ff
0c
f8
f2
fd
03
f5
f6
ff
03
f2
00
fe
09
04
0b
0a
f8
fa
00
08
04
05
0b
08
fa
03
00
f4
f4
f3
fb
fb
11
0d
f6
fd
02
ff
01
02
f7
00
f4
fc
01
f9
08
01
f6
03
ff
e1
00
0b
08
07
f4
f7
04
00
fb
f5
fb
f6
02
03
fc
f6
f2
09
0c
0a
f8
0b
09
fb
00
08
fc
fb
02
0a
03
08
07
09
fb
0a
06
06
05
fa
f0
fd
f4
f8
0a
0c
f8
05
07
01
00
fd
04
f6
ff
f5
f8
09
01
0c
01
06
0b
06
fd
0c
0b
f3
f2
03
f3
06
fb
fc
07
fe
0d
f8
f2
fd
03
f4
f6
fe
03
f1
00
fe
08
03
0b
09
f8
fa
01
07
04
05
0c
0a
fa
05
00
f4
f4
f3
fb
fb
11
0d
f6
fd
03
ff
03
02
f7
01
f5
fc
00
f9
09
01
f6
03
ff
e0
00
0a
09
07
f4
f9
04
00
fb
f6
fa
f6
01
03
fc
f5
f1
09
0c
09
f8
0b
0b
fc
ff
08
fc
fc
02
09
02
07
07
09
fc
0b
06
06
05
f9
f0
fd
f3
f8
0a
0d
f8
06
07
01
00
fd
05
f5
00
f7
f9
09
02
0c
01
07
0a
06
fd
0c
0b
f3
f1
03
f3
06
fa
fc
07
00
0e
f8
f1
fd
03
f4
f5
ff
03
f1
00
fe
09
04
0c
09
f8
fa
00
06
03
05
0c
0a
fa
04
00
f4
f3
f3
fc
fa
11
0d
f6
fd
03
ff
03
02
f7
01
f4
fb
00
f9
09
01
f6
03
ff
e0
00
0a
09
05
f3
f8
04
00
fb
f5
fa
f6
00
04
fc
f5
f1
09
0c
0a
f9
0b
0a
fc
fe
09
fb
fb
03
0a
03
07
08
0a
fb
09
05
06
05
fa
f0
fc
f4
f8
0a
0d
f8
04
07
01
00
fd
06
f6
ff
f7
f9
0a
01
0c
00
05
0b
06
fd
0c
0b
f2
f1
03
f3
07
fb
fb
07
ff
0d
f7
f3
fe
03
f4
f4
fe
03
f1
00
fe
0a
03
0c
09
f8
fa
00
07
04
06
0d
09
f9
05
00
f4
f3
f3
fb
fa
11
0d
f6
fc
03
fe
03
02
f6
02
f4
fb
ff
f8
09
00
f5
04
ff
e0
00
0a
08
06
f4
f8
03
00
fc
f4
fb
f6
02
03
fb
f6
f2
08
0d
0a
f8
0c
0c
fc
fd
09
fb
fc
02
0a
02
07
08
09
fb
0a
05
07
05
fa
ef
fc
f2
f8
0a
0d
f9
05
06
01
00
fe
05
f7
ff
f6
f8
0a
02
0b
00
06
0b
06
fd
0c
0b
f2
f2
02
f3
06
fb
fb
07
ff
0d
f7
f1
fd
03
f4
f5
fd
03
f2
00
fe
0a
03
0c
09
f9
fa
00
07
04
07
0d
0a
f9
04
00
f4
f3
f2
fb
fb
12
0d
f6
fb
03
fe
03
02
f6
02
f4
fa
00
fa
09
00
f6
03
00
df
01
09
08
06
f4
f7
03
00
fc
f4
fb
f5
01
04
fb
f4
f1
09
0d
0a
f9
0c
0b
fd
fe
09
fc
fb
01
09
02
08
07
0a
fb
0a
05
07
05
fa
f0
fb
f3
f7
0a
0d
f8
04
07
01
ff
fd
06
f7
fe
f6
f8
0a
01
0b
01
07
0a
06
fd
0c
0b
f2
f2
03
f3
07
fb
fa
08
fe
0f
f7
f2
ff
03
f4
f5
fe
03
f1
00
fe
0b
03
0d
0a
f9
fa
ff
07
04
07
0d
0a
f9
04
00
f4
f4
f2
fb
fb
11
0e
f5
fc
03
fe
03
02
f6
01
f4
fb
01
f9
08
00
f5
04
00
dd
01
09
09
05
f4
f8
03
ff
fb
f4
fa
f6
01
03
fa
f4
f1
08
0e
0a
f8
0d
0c
fc
fd
09
fb
fb
01
0b
02
07
07
0b
fb
0a
04
07
05
f9
f0
fa
f2
f7
0b
0d
f7
05
06
02
00
fd
06
f7
fe
f6
f8
0a
01
0b
01
05
0b
06
fc
0b
0c
f2
f2
02
f3
07
fb
fa
08
fe
0e
f7
f1
fe
04
f3
f5
fe
04
f2
00
fe
0b
04
0d
0a
f8
f9
ff
07
03
07
0d
0a
f8
05
00
f3
f3
f2
fc
fa
12
0e
f5
fb
04
ff
04
03
f5
02
f4
fa
00
fa
09
ff
f6
03
ff
de
01
09
09
05
f4
f7
04
ff
fa
f4
fa
f6
01
04
fa
f4
f0
08
0e
0a
f9
0c
0a
fc
fe
09
fb
fc
01
0a
02
07
08
0a
fc
0b
05
08
05
f9
ef
fb
f3
f7
0a
0d
f7
04
06
01
00
fd
06
f7
fe
f7
f8
0b
01
0a
00
05
0b
05
fd
0b
0c
f2
f3
02
f2
08
fc
fa
08
ff
0f
f6
f1
ff
04
f4
f5
fd
04
f1
00
fe
0a
03
0c
0a
f8
f9
00
08
03
08
0d
0b
f9
05
00
f3
f4
f1
fb
fa
13
0f
f6
fa
05
fe
04
03
f6
02
f4
f9
01
f9
0a
ff
f5
04
00
dd
01
09
09
05
f5
f8
03
00
fa
f3
fa
f5
01
05
fa
f3
f1
09
0f
09
f9
0d
0c
fe
fd
09
fa
fc
00
0a
02
06
08
0a
fb
0a
04
08
06
f9
f0
f9
f3
f7
0a
0e
f7
04
05
01
00
fe
07
f7
fe
f8
f8
0b
01
0a
02
05
0b
05
fd
0a
0d
f2
f2
03
f2
07
fc
f9
08
fe
0f
f6
f1
ff
03
f3
f4
fe
05
f0
ff
ff
0a
03
0c
09
f8
f9
00
06
03
08
0d
0b
f9
04
00
f3
f3
f1
fb
fa
12
0e
f5
fb
05
fe
05
03
f5
02
f3
f8
01
fa
09
ff
f4
03
00
dc
01
09
09
05
f4
f7
03
00
fb
f3
fa
f6
02
05
f9
f4
f1
09
0e
0a
f9
0c
0a
fd
fe
09
fb
fb
00
0a
02
08
07
0a
fa
0b
04
09
05
f9
ee
fa
f3
f6
0b
0e
f7
04
06
01
00
fd
08
f7
fc
f7
f7
0c
01
0a
02
05
0b
06
fc
0b
0d
f2
f3
02
f2
07
fd
f9
09
fd
10
f5
f2
fe
03
f3
f4
fd
05
f1
ff
ff
0b
03
0d
0a
f8
f9
fe
07
03
07
0e
0b
f8
05
ff
f4
f3
f1
fb
fa
12
0f
f4
fa
05
fe
06
02
f5
03
f3
f8
01
fa
0a
fe
f5
04
ff
dc
01
08
0a
05
f5
f7
03
00
fa
f3
fa
f5
02
05
f9
f3
f1
09
10
0a
fa
0c
0b
fe
fc
09
fb
fc
ff
0a
01
07
08
0a
fa
0b
04
09
05
f8
f0
f9
f2
f6
0b
0d
f7
04
06
00
ff
fd
08
f8
fd
f8
f7
0c
02
09
01
05
0b
06
fb
0b
0e
f3
f2
03
f1
07
fd
f9
0a
fe
0f
f5
f2
ff
04
f3
f4
fe
05
f1
ff
ff
0b
03
0d
0a
f9
f9
ff
07
04
09
0d
0c
f8
06
00
f3
f2
f0
fc
fa
13
0f
f5
fa
05
fe
05
02
f4
03
f3
f8
02
fa
09
fe
f5
04
00
dc
00
08
09
05
f5
f7
02
01
fb
f2
f9
f6
01
06
f9
f3
f1
08
10
0a
fa
0d
0c
fe
fd
09
fa
fc
ff
09
01
06
08
0b
fa
0b
04
0a
06
f8
ef
f9
f3
f5
0c
0e
f7
04
06
01
00
fd
08
f8
fc
f8
f7
0c
02
09
00
05
0b
05
fb
0b
0e
f2
f3
02
f2
07
fe
f8
0a
fd
11
f5
f2
ff
04
f2
f3
fd
05
f2
fe
00
0c
02
0e
09
f8
f9
ff
07
04
09
0e
0d
f7
03
ff
f3
f3
f1
fc
fb
13
0f
f4
f9
05
fd
07
03
f4
03
f2
f7
02
fb
0a
fe
f5
05
00
db
00
08
0a
05
f6
f6
02
01
fa
f2
fa
f6
02
05
f9
f2
f1
09
0f
0a
fb
0d
0b
fe
fd
0a
fa
fc
ff
0a
02
06
08
0a
fa
0b
04
0a
06
f9
ef
f8
f3
f6
0b
0f
f6
04
05
01
00
fd
09
f8
fc
f7
f7
0c
02
09
01
05
0a
06
fc
0b
0e
f1
f3
02
f2
07
fe
f7
0a
fd
10
f4
f1
fe
03
f2
f3
fd
05
f1
fe
00
0c
03
0e
0a
f9
f9
ff
07
03
08
0e
0d
f7
04
ff
f3
f4
f0
fb
fb
13
0f
f5
fa
07
fe
06
02
f3
03
f3
f7
02
fa
0a
fd
f5
05
00
db
01
07
0a
05
f5
f7
02
01
fa
f1
f9
f5
02
06
f9
f2
f1
08
11
0a
fb
0c
0c
ff
fd
0a
fa
fd
fe
0b
01
07
08
0b
fa
0c
04
0a
08
f8
f0
f7
f3
f4
0c
0d
f6
04
05
01
ff
fd
0a
f9
fc
f7
f7
0c
01
09
01
06
0b
06
fb
0b
0e
f2
f3
02
f2
07
ff
f7
0a
fd
10
f4
f1
ff
04
f2
f4
fd
05
f1
fe
00
0c
03
0e
0a
f8
f8
fe
07
04
0a
0e
0d
f8
05
ff
f3
f3
f0
fc
f9
13
0f
f5
fa
05
fd
07
02
f3
03
f1
f6
03
fa
09
fd
f4
05
01
da
01
06
0a
05
f5
f7
02
01
fa
f1
fa
f6
03
07
f7
f2
f0
08
10
0a
fb
0c
0c
ff
fd
09
fa
fc
fe
0b
01
07
09
0c
fa
0c
04
0b
07
f9
f0
f7
f2
f5
0d
0d
f6
04
05
00
00
fd
0a
f9
fc
f7
f7
0d
02
09
01
05
0b
06
fb
0b
0e
f2
f3
02
f1
07
ff
f7
0b
fd
12
f4
f1
ff
04
f2
f4
fd
06
ef
fe
01
0d
02
0e
0a
f9
f9
fe
07
04
09
0e
0d
f7
04
fe
f3
f3
f0
fc
f9
14
10
f4
fa
06
fd
07
02
f2
04
f1
f5
02
fa
09
fc
f5
05
01
da
ff
06
0b
05
f6
f6
00
00
fa
f0
fa
f5
02
06
f7
f2
f2
08
11
09
fc
0c
0c
ff
fc
09
fa
fc
fe
09
01
07
08
0b
fa
0c
04
0c
06
f9
f0
f6
f3
f5
0c
0e
f5
03
05
ff
00
fd
0b
f9
fc
f8
f6
0d
02
08
01
07
0b
06
fb
0b
0f
f1
f4
01
f1
08
00
f7
0b
fd
11
f3
f2
ff
04
f1
f3
fd
06
f0
ff
01
0d
03
0e
0c
f9
f9
fe
07
04
0a
0f
0e
f8
05
fe
f3
f5
f1
fd
f9
14
11
f4
f9
07
fd
08
02
f2
04
f1
f4
02
fb
0a
fd
f4
06
01
da
00
05
0b
04
f7
f7
01
01
fa
f0
fa
f6
02
08
f7
f3
f2
09
11
0b
fc
0d
0d
00
fc
0a
fa
fc
fd
0a
01
07
09
0b
fa
0d
03
0c
07
f8
f0
f5
f3
f4
0d
0e
f5
04
03
00
ff
fd
0b
fa
fb
f8
f6
0d
01
07
01
05
0b
06
fb
0b
0f
f2
f5
02
f1
07
00
f6
0c
fd
12
f3
f2
00
05
f0
f3
fe
06
f1
fe
02
0d
03
0e
0a
f9
f9
ff
06
04
0b
0e
0f
f7
04
fd
f3
f4
f0
fd
f9
13
10
f4
f9
07
fd
07
01
f1
03
f0
f5
02
fb
0a
fc
f4
06
02
d9
01
06
0b
04
f6
f7
00
01
f9
f0
f8
f5
04
07
f7
f2
f1
0a
11
0b
fb
0d
0c
00
fc
0a
f9
fd
fc
09
01
07
08
0b
fa
0d
04
0d
07
f8
f0
f4
f2
f4
0c
0e
f4
04
03
ff
fe
ff
0b
fb
fc
f8
f7
0e
02
07
01
06
0a
06
fb
0b
10
f2
f6
01
f0
07
01
f5
0d
fc
11
f3
f2
ff
04
f0
f3
fd
06
f0
fe
02
0e
03
0e
0b
f9
f8
fd
05
05
0b
0f
10
f6
05
fe
f3
f4
f1
fc
f9
14
11
f4
f8
09
fc
08
03
f1
05
f1
f4
02
fa
0a
fc
f5
06
01
d9
00
06
0c
04
f6
f6
00
01
f9
f0
fa
f5
04
08
f6
f2
f2
09
12
0a
fc
0d
0d
01
fc
0a
fa
fd
fc
09
01
06
08
0b
fa
0d
03
0e
08
f8
f0
f4
f2
f4
0d
0e
f5
04
03
00
ff
fe
0c
fb
fb
f7
f7
0e
01
07
00
05
0a
06
fb
0b
10
f3
f4
00
f1
07
01
f5
0d
fc
12
f2
f1
00
04
f0
f3
fd
06
f0
fd
02
0e
03
0e
0b
f8
f8
fc
05
05
0b
0f
10
f7
04
fd
f3
f6
f0
fd
f8
15
11
f3
f8
08
fc
09
02
f0
04
f0
f4
03
fa
0a
fb
f5
07
02
da
00
06
0c
04
f6
f8
fe
01
f9
ef
f9
f4
04
08
f6
f1
f3
09
11
0b
fc
0d
0d
01
fb
0a
f9
fd
fb
0a
01
05
08
0b
fa
0e
03
0e
08
f8
f0
f3
f3
f3
0d
0d
f4
04
02
ff
ff
ff
0c
fb
fb
f7
f7
0f
01
07
01
07
09
07
fa
0b
10
f2
f5
ff
f0
07
03
f5
0d
fc
12
f2
f2
00
05
ef
f3
fe
07
f1
fd
03
0e
03
0e
0b
f9
f8
fd
05
05
0b
0f
10
f6
05
fd
f2
f5
f0
fc
f8
15
10
f3
f7
09
fc
08
03
f0
04
ef
f3
03
fb
0b
fb
f4
08
02
da
ff
05
0b
03
f7
f7
fe
02
f9
ef
f9
f4
04
09
f6
f2
f2
09
11
0c
fe
0e
0d
02
fb
0a
fa
fd
fb
0a
01
06
08
0c
fa
0e
03
0f
08
f7
f0
f2
f2
f3
0e
0d
f4
04
02
ff
ff
ff
0d
fd
fb
f7
f6
0f
02
07
00
05
09
07
fb
0b
11
f2
f6
ff
f0
07
02
f3
0e
fc
14
f2
f2
01
04
ee
f3
fe
07
f0
fe
04
0e
04
0e
0c
fa
f8
fc
06
05
0b
0f
11
f6
03
fc
f3
f6
f0
fd
f8
15
11
f3
f7
09
fc
0a
03
ef
05
ef
f3
03
fb
0a
fa
f5
09
02
da
ff
05
0c
03
f7
f7
fe
03
f8
ee
f9
f4
05
09
f4
f2
f4
0a
11
0b
fd
0d
0d
02
fb
0a
f9
fd
fb
09
01
06
08
0c
fa
0e
04
0f
09
f7
ef
f2
f3
f3
0f
0e
f4
04
01
ff
fe
ff
0d
fd
fb
f8
f5
0f
02
07
00
06
0a
07
fb
0b
11
f2
f6
ff
ef
06
04
f3
0e
fb
13
f2
f2
01
05
ee
f2
fd
07
f0
fe
05
10
03
0d
0c
fb
f9
fc
05
05
0b
0f
12
f5
04
fb
f3
f7
f0
fd
f6
15
11
f2
f7
09
fc
0a
02
ee
05
ee
f1
03
fb
0b
fa
f6
08
03
db
ff
05
0c
02
f7
f8
fd
01
f8
ee
f9
f4
05
09
f4
f2
f4
0a
11
0b
fc
0d
0d
02
fa
0a
f8
fe
fa
09
02
06
08
0d
fa
0f
03
0f
09
f8
ef
f1
f3
f3
0d
0d
f4
05
00
fe
ff
00
0e
fe
fb
f7
f6
10
02
06
ff
05
0a
08
fb
0c
11
f3
f7
fe
ef
06
05
f4
0f
fc
14
f1
f1
01
05
ed
f2
fd
08
f0
fd
05
0f
03
0e
0b
fa
f8
fb
06
06
0c
0f
11
f5
03
fb
f2
f8
ef
fc
f7
14
11
f2
f7
0a
fc
0a
03
ee
06
ed
f1
03
fb
0b
f9
f5
09
03
db
ff
04
0d
02
f6
f8
fc
02
f8
ee
f9
f4
04
0a
f4
f2
f5
0a
11
0b
fd
0e
0e
03
f9
0a
f9
fd
fa
09
02
06
09
0c
f9
0f
04
11
09
f7
f0
f0
f2
f3
0e
0e
f4
05
00
fe
ff
01
0e
fe
fb
f7
f5
10
01
06
ff
05
09
08
fb
0c
11
f4
f7
fe
ef
07
05
f2
0f
fb
14
f2
f2
01
05
ed
f3
fe
08
f0
fe
06
10
03
0e
0b
fb
fa
fb
05
06
0b
0f
13
f5
04
fb
f2
f7
f0
fd
f6
14
11
f2
f6
0a
fb
0a
03
ee
05
ec
f1
03
fc
0b
f9
f7
0a
03
dc
fe
06
0d
02
f7
f9
fb
03
f8
ed
f8
f2
05
0b
f3
f2
f5
0a
0f
0c
fc
0f
0f
03
fa
0a
f8
fd
f9
09
03
06
08
0e
f9
0f
03
10
09
f7
f0
ef
f2
f2
0d
0e
f3
05
ff
fd
fd
01
0f
ff
fa
f7
f4
11
01
06
ff
04
08
09
fb
0c
11
f3
f7
fc
ef
06
06
f2
10
fa
14
f2
f2
02
06
ed
f2
fe
08
f1
fd
07
10
02
0e
0b
fa
fa
fb
06
07
0c
0f
14
f4
04
fa
f3
f7
f0
fd
f6
13
11
f1
f6
0b
fa
09
03
ed
06
ec
f1
03
fb
0b
f8
f8
09
04
dd
fd
05
0d
02
f6
fb
fb
03
f7
ee
f9
f2
06
0c
f2
f3
f5
0b
11
0c
fc
0e
0f
04
f9
0b
f7
fd
f9
08
03
06
08
0e
f9
10
03
11
09
f7
f0
ef
f1
f2
0e
0e
f3
06
fe
fc
fd
02
0f
00
fb
f7
f4
11
02
07
fe
06
07
08
fb
0d
12
f4
f8
fc
ef
05
07
f2
12
fb
13
f2
f2
02
06
ec
f2
fe
09
f0
fe
09
12
02
0e
0c
fa
f9
fa
04
07
0b
0f
14
f3
03
fa
f2
f9
f1
fc
f5
14
11
f0
f6
0b
fa
09
03
ed
05
eb
f2
03
fc
0c
f7
f9
09
05
de
fd
06
0d
01
f6
fc
fa
03
f7
ee
f8
f1
05
0c
f2
f3
f6
0b
0f
0c
fd
0e
10
04
f9
0a
f7
fd
f9
07
04
05
08
0e
f9
11
03
12
0a
f7
ef
ef
f2
f3
0d
0e
f2
07
fd
fb
fc
03
10
02
fb
f6
f3
12
01
06
fe
05
06
09
fb
0e
13
f5
f6
fc
f0
05
09
f3
13
fb
14
f2
f1
03
07
eb
f2
ff
0a
f0
ff
0a
12
01
0e
0c
fb
fb
f9
04
08
0b
0f
13
f3
03
fa
f3
f8
f1
fd
f4
13
11
ef
f6
0b
fa
0a
03
ed
06
e9
f2
03
fd
0b
f6
f9
0a
05
de
fd
07
0e
00
f6
fc
f9
04
f7
ee
f8
f2
06
0c
f1
f5
f6
0b
0e
0c
fd
0e
10
04
f7
0a
f6
fd
fa
08
05
05
08
0f
f9
10
03
12
08
f7
ef
ef
f2
f3
0d
0e
f2
07
fd
fc
fb
05
0f
01
fb
f4
f3
13
02
07
fd
04
05
08
fc
0e
13
f5
f6
fb
f1
04
09
f2
14
fa
15
f2
f1
03
07
eb
f2
00
0a
f2
fe
0c
12
01
0e
0c
fd
fb
f8
03
09
0b
10
13
f3
01
f8
f3
f8
f1
fd
f4
13
13
ef
f6
0b
fa
0a
03
ec
06
e9
f2
04
fe
0b
f6
fb
0a
06
df
fb
07
0e
01
f5
fe
f8
03
f6
ef
f8
f1
07
0d
f3
f5
f6
0c
0d
0d
fb
0e
0f
04
f7
0a
f7
fc
fa
09
05
05
08
10
f7
11
03
12
09
f7
ee
ef
f3
f6
0c
11
f0
06
fd
fb
f9
08
0e
01
fc
f4
f3
11
04
08
fe
04
03
09
f9
0f
13
f3
f6
fb
f2
04
09
f4
14
fb
13
f2
f2
02
06
e9
f4
00
0a
f0
ff
0b
12
01
0c
0c
fd
fa
f9
02
09
0d
0f
15
f3
00
f7
f3
f8
f0
fd
f2
12
15
ef
f7
0a
fb
0c
02
ec
05
ea
f7
03
fe
0a
f4
f9
09
09
e1
fa
08
0f
01
f7
fe
f8
05
f9
ef
fa
f2
05
0c
f6
f7
f7
0d
0c
0e
fd
0c
0d
05
f6
09
f6
fe
fd
07
03
05
07
11
