67
25
e5
18
f6
fd
a7
de
02
d8
39
1c
e2
d7
3f
ce
54
d1
0e
a4
d4
e6
d1
37
f3
c9
d7
35
0c
27
65
c8
0f
fe
3c
56
ec
ff
b7
f9
e0
16
1e
4c
29
d4
05
e7
62
ef
45
df
2f
11
f5
dd
c9
bf
ac
2d
fc
ea
00
26
15
37
e5
b1
45
b6
41
dd
40
da
21
f2
a8
d1
02
c2
2a
0d
62
cf
d3
0b
3a
cd
ee
ef
d0
e9
22
14
02
1a
c4
1a
4f
0f
29
f7
f0
15
b1
d8
12
2f
15
db
b6
55
f0
3a
03
37
f6
08
e9
08
39
0e
83
39
41
d7
3a
08
67
24
e7
17
f8
fd
a8
df
04
d9
3a
1d
e3
d9
3e
ce
55
d2
0e
a3
d5
e6
d1
39
f3
cb
d8
36
0c
29
64
c9
0f
00
3c
57
ee
00
b8
f9
e1
16
1f
4d
2b
d5
07
e8
5f
ef
45
e0
31
11
f6
dd
ca
bf
af
30
fc
ec
02
27
14
38
e6
b4
45
b7
42
de
41
da
23
f1
a8
d0
03
c5
2b
0d
63
cf
d4
0d
3c
cf
ee
ee
d1
e9
23
14
04
1b
c4
1a
50
12
2b
f7
f2
16
b1
d9
12
2f
15
da
b5
56
f0
3a
03
37
f6
07
e9
0a
39
0e
84
3a
42
d7
39
09
67
24
e6
18
f6
fd
a7
de
02
d9
39
1d
e3
d7
3e
cf
54
d0
0e
a4
d4
e6
d2
39
f2
ca
d6
35
0c
28
64
c9
0f
fe
3b
56
ef
00
b7
f9
e1
15
1f
4d
29
d4
05
e8
60
ef
46
e1
32
10
f5
de
c9
bf
ad
2e
fc
eb
01
27
13
36
e3
b1
44
b6
42
dc
40
db
22
f3
a9
d1
03
c5
2a
0e
62
ce
d4
0c
3b
ce
ed
ee
cf
e8
21
13
03
1a
c5
19
4f
11
2a
f7
f0
16
af
d9
11
2c
17
da
b6
55
f0
3a
03
36
f5
08
e9
0a
38
0d
85
3a
42
d7
39
09
66
25
e5
17
f5
fc
a7
dd
01
d7
38
1b
e3
d6
3f
ce
55
d0
0e
a2
d1
e3
d0
39
f2
cb
d5
36
0c
26
65
c9
0f
fe
3a
56
ee
fe
b5
f8
e0
16
1f
4e
29
d3
05
e8
60
ef
45
df
2f
10
f4
db
c8
bd
ac
2f
fc
ea
ff
26
14
36
e4
b1
43
b6
42
dc
3f
d9
23
f2
a7
d1
03
c4
2b
0e
5f
cf
d3
09
39
ce
ec
ed
ce
e9
22
12
01
1a
c2
19
4e
10
29
f8
ef
14
ae
d9
10
2d
15
da
b4
53
ee
39
02
36
f4
07
e9
09
38
0d
83
3a
42
d5
37
09
67
25
e6
18
f7
fc
a6
de
03
d9
39
1c
e2
d7
3f
ce
54
d2
10
a2
d3
e5
cf
38
f2
cb
d8
36
0c
28
63
c8
0f
fe
3b
58
ee
00
b6
f9
e0
15
1f
4d
29
d4
04
e7
5f
f1
45
df
31
11
f3
dd
c9
bf
ad
2e
fb
eb
00
26
14
37
e5
b3
44
b6
40
dc
40
da
22
f1
a9
d0
03
c5
2a
0d
61
cf
d4
0c
3c
ce
ec
ed
d0
e9
20
14
00
1a
c3
19
50
12
2b
f8
f0
16
af
d8
10
2e
17
d8
b6
56
f0
39
02
37
f5
07
e9
09
3a
0d
83
3a
42
d6
38
0a
69
25
e7
18
f6
fd
a7
de
02
d7
3a
1d
e3
d7
3e
d0
54
d1
0d
a3
d6
e5
d2
37
f4
cb
d7
36
0c
29
65
c9
0f
fe
3c
56
ee
ff
b8
f9
e1
15
1e
4d
2a
d4
06
e8
5f
ef
45
e0
30
12
f5
dd
c9
c0
ad
2f
fc
ea
01
28
15
38
e5
b2
45
b7
40
dc
40
d9
22
f2
a8
d2
03
c3
2a
0d
62
d0
d3
0c
3b
ce
ed
ee
cf
ea
22
14
02
19
c4
19
4f
10
2a
f7
f1
16
b0
d9
11
2f
16
da
b6
56
f0
3b
02
37
f5
08
ea
09
38
0e
83
39
41
d6
39
0a
68
27
e6
17
f6
fd
a6
dc
02
d9
37
1a
e6
d6
40
ce
53
d1
0f
a4
d4
e4
d0
39
f2
ca
d8
35
0b
27
65
c9
0e
fe
3c
57
ee
ff
b6
f9
e0
17
1f
4d
29
d5
03
e7
60
f0
46
df
30
10
f5
dd
c8
be
ad
2e
fb
ea
00
26
15
36
e5
b2
44
b4
42
dc
3f
da
22
f2
a9
d1
03
c4
2c
0d
61
ce
d4
0a
3a
cd
ed
ef
cf
e9
23
12
03
1a
c4
1a
4f
10
29
f6
f0
16
af
d8
10
2f
16
d9
b4
56
ef
3a
02
36
f4
08
e9
09
39
0e
83
39
41
d7
38
0a
68
25
e5
16
f5
fc
a6
de
01
d8
38
1b
e2
d7
3f
ce
54
d0
0e
a2
d3
e5
d1
38
f1
ca
d7
35
0d
27
65
c9
0f
fe
3b
56
ed
fe
b6
fa
e0
17
1e
4d
2a
d4
05
e7
5f
ef
45
de
31
10
f5
dc
c8
be
ad
2e
fc
e9
01
27
14
36
e4
b3
43
b6
41
de
40
da
20
f2
a8
d1
03
c5
2b
0e
62
cf
d3
0b
3a
ce
ec
ee
d1
e8
22
12
02
1a
c2
1b
4f
10
29
f8
ef
15
b0
d8
11
2f
17
da
b6
55
ef
3a
02
35
f4
06
e9
08
38
0c
82
3a
41
d6
39
09
66
25
e6
18
f4
fc
a7
de
01
d8
39
1b
e3
d7
3e
ce
53
d1
0d
a2
d3
e5
d1
38
f3
ca
d6
35
0d
28
65
c9
0f
fe
3b
56
ee
ff
b8
f9
e0
16
1f
4d
2a
d4
05
e8
5f
ef
46
de
31
10
f5
dc
c8
be
ad
2e
fc
ea
00
27
14
36
e4
b3
43
b6
42
de
3e
d9
22
f2
a8
d1
03
c5
2c
0e
62
ce
d2
0b
3c
ce
ec
ee
d0
e8
22
12
02
1b
c5
1a
4e
10
2b
f6
ef
16
af
d9
11
2d
16
db
b6
56
ef
39
02
37
f5
07
ea
09
39
0c
84
39
41
d6
39
08
66
26
e7
17
f6
fd
a7
dd
03
d8
38
1c
e4
d7
3f
ce
55
d1
0e
a2
d3
e7
d3
38
f2
ca
d6
35
0c
28
65
c8
0f
fe
3b
55
ee
ff
b7
f9
e0
16
1f
4d
29
d5
05
e8
60
f0
45
de
31
11
f4
dd
c8
bf
ad
2e
fc
e9
01
26
14
37
e4
b2
44
b7
42
dd
3f
db
21
f2
a8
d2
02
c4
2b
0d
62
cf
d3
0b
3b
ce
ed
ee
d0
e9
21
14
01
1a
c3
19
50
0f
29
f6
f0
15
af
da
12
2e
16
da
b7
55
ef
39
02
38
f4
07
e9
0a
38
0e
84
39
42
d6
3a
09
e8
f1
f5
04
10
f0
11
ed
f3
f8
f4
0c
17
0c
07
ed
14
0a
00
f5
f3
fd
f7
05
16
fe
f7
09
f9
1b
fc
f5
02
f1
f9
f3
fe
05
f9
0f
05
15
f4
05
fc
10
f3
05
f5
f4
02
0f
0b
03
ea
eb
10
11
11
02
db
18
f0
16
f5
eb
0f
f2
f2
f2
fe
17
f3
09
f6
14
fd
10
ef
ee
f5
0b
16
e8
05
f1
e6
ef
ee
04
14
09
f8
ff
0e
07
0a
0f
fb
0e
ec
fc
dd
05
15
f4
ec
08
12
19
06
f7
0a
00
f3
02
f1
13
f8
f9
06
2c
f6
f6
06
08
11
15
67
25
e5
17
f5
fc
a6
dd
01
d8
38
1c
e2
d6
3e
cd
52
d0
0e
a2
d3
e6
d0
39
f2
ca
d5
34
0c
28
64
c9
0f
fe
3b
56
ed
ff
b7
f8
df
17
1e
4e
27
d3
05
e6
60
ef
45
de
2f
10
f4
dc
c8
be
ac
2d
fc
ea
00
26
14
37
e4
b3
44
b5
40
dc
3e
da
20
f1
a8
d2
01
c4
2a
0e
62
cf
d3
0b
3b
cd
ec
ef
cf
e7
20
12
01
1a
c3
1a
4e
11
2a
f7
ee
15
af
d8
10
2c
16
da
b6
55
ef
39
01
36
f4
07
ea
0a
37
0d
82
39
40
d7
38
08
68
26
e6
17
f6
fd
a8
de
03
d9
39
1d
e4
d8
3e
cf
54
d1
0f
a3
d3
e7
d1
3a
f3
cb
d7
36
0c
27
64
ca
0f
ff
3d
57
ef
00
b6
fa
e0
18
1f
4f
29
d5
07
e7
5f
ef
47
e1
31
11
f6
dd
c9
bf
ae
30
fd
ea
01
27
15
37
e5
b3
44
b6
41
de
3f
d9
23
f2
aa
d0
03
c5
2b
0d
60
d1
d5
0b
3c
cf
ec
ee
d0
ea
22
13
03
1b
c4
1b
50
11
2b
f9
f0
16
af
d9
11
2e
18
da
b6
55
ef
3b
02
37
f5
08
ea
0a
39
0e
83
3b
41
d7
39
0a
68
25
e6
18
f6
fc
a7
dd
02
d8
39
1b
e3
d6
3f
cd
54
d1
0d
a2
d4
e3
d0
37
f2
ca
d7
35
0c
29
64
ca
0e
fe
3b
55
ed
ff
b6
f8
e0
14
1e
4d
29
d3
05
e6
61
ef
44
e0
30
10
f4
dd
c8
bd
ac
2e
fb
e8
00
28
14
37
e3
b2
43
b5
42
dc
40
d8
22
f1
a7
d2
02
c4
2a
0d
61
cd
d3
0b
3a
cf
ec
ee
d0
e8
23
12
02
19
c3
1a
4e
11
29
f6
f0
15
b0
d8
10
2d
15
d8
b5
54
f0
39
02
37
f4
07
e8
09
38
0b
83
38
41
d6
37
08
67
26
e7
17
f6
fd
a8
df
01
d8
39
1d
e3
d7
3f
d0
54
d1
0e
a3
d4
e6
d1
37
f2
cc
d8
36
0c
28
63
cb
0f
ff
3b
55
ee
ff
b7
fb
e1
16
1e
4e
2a
d4
07
e7
61
f0
45
e0
30
11
f5
dc
c9
be
ae
2e
fc
ea
01
28
14
37
e4
b3
43
b7
41
df
40
da
21
f0
a7
d3
04
c5
2b
0d
62
cf
d3
0c
3b
ce
ed
ee
d0
e8
22
13
01
1a
c4
19
4f
12
29
f8
f0
15
b1
d8
12
2e
16
db
b7
56
ef
3c
03
38
f5
07
e8
0a
39
0d
84
3b
42
d6
39
09
67
24
e6
17
f6
fb
a8
de
02
d8
39
1b
e3
d8
3f
ce
53
d0
0e
a2
d3
e5
d0
38
f1
cb
d5
35
0c
27
64
ca
0f
fe
3c
56
ed
ff
b5
f9
e0
17
1e
4d
2a
d4
04
e6
5f
ef
44
dd
31
11
f4
dc
ca
be
ad
2e
fd
ea
00
25
14
37
e3
b3
42
b5
41
dc
40
d9
21
f1
a9
d1
03
c4
2a
0d
61
cf
d3
0b
3a
cf
ec
ed
d1
e7
21
12
00
1a
c4
18
4e
11
29
f7
ee
15
af
d8
0f
2e
15
da
b6
54
ef
39
03
35
f5
07
e8
08
38
0b
82
3a
42
d5
38
0a
66
25
e7
18
f6
fc
a6
de
02
d9
38
1c
e3
d8
3e
cd
54
d1
0e
a4
d3
e6
d1
39
f1
cb
d7
36
0e
28
65
ca
0f
fe
3a
57
ee
01
b6
f9
e2
16
1e
4d
29
d5
05
e8
5f
ef
44
df
30
11
f5
dc
c9
bf
ae
30
fe
ec
ff
26
15
37
e5
b3
44
b8
42
de
40
d9
21
f4
a9
d1
04
c5
2a
0e
61
ce
d4
0b
3a
cd
ed
ee
cf
e8
21
14
02
1a
c4
1a
4f
10
2a
f7
f0
15
b0
db
10
2d
17
da
b4
55
ef
3a
02
36
f5
06
e8
0a
39
0d
84
3a
43
d6
38
08
67
25
e6
18
f5
fc
a7
dd
01
d9
39
1c
e4
d6
3f
ce
53
d2
0f
a3
d2
e4
d1
39
f3
cb
d7
36
0c
28
65
c9
0f
fe
3b
56
ee
00
b6
f9
e0
16
1f
4d
2a
d4
05
e8
60
f0
45
e0
31
11
f4
dd
c9
be
ad
2f
fb
eb
00
26
13
38
e3
b4
44
b6
42
dc
40
d9
23
f1
a9
d2
04
c5
2a
0d
61
d0
d4
0c
3b
ce
ec
ee
d0
ea
22
14
03
1a
c3
1a
4f
11
2a
f7
f1
16
b1
d9
10
2d
16
d9
b6
56
ef
39
01
37
f5
07
e9
0a
38
0d
83
39
41
d6
38
0a
67
26
e5
17
f5
fc
a7
dd
02
d7
38
1b
e4
d7
3f
cd
54
d1
0d
a2
d3
e5
d0
37
f2
ca
d5
35
0c
27
65
ca
0e
fe
3b
56
ed
fe
b7
fa
df
17
1f
4d
2a
d4
04
e7
60
ef
44
de
31
11
f4
dc
c9
bf
ac
2e
fb
e8
00
27
15
36
e5
b2
44
b5
41
de
3f
d8
21
f2
a9
d1
03
c5
2b
0e
61
cf
d2
0b
3a
cf
ec
ef
d0
e8
21
12
01
1a
c4
19
4d
12
29
f7
f0
15
ae
d9
10
2d
15
da
b5
54
ef
39
02
35
f5
08
ea
09
39
0e
82
3a
41
d6
36
0a
67
25
e6
17
f6
fc
a7
de
02
d8
38
1c
e2
d6
3f
cd
53
d0
0e
a3
d2
e5
d1
39
f2
ca
d5
36
0b
28
62
c9
0f
fe
3b
56
ee
ff
b7
f9
e2
16
1f
4e
29
d4
06
e7
60
ef
46
e0
31
12
f5
dc
c9
bf
ad
2e
fb
ea
00
26
14
36
e3
b3
43
b6
42
dc
40
da
22
f1
a8
d2
02
c4
2b
0d
63
cd
d3
0a
3c
cf
ed
ed
cf
e7
20
13
01
1a
c4
1a
50
0f
29
f7
ef
15
ae
d9
10
2d
14
da
b7
53
ed
3b
02
37
f5
07
e8
0a
38
0d
84
39
42
d6
37
09
68
26
e6
17
f5
fc
a7
de
01
d8
38
1c
e3
d7
3e
ce
54
d0
0d
a2
d4
e4
d0
37
f2
cb
d6
35
0c
28
64
c8
0e
fd
3b
55
ed
ff
b5
f9
e0
15
1e
4c
29
d4
05
e7
5f
ee
45
e0
30
0f
f5
dc
c9
bd
ab
2e
fc
e8
01
27
14
35
e4
b2
43
b6
41
de
3f
d9
21
f1
a9
d1
01
c4
2a
0d
62
cd
d3
0b
3a
cd
ec
ee
cf
e7
22
13
01
1a
c2
19
4e
10
29
f7
f0
15
ae
da
11
2d
15
d9
b5
54
ef
3a
02
37
f4
06
e8
09
38
0d
82
39
41
d5
37
0a
67
26
e5
17
f5
fc
a7
de
02
d9
39
1c
e5
d7
3e
cf
54
d1
0e
a3
d3
e7
d2
38
f3
cc
d6
36
0d
27
66
ca
0f
ff
3b
56
ee
00
b7
fb
e0
17
20
4d
29
d3
04
e8
62
ef
45
e0
31
11
f4
dd
c9
be
ad
2f
fb
ea
01
28
15
38
e4
b2
43
b7
40
dd
3f
d9
23
f1
a8
d1
03
c5
2a
0e
61
d0
d3
0c
38
ce
ed
ef
d1
ea
22
13
03
1b
c4
18
4e
12
29
f7
f1
16
b0
d8
11
2e
16
da
b6
55
f0
39
02
36
f4
07
ea
0b
39
0d
84
3a
41
d6
3a
09
68
26
e5
17
f5
fc
a6
de
02
d8
38
1c
e4
d5
3f
ce
53
d2
0c
a3
d2
e4
d1
37
f2
ca
d6
36
0c
28
65
c7
0e
fd
3a
56
ed
ff
b7
f8
e0
15
1f
4d
29
d4
05
e7
60
f0
45
de
30
12
f4
dd
c8
be
ac
2e
fc
e9
00
27
13
37
e3
b1
44
b6
42
dc
40
da
21
f2
a8
d2
02
c4
2b
0d
62
d1
d3
0b
3a
ce
ec
ee
d0
e8
22
13
02
1a
c3
1b
50
11
2a
f7
f0
15
af
d9
11
2d
15
d9
b7
54
ef
38
02
36
f4
08
e9
0a
37
0e
83
39
41
d6
39
09
68
26
e6
18
f5
fd
a7
de
03
da
39
1c
e5
d7
3f
cf
55
d2
0e
a3
d3
e5
d1
38
f3
cb
d6
35
0d
28
66
c9
0f
00
3b
56
ee
01
b7
fa
df
17
1f
4e
29
d4
06
e6
61
ef
45
e0
30
11
f5
de
c9
bf
ad
2f
fd
ea
02
28
15
38
e4
b2
43
b6
42
de
40
d9
21
f3
a9
d1
04
c5
2a
0e
61
d0
d4
0c
3a
cf
ed
ef
d1
e9
23
13
03
1a
c3
19
4f
12
2a
f7
f0
17
b1
d9
11
2e
18
da
b5
56
f1
38
02
36
f6
08
ea
0a
39
0f
83
39
40
d6
38
0a
66
25
e6
17
f6
fb
a6
dd
03
d8
38
1d
e4
d7
3e
ce
54
d2
0e
a3
d4
e5
d1
38
f2
ca
d6
36
0b
28
63
ca
0f
fe
3a
57
ee
00
b7
f8
e1
16
20
4e
29
d3
05
e6
60
ef
44
df
30
10
f5
dc
c9
be
ad
2d
fc
e9
00
26
14
37
e4
b2
44
b6
41
dc
40
da
22
f2
a6
d2
03
c3
2b
0e
61
ce
d4
0b
39
ce
ed
ee
cf
e8
20
13
02
1a
c4
19
50
10
2b
f7
f0
16
b0
d7
11
2c
15
d9
b5
54
f0
3a
02
36
f4
06
e9
0a
39
0d
85
39
41
d6
39
08
66
26
e6
17
f7
fb
a7
dd
02
d8
3a
1c
e3
d7
3e
ce
56
d2
0e
a2
d3
e6
d1
38
f2
ca
d6
35
0d
28
64
ca
0e
ff
3b
55
ed
ff
b8
fa
e0
15
1e
4d
29
d4
05
e6
60
ef
46
df
30
11
f5
dc
c9
be
ad
2f
fc
ea
01
27
15
38
e4
b3
43
b6
41
de
3f
d9
22
f1
a8
d1
03
c5
2a
0e
62
cf
d3
0a
3b
ce
ed
ee
cf
e9
21
12
01
1a
c3
19
50
12
2a
f6
f0
16
b0
d9
11
2f
16
db
b6
55
f0
3a
02
36
f6
07
e9
0a
39
0c
81
39
41
d6
37
09
66
26
e5
17
f5
fd
a7
df
02
d6
39
1d
e3
d7
3e
cd
54
d0
0d
a4
d3
e5
d2
38
f2
ca
d6
36
0c
27
65
c9
0f
ff
3b
56
ef
00
b7
fb
e0
16
1f
4d
28
d5
06
e7
60
f0
44
e2
30
11
f4
dd
ca
bf
ac
2f
fd
eb
01
26
13
38
e4
b2
44
b6
43
dd
3f
dc
21
f2
a8
d0
03
c4
2b
0d
61
d0
d4
0b
3a
ce
ed
ed
cf
e8
20
13
03
19
c3
1a
4e
12
2a
f7
ef
16
ad
d8
10
2c
17
da
b5
55
ef
3b
03
37
f7
07
e9
0b
37
0e
83
3a
42
d6
38
09
67
26
e5
18
f5
fb
a6
de
02
d8
37
1c
e3
d6
3d
cf
52
d2
0c
a2
d2
e4
d0
37
f0
cb
d6
35
0c
27
63
c8
0e
fd
3b
56
ed
00
b6
f8
e0
14
1e
4b
29
d4
05
e7
5f
f0
44
df
2f
10
f4
dc
c9
bf
ab
2d
fb
e8
ff
26
14
37
e3
b2
43
b5
42
dd
3e
da
22
f1
a8
d0
02
c4
29
0d
61
ce
d2
0b
3a
ce
ec
ed
cf
e6
21
12
02
19
c3
1a
4e
0e
2a
f6
f0
14
af
d7
11
2e
16
da
b5
54
ee
39
01
35
f4
08
e7
08
36
0c
83
38
42
d6
39
09
67
26
e5
16
f5
fb
a7
dd
01
d8
38
1a
e2
d6
3f
cc
54
d1
0d
a3
d2
e4
d0
37
f3
ca
d4
35
0c
28
65
ca
0e
fe
3a
55
ed
fd
b6
f9
df
17
1e
4d
29
d3
04
e7
60
ee
45
dd
30
10
f3
dc
c9
bd
ab
2e
fb
e8
00
25
14
37
e5
b3
44
b5
41
dd
3f
d9
22
f1
a7
d2
02
c3
29
0e
61
cf
d2
0b
39
cc
ec
ee
cf
ea
21
12
01
1a
c3
19
4d
12
2a
f6
ef
15
ae
d8
11
2c
15
da
b6
55
ef
38
01
38
f5
07
e9
09
37
0d
83
3a
40
d5
37
08
67
26
e4
18
f6
fc
a8
de
00
d8
39
1c
e2
d7
3f
ce
53
d0
0d
a2
d1
e5
d1
38
f2
cb
d5
35
0c
27
66
c8
0f
fe
3a
56
ec
00
b7
f9
df
17
1d
4d
29
d3
05
e6
61
ef
44
de
2f
10
f2
dd
c9
bf
ab
2d
fc
e9
00
26
15
37
e4
b1
44
b5
40
dc
3f
d9
22
f1
a7
d1
02
c4
29
0d
61
d0
d2
0a
3a
cd
ed
ed
cf
e8
22
13
01
19
c3
18
4e
11
29
f7
ee
16
af
d9
10
2c
16
d9
b6
55
ee
37
02
37
f6
08
e9
0a
37
0d
82
39
42
d6
39
09
67
25
e6
17
f6
fe
a9
dd
02
d9
39
1c
e3
d6
3f
cf
55
d0
10
a3
d3
e5
d2
37
f1
cb
d8
36
0c
27
65
ca
0f
fe
3b
56
ed
00
b6
fa
e0
17
1f
4d
2a
d3
05
e7
61
f0
45
e0
2f
12
f5
dd
c9
be
ac
2f
fc
ea
01
28
14
36
e5
b2
44
b6
42
dd
41
da
22
f1
a9
d1
03
c5
2a
0e
62
cf
d4
0c
3b
ce
ed
ef
cf
e9
21
13
03
1b
c4
1a
4f
11
29
f9
f0
15
b1
d9
11
2e
16
d9
b6
55
f0
3b
03
37
f4
08
ea
0a
38
0f
84
39
42
d8
38
0a
66
25
e6
17
f4
fb
a8
dd
01
d7
38
1b
e2
d6
3d
cd
53
d0
0d
a1
d3
e5
d1
38
f1
ca
d6
34
0c
26
65
c9
0e
fd
3a
54
ed
ff
b6
f9
e0
15
1f
4c
28
d4
05
e6
60
ec
44
df
2e
10
f4
db
c7
bd
ad
2e
fc
e8
01
26
13
37
e4
b2
43
b6
42
dd
3f
d8
21
f1
a8
d1
01
c4
2a
0c
61
ce
d2
0a
3a
cd
ec
ee
cf
e8
22
13
02
1a
c3
19
4e
10
2a
f6
ef
14
af
d9
10
2d
14
da
b4
54
ef
39
02
36
f4
06
e9
09
38
0e
81
39
41
d6
38
09
f6
fd
0c
fa
05
fb
0c
0e
09
02
f2
f7
f7
09
f1
f6
06
07
0e
f8
f3
e1
06
fb
17
03
f0
f4
ef
ea
e4
01
02
fd
fc
ef
0d
f6
fd
0a
04
09
f3
fb
fb
1c
f8
04
04
05
00
09
08
fb
fc
f8
0d
0d
0e
f3
13
0f
f0
13
01
fd
18
f0
ee
00
ed
fd
f2
14
fc
fb
00
13
fc
1c
e9
ff
07
08
05
02
f6
04
fe
04
10
03
f3
00
06
03
1b
fe
ff
10
0b
f5
08
06
0c
0f
e9
05
0c
02
f7
fd
06
fb
f8
fc
f1
04
db
f6
e0
f0
fe
ec
ed
08
f8
03
e7
ea
f3
db
1b
fd
11
fe
09
e8
ee
00
03
0b
fd
dd
fd
07
0f
f0
f6
d7
08
fa
06
04
07
ea
fe
08
13
ff
06
f4
22
f5
04
03
11
09
02
ff
2b
10
f7
fe
fb
e7
11
f3
00
f3
0a
fd
04
ff
f7
0c
ea
0a
f1
21
05
0f
fb
f7
0b
e5
02
fc
e8
dd
01
0d
13
05
13
e8
e8
fc
f1
06
26
f8
06
0c
05
06
ef
08
0c
f8
1e
0b
f6
f6
ff
12
02
06
ff
fd
f8
f6
06
04
ef
04
23
01
ea
23
03
16
dd
17
f2
04
e5
0e
fc
0f
f0
01
f9
e6
09
e8
66
25
e5
18
f6
fc
a6
de
01
d8
38
1b
e2
d6
3e
ce
53
d1
0d
a1
d2
e5
d0
38
f1
ca
d7
35
0c
26
63
c8
0f
fe
3b
55
ee
ff
b5
f8
e1
14
1f
4d
29
d3
05
e7
5e
ee
45
df
2f
0f
f4
dd
c9
be
ad
2d
fa
ea
00
25
13
38
e4
b2
43
b5
41
db
3f
d9
22
f2
a6
d0
02
c4
29
0d
60
ce
d4
0c
39
ce
ed
ed
cf
e9
22
13
01
19
c2
1a
4e
0f
29
f7
f0
15
b0
d7
0f
2d
16
da
b4
54
ef
39
02
36
f4
07
e9
09
37
0c
83
39
42
d5
39
07
68
26
e6
19
f6
fc
a6
df
02
d9
38
1d
e3
d7
3f
cf
53
d1
0e
a3
d3
e5
d1
39
f2
cb
d7
35
0d
28
65
ca
10
ff
3b
58
ef
01
b6
f9
e1
16
1e
4e
29
d4
06
e7
60
f0
46
df
31
11
f5
dd
ca
c0
ac
2f
fd
ea
00
27
15
37
e6
b2
44
b6
42
de
3f
da
21
f3
a9
d1
04
c5
2b
0e
62
d0
d3
0b
3b
ce
ec
ee
cf
e8
22
12
03
19
c4
1a
4e
10
2b
f7
f0
16
b0
d9
10
2f
17
da
b6
56
f0
3c
02
36
f5
07
e9
0a
38
0d
83
3a
42
d6
38
0a
2e
19
f7
11
0d
0f
da
f3
f6
f6
24
01
e3
fb
14
d7
1f
ed
d4
c3
c0
f4
e7
12
e4
ce
0c
22
1c
06
23
d1
f7
21
12
2d
ee
f2
db
f2
e6
1c
12
29
26
d6
11
01
32
fc
15
f9
1b
1f
ff
fb
e3
e2
e6
18
f6
dc
15
0f
09
ff
e8
e8
19
c9
39
dc
28
e9
21
0a
d9
eb
16
06
fb
11
3c
e5
ea
11
0c
e3
e6
ff
ca
d3
0d
19
0c
0b
cf
0d
3d
14
0d
fb
e2
ff
d4
d8
ff
21
0c
e4
d4
19
fb
1e
fa
16
0f
08
ff
0c
2a
14
bf
22
38
d2
1b
10
66
25
e5
17
f6
fc
a7
dd
02
d8
38
1c
e3
d7
3d
ce
53
d2
0d
a2
d4
e6
d1
38
f2
ca
d6
35
0c
27
64
c9
0e
fe
3b
56
ee
fe
b6
fa
e0
15
1f
4c
2a
d4
05
e7
5e
ef
44
e0
30
11
f3
dc
cb
be
ac
2e
fc
e9
01
26
14
38
e4
b3
43
b4
42
dc
3f
d9
22
f1
a8
d1
03
c4
29
0e
62
cf
d5
0c
3b
cd
ec
ee
d0
ea
21
12
01
1a
c3
1b
4f
12
2a
f7
f0
16
ae
da
10
2d
16
da
b5
55
ef
39
01
36
f5
07
e9
0a
38
0d
83
3b
42
d5
39
08
25
0a
0e
09
02
00
db
08
f5
f5
2e
15
b8
ff
1e
cb
f7
fb
f2
bb
d6
e9
d5
00
ce
e4
10
f9
14
08
13
00
0e
1b
08
2b
f3
e4
e5
d2
eb
03
1e
1f
07
ff
f2
f6
2b
fd
13
f0
06
ea
06
f0
e8
fe
cb
f5
13
ec
0b
00
25
12
e0
f4
ee
e1
10
e0
14
e6
15
0d
ed
06
fe
ec
08
e8
4a
e9
e6
1f
1b
db
e3
11
0b
d4
0e
f9
0e
1f
0b
fe
26
ef
16
01
d1
d7
ed
d1
14
15
ee
e0
02
37
fe
39
f7
01
31
f6
0b
1f
1d
38
ea
2c
2c
05
f9
0d
e7
1e
fb
10
02
01
fd
f7
06
f8
00
e5
da
26
f8
fc
0e
e9
e4
f4
f1
ec
0e
04
10
10
eb
08
ef
05
ea
f2
02
17
e1
f5
1b
df
04
06
03
e3
05
0a
05
f3
f6
0f
19
0a
07
01
e2
f9
fe
ec
f4
06
02
00
14
09
f5
00
1d
0e
08
15
f4
e4
f4
fe
fc
08
0c
22
19
f0
f6
ef
eb
f0
ff
e2
08
fd
fa
03
f1
02
0f
f2
f2
fa
1a
fb
fc
08
0a
09
f8
04
09
05
21
fa
eb
f9
ff
f7
24
2b
16
1c
ee
06
ee
05
f3
f4
eb
1c
07
18
07
01
fa
e9
66
26
e7
17
f7
fb
a6
de
02
d8
39
1d
e2
d8
3f
ce
54
d1
0f
a4
d3
e4
d0
39
f2
cb
d7
35
0d
28
64
c8
0f
ff
3a
57
ed
01
b5
f8
e0
16
1f
4e
29
d3
05
e6
60
f1
44
df
30
10
f5
dd
c8
be
ae
2e
fc
e9
00
26
14
37
e5
b2
44
b5
41
de
3f
d9
20
f1
a8
d1
03
c4
2a
0d
60
cf
d3
0b
3a
cf
ed
ee
cf
e9
20
14
02
1a
c3
18
4f
10
2a
f7
ef
16
b1
d7
11
2e
16
d9
b5
56
ef
3a
03
37
f6
07
e7
09
39
0e
82
39
40
d7
38
09
68
26
e5
17
f6
fc
a6
dd
02
d8
39
1c
e3
d8
3e
ce
54
d1
0c
a3
d4
e5
d1
38
f3
ca
d7
35
0c
28
64
c9
0f
fd
3b
55
ed
ff
b6
f9
e0
16
1f
4e
29
d4
05
e7
5f
ef
45
de
30
10
f4
dc
c7
bd
ad
2f
fd
e9
00
26
15
37
e4
b2
44
b6
41
dd
3f
d8
21
f2
a8
d2
03
c3
2b
0e
60
d0
d4
0b
38
cd
ec
ef
cf
ea
21
13
02
1b
c3
19
4f
12
2a
f7
f1
15
b0
d9
11
2d
16
da
b4
56
f0
3a
02
36
f4
07
e9
09
38
0e
83
3a
41
d7
38
09
64
25
e4
16
f4
fb
a7
dc
01
d7
36
1a
e2
d5
3e
cc
54
cf
0d
a0
d3
e5
d0
36
f0
c9
d6
34
0b
24
63
c8
0f
fe
3a
55
ec
fe
b5
f9
df
14
1e
4c
28
d1
04
e7
5d
ee
43
de
2e
0f
f5
db
c8
be
ac
2d
fb
e8
00
26
15
36
e4
b2
42
b4
41
dc
3e
d8
1f
f2
a6
cf
02
c3
29
0c
60
cd
d3
0a
38
cd
eb
ed
cd
e7
1f
11
ff
19
c2
19
4c
0f
28
f6
ef
15
af
d8
0f
2c
14
da
b2
54
ee
39
01
36
f3
05
e7
07
36
0c
82
3a
41
d5
37
08
67
26
e7
17
f6
fc
a6
dd
03
d8
39
1c
e4
d6
3f
cf
54
d1
0d
a3
d3
e6
d0
37
f2
ca
d7
36
0d
28
65
c8
0f
fe
3b
57
ed
fe
b6
f8
e1
16
1e
4d
29
d3
05
e7
60
f0
44
de
30
0f
f4
dd
c7
bf
ad
2f
fc
ea
ff
27
15
38
e4
b1
44
b6
41
dd
3f
d9
21
f3
a8
d1
02
c3
2a
0c
60
cf
d3
0b
39
cf
ec
ee
d1
e9
21
14
02
1a
c4
19
4e
0f
2b
f7
f0
15
af
d8
11
2f
16
da
b5
55
ef
39
03
36
f5
07
ea
09
38
0e
83
39
41
d6
39
09
ee
f4
fc
f8
0e
fc
15
07
05
08
f2
f7
06
09
f0
f6
11
0a
04
fe
e7
e2
03
fe
13
0c
01
f1
f8
fa
fa
07
ff
ff
13
f1
0f
f9
0b
07
02
f7
0c
00
fb
10
03
02
09
e3
f3
e7
0b
17
00
f9
e1
13
01
fd
f6
15
f8
0b
03
ee
1a
ef
f1
ea
ef
03
fd
10
11
11
0b
ff
f9
05
ee
05
f8
02
0a
ea
ff
06
f6
04
0f
fc
08
04
fc
01
f6
12
f6
17
07
fe
11
04
f4
0f
ed
f9
0b
00
ff
04
05
15
e8
01
f4
06
df
f4
07
f0
0b
e9
f0
04
25
00
01
f1
06
dd
f7
ed
04
12
06
ff
04
f6
f8
07
d5
e0
07
f1
05
f6
df
ec
e1
0d
07
f6
0e
09
ee
0b
fb
fe
05
08
09
f2
f2
fc
e7
00
fd
f5
07
ed
e8
f5
de
0a
23
0b
fe
03
2f
1a
f9
dd
0c
06
1a
04
22
ec
f7
11
01
00
00
f2
0d
14
ff
e8
0d
11
1d
02
fe
05
f9
f9
ed
1e
e3
09
fa
11
1a
1e
ef
04
fb
03
f8
00
01
f6
0b
0f
26
2a
0f
03
d6
0a
14
ed
ef
17
28
00
e1
fe
17
08
f4
20
f9
fd
f9
07
f2
f9
ef
fa
07
00
f9
f8
f4
f0
e6
ff
00
ee
08
17
f5
fe
f4
1c
f8
fb
f2
e5
15
fb
21
f9
09
ec
05
f9
09
0b
f9
f1
f2
0f
0e
0f
ff
fa
0a
e9
0e
f0
04
0c
04
ff
10
09
ef
02
f8
08
0b
08
03
f8
21
fc
07
ea
ea
0e
fa
0c
e9
14
f7
1a
fe
04
13
f4
fd
d8
f3
fb
f8
11
06
0c
fb
f8
f9
ed
ed
f5
0e
ea
0b
ec
1b
00
fa
07
12
0f
2b
08
e8
03
e7
15
f1
19
05
01
f8
01
0c
01
ec
01
14
ed
fa
fc
00
fc
00
fc
ed
fa
e9
fa
09
17
fd
ff
e8
f6
0f
01
67
26
e6
16
f5
fc
a6
de
02
d9
38
1c
e4
d7
3f
ce
53
d1
0e
a3
d4
e5
d0
38
f1
cc
d7
36
0b
27
65
ca
0e
fd
3b
56
ee
00
b5
f9
df
16
1e
4d
29
d3
04
e7
61
ee
45
e0
2f
10
f4
dd
c8
be
ac
2f
fc
ea
00
27
14
37
e4
b2
44
b7
42
dc
40
d9
23
f1
a7
d1
02
c3
2a
0c
61
d0
d3
0a
39
ce
ec
ee
cf
ea
22
13
03
19
c4
1a
4d
10
2a
f7
f1
15
b0
d8
10
2e
16
d8
b5
54
f0
39
02
35
f3
08
e8
09
37
0e
83
39
41
d6
39
0a
66
25
e5
17
f7
fb
a7
de
03
d8
39
1d
e2
d6
3f
cf
53
d2
0f
a1
d2
e6
d0
37
f2
cb
d6
36
0c
28
65
c8
0e
fe
3a
57
ed
ff
b5
f8
e1
17
20
4e
2a
d3
05
e7
62
f0
45
df
31
12
f4
dc
c8
bf
ad
2f
fa
eb
00
25
14
38
e4
b1
45
b5
40
dc
40
da
22
f1
a8
d1
02
c3
29
0c
60
cf
d2
0c
3b
cf
ed
ed
d0
e8
22
13
01
1a
c4
19
4e
0f
29
f7
f2
15
b0
d8
10
2f
16
db
b6
54
ee
39
02
36
f5
07
ea
09
38
0e
84
3a
42
d6
39
09
67
26
e8
17
f6
fd
a8
de
02
d9
39
1d
e3
d7
3e
cf
54
d2
0f
a2
d2
e5
d1
38
f3
cc
d6
35
0d
27
66
c9
0f
fd
3a
56
ee
01
b7
f9
e0
17
20
4e
2b
d3
05
e6
60
f0
45
df
31
12
f4
dc
c9
be
ad
2e
fd
ea
02
28
14
36
e4
b2
44
b7
43
de
40
da
22
f3
a9
d2
05
c4
2b
0f
62
d1
d4
0b
3c
cf
ec
ee
cf
e9
21
14
02
1b
c4
19
50
13
2a
f9
ef
16
b0
da
11
2c
16
da
b6
56
ef
3a
03
37
f5
08
e9
0a
39
0f
84
3b
42
d6
38
0a
68
26
e6
17
f7
fc
a6
de
03
d8
39
1c
e3
d7
3f
cf
55
d1
0d
a3
d3
e6
d1
39
f3
cc
d7
36
0c
29
65
c9
0e
fd
3b
56
ed
fe
b6
fa
e0
16
1f
4e
29
d5
05
e8
5e
f0
45
de
31
10
f4
de
c9
be
ad
2f
fb
eb
01
27
14
38
e3
b2
44
b7
40
dc
3f
d9
23
f1
a9
d2
02
c3
2b
0d
61
d0
d4
0c
39
ce
ed
ee
d2
e9
22
13
02
19
c3
1a
4f
12
2b
f5
ef
15
af
d7
10
2f
17
d9
b6
56
ef
38
02
36
f6
07
ea
0b
38
0d
83
38
40
d6
38
08
0b
04
c5
34
0b
e8
ea
ea
f8
08
f7
31
fb
06
51
c9
2d
01
df
e7
f9
d0
e7
41
06
f5
2b
0f
14
01
18
1b
fb
f1
f0
13
e7
d3
db
03
d6
0d
04
14
fe
dc
11
bb
fc
d5
2e
fe
fe
f0
32
ea
f8
fe
e2
24
d8
0e
1c
03
18
ff
e0
d5
13
ca
1a
de
07
c4
19
0b
fb
d8
e4
f7
02
e7
2b
04
23
e1
ff
dc
da
0f
d5
f8
0c
0b
27
09
f4
44
fa
f9
16
03
44
12
05
00
fb
f9
08
eb
06
1a
e0
39
f4
fb
e6
fd
fa
18
13
f6
de
24
3c
fc
50
07
66
24
e6
17
f6
fc
a7
dd
03
d8
38
1c
e3
d8
3f
cf
54
d1
0e
a2
d3
e5
d2
38
f1
cb
d7
35
0b
28
63
c8
0e
fe
3b
55
ed
00
b6
fa
df
16
1e
4d
29
d2
04
e7
5f
ef
45
df
30
11
f5
dc
c9
bf
ad
2f
fb
ea
02
26
13
37
e4
b3
44
b4
41
db
40
da
22
f1
a7
d1
03
c4
29
0d
62
cf
d4
0b
3a
ce
ed
ee
ce
e8
21
13
02
1a
c3
19
4f
10
29
f7
f0
15
b0
d9
10
2d
15
d9
b5
55
ee
38
03
36
f4
08
e8
0a
37
0d
83
39
41
d7
38
0a
67
26
e6
17
f6
fb
a7
dd
02
d8
38
1c
e4
d7
3f
cd
54
d3
0f
a3
d3
e4
d2
37
f3
ca
d7
35
0c
29
66
ca
0e
fd
3b
56
ee
ff
b7
f9
e0
18
1f
4c
29
d4
03
e7
60
f0
45
df
30
12
f4
dc
c9
bd
ad
2f
fc
e9
01
26
13
37
e5
b3
45
b6
42
db
40
d9
23
f1
a7
d1
03
c4
2b
0d
61
cf
d3
0b
3a
cc
ec
ee
d0
ea
23
13
01
1a
c4
1a
50
12
2b
f7
f0
16
b0
d9
11
2d
16
d9
b6
55
ef
39
02
38
f5
08
ea
0a
37
0e
85
3a
41
d6
38
09
66
25
e5
18
f5
fb
a6
db
03
d7
39
1b
e1
d5
3e
ce
56
d0
10
a2
d2
e6
d0
38
f2
ca
d4
34
0b
27
62
c7
0e
fe
3b
55
ed
00
b8
f8
df
15
20
4d
27
d4
05
e6
5f
ef
44
de
31
0f
f5
dd
c8
be
ac
2e
fa
ea
00
25
14
36
e2
b2
44
b5
3f
db
3f
da
20
f1
a7
d3
02
c1
29
0e
62
ce
d2
0a
39
cd
ed
ee
ce
e8
21
12
02
19
c3
18
4f
0f
28
f6
f0
15
af
d7
10
2c
14
d9
b5
54
ef
3a
02
37
f4
06
e7
09
38
0d
82
38
40
d5
37
09
69
26
e7
17
f6
fd
a8
df
02
d9
38
1d
e4
d8
3f
cf
54
d2
0e
a3
d4
e6
d2
39
f3
cc
d8
36
0c
27
64
c9
0f
fe
3c
58
ee
00
b7
fa
e1
15
1f
4d
29
d3
05
e8
60
ef
46
e0
30
11
f5
de
c9
bf
ad
2f
fc
e9
01
27
15
37
e6
b3
44
b6
42
de
3f
db
24
f1
a8
d2
02
c4
2b
0d
62
d0
d4
0b
3c
ce
ed
ee
d0
e9
21
13
02
1a
c3
1a
4f
11
2a
f8
f0
15
b0
d9
12
30
17
db
b6
56
ef
3a
03
38
f5
08
e8
09
38
0e
83
3b
42
d7
3a
0a
68
26
e6
17
f6
fc
a6
dd
02
d9
39
1b
e3
d6
3e
ce
54
d2
0f
a2
d1
e5
d0
39
f2
cc
d7
36
0c
27
64
c9
0f
fe
3b
57
ed
ff
b5
f8
e0
16
1f
4e
29
d4
05
e7
60
ef
45
dd
31
11
f4
dd
c7
bd
ad
2f
fb
ea
00
26
14
36
e4
b4
44
b6
41
dd
40
d8
23
f1
a8
d2
03
c4
2a
0d
61
cf
d4
0b
39
cf
ec
ee
cf
e9
22
12
02
1a
c4
1a
4e
10
2a
f7
f0
14
b1
d8
11
2e
17
d9
b6
54
ef
3a
02
37
f4
07
e9
09
37
0d
83
3a
41
d6
38
08
67
26
e6
18
f7
fd
a7
de
02
d8
39
1c
e3
d8
3f
ce
54
d1
0d
a4
d3
e6
d1
38
f2
cb
d6
35
0b
27
65
c9
10
00
3c
56
ef
00
b8
fa
e0
16
1e
4e
28
d5
06
e7
5f
f0
45
e1
30
11
f4
dd
c9
bf
ad
2f
fd
ea
01
26
15
37
e5
b3
45
b6
42
dd
3e
da
21
f2
a8
d1
03
c4
2b
0d
63
cf
d4
0b
3a
ce
ed
ee
d0
e9
20
13
02
1b
c2
19
4f
12
2a
f8
f1
16
af
d8
11
2e
17
da
b5
55
ef
3b
03
38
f6
08
e9
0a
38
0f
84
3a
42
d7
38
09
f0
f7
ed
db
0a
0d
13
10
01
fc
f9
0d
05
10
e1
db
00
0c
0e
0d
ea
ec
0b
ef
f6
0c
21
e8
ea
fd
0c
fe
06
fc
08
f0
14
0e
16
fe
04
00
0b
fb
ee
0b
00
03
f7
05
ff
ea
26
f9
15
ed
08
16
f7
01
e7
07
f2
0f
06
04
13
e8
ea
e7
e7
fb
08
16
0a
15
0a
17
fc
f1
f0
05
02
ca
04
eb
02
12
fb
05
0e
1f
19
03
da
0d
f3
0f
f6
18
10
f4
f8
00
ff
06
ea
f7
0b
ec
15
04
0a
f4
f9
ed
01
f2
e1
f5
eb
1c
f9
f4
04
ea
0e
21
fb
05
e9
ee
0f
f6
19
0b
00
08
fe
07
07
ff
e8
f0
0e
15
12
fd
eb
ef
ff
f0
f7
0b
fe
f5
00
fd
15
fa
00
f6
15
ea
16
fb
10
10
09
f8
0d
f9
fd
10
0d
fc
fb
f8
00
e7
0a
04
05
eb
f4
10
fd
01
f7
0e
ed
0f
fd
f9
15
ef
f3
de
f3
00
ff
14
15
06
f9
08
00
f3
ec
0a
19
e2
0d
e3
06
02
f5
07
0d
ef
22
00
ec
11
f7
12
07
13
12
e7
f8
0a
ee
01
ed
ec
0a
00
fc
09
fe
08
f9
f1
f2
fc
da
f2
10
0f
ff
fd
01
f0
21
f5
66
26
e6
18
f6
fc
a7
de
03
d8
3a
1d
e4
d7
3f
d0
55
d2
0f
a2
d3
e6
d0
38
f2
cc
d6
35
0e
27
64
c9
0f
ff
3b
56
ed
00
b6
f8
e1
15
20
4d
2a
d4
05
e8
60
f1
44
df
31
10
f4
dd
c9
bf
ad
2e
fc
ea
00
27
14
38
e3
b2
44
b6
40
dd
3f
d9
23
f1
a7
d1
03
c4
29
0e
61
cf
d3
0c
3a
ce
ed
ee
d0
e9
21
13
01
1a
c3
19
4f
10
2a
f7
f1
15
b1
d8
11
2f
16
da
b6
56
f0
39
02
36
f4
07
e8
09
39
0c
83
39
42
d5
3a
09
66
26
e4
17
f6
fc
a8
de
02
d7
38
1c
e2
d6
3e
cf
54
d0
0d
a2
d4
e7
d2
37
f2
ca
d5
35
0b
28
65
c9
0e
ff
3b
56
ef
fe
b7
f9
e1
16
1f
4d
29
d4
05
e6
60
ee
46
df
30
11
f3
dd
c9
be
ad
2e
fb
ea
02
26
15
38
e4
b2
43
b6
42
dc
3f
da
23
f3
a7
d1
02
c4
2b
0d
63
ce
d3
0c
3a
cd
eb
ee
ce
e9
21
12
01
1a
c3
19
4f
12
2a
f7
f0
16
af
da
11
2f
15
da
b6
54
ef
39
01
36
f5
07
e9
0a
37
0d
83
3a
42
d6
39
09
68
24
e5
17
f6
fc
a8
de
03
d9
38
1d
e2
d6
3f
ce
53
d1
0f
a2
d4
e6
d1
38
f2
cb
d8
35
0c
29
64
c9
0f
fd
3a
57
ee
00
b6
f9
e0
15
1e
4e
29
d3
05
e7
61
ef
45
df
30
11
f4
dc
ca
be
ac
2e
fb
ea
02
27
13
37
e5
b2
44
b7
41
dc
3f
d9
22
f2
a9
d1
03
c4
2b
0c
62
d0
d4
0c
3a
ce
eb
ef
cf
e9
21
14
02
19
c4
19
4e
11
2b
f6
ef
16
b0
d9
10
2d
15
d9
b6
55
ef
3a
02
37
f4
06
ea
09
39
0e
84
3a
42
d6
38
09
f8
fa
e2
eb
fb
fd
04
f5
05
f3
f3
10
f0
ee
ec
f4
1a
10
f8
f4
e6
e8
fe
03
24
0a
f4
f9
f1
f6
13
0f
09
e1
12
ed
18
0b
05
03
07
f8
07
28
06
04
eb
f9
16
06
f5
f3
01
0c
19
11
e4
fe
08
12
e1
0e
f9
14
ec
06
1a
ee
e8
e2
e5
f4
f3
14
eb
1a
f7
e8
ea
f3
e8
f2
1b
f7
04
fe
12
03
ff
04
09
f8
3b
04
d5
06
01
11
ff
18
11
f4
e1
fb
17
07
f0
03
11
ff
e8
27
03
26
f8
0a
02
f8
e9
f8
16
09
f0
10
01
fc
0c
24
66
26
e5
17
f4
fb
a6
dd
01
d8
38
1b
e2
d7
3e
ce
53
d1
0e
a2
d2
e5
d0
36
f2
ca
d6
35
0b
27
65
ca
0e
fd
3b
55
ed
ff
b6
f9
e0
16
1e
4d
2a
d3
04
e6
60
f0
45
dd
2f
10
f4
db
c9
bd
ac
2d
fb
e9
00
25
14
36
e3
b2
42
b6
41
dd
3f
d8
22
f1
a7
d1
02
c4
29
0d
61
cf
d2
0b
39
cd
eb
ed
cf
e8
20
11
01
18
c3
18
4d
11
2a
f6
ef
14
ae
d7
10
2c
16
d9
b5
55
ee
39
02
36
f4
07
e8
08
37
0c
83
39
40
d5
38
09
16
15
db
09
03
24
0c
f9
f6
06
f4
27
20
0a
11
e0
f9
04
c9
ea
08
13
02
f7
09
f8
e9
14
e2
db
f0
ff
04
13
17
09
e5
0b
f1
0b
f2
00
1d
f0
0b
f4
f5
e3
ed
18
fc
03
f2
03
00
e9
ef
06
1b
f7
d5
17
33
ef
09
11
ec
11
f7
1b
e8
fd
f9
06
ee
0c
03
0a
fe
f4
16
1e
fe
f2
ef
f1
06
e1
f1
02
e3
1a
22
fc
08
16
fa
eb
00
e7
29
da
e4
f4
15
0f
05
f2
1b
e5
10
ec
16
04
28
fa
21
e5
0d
02
e2
10
0c
ee
24
05
01
f7
0e
1e
ec
04
22
0e
1a
f9
03
00
1e
18
fb
f3
24
e5
e7
13
fa
ed
16
0a
fe
10
09
06
20
2b
fc
fd
e8
f2
f6
f4
1f
f6
14
18
f7
f2
ec
00
ef
f9
06
ef
f4
e9
e6
04
f8
11
09
eb
30
ec
13
09
fc
1b
f6
ff
0d
f1
07
17
01
e8
eb
09
e9
ef
01
fe
ee
26
10
e8
1f
f6
0e
31
02
f6
ec
0a
e6
db
f6
05
d8
fe
ed
fc
0c
1d
fb
21
fa
04
08
e5
0b
f4
23
fc
13
e6
07
0b
0a
dd
f2
ee
23
0a
07
bb
fc
f6
e5
05
ef
0b
01
fc
28
fe
f1
08
d7
06
12
18
0c
e3
da
de
0b
07
ff
f9
db
f6
fc
13
df
05
02
04
d4
f5
11
f5
ef
37
22
ec
ff
07
fc
09
f6
26
f9
0d
e5
ff
fa
11
01
f6
f7
ce
05
e5
e7
f2
03
13
24
f7
3c
e9
09
d5
ff
f3
08
04
0b
ea
1e
0a
e9
0d
fa
15
f1
eb
fd
fa
fe
1b
17
fd
0c
f8
16
f7
16
ed
04
0f
0f
e6
f7
05
27
1c
02
fa
19
0e
04
de
d1
f3
0a
e7
12
fc
32
0e
27
04
07
09
0b
23
d9
e3
13
fc
09
04
ea
13
f8
0e
07
ed
09
df
fc
25
16
0f
eb
00
34
03
0a
ed
fd
c7
fb
19
f5
f8
20
c9
f6
eb
fd
f6
06
07
11
09
10
f4
06
00
f4
f7
fe
e4
e7
0d
06
29
f6
0e
e7
05
db
fd
fb
ed
e2
25
29
fd
ef
d9
f2
0f
e1
0b
29
01
ff
e5
0a
0d
0f
19
00
1c
0a
f7
e7
15
e2
f1
07
de
21
ee
fe
13
e3
19
23
07
0e
ff
10
fa
d2
14
f9
f6
fa
08
f4
2a
02
f8
e7
08
02
e4
e9
fc
2c
1f
fd
f6
f9
c6
3f
d9
20
f9
0f
24
e3
e9
15
08
0a
0f
19
01
18
ff
00
e8
3a
ed
1f
f5
1f
0f
fd
f4
21
21
f4
03
12
d1
f4
01
04
12
16
ff
fa
fc
e2
db
ed
1b
d4
1c
0b
ef
1c
1b
f3
dc
1e
0c
fb
17
e2
ed
d9
14
0e
f9
f8
f8
fa
08
e4
fa
1a
0c
fa
0e
fe
ef
f6
d8
0b
15
fd
fd
1a
fd
fd
f3
0f
f5
f2
0a
ea
15
e8
f1
15
ec
26
d8
10
ec
18
da
24
01
0c
24
0b
e1
fc
07
0d
e4
dc
05
f7
18
00
fa
ee
0e
03
e0
d9
f5
1c
1c
f6
ff
1a
14
12
fc
0b
04
22
ef
03
03
22
db
16
ea
01
02
da
10
07
ee
0f
05
1e
10
ee
f6
05
07
f2
22
fc
dd
ce
e0
18
33
f3
fa
1a
d3
03
f8
cc
10
f7
ea
01
0b
16
03
1d
1c
0e
06
11
14
fc
ff
27
19
f5
ff
ef
01
e0
08
f9
e7
01
20
1e
fb
fa
14
03
07
fd
fc
07
f3
05
e3
23
c8
db
07
2b
ff
23
0d
12
d9
22
05
19
fe
0f
f9
f2
13
06
e6
21
d7
dd
f9
01
f5
01
1d
e6
ee
f7
01
e1
13
f5
fd
07
17
f6
1e
f5
e5
20
05
f5
f3
f8
09
0b
00
03
30
05
ec
d8
10
19
06
f8
cc
e7
0f
01
18
05
e9
1f
07
00
fc
29
1a
02
23
07
fa
20
e3
d1
0a
f4
05
f2
05
ef
de
09
10
d2
18
1b
2c
f7
0c
0a
fb
fe
0e
1d
00
0d
1b
fe
10
ea
1b
e2
12
ed
f1
e0
03
e2
0a
ff
fb
23
ea
f3
f5
fc
0e
2c
11
24
e4
1a
e8
12
1d
f6
24
17
03
e6
22
e0
e5
fc
08
f0
e1
0c
d6
fc
09
0c
f4
15
04
1e
16
1f
f4
fb
03
db
12
fd
05
d9
dc
e9
fc
da
fb
03
db
d9
fa
27
f5
f8
e2
1b
e5
16
06
00
f2
01
25
ec
01
ef
08
01
fa
e4
ea
0a
22
fb
e2
fc
11
20
fc
e8
1d
eb
05
25
16
02
ea
f9
e9
fd
03
09
04
27
fc
e9
06
e8
fb
ff
11
c8
17
1e
f4
10
10
eb
17
34
f9
f1
2c
ec
0e
f1
01
e9
fe
ee
fc
f5
f0
11
f9
02
eb
f0
fc
03
05
f8
e3
17
f3
dc
e9
0f
11
10
fc
0d
f4
f9
0c
ee
f0
fe
fb
e2
07
ec
e8
00
fb
0a
ea
03
f9
10
1b
15
e2
03
08
01
23
fb
0a
d6
02
13
fa
14
2a
1b
03
17
fc
fc
fa
da
db
f8
fb
08
01
08
0b
0c
f9
06
da
1a
19
11
e9
eb
e9
ca
13
16
eb
17
e4
2f
19
1f
06
11
f3
09
09
f4
f8
e7
fe
20
12
0d
11
fd
01
eb
21
fa
fe
f7
11
f8
fb
14
02
1c
f5
df
e4
12
0c
06
10
e1
1a
f0
19
fb
13
f7
00
ed
07
00
e9
eb
04
07
12
05
0f
0c
fb
1c
eb
24
09
1f
e2
13
f1
2b
f4
df
0c
05
ff
f3
f1
0b
06
1d
e0
ec
17
15
00
e1
ec
0f
2a
06
cb
f5
d1
0b
ff
e8
04
ef
13
13
f9
0a
0f
03
e6
f8
f7
0c
fc
1c
e3
ef
f0
07
0a
ef
e5
17
1c
01
03
0f
dd
fe
f3
05
17
0b
05
0e
fa
1e
ce
e3
dd
0a
1e
07
1c
14
f9
ce
da
37
e9
0e
fb
f2
f8
13
e0
0b
0e
ee
f6
1b
da
fb
22
0e
f3
ed
34
fb
09
0f
13
07
01
05
05
0c
0e
d8
05
de
fd
f3
19
02
f2
f5
dc
01
d1
00
f8
08
01
1d
00
fd
d5
f2
10
0d
10
fe
0e
ed
2e
f4
ea
00
ff
fc
ee
3a
e2
f0
01
fe
e7
ff
f5
31
fc
e7
d0
d2
32
13
f0
ef
05
03
0b
0b
fc
09
0a
ed
15
fe
ff
18
e0
ef
08
fe
00
1f
ee
0e
db
ee
1f
fc
09
04
20
e9
f5
d8
f7
04
2b
0a
12
1d
de
1d
ea
ec
16
ee
1d
0f
1e
08
e1
f2
dd
ed
0e
cd
1e
1a
d8
06
04
de
13
05
26
c6
1f
11
ea
22
1b
1e
ff
33
07
f1
21
05
28
07
ec
f5
02
e3
dd
09
fc
f7
ec
fd
e5
f5
cf
f2
0b
29
19
0c
dd
f4
fe
de
15
08
1e
21
15
01
e5
dd
f6
15
ea
ec
f1
18
de
f5
fc
e1
f9
24
ef
f0
e7
f1
14
04
09
31
f5
01
0a
fa
02
07
f8
ef
26
3d
ea
0e
f0
0a
0f
00
d4
0a
dd
0c
fc
06
f8
2b
18
e7
fc
3f
f9
dd
fc
13
13
d0
03
f7
ea
fe
db
07
1d
e0
15
fa
05
21
1d
26
f4
0b
f3
1a
18
01
1b
d7
15
06
f4
d9
15
0b
ff
ed
20
16
0a
28
27
fb
eb
ff
12
fa
f1
12
06
fc
1c
e0
17
ea
08
0f
fd
05
0c
0c
16
ea
05
02
03
f7
f3
02
f4
e0
c5
e3
11
e1
f7
1e
f2
f1
2f
0f
fb
02
e8
00
ff
24
f6
ea
26
f5
11
14
2a
f6
fd
18
10
e8
f8
11
e6
fb
06
f3
02
e9
00
dc
f6
03
f8
ee
d5
12
f3
d5
fb
ec
d5
10
10
f2
f0
09
f7
08
e1
0d
e2
1c
f5
04
ec
de
20
16
ec
2b
fa
1d
eb
11
10
15
ee
15
2d
06
de
e6
eb
0b
17
e8
f9
f4
1a
f1
0d
f0
fc
0c
12
ef
17
0b
05
fc
18
fd
eb
f8
18
03
ef
09
f2
f5
2a
fa
e6
f8
17
ff
f4
0a
f3
e3
f5
ff
ed
00
0d
05
f1
fd
e0
01
f0
09
04
c1
0e
fc
ea
32
33
d7
f7
fa
f6
01
17
1a
f8
db
0d
f3
09
0d
09
1b
05
09
e1
02
09
09
f3
e1
06
ef
ed
f9
00
10
0e
fc
f9
13
f9
19
f8
fb
03
13
df
2c
ea
1e
17
06
f3
f4
e5
ff
17
25
d9
06
ef
fb
fe
11
da
eb
ea
11
11
0d
21
1d
03
fb
f0
01
e4
eb
01
f0
ea
f1
f8
e4
e1
ea
08
c9
eb
e8
ea
09
04
0f
0e
0b
f9
1a
16
ed
1a
fb
14
23
02
e0
25
e4
e7
eb
f3
f7
13
e9
0f
00
fd
ee
1c
0b
0d
f2
07
0d
f0
2d
e6
fe
0a
f8
06
25
0b
28
0c
06
fb
d8
0b
db
ec
20
f8
f0
0e
07
02
17
e6
1c
f6
23
ef
f7
21
06
e0
e9
05
e4
0d
e6
03
01
34
ed
09
f6
e2
ef
f7
fb
f0
04
f8
13
fb
10
01
05
f6
e5
ed
1b
de
32
d1
05
f4
0d
32
1a
01
35
fe
22
fa
16
fa
0f
e5
ea
18
e4
f7
11
dc
f4
1d
26
e6
2e
02
e0
fd
f7
09
f8
0e
05
11
0b
0e
1c
2c
de
ed
c9
12
07
1a
14
20
ea
16
f9
ef
ee
cd
04
f5
f3
0c
f9
e8
ff
11
04
02
2a
0d
e8
dd
f0
d5
fd
e0
02
0d
29
e4
0e
1f
1e
19
f4
01
fe
17
1a
d2
ee
3a
f0
e0
f4
eb
df
28
0b
ed
f3
f4
f8
f6
0a
01
19
15
00
03
ea
f8
fd
01
0c
09
23
08
f2
dd
17
05
0f
e4
08
0f
0c
fb
09
e5
06
e8
15
e7
19
f5
09
15
01
eb
24
0f
fb
09
23
f3
f7
08
f6
10
28
eb
0c
eb
2e
f4
f8
17
f6
ed
f8
24
e1
f7
1a
f7
d2
19
08
19
f6
11
f9
ff
ec
12
08
10
09
05
dd
1c
0b
ef
f5
15
f8
00
02
dc
07
fd
0c
ff
0c
0f
2b
eb
14
08
0f
c1
21
14
d5
05
fe
07
18
0d
0c
ee
03
0e
11
ee
32
e5
df
1e
01
da
16
09
13
e3
fb
dc
fd
fb
ee
e4
e5
06
e6
f1
de
f3
ed
0b
f6
14
ff
ea
12
f7
dc
e4
fd
f9
23
11
1c
ea
09
00
f1
df
22
13
f1
de
fb
f5
f9
0a
06
24
01
fd
16
f7
0b
18
fe
19
08
dd
fb
f0
fb
ee
1b
10
ed
df
24
d5
0d
0a
f5
07
35
02
d6
18
10
e6
ee
10
1e
0a
22
13
f2
17
fe
2f
e2
07
dd
07
dd
f3
fa
09
f7
0b
15
ef
0b
de
f4
f5
1f
3b
17
e0
f8
df
ef
2b
09
22
27
20
cf
25
f4
dd
19
e4
e2
ce
2a
c2
ef
fe
e3
ef
12
e7
1b
f8
09
ed
ee
2e
2c
d8
fb
05
0f
0a
1e
fe
cd
04
06
1b
0c
07
21
01
e4
da
01
e8
1a
fc
07
fc
04
26
06
fa
14
19
e1
0c
f8
f6
fb
0f
f2
f7
02
01
24
f1
e3
04
08
f8
14
0c
fc
04
06
ea
07
0c
e7
da
f5
f0
11
0c
ed
00
2e
f6
0b
12
22
f3
0a
30
1c
de
03
ff
04
20
15
2b
f7
1c
18
10
fc
fd
db
f6
fd
29
0b
ec
10
fb
fd
0a
fc
eb
24
0e
15
df
d8
10
d1
09
0f
df
0c
10
d3
ef
01
fa
de
e5
0d
c9
f6
e5
fa
20
17
e1
1a
03
eb
e1
07
e5
10
ee
db
08
0b
fc
fb
fd
07
22
2a
ff
ee
fd
1b
0a
e4
f2
0e
03
0d
f1
fd
f9
05
ee
e6
ee
f2
e2
0a
ef
02
ee
f0
18
03
13
17
10
28
ff
dc
0c
ed
f0
15
00
1b
f2
e2
e2
1a
ee
f6
e4
e9
ef
dc
0e
db
e4
10
06
e5
02
17
16
f6
25
e9
19
f3
14
f3
10
0d
29
ec
07
f0
ea
f4
09
0a
fc
e5
0d
ee
fa
ed
e4
04
11
11
df
20
e1
03
f0
12
ff
e4
1a
f6
e9
29
09
fb
d8
0b
f6
21
f4
14
f3
fd
ff
06
fe
1d
13
03
1b
0b
06
f4
0f
fe
f2
ed
04
1e
0a
03
00
fa
f2
f1
ff
12
f2
1d
27
df
05
fd
0c
1f
e0
0d
ec
10
25
12
ff
25
eb
0c
d9
0b
0c
f8
24
fc
e6
23
16
f5
19
de
f8
e9
0a
06
2a
0c
f2
e1
06
f0
12
07
fe
03
12
ed
09
07
e9
1b
12
03
f0
18
f1
0d
16
1c
09
04
f8
fe
19
01
0f
f3
00
ef
e9
fa
ff
05
fe
04
09
f2
fb
f8
08
f9
0b
0f
17
23
f3
fb
cd
03
da
d8
0a
10
ea
1f
f9
0b
f8
ef
02
16
ee
25
fa
f0
10
0b
0b
03
ec
13
ff
22
f1
ea
f4
e9
f5
ec
06
cd
31
e3
f9
0c
13
05
0b
ff
fd
1b
04
1a
e4
f2
db
f7
e1
17
27
05
1b
fc
dd
21
00
38
d5
07
10
e5
04
f5
e3
1a
0f
fe
22
f3
08
e9
12
21
2c
e0
fb
08
f4
11
03
31
f2
fe
cb
d4
11
d9
c7
fe
1d
ea
04
12
05
36
da
01
e7
f2
04
07
11
0a
17
e4
f8
d7
09
ff
e6
12
f9
ee
fd
09
17
14
1b
05
f3
0e
02
10
e2
17
e8
f8
f5
ff
12
2b
e4
16
29
fb
e5
d5
ec
fb
e7
f8
ef
f9
0f
e4
2b
04
03
ef
13
04
f2
fa
e0
0a
e4
da
ff
e5
df
10
fd
0b
fe
07
d8
22
17
1c
3d
dc
0e
26
ed
2c
16
06
d5
0b
f4
f4
1d
1b
d7
26
e4
13
0e
22
19
de
ea
06
fd
2d
19
07
ed
0f
27
f9
35
05
e6
ed
b8
1d
f6
d1
eb
08
1a
02
05
fa
f6
19
11
e4
01
18
f1
2a
2d
05
08
ee
11
14
06
fa
eb
11
15
ce
00
09
08
f2
12
fe
c4
ee
d3
17
df
04
0b
18
f2
08
de
06
de
05
fd
e9
05
12
f9
28
05
f8
38
19
f6
06
0f
f8
f3
e4
04
08
d0
18
dd
f3
1d
e3
ee
df
23
04
de
db
11
17
f4
2c
fc
f6
40
0f
1d
25
0e
fe
e2
e0
e1
0a
00
24
f9
25
ee
0a
03
cf
f7
21
f2
dd
dc
ee
17
ee
02
0c
f1
01
02
d2
17
f3
0e
da
04
18
24
f3
da
0e
06
fd
0d
ed
05
26
e5
ec
34
0c
07
04
00
f9
02
11
05
08
00
2c
04
15
0b
ee
1e
04
21
f8
05
e3
0c
f4
01
ea
eb
03
0d
f2
08
e6
ed
f9
0a
f0
fa
f9
ea
e0
e5
07
e3
e7
04
11
f7
1d
19
f0
e9
05
09
ea
df
08
cd
ef
21
0a
0b
2c
ec
04
37
1f
d6
ff
06
ef
10
f2
05
ff
e5
14
fd
05
06
fb
e2
02
fc
1a
e8
de
e6
e3
de
07
f0
06
13
06
01
ef
11
07
17
0f
e9
0c
04
f9
03
ec
11
20
1b
22
08
31
07
d4
ed
2f
0b
d2
ec
e3
de
19
12
d9
bf
06
11
e2
12
05
d5
cd
e6
09
f5
d9
fd
14
0f
3c
13
e8
e6
fe
29
0f
13
ff
05
ef
e9
d4
08
1e
08
e3
01
15
1d
1a
fe
19
e6
e5
15
11
ef
cd
d8
f5
dc
14
0a
11
e9
1d
29
0f
fc
0a
cc
14
08
33
c7
29
e5
d4
df
3b
ef
f5
49
17
e8
f0
1a
f6
ee
e6
06
05
e4
ef
07
ef
08
31
26
30
dc
0d
db
ee
fc
cd
f4
1a
0b
1b
f9
08
2c
f3
15
1f
24
15
fa
e1
da
0b
0e
20
3c
35
f7
0c
23
18
0a
0b
19
08
0f
fc
02
0b
e6
18
27
f4
f9
25
0d
e3
0b
e1
0e
14
ef
ec
1e
14
e1
48
14
fc
ed
18
1a
f4
2d
eb
f7
0a
04
e3
e4
fc
27
05
f4
fe
09
f5
03
eb
f7
03
07
e8
27
11
ec
f3
18
fb
e0
c4
f1
21
ec
12
eb
cf
da
eb
e9
07
0d
08
ba
09
1f
f7
e8
15
ff
fe
08
39
03
f4
ed
d2
1b
ec
03
f6
fe
17
fc
f6
27
ef
0a
df
00
14
f7
07
f6
05
0f
16
fa
03
f2
0e
14
f6
e5
0c
01
1c
c8
0f
f1
02
39
dc
ef
1b
07
25
e4
00
14
c3
34
d5
06
f7
f8
ef
f2
2f
f6
09
d5
22
de
eb
39
ee
e9
00
fc
f0
dd
e4
03
1b
28
27
06
f7
c1
fa
2f
d1
10
d9
f6
e7
da
ed
2b
01
0f
0c
00
21
ee
d8
08
2d
dc
00
fd
25
dc
f5
ec
2a
16
02
e3
0d
12
0b
14
f3
db
ce
e1
0e
dc
06
fe
18
04
08
df
f7
1f
11
39
51
ea
f9
07
1b
f9
0e
ff
e3
e2
28
12
f4
fd
10
38
0e
f1
0f
d5
db
fe
fb
f9
2b
03
34
f3
c7
39
d5
20
05
f2
16
c0
ec
fd
0a
21
01
04
32
fe
e9
16
65
25
e7
17
f5
fc
a6
de
01
d7
39
1d
e3
d8
3e
d0
54
d1
0d
a3
d3
e4
d0
38
f2
cb
d6
34
0c
28
63
c9
0e
ff
3b
56
ed
ff
b7
f9
e0
16
1d
4c
29
d3
05
e6
60
f0
45
dd
2f
0f
f5
dc
c8
bf
ae
2e
fc
ea
00
27
14
37
e4
b2
43
b7
40
dd
40
d9
23
f2
a7
d1
03
c4
2a
0d
61
d0
d3
0b
3a
cd
ec
ee
cf
e9
21
13
00
1b
c4
18
4f
10
2a
f7
f0
16
b0
d8
11
2d
14
da
b7
55
f0
3a
02
35
f6
07
e9
0a
38
0c
81
39
41
d6
38
09
66
26
e5
17
f5
fc
a7
de
02
d9
38
1c
e3
d6
3e
cd
52
d1
0d
a3
d5
e6
d2
38
f3
ca
d7
34
0b
28
64
c9
0f
fe
3b
56
ee
00
b7
f9
e0
18
1f
4c
28
d4
04
e7
5e
ef
44
e0
32
11
f4
de
c9
be
ad
2e
fc
eb
00
27
15
38
e4
b3
44
b5
41
dc
3f
d8
22
f0
a7
d0
02
c3
2b
0c
60
cf
d2
0b
3b
cd
ee
ee
d0
e8
22
13
02
1a
c4
19
4f
10
2a
f5
f0
16
af
d9
10
2e
17
da
b6
55
ef
39
01
37
f4
07
e9
0a
37
0c
84
39
41
d7
39
08
66
25
e7
16
f6
fc
a6
de
02
d8
38
1c
e2
d6
3f
cd
53
d0
0e
a2
d4
e5
d0
38
f2
ca
d4
35
0d
27
65
c9
0f
00
3b
56
ee
ff
b7
f9
e0
17
1f
4d
28
d4
05
e6
61
ef
45
de
30
0f
f4
dc
c8
be
ad
2f
fc
ea
00
26
14
38
e4
b3
43
b7
42
dd
40
d8
21
f2
a8
d2
01
c5
2b
0e
62
ce
d2
0a
3a
ce
ed
ee
d0
e9
21
12
01
1a
c3
19
4f
10
29
f6
ef
16
b1
d8
10
2e
16
da
b7
54
ef
38
02
36
f6
07
e8
0a
39
0d
84
39
40
d6
39
08
67
25
e5
16
f6
fc
a7
dd
02
d8
39
1c
e2
d7
3f
cf
54
d1
0e
a2
d3
e5
d2
38
f2
cb
d7
36
0b
28
63
c9
0e
fd
3b
55
ed
ff
b6
f9
e0
17
1e
4c
29
d4
06
e7
5f
f0
44
de
30
11
f4
dd
c7
be
ad
2f
fc
eb
ff
25
14
37
e4
b2
44
b5
41
dc
40
d9
22
f0
a8
d1
02
c3
29
0c
61
cf
d4
0b
39
ce
ec
ed
cf
e9
22
14
02
1b
c4
19
4e
10
2a
f6
f1
15
b0
d8
10
2e
15
da
b7
54
ef
39
03
35
f4
08
ea
0a
38
0d
83
39
41
d7
39
0a
67
25
e6
17
f6
fd
a6
de
02
d7
37
1c
e3
d6
3f
cd
55
d1
0d
a2
d2
e5
d0
39
f1
cb
d7
36
0b
27
64
c8
0f
fe
3c
56
ef
fe
b6
f9
e0
14
1e
4e
28
d4
05
e8
5f
ef
46
e0
31
10
f5
de
c9
bf
ad
2f
fa
ea
00
26
14
37
e4
b2
45
b7
42
dd
3e
da
22
f2
a8
d2
01
c3
2a
0c
61
ce
d4
0b
3b
ce
ed
ed
cf
e8
21
13
04
19
c3
1b
4e
0f
2a
f6
f1
15
ae
d8
11
2c
17
da
b4
55
ee
3a
02
36
f5
07
e8
09
36
0e
84
3a
41
d7
38
08
67
26
e5
18
f6
fd
a7
dc
03
d9
38
1b
e4
d6
3e
cf
53
d1
0e
a3
d4
e5
d1
38
f2
ca
d5
36
0b
28
64
c8
0f
ff
3b
55
ee
ff
b8
f9
e0
18
1f
4e
28
d3
07
e6
60
ef
44
df
30
10
f3
dd
c9
bf
ad
2f
fd
e9
02
27
15
38
e4
b2
44
b6
42
dd
3f
d9
22
f2
a8
d2
02
c4
2b
0d
61
ce
d2
0b
3a
cf
ed
ee
d0
e9
23
13
03
1b
c2
1b
4e
10
2a
f8
f1
15
b1
d9
10
2e
14
db
b5
54
ee
39
03
37
f4
08
ea
0a
38
0e
84
38
41
d6
39
09
19
fb
f4
0b
fc
02
ef
10
0e
03
f9
0c
15
0c
fc
00
f2
fc
fa
fa
04
14
06
ee
de
04
f7
ec
f0
f4
ee
0d
03
fb
00
f4
13
f6
09
0d
05
06
27
f7
0c
f0
0d
07
07
10
fa
f8
e6
f2
ee
ff
ee
17
17
11
f4
03
18
f1
f2
f2
ea
14
0d
07
07
ff
01
12
f1
f3
0c
03
f9
f5
15
02
e6
16
09
f4
07
f3
14
04
fe
14
fb
fb
17
08
f4
ec
f0
ef
06
ee
dc
03
14
16
fc
f3
f6
f3
ff
f3
06
0f
ef
08
08
0c
16
fc
ef
e5
fd
f6
1b
13
e8
f2
fa
1c
ed
03
0a
ed
09
03
ef
18
2e
0c
eb
12
17
f5
f3
ff
0b
ec
0a
02
01
02
e2
11
17
1a
f1
04
df
f9
fe
dd
ff
00
1d
f6
14
d4
ec
fa
e9
0e
05
f4
fc
f8
fd
ea
f6
0c
ff
0e
1c
fd
08
24
fb
15
09
e9
fb
f3
fa
15
fe
05
f7
16
07
0a
08
1e
f3
04
1a
eb
09
04
fd
29
01
10
ed
13
e9
f1
14
03
f2
fb
f5
f6
0e
05
fa
08
0c
0a
e6
f4
08
13
0d
f4
06
f8
fa
0b
df
f0
df
f1
10
15
ef
01
fb
12
f4
e6
f9
1a
e9
00
04
e9
e8
eb
f5
f2
f7
f5
fb
f1
f9
0b
ee
03
13
f1
e7
0d
15
f1
f8
12
04
f1
cd
fe
ed
10
fb
0b
29
02
03
08
fd
fd
ee
ff
f5
03
15
0f
0c
0e
fb
03
13
e4
fd
ef
e3
0e
04
0c
08
09
15
fc
03
f7
ea
ee
1a
e1
f2
f0
02
06
0c
1c
14
10
05
e6
f9
12
09
13
06
fc
f4
fa
1c
f0
f0
0f
15
25
e7
f9
10
02
01
10
0a
fc
0e
ef
0b
de
ec
f9
f6
e1
17
0f
09
10
1e
0a
05
0f
13
05
d9
fa
1c
1b
f4
fb
05
f9
0c
ee
f9
f9
e4
0c
fe
05
09
01
10
ed
01
f7
12
ff
fd
0c
f5
1d
0e
03
eb
f8
14
eb
10
0a
f2
e0
12
fb
de
f9
11
f6
f4
23
fd
f0
fa
f7
fc
0f
13
ef
02
12
06
e5
ed
04
fa
1b
02
f9
fe
d9
fa
0c
eb
0d
fd
27
14
f9
10
ec
08
03
f5
f8
11
f7
f6
13
0a
07
27
ee
f7
fd
04
ef
09
f2
03
20
20
00
f7
1b
e1
14
f0
f9
0b
07
ec
01
fb
fb
e4
f3
02
e9
ec
e8
fe
15
17
00
12
e3
f0
e2
1b
fe
17
0f
02
f5
fe
15
00
f1
19
f5
1a
fa
11
11
fe
e7
13
09
19
f8
fa
f5
eb
05
f0
0f
0e
f6
fe
f1
14
ff
13
0e
01
00
0a
0b
14
13
09
03
e2
05
e7
f0
fc
0a
11
fc
03
f5
f1
03
f8
fe
07
fd
01
fa
1d
01
f6
ed
08
0a
f1
0f
fb
f8
e5
f5
ee
08
08
00
14
ea
e8
e9
f1
f0
ed
f2
f2
1e
ee
0e
f3
12
08
18
05
f1
0c
e8
04
13
f3
f5
e9
ee
08
fa
0e
fd
03
04
0a
f5
08
fd
f7
ed
1e
ea
f3
1d
fb
14
16
08
fb
12
e9
0c
f1
11
f1
f7
07
10
fa
f4
0d
08
18
ff
df
f9
13
fa
f7
07
0a
f2
0a
f4
06
0e
ef
f1
e5
d5
df
f7
05
1a
e4
f0
f4
f7
08
01
f4
14
05
ea
01
fa
ea
0c
24
06
14
f3
fa
12
05
e7
09
19
05
f3
f4
06
f5
1d
f6
fe
fb
18
10
0d
0c
fa
02
e9
fb
fc
f7
21
fc
e1
1f
dc
11
13
18
fe
18
1e
12
fa
0e
0d
17
1b
f9
1d
03
f1
17
f5
fd
e6
e5
f6
e8
f6
fe
1c
ef
14
0f
02
00
06
ed
f7
fa
0f
fe
0f
0f
f3
ed
07
0e
0e
fd
08
07
02
e3
16
06
06
f1
03
f1
03
f0
16
e0
08
04
04
09
05
f6
e4
ef
ea
19
09
0c
0d
d9
0e
1b
09
cd
17
f2
eb
fb
23
f7
fa
11
01
07
18
10
fd
eb
01
ee
f3
f7
fc
18
14
fe
fe
04
f9
f2
01
06
fe
01
f0
fa
f4
ef
e7
00
f7
ff
f5
f6
f3
f3
fb
fe
18
0f
01
11
f3
f2
0b
08
14
0d
ff
ea
3a
ee
00
1c
09
fe
0b
e1
06
07
03
07
f9
eb
f0
16
1f
10
1a
08
18
dc
03
0f
02
f7
fb
01
fd
dd
ef
26
e2
06
ed
1d
20
14
0e
0c
f8
fe
10
10
da
f8
ee
d1
17
e2
e9
f3
07
08
03
23
16
09
0f
e4
15
f2
f6
e3
f6
fb
eb
13
f3
ed
11
d1
13
14
eb
e6
fb
14
17
ec
07
0c
10
03
14
f3
06
0e
f8
f2
e5
ef
25
1f
ef
fd
1d
fd
fa
0c
02
e7
12
fe
ee
27
f2
11
f2
03
09
08
11
fa
10
ef
f7
1e
18
df
03
f1
fa
12
e9
fb
f3
e9
1a
fe
16
0c
0d
ed
17
ef
f0
04
ef
0b
f9
fe
0b
11
ee
0d
13
07
f0
ec
09
09
05
f1
fe
00
f8
0e
0e
02
13
0a
13
fe
f0
f5
fc
fb
0f
12
fd
f0
0b
f0
f4
00
f6
f1
14
f8
0c
f1
fa
e9
02
15
fb
18
f8
09
17
17
07
19
f3
eb
f3
03
10
0e
02
0d
12
05
f2
0a
f4
eb
1c
05
11
fc
14
09
0c
f9
03
fe
f1
fa
07
10
f5
00
f6
fa
ed
16
f5
0a
0f
ff
fa
fd
00
0b
e6
f9
02
f2
10
fe
ff
f3
fa
f1
f2
f0
12
fd
f4
13
11
fc
f2
fa
f4
0f
1b
18
f3
f1
09
0f
fc
f5
f8
fd
09
e4
1a
f1
f3
f9
06
09
f5
fd
16
ed
04
0d
0b
ff
fc
17
fa
15
e6
ee
f6
e3
16
10
04
ef
0f
0e
0a
eb
e6
ef
fd
0a
02
ff
f3
13
0b
18
06
08
e2
0b
0a
1e
0b
e6
e8
25
02
0e
10
e4
ee
ed
ed
1b
f2
05
09
0b
0b
02
f2
0b
e7
eb
02
1c
f9
fe
00
db
ee
1b
1f
e9
0a
1f
00
09
fe
d8
04
12
f5
cd
fb
f2
19
e6
1d
0d
02
09
da
0b
eb
11
ef
1f
28
3b
0c
e7
1d
d6
12
00
0d
0d
fe
fc
10
ec
ea
da
f3
13
04
fd
0a
16
ea
f4
e1
ea
fd
0c
fd
f3
f8
e1
11
f2
16
0e
06
f1
04
0b
01
1f
1f
ff
f9
19
03
02
f9
eb
15
db
19
1e
ed
f6
f4
d5
11
eb
1f
19
24
e8
f0
f8
f8
05
06
f1
08
08
c4
20
00
02
00
11
02
ed
f3
07
12
16
fa
e9
0c
ce
15
07
ee
06
f8
f9
24
0a
ff
ca
00
f8
ec
f6
07
25
f7
2b
ed
0e
13
10
2a
ea
df
17
fd
eb
fc
f5
16
08
0d
05
ee
e6
ea
f4
18
f6
2c
ed
f8
f8
15
f1
0e
fe
e1
02
14
f2
14
f8
17
f9
fa
1a
e3
d6
09
11
ec
02
1b
0e
ef
e8
ea
e3
f6
f9
18
08
ec
00
06
f5
e2
1c
f8
0a
16
1b
07
0d
fb
e7
fb
0c
dd
04
0b
18
e9
0d
ea
09
ea
0e
14
14
f1
da
ed
f7
26
10
dd
1f
19
12
00
f1
18
da
f6
f4
0d
01
fe
00
0f
11
05
ef
e8
12
08
eb
19
eb
f4
f2
fc
08
0b
08
08
ea
04
26
12
17
f2
17
10
03
07
0d
e9
04
f4
08
02
00
fc
f2
07
f9
0a
f3
fb
ea
10
00
10
09
f5
fe
19
f0
f3
03
18
12
ed
08
0a
e9
03
16
07
13
fc
01
17
00
17
11
04
02
1a
0c
1f
e8
e8
02
18
f2
06
0b
f5
10
04
ef
e9
e4
fa
eb
ee
18
05
ee
ea
f0
ee
fa
07
0d
e3
f1
f6
e6
e4
fb
f5
0a
fd
ef
05
05
13
11
f7
13
05
10
08
f7
e9
fc
e8
08
fc
12
ee
16
10
e1
ed
ef
0b
02
fb
ff
01
f8
1e
03
fb
12
1c
16
1f
0c
09
ea
07
00
f7
10
eb
f6
18
06
e3
02
e7
ee
fb
00
dc
fd
0f
f6
f8
0f
05
f7
fd
0e
c9
fc
09
ed
fa
f7
f7
08
2b
fc
19
ec
0d
ee
fa
14
21
f9
0a
f8
07
0e
08
ed
0d
f6
f6
f6
15
e9
15
10
df
fa
f7
06
1e
0c
03
fd
04
f4
e8
0f
f9
14
eb
eb
fa
08
0b
0c
11
06
0b
fc
dc
fd
f9
ff
fb
08
fe
f6
eb
0e
17
06
fe
0b
f3
05
f5
11
00
f6
e0
e3
fe
f2
02
07
f1
e2
f2
11
e9
03
0d
fb
f1
f4
01
f0
ff
f1
06
f4
ff
f2
e6
04
ef
e5
ff
fd
e4
1e
16
04
0f
07
ef
0b
f7
f8
05
e9
f1
01
e6
f3
03
f1
14
fd
06
0e
0d
f9
14
e6
ef
06
1b
16
16
f5
0f
1b
0a
18
fe
09
f1
eb
0e
fc
0b
ea
1a
ff
03
09
00
f2
15
03
f7
11
f8
09
11
0d
0e
0e
fd
0f
03
f9
1f
f4
fc
01
fa
f2
0d
0d
03
e8
f8
1a
08
fd
e3
f2
02
f3
02
1a
00
eb
f3
12
f2
f3
08
15
fa
0d
f9
18
17
eb
17
fc
f1
15
fd
05
03
de
f1
ee
11
0f
0d
0c
ef
06
17
16
19
ee
fa
09
0c
f3
14
0b
f2
08
02
fc
00
f7
e3
e8
21
04
f4
fb
18
12
f6
0a
12
01
e1
29
ff
01
f7
0a
fe
f0
10
ff
f5
18
f9
ee
16
04
f2
ec
05
13
0c
f8
f3
f1
f3
0e
19
fa
0d
0a
ed
ee
f0
f3
f4
ef
ea
ef
ff
fa
08
fa
ed
09
f3
11
15
06
04
fe
08
f9
fd
09
ee
f9
01
00
1b
e7
0c
07
fc
06
08
16
ef
f0
17
f6
f4
03
ee
f0
ef
19
0a
1a
f7
0f
07
fc
e1
11
0a
0b
f4
0b
f3
17
ff
fc
ee
f8
fa
12
df
1e
f2
0a
20
f6
00
f1
22
fa
05
12
06
f4
f8
e5
10
00
f4
0c
17
e9
01
ff
f6
07
f7
ef
f8
0b
e3
00
22
f2
ee
f7
ef
14
01
18
fb
fe
0d
1f
08
23
18
e3
ee
fb
01
f5
ee
f8
04
16
00
1f
0f
07
0d
08
07
f9
fc
ef
08
f8
f8
18
fa
01
ea
eb
ed
14
1c
f1
e1
f7
04
eb
f6
e0
f7
fc
d1
ef
18
0b
e6
05
06
0c
05
14
0f
fb
f6
ff
fb
f8
f5
e9
f2
10
0f
ec
0d
10
18
12
dd
f9
2c
fb
ed
0f
0c
35
0c
12
f6
f9
f4
06
0c
12
0a
01
2d
15
03
f1
e7
fe
e4
17
16
0a
0f
f1
fb
e6
f3
d5
1e
11
06
12
ff
08
f5
e4
18
f1
f2
cc
ec
f6
04
30
f3
05
06
fd
f2
09
df
fc
ea
f2
45
06
d2
ee
eb
ef
00
17
11
14
17
df
0f
18
f0
25
07
ff
f3
0b
f3
02
fc
f4
11
06
d4
1f
e0
fe
e6
f3
25
00
db
15
fa
f6
f3
1c
04
d5
08
09
14
1d
0d
15
f2
e3
01
e7
f9
3d
f4
fa
e6
07
0a
07
25
2e
28
d3
f7
fe
ef
0a
fc
fe
10
ef
ef
3b
f8
e4
f9
0c
ef
ec
fa
ff
11
0e
11
f5
06
f3
f5
f8
0e
12
ed
e6
09
16
16
10
03
e4
06
19
1a
14
ea
ea
f2
00
0a
0d
f5
fa
03
0c
e4
08
06
f3
f9
fb
17
fa
05
0f
11
fd
dc
e7
f5
fc
1a
22
fc
f0
f6
01
f1
11
ed
ec
f9
08
f3
02
fb
f9
01
f0
d2
f9
ee
fa
06
0c
fe
0d
f6
07
10
05
f6
10
09
0a
04
0b
19
0a
fa
0c
f9
16
f3
00
15
e5
14
f8
06
f5
0a
f1
ee
0b
12
f9
f1
04
fd
ec
15
ee
0d
1a
f7
19
e9
0e
23
f4
00
f5
03
e9
04
0f
ec
f5
f4
16
f0
f7
0e
f3
f0
f6
f8
f1
15
f7
09
fd
ea
1d
ef
05
f1
ea
08
e9
05
ef
1f
02
0d
04
0b
f4
fd
f5
08
14
08
06
0b
f5
ff
f1
10
ef
0c
f1
d7
fd
04
00
fd
06
fd
13
0c
01
02
07
08
ef
f6
ec
f8
0f
ef
09
0c
13
fd
e8
12
f6
ea
0a
fd
fe
01
e8
05
ed
1a
09
0e
ea
0b
0c
04
10
02
06
fa
f3
ee
f2
16
05
f2
0c
1b
09
03
f8
0d
fb
f4
f7
e1
13
15
0d
08
13
00
01
0b
ff
f8
0b
f2
00
10
fb
04
01
eb
e3
f4
04
06
ff
fc
07
fb
e3
11
f5
fb
16
06
fb
12
f7
ff
08
10
1c
11
fc
ed
0a
08
ef
ed
22
fb
ec
fb
05
ff
fc
10
0e
f9
18
06
04
f6
f7
fc
0a
01
fd
fe
06
05
fb
0f
f2
1d
03
15
f6
f2
f2
ed
09
0d
f7
f8
e5
f2
fe
14
ff
fa
12
13
0e
13
10
f4
11
1a
f2
f4
ff
ea
fb
1b
f1
f4
ed
08
10
03
02
0d
eb
f8
f5
f6
ee
12
0d
ee
09
0c
12
0a
f7
e2
f3
f4
04
1e
ef
1f
0b
ed
18
fb
f0
df
17
06
f1
ed
fd
1f
ee
0a
e2
08
fc
fc
16
15
12
1c
f6
10
0c
f1
fd
11
03
f5
10
e8
ea
18
ee
fc
fa
19
0a
fc
e2
07
f7
ea
0e
fa
f3
05
05
f5
00
fe
01
fb
14
0b
0b
da
fa
04
0d
f9
fd
10
15
0f
fa
eb
1f
f4
ed
11
06
fa
f7
0a
16
e5
06
ec
01
f0
0d
1b
e3
f9
04
e3
f6
d9
04
f1
fb
01
fc
16
e6
ee
e3
1a
0a
01
df
f9
10
03
e1
ec
1c
f7
13
0c
e5
ec
0a
0e
05
28
e2
0d
f9
f2
1f
11
e6
01
fa
f1
fa
09
f9
ef
f2
0c
16
0d
14
19
f0
ea
ea
16
f7
f9
0a
f1
0f
36
ec
1b
f2
e6
03
e0
ee
06
ef
fa
f2
10
06
f8
0c
13
13
db
f9
f6
db
0e
0d
20
fd
20
e2
f0
08
f6
ed
06
00
08
02
0d
f6
17
f0
03
13
fc
f6
e0
0f
e5
f6
15
f1
df
0d
fe
e5
02
02
13
0e
f4
1b
f0
15
f5
18
18
1d
f2
1b
0f
ed
f1
0b
01
fd
10
07
18
22
0c
fd
06
ff
13
fd
0b
0e
02
e6
1b
0f
fd
de
ed
18
ff
15
1f
d6
f0
03
00
e2
05
17
ea
01
1a
10
17
04
fc
e0
dc
f0
e6
08
1d
e7
ed
f3
16
f4
e3
0d
e9
e4
f4
f5
f2
fa
00
e0
f9
07
1b
13
0d
e7
17
02
03
ef
29
12
0e
03
f8
12
ef
03
07
17
f0
22
ef
0d
06
03
17
eb
05
f9
f4
02
18
04
fe
f2
fb
12
f5
f0
15
01
f1
f8
0a
ec
00
e9
16
fa
f7
09
f7
11
04
e8
fa
1d
13
ec
ff
19
0f
07
f3
00
f3
e6
08
09
08
00
f9
06
21
14
00
0b
fd
0f
13
f6
06
07
ec
09
f8
f7
e7
f0
ee
0e
f5
fb
e2
e9
f3
d6
dc
fa
f7
e9
f4
ec
e5
f3
12
f6
16
f7
07
0f
12
f8
ee
f2
16
f3
1a
14
1d
15
02
e5
0a
f5
ec
f2
df
06
ea
e1
06
2a
e2
e2
04
e1
f0
fd
e1
e0
e2
ea
fb
df
fc
d9
0d
38
10
e4
f9
09
0e
df
08
d7
f8
1e
eb
0a
14
f4
06
f1
ee
06
f7
04
ec
0d
ef
fa
21
02
e5
f0
ee
f3
12
0e
14
0d
0f
28
09
14
e9
1b
06
17
07
3f
bf
20
e3
ec
fe
25
00
ed
f1
14
ed
12
1a
fd
01
0a
07
eb
15
08
10
e0
01
36
f4
19
1b
1a
f8
c7
0f
e1
f2
0f
fb
f5
08
fc
1f
d9
1f
05
0f
11
0a
00
e8
27
f5
17
24
1f
03
f2
15
1a
fe
14
14
e5
f0
0b
10
10
ed
25
fc
f6
f4
18
0c
da
17
09
1a
0c
ef
06
12
f1
f3
15
ef
f2
e2
e7
16
06
17
f6
e3
e9
ed
0c
09
0b
04
f9
01
fc
ee
ea
0a
ec
0f
fb
ee
dc
1e
ec
00
0e
11
ff
17
e2
e7
f2
f4
11
ef
e9
e3
06
f6
fe
14
14
f4
08
f5
03
ec
ea
f0
21
e8
1d
20
0e
0a
e9
22
11
01
e6
ef
00
f9
14
1c
f3
fc
ee
fb
ea
0a
0f
07
07
16
02
f9
14
f3
ed
14
0f
f7
04
f5
09
e8
0a
07
04
11
0c
fa
ff
e3
ff
fa
e8
0d
f0
3c
e5
17
05
e4
fc
23
06
fe
eb
ee
11
f6
22
e0
d2
04
f5
f1
d6
e3
d3
0a
e2
03
1c
fc
17
d4
f5
e6
e2
14
f2
03
d5
f9
f4
28
00
f9
e9
28
1c
d2
e2
20
15
0b
1e
21
fe
02
c4
2b
19
41
27
e2
09
0d
04
ea
b7
04
11
02
3c
e7
e8
d6
23
de
d0
18
ea
1a
d7
07
3a
f4
f1
27
09
17
fa
0f
00
15
20
03
16
ef
02
ea
16
f0
1a
f7
f7
0f
e3
d2
1e
1b
ff
e0
c5
25
e7
1c
0b
17
31
bd
02
f0
25
fe
0a
14
0b
e0
21
f7
67
25
e5
17
f6
fc
a7
dd
02
d7
38
1a
e2
d5
3d
cd
54
d0
0f
a3
d3
e5
d0
38
f2
c9
d5
34
0b
28
64
c9
0e
fe
3a
56
ee
ff
b8
f9
e0
15
1e
4d
29
d3
06
e7
60
ec
46
df
30
10
f4
dc
c9
bd
ad
2e
fb
ea
02
26
14
35
e4
b2
43
b7
41
dd
40
d9
21
f2
a7
d1
02
c4
2b
0e
63
ce
d3
09
3a
ce
ec
ef
ce
e7
21
11
02
1a
c3
1a
4e
12
2a
f6
ef
16
ae
d9
11
2d
15
d9
b5
53
ef
3b
02
37
f5
06
e9
0a
39
0d
83
3a
41
d6
36
08
67
25
e6
18
f6
fd
a7
de
03
d8
3a
1d
e2
d7
3f
d0
54
d2
0f
a3
d4
e6
d0
38
f2
cc
d8
35
0c
28
65
ca
0e
fe
3d
57
ef
00
b8
fa
e1
16
1f
4d
2b
d5
04
e8
60
f0
46
e0
30
12
f5
dd
ca
bf
ad
2f
fc
ed
01
27
14
38
e5
b4
45
b6
42
dd
41
da
23
f1
a8
d1
04
c5
2b
0e
63
cf
d4
0d
3c
ce
ee
ee
cf
e9
24
13
03
1a
c5
1b
4f
12
2c
f8
f2
15
b1
da
11
30
16
da
b6
55
f0
3a
03
36
f6
08
e9
0a
39
0e
84
3a
42
d8
3a
0a
67
26
e6
18
f6
fc
a6
dd
04
d8
39
1c
e3
d7
3e
ce
55
d1
0e
a2
d3
e6
d1
39
f3
ca
d6
35
0c
28
64
c7
0e
fe
3c
56
ee
ff
b7
f9
df
16
1f
4d
29
d5
05
e7
60
f0
44
de
31
10
f4
dc
c9
bf
ad
2d
fc
ea
01
26
14
38
e3
b2
43
b7
41
dc
40
d9
22
f1
a8
d2
03
c3
2a
0d
61
cf
d3
0c
39
ce
ee
ee
d0
e8
21
14
02
18
c2
1a
4e
0f
29
f5
f0
15
af
d9
11
2e
15
d9
b6
56
ef
38
02
37
f5
07
e8
0a
39
0d
82
39
41
d5
39
0a
66
24
e5
17
f4
fc
a7
dc
02
d8
39
1c
e2
d6
3d
cf
54
d0
0e
a2
d3
e5
d1
37
f2
cb
d4
35
0b
27
65
c8
0e
fe
3c
55
ec
ff
b8
f9
e1
16
1e
4c
29
d2
06
e7
5f
ef
45
df
2f
10
f4
dc
c7
be
ad
2e
fb
ea
00
28
14
36
e4
b1
43
b4
40
dc
3f
d9
21
f0
a8
d1
02
c4
2a
0e
63
ce
d1
0b
3a
ce
ed
ee
d0
e8
22
11
02
1a
c3
19
4f
10
28
f7
f0
15
b0
d8
10
2f
15
d8
b5
53
ed
39
02
36
f5
06
e9
0a
37
0d
82
37
41
d5
38
09
65
25
e6
17
f5
fc
a7
dd
01
d8
39
1c
e2
d7
3f
d0
55
d1
0c
a2
d2
e6
d2
37
f1
cb
d6
36
0c
27
64
ca
0e
fe
3a
55
ee
00
b7
f9
e1
16
20
4c
2a
d5
05
e8
60
ef
44
df
30
11
f5
db
c9
bf
ad
2f
fc
eb
00
27
15
38
e4
b3
44
b7
40
dc
41
d9
24
f1
a7
d2
03
c5
2b
0d
62
cf
d2
0b
3a
ce
ee
ee
cf
e7
22
13
03
1b
c4
18
4f
0f
29
f8
f0
14
b1
d9
10
2e
14
da
b6
53
ef
39
03
36
f4
06
e9
0a
38
0d
84
39
42
d6
3a
09
67
26
e7
18
f6
fc
a8
df
01
d8
39
1c
e4
d6
3f
cf
52
d1
0f
a3
d3
e6
d1
37
f2
cb
d8
36
0b
28
65
ca
0f
fe
3a
58
ee
ff
b6
fa
e0
15
1e
4d
2b
d3
05
e7
61
ef
45
df
31
11
f4
de
c8
be
ac
2e
fb
e9
00
26
14
37
e4
b2
44
b7
41
dd
3f
da
22
f2
a8
d2
03
c5
2a
0c
62
ce
d3
0c
3b
cd
ec
ed
d0
e9
20
13
00
1a
c4
1b
4e
11
2a
f6
f0
16
af
d9
10
2e
18
da
b7
54
f0
3c
04
38
f4
08
ea
09
38
0d
83
39
41
d7
38
09
67
25
e6
17
f5
fc
a7
de
02
d8
38
1b
e3
d7
3e
cd
54
d2
0d
a2
d4
e4
d1
39
f0
cb
d6
35
0d
27
64
c9
0e
ff
3b
55
ed
ff
b7
fa
e0
16
1e
4c
29
d4
05
e7
5f
ef
44
df
2f
10
f5
db
c9
bf
ad
2d
fe
e9
01
27
14
36
e2
b2
42
b6
42
de
40
da
20
f2
a8
d1
02
c6
2a
0d
62
ce
d4
0a
39
cd
ec
ee
d1
e7
22
12
02
1a
c3
19
4f
12
29
f6
ee
15
af
d7
11
2b
15
da
b5
55
ee
39
03
35
f5
05
e8
08
38
0c
83
39
42
d5
38
09
67
25
e4
17
f6
fd
a7
de
03
d8
39
1b
e2
d7
3e
ce
54
d0
0d
a3
d3
e5
d1
39
f3
cb
d5
35
0c
29
64
ca
0e
fd
3c
55
ed
01
b7
f9
e0
16
1e
4d
29
d2
04
e7
5f
ee
44
de
30
12
f4
dd
c9
be
ad
2d
fd
eb
01
27
16
37
e3
b3
43
b4
42
dc
40
d9
22
f1
a8
d2
03
c2
29
0e
62
d0
d3
0b
3a
ce
ed
ee
ce
e9
22
12
02
1a
c5
1a
4e
11
2a
f7
f0
15
b0
d9
10
2d
14
d9
b5
55
ef
39
02
37
f4
07
e9
0a
37
0d
82
39
41
d6
38
09
67
26
e8
18
f7
fc
a7
de
03
d7
38
1d
e3
d7
3f
cf
54
d0
0f
a2
d4
e5
d1
36
f2
cb
d7
35
0c
29
65
ca
0f
ff
3b
56
ee
00
b6
f9
e0
15
1f
4d
2a
d4
06
e7
60
ef
45
de
32
11
f5
dd
c9
be
ad
2f
fb
e9
01
27
14
39
e4
b2
44
b7
41
de
41
da
23
f3
a8
d2
01
c6
2a
0e
62
d0
d3
0c
3a
d0
ec
ee
d0
e9
22
13
03
1a
c4
1a
4e
11
2a
f7
f1
14
b1
d9
11
2d
15
da
b6
54
ef
3b
04
37
f4
07
ea
09
39
0d
83
3a
41
d7
38
09
66
24
e6
18
f4
fc
a7
dc
00
d8
38
1c
e2
d6
3f
ce
52
d1
0e
a2
d3
e4
d1
38
f2
ca
d6
35
0b
27
64
c8
0f
fd
3a
56
ed
fe
b7
f8
df
15
1e
4d
29
d3
05
e7
61
ef
45
df
31
0f
f4
db
c8
bd
ac
2d
fa
e8
01
26
14
36
e3
b2
43
b7
3f
dc
3e
d8
22
f1
a7
d2
01
c3
2a
0c
61
cf
d2
0b
3a
cd
ec
ee
d0
e8
22
13
01
19
c4
19
4c
0f
29
f6
ee
16
af
d8
10
2c
15
d9
b5
55
f0
3a
03
37
f4
06
e9
09
38
0d
83
39
40
d5
39
07
66
26
e6
17
f6
fc
a8
df
02
d9
37
1d
e3
d6
3f
ce
54
d0
0f
a3
d4
e5
d0
38
f2
cb
d8
34
0c
27
63
cb
0f
ff
3b
56
ee
00
b6
fa
e1
16
1e
4d
29
d2
05
e7
60
ef
45
e0
2f
0f
f5
de
c9
bf
ad
2f
fd
eb
01
26
15
37
e4
b2
43
b6
43
dd
40
da
22
f2
a7
d1
03
c4
2a
0d
62
cd
d3
0c
3b
cd
ed
ee
d0
e9
21
12
01
1a
c4
19
50
11
2a
f7
f1
15
b0
da
10
2f
15
da
b4
55
f0
3a
02
37
f5
08
e9
0a
38
0e
84
3a
42
d7
3a
09
67
25
e6
16
f5
fd
a5
dd
02
d9
39
1a
e3
d7
3e
ce
54
d0
0e
a3
d2
e6
d1
38
f2
ca
d6
36
0c
28
65
c8
0e
fd
3c
56
ed
fe
b5
f8
e0
16
1e
4e
29
d3
04
e7
60
ef
44
de
30
12
f5
dc
c9
be
ae
2e
fb
ea
00
27
14
37
e4
b2
43
b4
41
dc
3f
d8
21
f0
a8
cf
03
c4
2a
0c
60
d0
d4
0b
39
ce
ec
ee
cf
ea
21
13
02
19
c3
1a
4f
10
2a
f6
ef
15
af
d8
11
2d
15
d8
b5
56
ef
39
02
36
f4
07
e8
0a
37
0d
83
39
40
d7
38
08
67
26
e7
17
f5
fc
a6
dd
02
d9
38
1b
e4
d6
3e
ce
53
d1
0e
a2
d4
e5
d1
37
f3
ca
d7
36
0c
27
65
c8
0e
fe
3a
56
ee
ff
b6
fa
df
15
1f
4d
29
d3
06
e7
61
ef
44
df
2f
11
f4
dc
c9
bf
ad
2e
fa
e8
01
26
15
38
e5
b3
44
b5
40
dd
3f
d9
23
f1
a7
d1
02
c5
29
0d
61
ce
d4
0b
3a
cd
ec
ee
cf
e9
21
13
01
1a
c3
19
4e
10
2a
f6
f0
16
b0
d8
11
2d
17
da
b6
55
f0
39
02
37
f4
08
e9
09
39
0e
83
39
3f
d6
38
09
65
25
e5
17
f4
fb
a6
de
01
d7
39
1b
e3
d7
3e
ce
55
d0
0c
a3
d3
e4
d1
38
f1
c9
d4
34
0d
27
65
c9
0f
fd
3a
54
ed
fe
b6
f8
e0
14
1e
4d
2a
d3
06
e7
60
ee
45
dd
31
10
f5
dc
c8
bf
ad
2e
fb
e9
00
25
14
36
e3
b2
42
b5
41
dc
40
da
21
f1
a7
d2
02
c4
29
0e
62
cf
d2
0a
39
cf
ec
ed
d0
e8
21
12
01
1a
c5
19
4f
0e
2a
f5
f0
14
ae
d8
11
2c
15
da
b6
53
f0
39
02
35
f4
07
e9
08
38
0d
82
37
41
d5
38
08
68
24
e6
17
f6
fd
a7
de
02
da
39
1b
e2
d6
3f
cd
54
d1
0e
a1
d2
e5
d0
38
f1
cb
d6
35
0c
28
66
c8
0f
fe
3a
56
ed
00
b7
f9
e0
17
1e
4e
29
d3
05
e7
5f
ee
44
df
30
12
f4
dc
c9
be
ad
2f
fc
eb
01
26
15
37
e5
b3
43
b6
42
db
3f
d8
22
f2
a9
d2
02
c4
2a
0c
61
cf
d4
0b
3b
ce
ed
ee
d0
e8
21
12
02
1a
c3
1b
4f
11
2a
f7
f0
16
b0
d8
10
2c
17
da
b5
54
ee
39
02
36
f5
08
e9
09
35
0d
84
3a
42
d7
37
08
67
25
e6
17
f5
fd
a6
dd
01
da
38
1b
e4
d7
3e
cd
54
d0
0e
a2
d3
e4
d1
38
f2
ca
d6
35
0c
26
65
c8
0f
ff
3b
55
ed
00
b6
f9
e0
16
1f
4c
29
d3
05
e7
5f
ee
45
e0
2f
10
f4
dc
c8
be
ad
2e
fc
ea
00
26
14
36
e4
b1
43
b5
41
dc
40
d9
22
f2
a8
d0
03
c4
29
0e
61
cf
d3
0a
3a
ce
ed
ee
ce
e8
22
13
02
1a
c2
1a
50
10
28
f7
f0
16
b0
da
11
2e
15
d9
b5
55
ef
38
01
35
f4
08
e9
0a
38
0d
83
3a
42
d5
38
0a
67
25
e4
19
f6
fc
a7
de
02
d8
39
1d
e2
d8
3e
ce
53
d1
0e
a3
d4
e5
d0
39
f2
cb
d6
34
0c
27
63
ca
0f
fe
3b
56
ed
ff
b6
f9
e1
16
1f
4e
29
d3
06
e7
60
ee
45
df
2e
10
f4
dd
c9
bf
ac
2d
fd
e9
01
26
14
37
e6
b2
45
b5
41
dd
3f
d8
21
f2
a8
d1
02
c4
2b
0d
61
ce
d3
0d
3a
ce
ed
ef
d0
e9
22
13
01
1b
c5
1b
4e
12
2c
f7
f0
15
af
d8
11
2d
16
da
b5
55
ef
39
02
37
f6
07
ea
09
38
0e
83
3a
42
d7
38
08
69
24
e7
17
f6
fd
a7
dd
02
d9
39
1a
e3
d6
3e
ce
54
d0
0e
a2
d5
e5
d3
38
f3
ca
d7
36
0b
28
65
c7
0f
fd
3c
56
ef
ff
b8
fa
e0
15
1f
4d
28
d2
06
e8
5d
ee
45
df
30
11
f5
dc
c9
be
ad
30
fc
e9
02
27
15
37
e5
b3
43
b6
42
dc
3f
d8
23
f1
a8
d2
02
c3
2a
0d
61
cf
d4
0b
3b
ce
ec
ee
cf
e9
21
13
02
19
c3
19
4f
11
2b
f6
ef
16
af
d9
10
2d
16
da
b5
56
ee
39
03
37
f3
08
ea
0a
37
0e
83
39
40
d7
38
09
65
25
e5
17
f6
fb
a6
dd
02
d7
38
1c
e1
d7
3e
ce
53
d0
0e
a3
d4
e5
d1
38
f2
c9
d6
35
0c
27
64
c8
0f
fd
3b
56
ee
ff
b8
f9
df
16
1e
4c
29
d4
06
e7
61
ee
45
dd
31
10
f5
db
ca
be
ad
2d
fb
e9
01
26
14
37
e4
b2
43
b6
41
de
40
db
22
f1
a7
d0
02
c4
2b
0d
63
cf
d2
0b
3a
ce
ed
ee
cf
e9
22
13
04
1a
c3
1b
4d
10
2a
f7
ef
14
b1
d8
12
2e
14
da
b6
55
ef
3c
03
37
f6
07
e9
08
38
0d
83
39
40
d7
39
07
66
25
e6
17
f5
fc
a6
df
02
d7
37
1d
e4
d7
3e
cf
54
d0
0c
a4
d5
e5
d1
37
f2
cb
d7
35
0b
26
64
c8
0e
fe
3b
56
ef
ff
b7
f9
e0
15
1e
4c
29
d3
06
e7
5f
ee
44
e0
2f
10
f5
dc
c9
bf
ac
2f
fc
e8
01
27
15
37
e4
b2
44
b7
41
dd
3f
db
21
f1
a7
d0
01
c3
2a
0d
63
cf
d4
0b
3a
cd
ed
ee
d0
e9
1f
14
02
1a
c3
1a
4f
10
2a
f8
f0
15
af
d7
12
2e
15
db
b6
55
f0
3b
02
36
f4
07
e8
0a
38
0e
84
39
41
d6
39
09
68
24
e6
16
f6
fc
a9
dd
01
d9
38
1b
e4
d6
3d
ce
52
d0
0d
a2
d3
e5
d1
38
f2
cb
d7
35
0c
27
64
c8
0f
fd
3b
56
ed
ff
b6
f8
e0
16
1f
4d
2a
d3
04
e8
5e
ee
44
e0
31
10
f4
dd
c8
be
ad
2e
fb
e9
00
27
15
37
e2
b2
43
b4
41
dc
3f
d9
22
f0
a7
d0
02
c3
28
0d
62
cf
d3
0a
3b
ce
ec
ed
cf
e9
22
13
02
1a
c4
19
4e
10
29
f7
f1
14
b1
d8
10
2d
15
da
b4
54
ee
39
03
36
f2
08
e9
08
36
0d
84
3a
41
d6
39
08
67
26
e6
19
f6
fd
a7
de
03
d8
38
1c
e3
d7
3e
ce
54
d1
0e
a3
d4
e5
d0
38
f2
ca
d7
35
0d
28
64
cb
0f
ff
3a
57
ee
00
b6
f9
e0
17
1f
4e
2a
d4
05
e7
60
f0
45
df
30
10
f5
dc
c9
bf
ad
2e
fd
ea
00
27
15
38
e5
b2
44
b6
42
dd
40
d9
22
f1
a8
d0
03
c4
2a
0f
61
d0
d3
0b
3b
ce
ed
ef
cf
e9
21
13
02
1a
c3
1a
4e
13
2a
f8
f1
15
b1
d9
11
2d
15
da
b4
55
ef
3a
02
37
f4
07
ea
09
39
0d
84
3b
42
d7
37
09
67
26
e6
18
f5
fc
a7
de
03
d9
38
1c
e3
d8
3f
ce
53
d1
0f
a3
d4
e5
d1
39
f2
cc
d6
35
0e
27
65
c9
0f
ff
3c
55
ec
00
b6
f9
e0
16
1f
4e
29
d4
06
e7
60
ef
45
df
30
0f
f5
dd
c8
c0
ad
2e
fd
e9
01
27
15
38
e3
b3
44
b8
43
dd
3f
d9
22
f2
a8
d2
02
c4
2a
0e
62
d0
d3
0a
3b
ce
ed
ee
d1
e9
21
14
03
1b
c4
1a
4f
10
2a
f8
f0
16
b1
d9
10
2e
16
da
b6
56
f0
39
03
37
f4
07
e8
09
38
0e
83
39
42
d6
39
09
67
25
e5
17
f5
fc
a7
dd
02
d8
38
1a
e3
d6
3d
cd
53
d1
0d
a3
d4
e4
d0
38
f2
ca
d6
35
0c
26
64
c8
0e
fd
3b
55
ec
fd
b7
f9
e0
17
1e
4c
2a
d3
04
e8
60
ee
43
df
30
0f
f5
dd
c9
be
ad
2d
fc
e9
00
27
14
36
e4
b2
43
b6
40
dd
3f
d9
23
f1
a7
cf
02
c3
2a
0e
62
cd
d3
0b
39
cc
ed
ee
d0
e9
23
13
02
1a
c4
1a
4e
11
2a
f6
ef
15
af
d7
12
2c
15
da
b5
55
f0
39
02
35
f5
07
e9
08
38
0d
82
39
41
d6
38
08
68
25
e7
18
f4
fd
a8
de
02
d8
37
1c
e3
d7
3e
cf
52
d1
0d
a1
d4
e6
d2
38
f3
ca
d6
35
0c
28
65
ca
0d
fd
3b
55
ee
ff
b8
fb
df
17
1e
4c
28
d3
05
e6
5f
ee
45
de
2f
10
f6
dd
c8
be
ac
2e
fc
e9
02
28
15
37
e3
b2
43
b7
42
df
3f
d9
22
f2
a8
d1
02
c5
2a
0d
63
cf
d3
0c
39
cd
eb
ee
d0
e9
24
13
03
1a
c2
1a
4d
13
29
f7
ef
15
b1
d8
11
2d
15
db
b5
55
f0
3a
04
35
f3
07
e9
09
38
0d
83
3a
41
d6
38
0a
67
27
e7
18
f6
fc
a8
de
03
d8
38
1c
e3
d6
3f
cf
53
d1
0f
a2
d4
e5
d1
38
f2
cb
d7
34
0d
28
63
c9
0f
ff
3b
57
ef
01
b7
f9
e0
17
1e
4c
29
d4
06
e7
5f
f0
44
e0
30
10
f5
dc
c9
bf
ad
2d
fb
ea
02
27
14
38
e4
b4
44
b6
42
dd
40
da
23
f2
a8
d2
03
c4
2a
0e
62
cf
d5
0b
3b
cf
ec
ee
cf
e9
21
13
03
1a
c3
1a
4e
11
29
f7
f0
16
b0
d8
10
2d
16
db
b5
56
f0
3b
03
37
f4
08
e9
09
3a
0e
82
39
41
d5
39
0a
66
25
e5
16
f4
fb
a6
db
00
d7
36
1a
e1
d6
3d
cd
52
d0
0c
a1
d2
e3
d0
36
f2
c9
d6
34
0b
27
64
c8
0d
fd
3a
55
ed
fe
b6
f7
df
15
1d
4b
29
d2
03
e5
5f
f0
44
dd
2f
0e
f2
db
c7
bd
ac
2d
fa
e8
fe
26
13
36
e3
b0
43
b4
40
db
3e
d8
20
f0
a6
d0
01
c3
2a
0c
60
cd
d1
0a
39
cc
eb
ed
ce
e7
22
12
ff
19
c2
18
4d
10
28
f5
ef
16
af
d7
10
2c
14
da
b4
54
ee
39
02
35
f3
07
e9
08
37
0b
83
38
41
d5
37
07
68
26
e6
17
f5
fd
a5
dd
02
d8
38
1b
e3
d5
3e
ce
53
d1
0d
a3
d3
e4
d1
38
f3
ca
d7
36
0b
27
65
c8
0e
fe
3b
57
ee
00
b8
f9
e1
15
1e
4d
29
d3
06
e7
5f
f0
44
df
30
11
f4
dc
c9
be
ac
30
fc
e9
00
27
14
38
e3
b1
42
b4
42
dc
3f
da
22
f1
a7
d1
03
c4
2b
0d
62
cf
d3
0b
39
cd
ec
ee
d0
e9
21
13
02
19
c3
1b
4f
11
29
f7
f0
16
af
d9
10
2d
15
da
b7
54
ee
3a
02
37
f5
08
e9
0a
37
0c
83
3a
40
d5
38
09
67
25
e6
18
f6
fd
a7
de
02
d8
3a
1c
e4
d6
3f
cf
53
d0
0d
a2
d4
e5
d1
38
f2
cb
d6
36
0c
28
65
c8
0f
fe
3c
57
ec
00
b7
f9
e0
15
1e
4d
29
d2
05
e8
60
ef
45
df
2f
12
f5
dd
c8
bf
ad
2e
fc
ea
00
28
15
38
e5
b3
45
b5
42
dd
3f
d9
21
f1
a8
d1
02
c3
2a
0d
62
cf
d3
0c
3a
ce
ed
ee
d0
e8
21
14
03
1a
c3
19
4e
10
2a
f7
f1
16
af
d9
10
2d
15
da
b5
54
f0
39
02
36
f4
08
e9
09
37
0e
83
39
42
d6
39
09
67
25
e5
18
f5
fb
a7
dd
01
d8
39
1d
e3
d7
3e
ce
54
d0
0c
a3
d2
e7
d1
37
f1
c9
d5
35
0d
27
63
c9
0e
fe
3c
56
ec
fe
b7
f9
e0
14
1e
4d
29
d3
04
e7
61
ee
45
de
2f
0f
f4
dc
c9
bf
ad
2e
fb
e8
00
25
14
38
e4
b3
44
b6
40
dd
3f
d9
22
f2
a7
d2
01
c4
2a
0d
63
ce
d2
0c
3a
ce
ec
ef
d0
e8
20
13
01
1a
c4
1b
4e
10
2a
f6
f0
15
af
d9
11
2f
15
d9
b7
55
ef
38
02
36
f5
06
e8
09
39
0c
81
39
41
d6
3a
09
66
26
e7
16
f6
fc
a7
dd
02
d9
39
1c
e4
d7
3d
ce
54
d1
0e
a2
d3
e6
d1
39
f2
cb
d7
36
0c
26
63
ca
0f
fe
3c
56
ee
00
b6
fa
e0
16
20
4e
2a
d4
06
e8
5f
ee
44
e0
31
11
f5
dc
c7
bf
af
2f
fc
ea
ff
26
15
37
e5
b3
43
b6
43
dd
40
d9
23
f1
a8
d0
03
c4
2a
0e
62
d0
d4
0b
3b
d0
ed
ee
ce
e9
22
15
02
1b
c4
19
4e
11
2a
f8
f2
15
b0
d9
11
2d
15
d9
b5
53
ee
39
02
36
f3
08
ea
09
38
0e
84
3c
43
d7
38
09
68
25
e5
17
f6
fd
aa
dd
02
d7
39
1d
e4
d6
3f
d0
55
d2
0d
a3
d3
e4
d1
37
f1
ca
d7
34
0d
27
63
c8
0e
ff
3c
56
ed
ff
b8
fa
df
16
1f
4c
29
d4
06
e7
60
f1
45
e2
31
10
f4
dc
c9
be
ac
2e
fc
ea
00
27
14
37
e4
b2
44
b5
42
dd
3f
db
22
f1
a8
d1
03
c3
2a
0e
62
d0
d4
0a
3b
ce
ec
ee
d0
e8
21
12
03
1a
c3
19
4f
13
29
f8
f0
16
af
d8
11
2d
14
d9
b5
55
ef
3b
03
36
f6
07
e8
09
37
0d
83
3a
42
d5
39
0a
69
26
e5
18
f7
fc
a7
dd
03
d9
39
1b
e3
d6
3f
ce
55
d2
0f
a1
d3
e6
d1
38
f2
ca
d6
35
0c
27
65
c7
0f
fe
3b
56
ed
ff
b7
fa
df
15
1f
4d
29
d4
05
e7
61
ee
46
e0
30
12
f4
de
ca
be
ab
2f
fb
e9
02
26
15
36
e4
b2
44
b6
42
dd
3f
da
22
f3
a8
d3
03
c3
29
0d
62
ce
d4
0b
3a
ce
ed
ee
cf
e8
23
13
02
19
c4
1a
4f
10
2a
f7
f0
16
af
da
11
2e
16
da
b6
54
ef
39
02
38
f5
08
e8
08
37
0d
83
3a
42
d6
38
0a
67
25
e7
17
f6
fd
a6
de
01
d9
39
1c
e2
d7
3f
ce
54
d1
0d
a2
d5
e4
d2
37
f2
ca
d7
35
0c
28
66
c9
0e
fe
3c
56
ec
fe
b5
f9
e1
15
1e
4d
2a
d2
04
e7
60
ef
44
df
31
10
f3
dc
c9
be
ac
2e
fb
ea
02
27
13
37
e4
b3
43
b6
42
db
3f
d9
23
f2
a7
d1
02
c4
29
0d
62
cf
d4
0c
3a
ce
ec
ed
d0
ea
1f
13
02
19
c3
1a
4e
10
29
f7
f0
16
b0
d9
10
2d
16
d9
b5
55
ef
3a
02
36
f4
07
e9
09
37
0c
84
3a
42
d5
39
09
67
25
e6
17
f5
fc
a6
dd
01
d9
39
1c
e4
d7
3f
ce
54
d1
0e
a3
d2
e5
d2
3a
f4
cc
d7
35
0d
27
66
c9
0f
ff
3c
56
ee
ff
b7
f8
e1
15
1e
4d
2a
d4
05
e8
60
f0
46
df
30
10
f5
dc
c9
be
ac
2f
fb
ea
ff
27
14
36
e4
b3
45
b6
42
dd
3f
d9
22
f1
a7
d2
03
c5
2a
0f
62
d0
d3
0c
3b
cd
ed
ee
cf
ea
23
13
03
1a
c3
1b
4e
10
2a
f6
f2
15
b1
d9
11
2e
16
db
b6
55
ef
3b
02
36
f4
08
ea
0a
37
0d
83
3a
41
d6
39
09
68
25
e5
18
f5
fb
a7
db
03
da
38
1c
e3
d6
3e
cd
54
d1
0f
a2
d2
e5
d1
38
f2
c9
d6
35
0c
28
62
c9
0e
ff
3a
57
ed
ff
b7
f8
e0
15
20
4c
28
d4
04
e6
60
ef
44
df
31
10
f5
dd
c8
bd
ad
2e
fb
e9
00
26
13
37
e3
b1
44
b6
41
dc
3f
d8
22
f2
a7
d1
03
c4
2a
0c
61
cd
d3
0b
39
cd
eb
ee
d0
e8
22
13
02
1a
c3
19
4e
11
29
f6
ef
16
af
d9
0f
2e
14
d8
b5
55
f0
39
02
36
f3
06
e9
0a
38
0c
84
39
41
d5
37
08
66
25
e7
18
f6
fc
a7
de
01
d7
39
1b
e3
d6
3f
cf
53
d1
0d
a2
d4
e4
d1
36
f1
cb
d6
35
0c
27
66
ca
0e
fd
3a
55
ee
ff
b7
f9
e2
15
1e
4c
29
d3
05
e6
60
ef
44
e0
30
11
f4
dc
ca
be
ac
2e
fc
ea
02
27
14
38
e4
b3
43
b6
41
dc
3f
da
22
f1
a8
d1
03
c5
2a
0d
62
ce
d3
0a
3b
ce
ed
ee
d0
e9
21
12
00
19
c4
18
4f
10
29
f7
ee
15
af
d9
11
2e
17
db
b5
54
f0
39
02
37
f5
07
e9
09
39
0d
84
38
42
d6
39
08
66
26
e6
18
f6
fd
a6
df
03
d8
3a
1d
e5
d9
40
ce
55
d1
0e
a5
d2
e5
d2
3a
f2
cb
d7
36
0d
29
66
c9
0f
ff
3b
56
ee
01
b7
f9
e0
17
1e
4d
28
d5
05
e7
60
ef
46
e0
2f
11
f6
de
c9
bf
af
30
fd
eb
02
25
15
38
e4
b3
44
b7
41
dc
40
db
22
f2
a8
d1
02
c4
2b
0c
63
d0
d4
0a
3a
ce
ee
ee
d2
ea
22
15
02
1a
c4
1b
50
10
29
f7
f1
16
b0
d9
12
2e
17
db
b6
54
f0
3a
03
37
f5
07
e9
0a
38
0d
81
38
42
d7
39
09
66
24
e6
17
f6
fc
a6
de
04
d8
39
1b
e3
d7
3e
ce
55
d0
0d
a3
d3
e4
d2
37
f1
cb
d6
35
0c
27
65
c8
0e
fe
3a
55
ed
00
b5
f8
e0
16
1e
4d
2a
d3
05
e7
5f
ef
43
df
31
11
f4
dc
c9
be
ad
2e
fc
ea
01
27
14
37
e3
b3
43
b5
41
dc
40
d9
21
f1
a7
d1
03
c4
29
0d
61
ce
d4
0b
39
ce
ee
ee
d0
ea
22
12
02
1a
c4
1a
4e
0e
2a
f6
f0
15
b1
d8
11
2d
16
d9
b5
55
f0
39
02
36
f5
07
e8
0a
38
0e
83
38
40
d6
38
08
67
25
e5
16
f5
fb
a6
dc
01
d7
38
1c
e3
d5
3c
ce
53
d1
0d
a2
d3
e4
cf
36
f2
c9
d5
35
0b
27
64
c9
0e
fe
3b
56
ed
fd
b7
f8
e0
15
1e
4c
28
d3
06
e6
5f
ee
44
de
2f
0f
f4
dc
c9
be
ac
2d
fb
e8
00
26
13
36
e4
b2
43
b5
3e
de
3e
d9
21
f2
a6
d0
02
c3
29
0d
62
ce
d2
0b
39
cd
ea
ee
cf
e8
21
11
00
19
c3
18
4e
0e
29
f6
ef
15
ad
d7
11
2d
15
da
b4
55
ef
39
00
36
f3
06
e9
08
37
0d
82
38
3f
d5
38
07
67
24
e7
18
f5
fb
a7
de
01
d8
37
1c
e4
d7
3e
cf
54
d1
0d
a3
d2
e5
d1
38
f1
cb
d7
36
0d
27
64
c9
0e
fe
3b
56
ee
01
b7
f9
e0
16
20
4d
28
d5
05
e8
60
ef
45
df
2f
12
f6
dc
c8
be
ad
2f
fc
ea
ff
26
14
37
e5
b3
44
b6
42
de
3f
d9
21
f3
a8
d2
02
c5
2b
0e
61
ce
d3
0c
3a
ce
ed
ef
cf
e7
22
13
03
1b
c4
18
4f
10
2a
f7
ef
16
b0
d9
10
2c
15
d9
b6
54
f0
39
03
36
f5
06
e8
0a
37
0d
84
3a
41
d7
38
08
65
25
e4
16
f5
fc
a5
de
02
d8
38
1d
e2
d6
3d
ce
54
d0
0e
a2
d2
e5
d1
36
f2
c9
d4
34
0a
27
64
c8
0f
fd
3a
55
ed
00
b7
f7
df
15
1e
4c
28
d2
04
e6
60
ed
46
df
30
12
f3
dd
c9
bd
ac
2d
fb
e9
02
26
14
35
e3
b2
44
b5
41
dc
3e
da
21
f2
a7
d1
02
c3
2a
0c
62
cf
d2
0a
3a
cd
ec
ee
ce
e7
20
11
02
19
c3
19
4e
0e
29
f7
f0
15
ad
d9
10
2e
16
d9
b5
54
ef
3a
01
35
f3
06
e8
08
36
0d
82
38
41
d5
39
08
67
25
e5
17
f8
fb
a7
de
02
d8
38
1c
e4
d7
40
cd
53
d0
0d
a4
d3
e5
d0
39
f2
ca
d5
35
0d
28
64
ca
0f
fe
3b
55
ee
00
b5
f9
df
16
1f
4e
29
d4
05
e7
60
ef
45
e0
32
10
f4
dd
c9
be
ac
2f
fd
e9
01
26
15
37
e4
b3
44
b6
43
dd
3f
d9
22
f2
a9
d1
02
c3
29
0d
62
d0
d3
0b
3b
ce
ec
ee
cf
ec
22
14
02
1b
c4
19
4e
12
2b
f8
f1
16
af
da
10
2d
16
d9
b5
55
ef
39
02
37
f5
08
e9
0a
38
0e
83
3b
41
d6
39
09
67
25
e5
18
f5
fc
a7
dd
02
d8
38
1b
e3
d6
3e
ce
54
d1
0e
a2
d4
e4
d0
37
f2
ca
d6
35
0b
27
65
c8
0f
fe
3b
56
ed
ff
b7
f9
e0
15
1f
4d
2a
d3
05
e7
5f
ee
45
e0
2f
10
f4
dc
c9
bf
ac
2e
fc
e9
02
26
16
36
e4
b2
42
b5
40
db
3f
d9
21
f2
a8
d1
02
c5
2a
0d
62
ce
d3
0b
3b
ce
ec
ee
d1
e8
1f
11
ff
19
c4
1a
4f
11
2a
f7
ef
15
ae
d8
10
2d
16
db
b5
54
ef
39
02
36
f4
08
ea
09
38
0d
83
39
41
d6
38
08
67
25
e7
17
f5
fc
a6
dd
01
d7
37
1b
e2
d6
3f
cd
52
d1
0d
a3
d3
e3
d0
36
f1
ca
d6
36
0b
27
65
c8
0e
fd
3b
55
ed
fe
b8
f8
e0
14
1e
4b
29
d3
05
e7
5f
ef
45
df
2e
11
f4
dc
c8
bd
ac
2e
fc
e8
00
25
14
36
e4
b2
43
b5
41
dc
3f
d9
20
f1
a7
d1
02
c4
2b
0d
61
cd
d2
09
3a
cd
eb
ed
d0
e8
22
12
00
19
c2
1a
4e
0f
2a
f6
ef
15
b0
d7
10
2e
16
da
b4
54
ef
39
02
36
f4
08
e7
08
37
0c
82
38
41
d5
39
08
67
24
e5
17
f5
fb
a6
dd
02
d8
39
1c
e2
d6
3e
ce
56
d1
0d
a1
d2
e5
d1
37
f2
ca
d6
35
0b
28
64
c9
0e
fe
3a
55
ec
fe
b7
f8
df
15
1f
4c
27
d3
05
e5
60
ee
44
de
2f
11
f4
dd
c9
bd
ad
2f
fb
e8
01
26
14
38
e4
b3
44
b6
41
db
3f
d9
22
f2
a8
d2
02
c2
29
0c
61
cf
d3
0a
39
cd
ec
ee
d0
e7
21
13
03
1a
c3
18
4f
0f
2b
f6
f1
16
ae
d8
11
2d
15
d9
b4
55
f0
37
01
36
f5
06
e9
09
37
0d
82
38
40
d5
38
08
67
25
e6
16
f6
fc
a7
dd
02
d9
39
1c
e2
d7
3e
cd
52
d0
0e
a2
d3
e6
d1
39
f2
ca
d6
34
0d
27
63
c9
0f
fe
3b
56
ed
ff
b7
f9
e0
16
1f
4d
28
d3
06
e6
60
ee
44
de
30
10
f5
db
c9
be
ad
2d
fd
e9
01
27
14
38
e4
b2
44
b6
41
dd
3f
d9
22
f1
a9
d1
01
c5
2b
0c
62
cf
d3
0b
3a
ce
ed
ee
d0
e9
22
14
02
1b
c4
1a
4e
0e
2a
f6
ee
15
af
d9
11
2e
15
dc
b6
55
f0
3a
02
36
f5
07
e9
09
39
0d
82
3a
40
d6
39
08
66
25
e7
16
f4
fb
a6
dc
01
d8
37
1c
e3
d6
3e
ce
53
d0
0e
a1
d2
e5
d1
38
f3
ca
d6
35
0c
26
65
c9
0e
fe
3a
56
ee
fe
b7
f9
df
17
1f
4c
29
d1
05
e7
60
f0
45
de
30
0f
f4
dd
c8
be
ad
2e
fb
ea
fe
25
14
36
e4
b2
43
b5
40
dc
40
d9
21
f0
a5
d2
03
c3
2b
0e
62
ce
d3
0b
39
cd
ec
ed
cf
e7
22
12
00
1a
c3
18
4f
10
2a
f5
ef
16
b0
d7
10
2d
16
da
b6
54
ef
39
01
34
f4
06
e9
0a
39
0c
84
39
41
d5
39
07
67
25
e6
18
f6
fc
a8
dc
05
da
39
1d
e3
d6
3e
ce
54
d1
0f
a3
d5
e5
d2
37
f2
c8
d7
36
0d
28
64
c9
0f
fe
3a
57
ee
00
b8
f9
df
15
20
4c
29
d3
05
e6
62
f1
45
e0
31
10
f6
dd
c9
bf
ad
2e
fc
ea
01
28
15
37
e5
b2
45
b6
42
dd
3f
da
22
f2
a9
d2
03
c3
29
0d
62
cf
d4
0b
3b
ce
ec
ef
d0
e7
22
14
02
1a
c4
1a
4e
11
2b
f6
f0
17
b1
d9
12
2f
17
db
b5
56
f0
39
02
37
f4
07
ea
0a
39
0f
84
39
42
d6
39
09
66
26
e7
18
f5
fc
a5
de
03
d8
38
1d
e4
d8
3f
cf
54
d1
0c
a3
d5
e5
d1
37
f2
cc
d7
35
0b
28
65
c7
0f
fe
3c
56
ed
00
b7
fa
e0
14
1e
4d
29
d4
04
e8
5f
ed
46
dd
30
11
f6
dd
c7
c1
ae
2f
fc
eb
01
26
15
36
e5
b3
45
b8
42
dc
41
db
20
f2
a9
d1
03
c4
2b
0e
63
d0
d4
0b
3b
cf
ed
ef
cf
e7
20
14
01
1b
c6
19
50
12
2b
f7
f1
17
b1
d9
11
2e
16
da
b7
54
f0
38
01
35
f5
07
ea
0a
39
0e
84
3a
42
d8
37
0a
66
26
e5
18
f5
fb
a7
dc
02
d7
39
1c
e2
d7
3e
ce
53
d0
0e
a3
d3
e7
d2
38
f3
ca
d5
35
0b
27
64
cb
0e
fe
3c
57
ee
00
b7
f9
e0
15
1e
4d
29
d2
05
e7
61
ef
45
df
30
0f
f4
dc
c8
be
ac
2d
fb
e9
01
26
14
37
e4
b1
44
b6
40
dc
3f
db
22
f1
a7
d1
02
c4
2b
0c
63
ce
d3
0c
3a
cd
ec
ee
cf
e9
22
13
01
1b
c5
1a
4e
12
2a
f7
ef
16
af
d8
11
2e
17
d8
b6
55
ef
3a
02
37
f4
06
eb
0a
3a
0d
81
39
41
d6
39
09
65
26
e8
18
f6
fb
a7
dd
02
d6
38
1d
e2
d8
3e
cf
55
d1
0f
a2
d5
e6
d1
37
f1
cb
d7
35
0c
26
63
c7
0e
fe
3c
57
ed
ff
b6
f8
e1
15
1e
4c
2a
d3
04
e7
5e
f0
45
de
2e
0e
f5
dd
c8
bf
ad
2f
fc
ea
01
27
13
37
e4
b2
45
b6
40
dd
40
db
23
f3
a7
d0
02
c3
2a
0e
61
ce
d3
0b
39
cf
ed
ee
ce
e8
21
14
02
1a
c2
19
50
10
29
f8
f1
15
b1
d8
12
2e
14
da
b5
54
ef
3b
03
35
f5
06
e8
08
38
0d
83
39
42
d6
38
0b
67
25
e5
18
f6
fd
a6
de
02
d8
38
1c
e1
d7
3f
ce
55
ce
0e
a2
d3
e5
d0
39
f1
ca
d6
35
0d
29
63
ca
0f
fe
3c
55
ee
ff
b5
f9
e1
15
1e
4d
29
d4
05
e7
5f
ef
45
df
30
10
f5
dd
ca
be
ac
2e
fd
ea
00
26
14
37
e3
b2
43
b4
41
dc
41
d9
20
f2
a7
d2
01
c4
2a
0e
62
cd
d3
0a
3a
cd
ee
ed
cf
e7
21
12
02
19
c3
1a
4f
0f
29
f7
ef
15
ae
da
10
2d
15
d9
b6
55
f0
3a
02
36
f5
06
e7
0a
38
0c
82
3a
42
d5
38
09
68
25
e6
18
f5
fc
a7
dd
02
d9
39
1c
e3
d6
3f
ce
53
d2
0e
a2
d3
e5
d0
37
f2
ca
d7
35
0c
27
65
c8
0e
fc
3b
56
ed
ff
b8
f9
e1
16
1f
4c
29
d4
05
e7
60
ee
46
e1
31
11
f5
dd
c9
be
ac
2e
fb
e9
01
26
15
37
e4
b2
44
b6
43
db
40
da
23
f2
a8
d2
02
c3
2a
0d
62
cf
d3
0b
3b
ce
ed
ed
d0
e8
23
12
03
19
c4
1a
4f
10
2a
f7
f0
15
af
d8
10
2e
17
d9
b6
55
ef
3a
02
36
f5
09
e9
08
37
0e
85
39
42
d7
39
09
68
26
e5
16
f5
fb
a7
dd
02
d7
38
1b
e3
d6
3e
ce
53
d2
0d
a2
d4
e4
d0
37
f2
cb
d7
35
0d
27
65
c9
0e
fe
3a
55
ed
ff
b8
f9
df
16
1f
4c
2b
d5
05
e7
5f
f0
44
de
31
11
f4
dc
c7
be
ac
2d
fc
e9
00
26
14
37
e2
b2
43
b5
41
dd
3e
d9
21
f1
a7
d1
03
c4
2a
0e
61
cf
d2
0b
3a
cd
ec
ed
d0
e9
22
12
02
1a
c4
19
4d
12
2a
f7
ef
15
b0
d7
10
2c
15
d9
b5
55
ef
38
03
36
f4
07
ea
09
37
0c
84
39
40
d5
38
09
67
26
e7
18
f7
fc
a8
dd
03
d7
39
1c
e2
d7
3e
d0
53
d0
0d
a3
d4
e6
d1
36
f2
c9
d5
35
0c
27
64
c9
0e
fe
3c
56
ee
ff
b7
f9
e1
15
1f
4c
29
d3
05
e7
5f
f0
45
e0
31
10
f5
dc
c9
bf
ac
2e
fd
ea
01
28
15
37
e3
b1
43
b6
41
de
3f
da
22
f2
aa
d1
02
c5
2a
0d
62
ce
d2
0b
3a
ce
ec
ee
cf
e8
22
12
00
19
c3
18
4e
11
28
f7
ee
16
ae
da
10
2e
17
dc
b6
54
ee
3b
03
37
f5
07
e9
09
3a
0d
83
3a
42
d6
38
09
67
26
e6
17
f6
fc
a8
de
02
d8
37
1c
e3
d6
3f
ce
53
d0
0c
a4
d2
e6
d1
37
f2
ca
d7
36
0c
28
63
ca
0f
fe
3b
56
ed
ff
b7
fa
e0
15
1e
4c
2a
d3
05
e7
61
ef
45
df
30
10
f5
dd
c9
bf
ad
2e
fb
e8
00
27
15
37
e3
b1
43
b6
42
de
3e
d9
22
f2
a8
d0
03
c4
29
0d
61
cf
d2
0b
3b
ce
eb
ed
d0
e9
20
13
02
1a
c4
1a
4e
10
2a
f6
f0
16
ae
d8
10
2e
15
da
b5
56
ee
3a
02
36
f6
08
e9
09
38
0d
83
3a
41
d6
39
0a
68
26
e6
18
f5
fd
a8
dd
02
d9
38
1b
e4
d6
3d
ce
52
d1
0d
a2
d2
e5
d0
38
f2
cb
d6
35
0b
27
64
c8
0e
fe
3b
55
ed
ff
b7
fa
df
16
1e
4d
29
d3
06
e7
5f
ef
44
e0
2f
10
f4
dd
c9
be
ab
2d
fc
e8
01
27
14
36
e3
b2
43
b6
41
de
3e
d9
21
f2
a8
d1
02
c4
2a
0d
61
ce
d3
0b
3b
cd
ec
ee
d0
e9
21
12
00
1a
c3
1a
4f
10
29
f6
ef
15
ae
d9
10
2c
16
db
b4
55
ef
3a
02
37
f5
07
e8
09
38
0e
82
39
41
d6
38
0a
68
25
e5
17
f5
fd
a6
dd
03
d8
39
1a
e3
d4
3e
cf
54
d1
0d
a2
d4
e3
d1
38
f2
ca
d5
35
0b
28
65
c8
0d
fd
3a
54
ee
ff
b6
f9
df
16
1e
4c
29
d4
05
e6
60
ef
44
df
31
12
f3
de
c9
bf
ab
2e
fc
e9
02
26
14
37
e3
b2
44
b5
42
db
3f
da
21
f1
a9
d2
03
c3
29
0d
62
ce
d3
0a
3a
cd
ec
ee
cf
e8
22
11
02
19
c3
1a
4e
10
29
f7
f0
14
af
d9
10
2d
17
d9
b6
55
ef
38
03
35
f3
09
e9
0a
37
0e
82
37
41
d6
38
09
69
26
e7
18
f6
fd
a9
dc
03
d9
39
1b
e4
d6
3f
ce
54
d1
0f
a3
d4
e5
d1
38
f2
cb
d7
35
0d
28
64
ca
0e
fe
3b
56
ee
fe
b7
f9
e0
18
1f
4d
2a
d4
04
e6
60
f0
44
e0
2f
11
f5
de
ca
be
ad
2f
fe
ea
00
27
14
38
e4
b3
43
b5
42
dd
40
d8
23
f2
a9
d0
03
c3
29
0d
61
cf
d4
09
3a
ce
ed
ef
cf
e9
24
13
03
1a
c3
1a
4f
11
29
f7
ef
15
b1
d9
11
2e
16
da
b6
55
f0
39
03
37
f5
09
e8
09
38
0d
84
39
41
d7
39
0a
68
26
e6
16
f6
fb
a6
dd
02
d9
38
1c
e2
d6
3e
ce
53
d0
0f
a2
d3
e5
d0
38
f1
cb
d5
35
0d
27
64
c8
0e
fe
3a
56
ec
00
b6
f8
df
17
1f
4d
29
d3
05
e7
60
ef
45
de
30
10
f4
dc
c9
be
ad
2e
fb
e9
00
26
14
37
e4
b2
44
b5
3f
dd
3f
d9
24
f2
a8
d1
00
c3
29
0d
61
cf
d3
0a
3b
ce
ec
ee
ce
e8
21
13
04
1a
c4
1a
4d
0e
2a
f8
ef
15
af
d8
11
2d
16
da
b6
55
ef
38
02
35
f3
07
e8
09
37
0d
82
39
40
d5
39
09
67
25
e5
17
f5
fc
a7
dd
01
d8
38
1a
e2
d5
3e
cd
53
cf
0d
a2
d3
e4
d1
36
f3
cb
d5
34
0b
27
65
c9
0e
fe
3b
54
ed
00
b7
f9
e0
15
1e
4c
28
d2
04
e7
5f
ed
45
e0
30
0f
f3
dc
c8
bd
ab
2d
fa
e9
00
26
13
36
e2
b3
43
b4
41
db
3e
d8
21
f1
a6
d1
02
c3
29
0d
61
ce
d2
0a
3a
ce
ed
ec
ce
e8
21
11
02
19
c3
19
4d
10
28
f7
ef
15
ae
d8
0f
2d
17
d8
b4
53
ee
3a
02
36
f4
07
e8
09
37
0c
82
39
40
d4
37
09
67
26
e4
18
f7
fc
a8
df
02
d9
38
1c
e4
d7
3e
ce
53
d2
0d
a4
d4
e5
d1
38
f3
cc
d5
36
0d
27
65
c9
0f
ff
3b
55
ee
ff
b7
f9
e0
16
1e
4e
29
d4
06
e7
61
ee
46
df
2f
11
f4
de
c9
bf
ad
2e
fd
e9
01
26
15
38
e5
b3
45
b6
42
de
40
da
22
f2
a7
d2
03
c4
2c
0e
62
cf
d4
0c
3a
ce
ed
ef
d0
e9
22
13
02
1a
c3
1a
4f
13
2a
f8
f1
15
b1
d8
11
2f
16
db
b6
54
f0
3a
02
37
f5
07
ea
09
38
0e
83
39
43
d6
38
09
67
26
e6
17
f7
fd
a8
de
02
d9
39
1d
e4
d6
3e
ce
55
d0
10
a2
d4
e5
d1
39
f2
cb
d7
34
0d
27
64
c9
0f
ff
3b
56
ee
00
b7
f9
df
18
1f
4e
29
d4
05
e6
5f
f1
46
e0
30
10
f4
dd
c8
be
ad
2d
fc
ea
00
27
15
36
e4
b2
44
b6
41
dd
3f
d8
21
f1
a8
d1
02
c4
2a
0f
60
cf
d4
0b
3b
ce
ee
ee
cf
e8
21
12
02
19
c3
1b
4e
11
2a
f8
f0
16
b0
d8
11
2c
17
da
b5
56
ef
3a
03
36
f4
08
ea
0a
38
0e
84
39
41
d6
38
09
66
26
e6
18
f5
fc
a8
de
01
d8
39
1b
e3
d8
3e
ce
54
d1
0d
a3
d2
e6
d3
39
f1
cc
d7
35
0d
27
66
ca
0f
fd
3a
55
ed
ff
b6
f9
e1
15
1f
4d
2a
d4
05
e6
5f
ed
45
df
2f
13
f5
dd
c9
be
ad
2f
fd
ea
01
26
15
37
e4
b2
44
b6
41
dd
3f
d8
22
f2
a9
d1
04
c4
2b
0d
62
ce
d3
0b
3a
ce
ed
ee
d0
e9
22
13
01
1a
c4
19
50
11
2a
f7
f0
15
b1
d9
11
2e
17
db
b5
54
f0
3a
03
37
f5
07
e9
0a
37
0d
84
39
42
d7
38
08
68
24
e7
18
f6
fd
a7
dd
01
d7
38
1c
e3
d6
3e
ce
54
d1
0e
a2
d4
e4
d0
39
f2
cb
d7
36
0c
29
65
c9
0f
fe
3a
56
ef
ff
b7
f9
e0
16
1f
4d
29
d5
05
e7
60
ef
45
e0
30
10
f5
dc
c9
be
ac
2f
fd
e9
01
27
15
38
e4
b2
43
b7
42
dc
3f
d9
23
f2
a8
d1
02
c4
2a
0d
62
ce
d3
0a
3b
cd
ed
ee
d0
e9
22
12
03
1a
c3
1a
4f
11
2a
f7
f0
15
af
d9
11
2d
16
d9
b4
55
f0
3a
03
37
f5
08
e9
0a
38
0d
85
3a
40
d7
38
08
67
27
e6
16
f5
fb
a5
de
02
d8
37
1b
e2
d6
3e
cf
54
d1
0d
a2
d5
e5
d0
39
f1
cb
d6
34
0c
28
64
c8
0e
fd
3b
56
ee
fe
b6
f9
e1
15
1e
4c
29
d5
04
e7
5e
ee
44
de
31
0f
f4
dd
c8
be
ac
2e
fc
e9
01
28
14
36
e3
b3
43
b7
41
de
41
d9
21
f2
a8
d2
02
c4
2b
0e
61
ce
d4
0b
39
cd
ec
ed
cf
e9
21
11
03
19
c3
19
4f
10
2a
f5
ef
14
ae
d8
10
2d
16
da
b5
56
ef
3a
02
34
f5
06
e7
09
3a
0e
81
39
41
d5
38
09
67
25
e4
17
f5
fd
a6
dd
02
d8
38
1b
e3
d6
3e
ce
54
d0
0e
a2
d3
e5
d1
38
f2
ca
d7
35
0b
28
64
c9
0e
fd
3b
57
ed
00
b7
f8
e1
16
1f
4d
29
d3
03
e7
5f
ef
46
df
2e
12
f5
dc
c8
bd
ad
2f
fc
ec
01
26
15
37
e4
b2
44
b5
41
db
3f
d9
21
f1
a8
d1
02
c4
2b
0d
62
cd
d3
0a
39
cd
ed
ee
cf
e8
21
12
01
1a
c3
1a
4e
10
29
f7
f0
15
af
d9
10
2e
15
da
b4
53
ef
39
02
35
f3
07
e9
0a
38
0d
83
38
40
d6
38
09
66
26
e5
17
f6
fc
a7
df
02
d9
39
1b
e2
d7
3f
ce
54
d0
0e
a3
d4
e5
d1
37
f1
cb
d7
35
0c
28
64
ca
0e
fd
3a
55
ed
ff
b7
f9
e1
17
1f
4d
28
d4
05
e6
61
ee
45
df
30
12
f4
dd
c9
be
ad
2f
fd
eb
01
26
14
37
e6
b4
44
b7
41
de
41
d9
23
f2
a7
d1
03
c4
2b
0c
62
ce
d3
0b
3a
ce
ec
ee
ce
e8
23
12
02
1a
c5
1a
4f
0f
2c
f6
ef
15
af
d9
12
2e
16
da
b7
55
f1
3b
01
36
f5
07
e9
0a
39
0d
82
39
42
d7
39
09
66
23
e5
17
f5
fc
a8
dd
02
d8
37
1c
e3
d6
3d
ce
52
d1
0e
a3
d3
e5
d1
39
f2
ca
d6
34
0b
26
64
c7
0f
fd
3a
56
ed
ff
b5
f9
df
16
1e
4d
29
d3
05
e7
60
ee
44
df
30
10
f5
dd
c8
bf
ad
2d
fb
e9
00
25
14
37
e4
b2
43
b5
41
db
3f
d9
21
f1
a7
cf
03
c1
29
0d
61
cf
d3
0a
3a
ce
ed
ed
cf
e8
20
13
02
19
c2
19
4f
10
27
f7
ef
15
b0
d7
11
2d
17
d8
b5
54
ef
3a
03
36
f4
07
e9
07
36
0d
83
38
40
d6
38
08
66
26
e5
18
f6
fc
a7
de
02
d8
37
1c
e2
d8
3e
cd
53
d3
0f
a4
d3
e5
d1
3a
f4
cb
d6
35
0d
28
64
ca
10
ff
3b
57
ee
00
b7
f8
e0
17
1e
4e
2a
d5
05
e8
5f
f1
46
de
30
11
f5
dd
c8
bf
ac
2f
fd
ea
00
25
14
37
e4
b3
45
b8
42
dd
3f
d9
22
f2
a9
d1
04
c5
2a
0e
62
d0
d4
0b
3c
cc
ec
ee
d0
ea
20
14
00
1b
c3
1a
50
13
2b
f8
f0
16
b0
d9
11
2d
17
db
b6
56
f0
3a
02
38
f6
07
ea
0a
3a
0e
83
3a
42
d6
37
09
66
25
e6
18
f6
fc
a7
de
02
d9
38
1b
e2
d6
3e
ce
54
d0
0e
a2
d2
e7
d1
39
f3
cb
d5
35
0d
28
64
c9
0e
fe
3b
55
ee
ff
b7
fa
e1
16
1e
4d
28
d3
05
e6
61
ee
45
e0
30
11
f4
dd
c9
be
ad
2d
fb
ea
02
28
14
37
e4
b2
43
b5
42
de
40
da
20
f1
a8
d1
03
c5
2b
0e
62
cd
d3
0a
3a
ce
ed
ed
cf
e8
22
12
03
19
c2
19
4f
11
28
f6
ef
15
af
d9
11
2e
16
d8
b5
56
ee
3a
02
37
f5
07
e8
0a
38
0d
83
39
42
d6
39
09
67
26
e6
17
f6
fc
a7
de
02
d8
38
1c
e3
d6
3f
ce
54
d0
0d
a2
d5
e5
d1
38
f2
ca
d6
35
0c
27
64
c9
0e
fe
3b
56
ee
00
b6
fa
e1
15
20
4d
2b
d2
06
e8
60
ee
44
e0
32
10
f4
dd
c9
bf
ac
2e
fb
e9
ff
27
15
37
e5
b2
43
b6
42
dd
41
d9
22
f1
a7
d2
02
c4
2a
0e
63
ce
d2
0b
3b
ce
ee
ee
cf
e8
21
12
02
1a
c5
1a
4f
11
2a
f6
f0
16
af
da
11
2d
16
da
b7
54
ef
39
02
36
f5
07
e8
09
39
0c
83
3b
42
d6
38
08
67
24
e5
18
f6
fc
a7
dd
03
d9
38
1c
e2
d7
3d
cf
52
d0
0e
a3
d3
e5
d1
39
f1
ca
d5
36
0b
27
63
c9
0e
fe
3c
55
ee
00
b7
f9
e0
16
1f
4d
29
d3
05
e7
60
ee
45
df
30
10
f4
dd
c8
be
ad
2e
fd
ea
00
26
14
36
e3
b2
43
b6
42
dd
40
d9
22
f2
a8
d2
02
c4
2a
0c
62
ce
d3
0c
3a
ce
ed
ee
cf
e8
23
13
03
1a
c4
1a
4e
0f
2a
f8
f0
14
b0
d9
10
2d
15
da
b6
55
ef
39
02
36
f4
08
e8
09
38
0d
82
39
42
d7
3a
09
69
25
e7
18
f5
fc
a9
de
02
d8
3a
1c
e3
d7
3e
d0
53
d0
0f
a2
d4
e6
d2
37
f2
cb
d7
36
0c
28
65
c9
0e
fd
3c
58
ee
00
b6
fa
e1
17
1f
4e
2a
d3
06
e7
61
ef
45
df
31
11
f4
de
ca
be
ac
2f
fc
eb
02
27
13
38
e3
b4
43
b6
40
df
41
d9
23
f2
a8
d3
04
c5
2a
0e
62
cf
d4
0d
3a
d0
ec
ee
cf
e8
23
13
03
1a
c5
1a
4d
11
2b
f7
f0
16
af
d9
11
2d
17
da
b7
54
f1
3b
03
37
f5
08
e9
0a
39
0d
82
38
41
d6
39
0b
67
24
e4
17
f5
fc
a6
dd
00
d9
37
1b
e2
d7
3d
cd
54
d1
0e
a1
d2
e4
d1
37
f2
ca
d6
35
0b
27
65
c9
0f
fd
3a
55
eb
fe
b7
f9
e0
18
1f
4c
29
d3
05
e7
60
ef
43
de
30
10
f4
db
c9
be
ac
2e
fb
e8
ff
26
14
36
e5
b2
43
b5
3f
dc
3f
d7
22
f1
a8
d1
02
c4
29
0d
61
ce
d1
0b
3b
cd
ed
ed
cf
e7
21
12
01
19
c4
19
4e
0f
28
f8
ef
15
af
d9
11
2b
15
d9
b4
55
ed
38
02
36
f4
07
e9
09
38
0e
83
39
41
d6
37
09
67
25
e6
17
f6
fc
a6
de
01
d9
38
1b
e3
d6
3e
cf
54
d1
0e
a1
d5
e5
d1
37
f2
ca
d6
35
0b
27
65
c8
0f
fe
3b
57
ee
00
b6
f9
e0
16
1f
4e
29
d3
05
e6
60
ef
44
de
31
11
f3
dd
c9
c0
ac
2f
fc
ea
02
28
16
37
e5
b2
43
b6
41
dc
40
d8
22
f1
a8
d2
03
c4
2a
0d
61
cf
d3
0c
3a
ce
ed
ee
d0
e8
21
11
02
19
c5
18
4e
10
2a
f7
ef
15
af
d9
10
2d
16
da
b4
55
ef
38
03
37
f4
07
e9
0a
37
0f
84
39
40
d7
38
09
67
25
e7
17
f5
fc
a6
dd
02
d8
38
1b
e2
d6
3e
ce
54
d1
0e
a2
d2
e5
d0
37
f2
ca
d6
35
0c
28
64
c9
0e
fd
3a
57
ee
ff
b7
f7
e1
16
1e
4d
2a
d4
04
e7
60
ef
43
df
32
10
f5
dc
ca
bd
ac
2e
fb
e9
01
27
14
37
e3
b1
42
b5
41
dd
40
d9
22
f2
a8
d0
02
c5
2a
0d
60
ce
d3
0a
39
ce
ec
ed
cf
e8
21
13
03
19
c3
19
4e
0e
28
f5
ef
14
af
d8
11
2c
15
db
b5
55
ef
3b
02
36
f4
07
e8
09
37
0c
83
39
41
d5
38
09
67
25
e6
17
f5
fb
a8
df
02
d7
38
1c
e2
d7
3f
ce
54
d2
0e
9f
d2
e6
d2
3b
f1
cb
d6
35
0c
28
66
c9
0f
fe
3b
57
ee
fe
b6
f9
e0
18
1e
4d
2a
d3
05
e8
60
ef
44
de
31
10
f4
dd
c8
bf
ad
2e
fc
e8
01
27
15
38
e4
b2
45
b7
41
dc
3f
d9
22
f2
a7
d2
01
c4
29
0c
62
ce
d2
0b
3a
cd
ed
ed
d1
ea
22
13
02
19
c3
19
4e
10
29
f6
f0
15
af
d7
11
2c
17
db
b5
56
ed
3a
03
37
f5
06
ea
09
36
0e
84
39
41
d6
39
08
66
26
e5
17
f7
fd
a6
de
02
d8
37
1b
e2
d7
3e
cf
54
d1
0d
a3
d3
e6
d1
3a
f2
cb
d7
35
0c
28
63
c9
0e
fe
3b
55
ee
fe
b8
fa
e0
18
1f
4d
27
d4
05
e7
5f
ef
45
e0
30
11
f4
dd
c8
be
ae
2f
fc
eb
01
27
15
38
e4
b3
43
b6
40
dd
3e
d8
22
f1
a9
d1
02
c4
2c
0d
62
ce
d4
0a
3a
cd
ee
ee
d1
ea
22
13
02
1a
c2
1b
4e
11
2a
f7
f1
15
b0
d8
11
2f
16
db
b5
55
ef
3a
03
36
f6
07
e9
0b
38
0d
83
3a
41
d7
39
08
67
26
e5
17
f6
fd
a8
df
02
d8
38
1d
e3
d7
40
ce
54
d0
0f
a3
d4
e5
d1
39
f2
cb
d7
35
0d
29
64
ca
0f
ff
3c
57
ed
ff
b7
fa
e0
17
1e
4d
29
d3
05
e7
61
f0
45
e0
2f
11
f6
dd
ca
bf
ad
2e
fc
ea
02
28
15
38
e4
b3
44
b5
41
dd
40
d9
22
f3
a7
d1
02
c5
2a
0d
61
cf
d4
0b
3b
ce
ed
ee
cf
ea
21
14
04
1a
c3
1b
4e
0f
2a
f8
f1
16
b0
d8
11
2e
14
db
b5
57
f0
3a
02
37
f5
08
e9
09
38
0e
82
39
41
d7
39
0a
67
26
e5
18
f6
fd
a8
df
04
d8
39
1e
e3
d8
40
ce
55
d0
0d
a3
d2
e6
d1
39
f3
cd
d6
35
0d
29
63
ca
0f
ff
3a
56
ee
00
b7
f9
e1
18
20
4e
2a
d4
06
e7
5f
f0
45
e1
31
12
f5
de
c9
bf
ae
2e
fd
eb
01
27
15
38
e4
b1
45
b6
41
de
40
da
21
f1
a7
d1
03
c4
2b
0e
62
d0
d3
0c
3a
cf
ee
ef
d0
e8
22
13
02
1b
c4
1a
4f
13
2a
f9
f1
16
b0
d8
12
2c
15
da
b6
55
ef
3a
02
37
f6
07
e9
0b
38
0d
85
3a
42
d7
38
09
68
26
e5
16
f5
fc
a4
dc
02
d8
38
1a
e4
d6
3c
ce
54
d1
0e
a2
d4
e4
d1
38
f3
ca
d5
35
0b
26
65
c9
0e
fe
3c
54
ee
ff
b7
f9
e0
17
1f
4d
28
d5
05
e7
5f
ee
45
df
31
11
f4
db
c7
be
ad
2f
fc
e9
01
28
14
36
e3
b2
44
b6
41
dd
3e
d7
21
f2
a9
d1
02
c5
2b
0d
60
cf
d2
0a
3a
ce
eb
ee
ce
ea
23
12
03
1a
c3
19
4e
10
28
f7
f0
14
ae
d8
10
2d
15
db
b4
55
ee
3a
02
35
f3
07
ea
09
37
0e
84
39
40
d6
37
09
68
25
e7
18
f6
fd
a8
df
01
d9
39
1b
e4
d6
3e
cf
54
d0
0d
a3
d5
e5
d1
37
f2
cb
d7
36
0c
28
65
c9
0f
ff
3b
55
ee
ff
b8
fa
e1
15
1e
4d
28
d3
06
e6
60
ed
45
e0
2f
11
f5
dd
c9
bf
ad
2f
fd
e9
01
27
16
37
e4
b1
43
b5
41
dd
40
da
22
f2
a8
d1
02
c4
2a
0d
62
ce
d3
0a
39
ce
ed
ee
d0
e8
22
12
02
19
c3
19
50
10
29
f7
ef
15
b0
d9
11
2e
15
db
b5
54
ef
3a
03
37
f5
08
e9
09
38
0d
83
38
42
d6
3a
09
66
26
e6
17
f5
fc
a6
dd
03
d9
39
1c
e4
d7
3e
ce
52
d0
0f
a2
d3
e5
d1
39
f0
ca
d5
36
0c
27
64
c8
0e
fe
3b
56
ec
00
b7
f9
e0
17
1f
4d
2a
d3
05
e7
60
ee
44
e0
31
10
f5
dc
c8
bd
af
2e
fc
eb
01
26
13
36
e3
b2
43
b6
41
dd
3f
d9
23
f2
a7
d1
02
c3
2a
0d
61
ce
d4
0a
3a
ce
ed
ee
d0
e8
21
13
02
1b
c4
19
4f
10
29
f6
f1
16
af
d8
10
2c
16
da
b4
54
ee
39
02
35
f4
06
e9
09
38
0d
83
38
42
d6
39
09
67
26
e6
17
f5
fc
a5
dd
02
d8
38
1b
e3
d7
3e
cf
54
d0
0d
a2
d2
e5
d1
38
f2
cb
d7
35
0c
27
64
c9
0e
fe
3b
56
ee
00
b6
f8
e0
17
1e
4d
29
d4
06
e6
60
ee
45
de
31
0f
f5
dc
c8
be
ad
2e
fc
ea
ff
26
14
36
e4
b2
44
b6
41
dc
40
da
23
f1
a6
d1
03
c3
2b
0e
61
cf
d3
09
38
ce
ec
ee
cf
e8
22
12
03
1a
c3
19
4f
0f
2a
f6
f1
14
af
d7
10
2d
14
da
b5
53
f0
3c
02
35
f4
06
e9
09
38
0d
84
39
41
d5
38
09
68
26
e5
18
f6
fc
a7
dd
03
d8
39
1b
e3
d6
3f
cd
54
d0
0d
a3
d3
e4
d1
38
f2
cb
d6
35
0c
28
65
ca
0f
fe
3b
55
ed
01
b7
fa
df
16
1f
4e
29
d4
05
e9
5f
ee
45
e1
30
11
f5
dc
c9
be
ac
2e
fd
ea
00
26
15
37
e5
b3
43
b6
42
dd
40
d9
23
f2
a8
d2
02
c5
2b
0d
62
ce
d3
0b
3b
ce
ee
ee
d0
e9
22
13
02
1a
c4
19
4e
11
2a
f7
f0
15
b0
d9
10
2c
17
da
b4
54
ef
39
02
37
f4
07
e9
0a
39
0e
82
3a
42
d7
37
09
67
26
e6
18
f6
fc
a7
df
02
d8
3a
1c
e3
d7
3e
cf
54
d2
0e
a3
d3
e6
d1
38
f3
cb
d6
35
0c
28
65
c9
0f
ff
3b
57
ed
ff
b7
f9
e1
16
1f
4e
29
d3
05
e6
61
ee
45
de
30
10
f4
dd
c9
be
ac
2e
fb
eb
01
27
15
38
e4
b3
45
b6
41
de
40
da
22
f2
a8
d2
03
c5
2a
0e
62
ce
d3
0c
3a
ce
ee
ee
d0
ea
23
13
03
1a
c3
19
4e
11
2a
f7
f0
15
b0
d9
11
2e
15
db
b5
55
f0
3a
03
37
f5
07
e9
09
39
0d
83
39
42
d7
3a
09
67
26
e6
18
f4
fc
a7
dd
02
d9
3a
1b
e3
d6
3d
ce
53
d1
0e
a2
d3
e5
d1
38
f3
cb
d5
35
0d
26
66
c9
0e
fd
3b
55
ed
ff
b7
f9
df
15
1f
4d
29
d2
05
e6
60
ee
45
de
2f
11
f4
dc
c8
bf
ad
2e
fb
e8
00
25
15
36
e4
b2
43
b5
42
dd
3e
d9
22
f1
a7
d2
02
c4
29
0d
61
cf
d2
0b
39
cf
ec
ee
cf
e9
22
14
01
19
c4
19
4e
0f
2a
f6
ef
15
b0
d8
10
2d
16
da
b6
54
ef
38
02
36
f3
08
e9
09
38
0d
82
39
42
d6
3a
09
67
25
e6
17
f5
fc
a7
dd
02
d9
38
1c
e3
d7
3e
cf
53
d1
0d
a1
d3
e4
d1
38
f1
ca
d6
35
0c
27
63
c9
0f
fd
3b
56
ed
ff
b7
fa
df
17
1f
4c
2a
d3
05
e6
60
ef
44
de
30
10
f5
dc
c9
bf
ad
2d
fd
e9
ff
26
14
36
e5
b3
43
b6
41
dc
40
d8
22
f0
a8
d1
03
c3
2a
0c
63
ce
d3
0a
3a
ce
ed
ee
d0
e6
21
13
00
1a
c5
19
4f
10
2a
f7
ef
16
b0
d9
10
2d
16
da
b7
54
ef
39
03
35
f4
07
e9
0a
39
0d
83
38
41
d6
38
09
68
26
e6
17
f5
fd
a7
de
02
da
39
1b
e3
d7
3e
ce
53
d2
0e
a3
d4
e5
d1
38
f3
cb
d8
35
0c
28
65
ca
0e
fe
3b
55
ed
ff
b8
f9
e1
16
1f
4d
2a
d3
06
e7
5e
ef
46
e0
2f
11
f5
dd
c9
bf
ae
2e
fc
ea
02
27
15
37
e5
b2
44
b6
40
dd
3e
d7
23
f0
a8
d2
02
c4
2a
0d
61
cf
d3
0c
3c
cc
ec
ee
d0
ea
23
13
00
1a
c3
1a
4e
11
2b
f6
f0
16
b1
d8
10
2e
15
dc
b4
56
f0
39
03
37
f3
08
ea
0a
38
0e
83
39
42
d7
39
09
69
25
e5
16
f7
fc
a6
de
02
d9
39
1c
e3
d7
3e
ce
53
d1
0c
a4
d3
e5
d1
38
f3
ca
d6
35
0c
29
63
c9
0e
fe
3a
56
ed
ff
b7
f8
e0
14
1e
4d
29
d4
06
e6
60
ee
46
df
30
0f
f4
dc
c9
be
ac
2d
fc
e9
01
27
14
37
e3
b1
44
b6
41
dd
3e
d9
22
f2
a8
d1
02
c4
29
0c
61
d0
d3
0b
3a
cd
eb
ee
cf
e9
20
12
01
1a
c4
1a
4e
11
2a
f5
ef
15
ae
d8
10
2e
16
da
b6
55
ef
39
02
36
f5
07
e9
0a
38
0c
82
39
41
d6
38
08
68
25
e6
17
f4
fb
a6
dd
01
d7
38
1c
e3
d7
3d
ce
54
d1
0e
a1
d3
e4
d0
38
f1
ca
d7
35
0c
27
63
c8
0e
fd
3c
57
ec
fe
b6
f9
e0
15
1f
4c
2a
d4
04
e7
5f
ef
44
df
31
0e
f4
dc
c8
be
ac
2e
fb
e9
00
25
13
36
e4
b2
43
b4
40
dc
3f
d8
22
f2
a7
d0
02
c2
29
0c
61
ce
d3
0b
39
ce
ec
ee
cf
e7
21
12
02
19
c4
19
4e
0f
2a
f5
f0
15
ae
d8
10
2d
15
d8
b4
54
ef
39
02
36
f4
07
ea
09
37
0c
83
39
41
d5
38
09
68
26
e6
18
f5
fd
a8
de
02
d9
38
1d
e4
d7
3f
cf
53
d1
0e
a5
d5
e6
d1
38
f2
cb
d6
36
0c
27
65
c9
0f
fe
3b
56
ee
00
b7
fa
e0
17
20
4e
29
d4
05
e7
62
ef
46
e1
30
11
f5
de
c9
be
ad
2e
fc
e9
01
27
15
37
e5
b3
45
b6
43
dd
40
db
22
f3
a8
d3
02
c4
2b
0f
63
d0
d4
0d
3b
ce
ed
ef
d0
e9
22
13
04
1b
c4
1b
4f
12
2a
f9
f0
16
b1
d9
12
2e
16
da
b7
55
f0
3b
03
36
f5
08
ea
09
37
0e
84
3a
42
d7
3a
0a
68
25
e4
16
f6
fb
a7
dd
01
d8
38
1d
e2
d7
3e
ce
53
d0
0d
a2
d3
e5
d0
38
f2
cb
d7
34
0c
27
64
c9
0e
fd
3b
55
ed
fe
b6
f9
e0
16
1e
4d
29
d3
04
e6
61
ef
46
e0
30
10
f4
dd
c9
bd
ab
2e
fb
e9
00
27
14
35
e4
b2
45
b6
41
dd
3f
d9
21
f1
a8
d2
03
c3
2a
0d
63
cf
d3
0b
3b
ce
ec
ee
ce
e8
22
12
02
19
c3
1a
4e
11
2a
f8
f1
15
b0
d9
11
2e
16
d9
b5
54
ef
3b
01
35
f5
06
e9
09
37
0d
84
39
41
d6
38
09
67
25
e6
18
f5
fd
a7
de
02
d8
37
1c
e3
d7
3e
ce
53
d2
0e
a3
d3
e5
d0
39
f2
cb
d6
35
0d
28
65
ca
0e
fe
3b
56
ee
ff
b6
f8
e0
18
20
4d
2a
d6
04
e8
60
ee
45
e0
31
10
f5
dd
c9
bf
ad
2e
fd
ea
00
25
14
38
e4
b3
44
b6
41
dd
41
d9
23
f3
a8
d0
02
c4
2a
0f
60
cf
d3
0a
3c
ce
ed
ee
cf
e9
24
13
03
1b
c4
1b
4e
10
2a
f8
f1
15
b0
d9
11
2d
16
da
b5
54
f0
38
03
36
f4
08
e9
09
38
0d
82
3b
42
d6
39
0a
68
26
e6
18
f6
fc
a7
de
02
d8
38
1c
e3
d7
3f
cf
54
d1
0e
a3
d4
e5
d0
38
f2
cb
d5
34
0d
28
64
c8
0f
fe
3b
56
ee
00
b7
f9
df
15
1f
4e
29
d5
04
e7
5f
ee
46
df
30
10
f5
dd
c9
be
ad
2d
fd
e9
02
27
15
37
e4
b2
43
b7
41
dd
40
d8
22
f3
a7
d1
03
c4
2b
0e
60
cf
d4
0b
3a
ce
ec
ee
cf
e9
21
12
02
1a
c2
19
4f
11
2a
f7
ef
16
af
d9
0f
2e
16
d9
b5
55
f0
3a
02
36
f5
07
e9
09
39
0d
82
39
42
d5
38
0a
66
25
e6
18
f6
fd
a8
dc
03
d7
39
1c
e4
d6
3c
cf
53
d1
0f
a2
d2
e5
d0
38
f2
c9
d5
35
0c
26
63
c9
0e
fd
3c
56
ef
00
b7
f8
df
15
20
4c
29
d3
04
e7
5f
f1
45
e0
31
11
f4
dd
c9
be
ad
2e
fb
e9
ff
26
15
37
e4
b2
43
b4
42
de
3f
da
24
f0
a8
d1
02
c3
29
0e
61
cf
d3
0b
3a
ce
ec
ee
cf
e9
23
12
02
19
c3
18
4d
11
2a
f7
f0
14
af
d8
10
2d
15
da
b5
54
ef
3a
03
37
f3
08
e8
09
38
0d
83
3a
41
d6
3a
08
67
26
e6
18
f6
fd
a7
de
03
d9
3a
1c
e2
d6
3d
cf
54
d1
0e
a2
d1
e6
d0
38
f2
ca
d5
35
0c
27
63
c8
0f
fe
3b
56
ee
ff
b7
f8
e0
16
1e
4d
29
d5
05
e8
60
f1
44
de
31
11
f4
dd
c9
bf
ac
2d
fb
eb
ff
26
13
37
e3
b2
44
b6
42
de
3f
da
23
f2
a8
d2
03
c3
29
0e
60
cf
d4
0c
3a
ce
ec
ee
cf
e8
23
13
02
1a
c4
19
4d
0f
2a
f5
f0
14
ae
d9
11
2d
14
db
b6
55
ef
38
03
37
f5
08
e9
09
38
0d
84
38
41
d6
3a
09
69
25
e6
16
f6
fc
a6
dd
02
d9
38
1b
e3
d6
3e
ce
53
d1
0d
a3
d4
e6
d0
37
f3
ca
d5
35
0d
28
65
c9
0f
fe
3b
55
ef
ff
b9
fa
e0
17
1f
4c
28
d6
05
e7
5f
ef
45
de
32
0f
f4
dc
c9
bf
ac
2e
fc
ea
00
26
15
37
e4
b3
44
b6
42
dd
3f
d9
20
f3
a7
d2
03
c3
2b
0f
62
d0
d3
0a
3a
cd
ec
ee
cf
e9
21
11
02
1a
c4
19
4f
11
29
f7
ef
16
b0
d9
10
2e
17
da
b5
56
ef
39
02
37
f5
08
e9
0a
37
0d
85
3a
40
d4
38
08
67
26
e7
18
f5
fb
a7
dc
03
d9
38
1c
e3
d7
3f
cf
55
d1
0e
a3
d3
e6
d3
38
f3
ca
d9
35
0d
28
62
ca
0f
fe
3b
56
ef
00
b6
fa
e1
16
1f
4c
29
d4
05
e7
5f
f0
44
df
31
0f
f5
dd
c9
be
ac
2f
fc
ea
ff
27
14
38
e5
b2
44
b7
41
dd
40
d9
23
f2
a8
d2
03
c4
2a
0d
61
cf
d4
0b
39
ce
ec
ee
ce
e7
22
14
01
1a
c3
19
4f
11
29
f6
f0
17
b0
da
10
2e
15
da
b7
56
f0
3b
03
36
f5
07
e8
0b
3a
0c
84
3a
42
d6
39
0a
67
25
e5
16
f5
fc
a7
dd
01
d8
38
1b
e2
d6
3f
cd
52
d0
0e
a2
d2
e6
d0
37
f2
ca
d6
35
0c
27
64
ca
0e
fd
3b
55
ec
fe
b7
fa
df
17
1d
4c
29
d2
04
e7
60
ef
44
df
2f
10
f4
dc
c9
bd
ac
2d
fb
ea
ff
25
15
36
e4
b3
43
b5
40
dc
3e
d8
22
f2
a6
d1
02
c2
29
0d
62
ce
d2
0a
3a
cc
ec
ee
cf
e8
21
12
01
1a
c3
1a
4d
10
27
f7
ef
15
b0
d8
0f
2d
15
d9
b4
55
ee
3a
01
36
f4
06
e8
08
36
0c
83
39
41
d5
37
08
68
24
e6
16
f5
fc
a7
dd
02
d9
39
1c
e3
d7
3e
cf
54
d0
0e
a3
d3
e6
d1
38
f1
cb
d6
36
0c
28
64
c9
0e
00
3b
56
ee
ff
b7
fb
e0
16
20
4d
29
d4
05
e6
61
f0
46
e0
30
0f
f4
dd
c9
be
ad
2f
fb
ea
01
27
14
36
e4
b1
43
b6
40
dd
3f
da
21
f1
a8
d2
03
c4
2a
0e
61
cf
d3
0b
3a
cf
ed
ee
d0
e6
23
11
02
1a
c6
19
4e
11
2a
f6
f0
17
b0
d8
10
2e
16
d9
b6
55
ef
39
03
35
f5
07
e9
0b
38
0d
83
39
41
d6
39
0a
67
26
e7
17
f5
fc
a9
dd
02
d6
3a
1b
e2
d7
3e
cf
55
d1
0e
a3
d3
e6
d2
38
f1
cb
d6
35
0c
27
65
c9
0e
fe
3a
57
ee
ff
b8
fa
e0
17
1f
4d
29
d3
05
e8
60
ef
44
e0
31
12
f4
dd
c9
be
ad
2e
fd
eb
01
26
14
37
e5
b3
43
b6
41
dd
40
d9
23
f2
a8
d1
03
c4
2a
0d
63
cf
d3
0b
3a
cd
ed
ef
cf
ea
22
13
01
1b
c5
19
4f
11
2a
f7
ef
16
af
da
11
2d
17
da
b7
54
f0
39
03
38
f6
08
e8
0a
39
0d
82
3a
40
d7
38
09
66
26
e7
17
f6
fc
a6
de
02
d8
39
1e
e3
d8
3e
ce
53
d1
0e
a2
d5
e5
d1
38
f2
cb
d6
36
0c
28
65
c9
0e
fe
3b
55
ee
00
b7
fa
e1
17
1f
4d
29
d4
05
e7
60
f0
45
df
32
12
f5
dd
c9
bf
ae
2f
fc
eb
01
27
14
37
e4
b2
44
b6
41
dd
3f
d9
22
f2
a8
d1
03
c3
2a
0d
61
cf
d3
0c
3b
cf
ed
ee
d0
e9
22
14
03
19
c4
19
50
10
2b
f6
f1
16
b1
d9
11
2e
16
db
b6
55
ef
3a
01
35
f6
08
e9
0a
38
0d
85
39
41
d7
3a
0a
67
26
e6
18
f5
fc
a7
de
01
d7
38
1b
e3
d6
3e
cd
54
d1
0e
a3
d4
e6
d1
36
f2
c9
d6
35
0c
26
66
c9
0f
fd
3b
54
ed
ff
b7
f9
df
15
1f
4c
29
d4
06
e7
5f
ee
45
e0
2f
11
f4
dc
c9
be
ab
2f
fd
e8
01
25
15
37
e4
b2
42
b8
42
dc
3f
da
22
f3
a8
d0
02
c3
2a
0d
63
cf
d3
0b
3b
cc
ec
ee
d0
e9
21
14
01
1a
c3
1a
4f
10
2a
f8
ef
16
af
d9
11
2e
15
db
b6
55
f0
39
02
37
f4
06
e8
09
39
0d
83
3a
42
d6
38
09
68
26
e7
18
f6
fe
a7
de
03
da
3a
1c
e4
d7
3f
cd
55
d1
10
a2
d3
e6
d0
38
f3
cb
d8
36
0c
27
63
c7
0f
ff
3d
57
ec
00
b8
fa
e0
15
1e
4e
29
d3
06
e9
60
ef
45
e0
30
10
f5
dd
c9
bf
ad
2f
fb
eb
00
26
14
36
e4
b4
43
b6
42
de
40
da
23
f1
a8
d1
03
c4
2a
0d
62
cf
d5
0c
3b
cf
ed
ee
d0
e8
22
14
02
1a
c4
1b
4f
0f
2b
f5
f1
16
b0
d8
11
2e
16
d9
b6
55
f0
3a
01
37
f5
08
e9
08
38
0d
82
3a
42
d6
39
09
6a
26
e6
17
f7
fb
a8
dd
02
d9
38
1c
e4
d8
40
ce
54
d1
0e
a3
d3
e5
d1
39
f3
cb
d8
35
0c
27
64
c9
0f
fe
3a
58
ee
ff
b6
f9
de
15
1f
4e
2a
d4
04
e7
60
f0
45
df
31
10
f5
dd
c9
be
ac
2e
fb
e9
00
25
14
36
e5
b2
44
b5
41
dd
3e
d8
23
f2
a8
d2
03
c3
2a
0b
62
d0
d4
0d
3a
ce
ec
ee
d0
e9
22
14
01
1a
c3
1b
4e
11
2a
f5
ef
17
b0
d8
10
2e
16
d9
b6
55
ef
3b
02
37
f5
07
ea
09
38
0d
83
3b
41
d6
38
09
67
27
e6
17
f6
fc
a6
de
03
d8
3a
1b
e3
d7
3e
cf
55
d1
0e
a3
d4
e5
d1
39
f3
cb
d6
36
0d
28
65
c9
0e
fe
3c
56
ed
00
b8
fa
e0
16
1e
4d
29
d4
05
e7
5f
f0
45
e0
30
12
f5
dd
c7
be
af
2e
fc
eb
01
27
15
37
e4
b3
44
b6
41
dd
40
da
22
f0
a8
d2
03
c4
2a
0e
62
cf
d4
0b
3a
cd
ed
ee
cf
ea
21
14
00
1a
c3
19
4e
12
2a
f6
f0
15
b0
d9
11
2e
17
db
b6
56
f0
39
02
37
f4
08
ea
0a
39
0e
82
39
41
d6
38
09
66
26
e7
17
f4
fc
a6
de
01
d8
38
1c
e3
d7
3f
cf
53
d2
0e
a3
d3
e5
d1
38
f2
ca
d6
36
0d
27
64
c9
0e
fc
3b
57
ed
ff
b7
f9
e0
17
1f
4d
29
d3
04
e6
61
f0
45
df
30
12
f6
dc
c9
be
ae
2f
fc
e9
00
27
14
37
e5
b3
42
b6
40
df
40
d8
24
f0
a8
d1
02
c5
2a
0d
61
d0
d3
0a
3b
ce
ec
ee
d0
e9
21
13
01
1a
c3
19
4e
0e
29
f8
ef
14
af
d9
10
2e
17
da
b7
54
ef
3a
03
36
f3
07
e8
08
38
0d
81
38
41
d6
3a
09
66
25
e6
17
f6
fb
a6
dd
02
d8
38
1c
e3
d7
3e
ce
55
d2
0e
a4
d3
e6
d0
37
f1
ca
d7
35
0c
28
63
c9
0e
fe
3b
57
ed
00
b8
fa
e0
15
20
4d
29
d3
05
e7
61
ee
45
df
30
11
f5
dd
c9
bf
ae
2e
fb
ea
00
25
15
38
e5
b3
43
b7
41
dc
3f
d9
23
f2
a6
d0
03
c3
2c
0c
64
ce
d3
0b
3b
ce
ee
ef
d0
e7
20
13
03
1b
c5
1a
4f
0f
2b
f7
f1
16
af
d8
11
2e
16
d9
b6
53
f1
39
02
36
f5
07
e9
09
38
0c
83
3a
41
d7
39
08
67
25
e5
17
f7
fd
a8
de
04
da
39
1c
e4
d7
3e
ce
54
d1
0f
a3
d4
e6
d1
38
f2
ca
d7
35
0b
28
64
cb
0e
ff
3a
57
ee
00
b7
fa
df
17
1f
4d
2a
d3
07
e7
61
ee
44
df
31
10
f4
dc
c8
bd
ad
2d
fc
ea
00
28
15
38
e4
b3
44
b6
41
de
40
d9
22
f0
a7
d2
03
c4
2a
0e
63
cf
d3
0c
3a
ce
ee
ee
d0
e9
23
13
03
1b
c4
1c
4e
12
2a
f7
f1
15
b1
da
11
2f
16
da
b6
55
f1
3b
03
36
f5
07
ea
09
3a
0e
84
3a
41
d6
38
08
68
27
e5
17
f6
fc
a7
dd
03
d8
39
1c
e3
d7
3f
cf
57
d3
0f
a2
d3
e5
d0
37
f2
ca
d6
36
0c
27
63
cb
0e
fe
3c
56
ee
ff
b7
f9
e0
18
1f
4d
2a
d4
07
e7
60
f1
43
df
32
10
f4
dd
ca
bf
ad
2e
fc
e9
00
27
15
37
e5
b4
44
b7
40
de
40
d8
24
f2
a8
d3
03
c2
2a
0c
62
d0
d3
0b
3a
cf
ec
ee
cf
e9
22
13
01
1a
c5
1b
4e
0f
2a
f9
ef
15
af
d8
11
2d
15
db
b7
56
ef
3b
02
37
f6
07
e8
09
38
0d
82
3a
42
d5
38
09
66
26
e6
18
f4
fc
a8
de
02
d8
38
1b
e4
d6
3f
ce
53
d1
0e
a2
d4
e5
d1
39
f2
ca
d7
34
0d
27
65
c9
0f
fe
3a
56
ef
01
b7
f9
df
16
20
4d
2a
d4
05
e8
5f
f0
45
e1
31
11
f4
dc
c9
be
ac
2e
fd
ea
01
26
15
38
e4
b2
42
b5
43
dc
40
d9
22
f1
a8
d1
02
c5
2b
0e
61
ce
d3
0a
3b
ce
ed
ee
d0
e8
22
13
02
1a
c3
19
4e
11
2a
f7
ef
16
b0
d9
0f
2d
17
da
b5
55
f0
38
03
37
f3
08
e9
0a
39
0d
84
39
42
d6
3a
08
66
25
e6
17
f5
fd
a8
dd
02
d9
39
1b
e2
d7
3e
cd
54
d1
0e
a2
d4
e6
d2
39
f2
c9
d6
35
0d
27
64
c9
0f
fe
3b
55
ee
00
b9
f9
df
17
1f
4d
29
d3
06
e6
61
ee
45
df
30
11
f4
dc
c9
be
ad
2c
fc
e9
01
26
14
38
e4
b3
43
b5
42
dd
3f
da
22
f1
a7
d2
03
c4
2b
0e
63
ce
d3
0a
3b
ce
ee
ef
cf
e9
22
13
03
1a
c4
1b
4f
10
2a
f7
ef
16
b1
d9
12
2d
15
da
b7
56
f0
3a
03
37
f6
07
e9
09
39
0d
83
39
41
d6
3a
09
68
25
e7
17
f5
fc
a7
dd
01
d9
38
1c
e3
d7
3f
cf
54
d1
0e
a2
d3
e6
d0
38
f2
cb
d7
36
0c
28
63
c9
0f
fd
3b
56
ed
ff
b7
f9
e0
14
1f
4d
29
d4
05
e8
60
ef
46
df
2f
10
f5
dc
c8
be
ad
2f
fa
ea
00
25
15
36
e4
b4
44
b7
3f
dd
3f
d9
24
f1
a9
d3
02
c5
29
0d
63
cf
d3
0b
3b
cd
ec
ee
cf
e8
20
12
01
1a
c4
19
4f
10
29
f7
f0
14
ae
da
10
2e
16
da
b6
55
ef
39
02
36
f4
07
e8
09
3a
0e
81
39
41
d6
38
0a
67
25
e5
17
f6
fc
a7
de
03
d9
39
1d
e3
d7
3d
ce
53
d2
0f
a3
d5
e6
d0
39
f2
ca
d5
35
0c
28
64
c8
0f
fe
3a
56
ee
ff
b8
f8
e0
17
1f
4e
2b
d5
05
e6
5f
ef
45
df
30
11
f4
dd
c9
be
ae
2e
fd
ea
02
27
14
37
e5
b2
44
b7
41
dd
40
d9
22
f1
a8
d0
03
c3
2b
0d
62
d0
d3
0b
3b
ce
ed
ee
d0
e8
21
13
02
19
c4
1b
4e
12
2b
f7
f0
16
b0
d8
11
2e
16
da
b7
55
ef
39
02
36
f5
07
e9
0a
39
0e
83
39
41
d6
38
0a
66
26
e6
19
f5
fc
a8
dd
03
d8
39
1c
e3
d7
3f
ce
52
d1
0d
a2
d4
e5
d1
37
f2
cb
d5
35
0c
28
65
c8
0f
fd
3b
55
ee
ff
b6
fa
e0
16
1f
4d
29
d4
05
e7
61
ef
44
df
30
10
f4
dc
ca
bf
ac
2d
fd
e9
02
26
14
38
e4
b1
44
b6
42
dc
3f
d9
22
f2
a8
d1
03
c3
2b
0d
62
cf
d2
0b
3a
ce
ec
ee
d0
e7
22
13
01
19
c4
19
4e
12
2a
f6
f0
15
af
d9
10
2d
15
d9
b4
55
ee
38
02
37
f5
07
e9
09
38
0e
84
39
42
d6
38
09
67
26
e6
16
f4
fd
a6
de
02
d7
37
1d
e4
d7
3d
ce
53
d0
0e
a3
d5
e5
d1
38
f1
cb
d7
35
0c
27
64
c9
0f
ff
3b
55
ef
ff
b7
fa
e1
15
1f
4d
2b
d4
05
e8
5e
ed
45
df
31
10
f6
dd
c9
bf
ad
2f
fc
ea
01
28
14
38
e3
b1
44
b6
41
de
40
d9
21
f3
a8
cf
02
c6
2a
0d
62
cf
d3
0c
3b
cd
ec
ee
cf
e9
21
13
03
1a
c3
1b
4f
11
29
f8
f1
15
b0
d9
10
2d
15
da
b5
55
f0
3a
02
36
f5
07
ea
0a
38
0e
84
3a
40
d7
39
09
66
26
e6
18
f5
fc
a8
de
03
d8
38
1c
e4
d6
3f
ce
54
d1
0e
a4
d4
e5
d1
38
f1
cb
d7
35
0d
27
63
c9
0e
fe
3c
55
ec
ff
b7
f9
e1
15
1e
4c
2a
d2
05
e8
5f
ef
44
df
30
0f
f5
dd
ca
c0
ad
2f
fc
e9
01
26
15
38
e3
b4
42
b7
43
dd
40
db
22
f2
a7
d1
02
c4
2a
0e
62
cf
d4
0b
3a
cf
ec
ee
d1
e9
1f
14
02
1b
c5
1a
4f
10
2b
f7
f1
15
b0
d8
11
2d
14
da
b5
55
f0
3a
03
37
f4
07
e7
09
38
0d
82
39
42
d5
39
09
69
24
e5
16
f7
fd
a7
dd
02
d9
38
1d
e4
d7
3d
cf
52
cf
0e
a3
d5
e4
d1
38
f0
cb
d6
36
0a
26
64
ca
0e
fe
3c
55
ee
ff
b6
f9
df
16
20
4d
2a
d3
04
e7
60
ee
45
e0
30
12
f5
de
ca
be
ad
2e
fc
ea
00
27
13
36
e4
b2
45
b4
41
dc
3f
d8
21
f1
a8
d1
03
c2
29
0d
63
cf
d4
0c
3a
cf
ed
ee
cf
e8
22
13
04
1a
c5
1c
4e
11
2a
f8
f0
15
b1
d8
11
2e
16
d9
b5
54
ef
39
02
35
f5
08
ea
0a
36
0d
85
3a
41
d7
38
09
68
25
e6
18
f5
fc
a7
de
03
d9
39
1d
e3
d7
3e
cf
54
d3
0d
a2
d4
e6
d1
38
f2
cb
d7
37
0c
28
64
ca
0e
fe
3b
56
ed
ff
b6
f9
e0
15
1f
4d
29
d4
06
e6
60
ef
44
df
2f
11
f5
dd
c8
bf
ad
2e
fc
e8
01
26
15
38
e3
b1
43
b6
42
dc
3f
d9
22
f2
a8
d3
02
c3
29
0c
61
cf
d3
0c
39
ce
ed
ee
d1
e8
22
15
01
1a
c4
1a
4f
10
2a
f7
f1
15
b0
d7
11
2e
16
db
b5
55
ef
38
03
36
f4
08
e9
09
38
0e
83
3a
41
d6
39
09
66
26
e5
18
f8
fd
a7
dc
03
d8
38
1d
e3
d7
3d
ce
54
d0
10
a2
d4
e5
d0
38
f1
c9
d6
36
0c
28
63
c9
0e
00
3b
57
ed
00
b7
f8
e1
16
1e
4d
28
d3
05
e6
61
f1
43
de
30
10
f4
dd
ca
bf
ad
2e
fd
ea
ff
27
15
38
e3
b2
44
b4
42
dd
3f
da
20
f3
a9
d1
03
c3
29
0d
62
cd
d3
0b
3b
ce
ee
ee
cf
e8
21
13
03
19
c2
1b
4e
0f
28
f8
f1
15
af
da
10
2f
14
db
b4
55
ee
3a
03
36
f5
07
e9
09
38
0e
83
3a
42
d7
39
08
67
26
e6
17
f6
fc
a6
de
01
d7
3a
1c
e2
d7
3e
ce
54
d0
0e
a2
d2
e5
d2
38
f2
ca
d7
36
0c
28
65
c9
0f
fe
3b
57
ed
ff
b7
f9
e1
16
1f
4d
29
d5
06
e7
61
f0
45
dd
31
11
f5
db
c7
bf
ad
2f
fc
ea
ff
27
14
38
e5
b1
46
b8
41
dd
3f
d9
22
f1
a8
d2
02
c4
2b
0d
60
cf
d2
0b
39
cd
ec
ee
d0
e9
21
13
02
1b
c3
18
4e
10
2a
f7
f0
14
ae
d8
10
2d
16
db
b5
55
ee
3a
03
36
f5
07
eb
09
38
0f
85
3a
40
d7
39
08
67
25
e5
18
f6
fc
a7
dd
01
d7
38
1b
e1
d5
3e
ce
54
d1
0d
a4
d4
e5
d2
38
f3
c9
d5
34
0c
28
64
c8
0e
fe
3a
55
ee
fe
b8
f8
e1
16
1f
4d
27
d4
05
e6
5e
ee
45
df
31
11
f3
dd
c9
bf
ac
2f
fc
ea
01
25
15
38
e4
b3
43
b6
41
dc
3e
d9
21
f2
a7
d2
02
c3
2a
0d
60
ce
d2
09
3c
cd
ec
ee
cf
e8
21
12
00
1a
c2
19
4e
0f
29
f8
f0
15
af
d9
10
2e
16
db
b6
53
ef
39
02
38
f4
07
e9
0a
36
0c
83
3a
42
d6
38
07
66
25
e7
18
f4
fd
a7
dd
00
d8
39
1c
e3
d7
3e
cf
54
d0
0e
a1
d3
e4
d0
38
f2
cb
d6
35
0c
26
66
c8
0e
fe
3c
56
ee
ff
b6
f9
e0
16
1f
4d
2a
d3
05
e6
5f
ef
45
df
30
10
f4
dc
c8
be
ac
2e
fb
e9
00
27
15
37
e3
b2
41
b5
42
dc
3f
d9
22
f0
a6
d1
02
c4
2b
0e
62
ce
d3
0b
3a
cf
ed
ee
d0
e9
21
12
01
1a
c2
19
4f
10
2a
f8
f0
15
b1
d8
11
2d
15
d9
b5
53
f0
39
01
37
f4
07
e9
0a
38
0c
84
39
41
d6
39
08
6a
26
e6
18
f6
fd
a8
df
03
da
3a
1c
e4
d7
3f
d0
55
d1
0d
a2
d3
e6
d2
38
f2
cb
d7
36
0d
28
65
c8
0f
ff
3c
57
ed
00
b6
fa
e0
15
1f
4d
2a
d4
06
e7
5f
ef
45
e0
2f
11
f6
de
c9
bf
ad
30
fd
ea
01
28
16
37
e5
b3
44
b6
42
de
40
d9
23
f2
a9
d2
02
c4
29
0d
62
d0
d4
0c
3a
cf
ec
ee
d1
e8
22
13
03
1a
c3
19
4f
11
2a
f7
f0
16
af
da
10
2f
16
db
b7
55
ef
39
02
37
f4
08
e9
0a
38
0e
82
39
43
d6
3a
0b
67
26
e6
18
f6
fd
a7
de
03
d8
39
1c
e4
d7
3f
cf
54
d1
0f
a3
d4
e4
d1
37
f3
cb
d8
36
0b
27
65
c9
10
fd
3b
55
ef
03
b7
f9
df
15
1f
4d
29
d4
06
e7
5f
f0
45
e1
31
12
f4
dc
c9
be
ad
2e
fd
e9
01
27
16
37
e4
b3
43
b6
43
db
40
da
22
f0
a7
d2
03
c2
2a
0d
62
d2
d4
0b
3a
ce
ec
ee
d0
ea
21
13
01
19
c3
18
4f
11
2a
f8
f0
15
b0
d9
10
2e
16
d8
b4
55
f0
3b
02
38
f3
07
e9
09
38
0e
84
3a
41
d6
38
09
66
25
e6
18
f6
fc
a6
de
02
d9
39
1d
e4
d7
3f
ce
54
d1
0e
a3
d2
e5
d2
38
f2
c9
d5
36
0c
28
64
c8
0e
fe
3b
57
ed
00
b7
f8
df
15
20
4e
29
d3
04
e7
60
f0
45
df
31
10
f3
dd
c9
be
ac
2e
fc
e9
01
27
14
37
e4
b1
44
b5
42
dd
3f
db
21
f2
a8
d2
03
c4
2a
0e
62
d0
d4
0b
3b
cd
ee
ee
d0
e8
21
13
04
1a
c3
19
4f
11
2a
f8
ef
17
af
da
0f
2d
16
d8
b6
56
ee
38
02
36
f5
07
e9
0b
38
0e
83
3a
41
d6
3a
09
68
26
e6
17
f5
fd
a6
dd
02
d7
39
1c
e2
d6
3e
cf
53
d0
0e
a2
d3
e5
d1
37
f1
cb
d6
37
0c
28
65
c8
0e
fd
3b
57
ee
ff
b7
fa
e2
15
1f
4d
2a
d4
05
e7
61
ee
45
e0
30
12
f5
db
c8
be
ae
2f
fc
eb
00
26
13
37
e4
b2
42
b6
42
dd
41
d9
22
f2
a9
d2
03
c4
2b
0c
63
ce
d3
0a
39
cf
ed
ee
ce
e8
20
12
03
19
c3
19
4f
11
28
f7
f0
14
af
d9
10
2e
16
da
b5
52
ee
3a
03
36
f5
07
e8
09
39
0e
84
39
41
d7
38
09
67
25
e6
18
f5
fc
a6
de
02
d9
38
1c
e3
d7
3f
cf
54
d1
0d
a4
d5
e5
d1
37
f2
cb
d7
35
0c
28
64
c9
0f
fe
3c
56
ee
ff
b7
f8
e2
14
1e
4d
2a
d3
06
e7
5f
ef
45
df
31
10
f6
dd
c9
bf
ad
2d
fb
ea
00
29
14
37
e2
b2
43
b7
42
dc
40
da
22
f3
a7
d1
03
c5
2a
0d
62
cf
d3
0c
3b
ce
ec
ed
d0
e9
20
13
01
1a
c4
1a
4f
10
2a
f7
ef
15
b0
d8
12
2e
16
db
b6
55
f1
3b
02
35
f5
08
e9
09
39
0c
83
39
42
d6
38
09
67
25
e5
17
f5
fc
a8
dd
02
d9
39
1d
e3
d6
3f
cf
53
d1
0f
a2
d3
e4
d0
38
f1
ca
d6
34
0c
29
63
c9
0f
ff
3b
57
ec
ff
b8
f8
df
17
1f
4d
2a
d3
04
e5
61
f1
45
de
31
11
f4
dd
c9
be
ad
2d
fc
e9
01
27
15
37
e4
b1
42
b4
40
dd
3f
d9
22
f1
a8
d1
03
c4
2a
0d
62
ce
d2
0b
3b
cd
ec
ee
d0
e7
21
11
01
1a
c4
1a
4e
11
2a
f6
ef
16
af
d8
11
2d
15
da
b5
55
ee
39
03
36
f4
08
e9
09
38
0c
82
39
42
d6
3a
09
65
25
e5
17
f4
fd
a8
df
02
d8
39
1c
e3
d6
3e
ce
55
d1
0c
a3
d2
e5
d1
38
f3
cb
d5
35
0d
28
66
c8
10
fd
3a
56
ee
00
b8
f9
df
17
1e
4c
29
d4
04
e9
5f
ee
45
df
30
12
f3
dc
c8
bf
ae
2f
fe
ea
00
25
15
38
e3
b2
43
b6
42
dc
40
d9
22
f1
a7
d0
02
c3
2a
0e
61
d0
d3
09
3a
cd
ee
ee
cf
e8
20
14
01
1a
c3
19
4f
12
2b
f6
f2
15
b0
da
11
2d
15
da
b5
54
ef
38
03
37
f5
08
e9
0a
37
0d
84
39
42
d5
39
09
